
// if having troubles with min/max, uncomment the following
// #undef min    
// #undef max
#ifdef __has_attribute
#define HAVE_ATTRIBUTE(x) __has_attribute(x)
#else
#define HAVE_ATTRIBUTE(x) 0
#endif
#if HAVE_ATTRIBUTE(aligned) || (defined(__GNUC__) && !defined(__clang__))
#define DATA_ALIGN_ATTRIBUTE __attribute__((aligned(4)))
#else
#define DATA_ALIGN_ATTRIBUTE
#endif
const unsigned char enc1_32_seq10[] DATA_ALIGN_ATTRIBUTE = {
	0x1c, 0x00, 0x00, 0x00, 0x54, 0x46, 0x4c, 0x33, 0x00, 0x00, 0x12, 0x00, 
	0x1c, 0x00, 0x04, 0x00, 0x08, 0x00, 0x0c, 0x00, 0x10, 0x00, 0x14, 0x00, 
	0x00, 0x00, 0x18, 0x00, 0x12, 0x00, 0x00, 0x00, 0x03, 0x00, 0x00, 0x00, 
	0x14, 0x00, 0x00, 0x00, 0x18, 0x00, 0x00, 0x00, 0x94, 0x00, 0x00, 0x00, 
	0x18, 0x00, 0x00, 0x00, 0x3c, 0x00, 0x00, 0x00, 0x01, 0x00, 0x00, 0x00, 
	0xd4, 0x01, 0x00, 0x00, 0x01, 0x00, 0x00, 0x00, 0xa0, 0x00, 0x00, 0x00, 
	0x09, 0x00, 0x00, 0x00, 0xfc, 0x18, 0x00, 0x00, 0xf8, 0x18, 0x00, 0x00, 
	0x14, 0x18, 0x00, 0x00, 0x30, 0x17, 0x00, 0x00, 0x60, 0x0a, 0x00, 0x00, 
	0x10, 0x02, 0x00, 0x00, 0xe4, 0x18, 0x00, 0x00, 0xe0, 0x18, 0x00, 0x00, 
	0x38, 0x00, 0x00, 0x00, 0x01, 0x00, 0x00, 0x00, 0x0c, 0x00, 0x00, 0x00, 
	0x08, 0x00, 0x0c, 0x00, 0x04, 0x00, 0x08, 0x00, 0x08, 0x00, 0x00, 0x00, 
	0x08, 0x00, 0x00, 0x00, 0x08, 0x00, 0x00, 0x00, 0x13, 0x00, 0x00, 0x00, 
	0x6d, 0x69, 0x6e, 0x5f, 0x72, 0x75, 0x6e, 0x74, 0x69, 0x6d, 0x65, 0x5f, 
	0x76, 0x65, 0x72, 0x73, 0x69, 0x6f, 0x6e, 0x00, 0x42, 0xe8, 0xff, 0xff, 
	0x04, 0x00, 0x00, 0x00, 0x10, 0x00, 0x00, 0x00, 0x31, 0x2e, 0x35, 0x2e, 
	0x30, 0x00, 0x00, 0x00, 0x00, 0x00, 0x00, 0x00, 0x00, 0x00, 0x00, 0x00, 
	0x0f, 0x00, 0x00, 0x00, 0x4d, 0x4c, 0x49, 0x52, 0x20, 0x43, 0x6f, 0x6e, 
	0x76, 0x65, 0x72, 0x74, 0x65, 0x64, 0x2e, 0x00, 0x00, 0x00, 0x0e, 0x00, 
	0x18, 0x00, 0x04, 0x00, 0x08, 0x00, 0x0c, 0x00, 0x10, 0x00, 0x14, 0x00, 
	0x0e, 0x00, 0x00, 0x00, 0x14, 0x00, 0x00, 0x00, 0x30, 0x00, 0x00, 0x00, 
	0x34, 0x00, 0x00, 0x00, 0x38, 0x00, 0x00, 0x00, 0x40, 0x00, 0x00, 0x00, 
	0x07, 0x00, 0x00, 0x00, 0x14, 0x18, 0x00, 0x00, 0xb0, 0x17, 0x00, 0x00, 
	0x0c, 0x17, 0x00, 0x00, 0x3c, 0x16, 0x00, 0x00, 0x6c, 0x09, 0x00, 0x00, 
	0x08, 0x01, 0x00, 0x00, 0x6c, 0x00, 0x00, 0x00, 0x01, 0x00, 0x00, 0x00, 
	0x00, 0x00, 0x00, 0x00, 0x01, 0x00, 0x00, 0x00, 0x06, 0x00, 0x00, 0x00, 
	0x02, 0x00, 0x00, 0x00, 0x98, 0x00, 0x00, 0x00, 0x1c, 0x00, 0x00, 0x00, 
	0x04, 0x00, 0x00, 0x00, 0x6d, 0x61, 0x69, 0x6e, 0x00, 0x00, 0x0e, 0x00, 
	0x14, 0x00, 0x00, 0x00, 0x08, 0x00, 0x0c, 0x00, 0x07, 0x00, 0x10, 0x00, 
	0x0e, 0x00, 0x00, 0x00, 0x00, 0x00, 0x00, 0x08, 0x1c, 0x00, 0x00, 0x00, 
	0x10, 0x00, 0x00, 0x00, 0x04, 0x00, 0x00, 0x00, 0x86, 0xff, 0xff, 0xff, 
	0x00, 0x00, 0x00, 0x01, 0x01, 0x00, 0x00, 0x00, 0x06, 0x00, 0x00, 0x00, 
	0x03, 0x00, 0x00, 0x00, 0x05, 0x00, 0x00, 0x00, 0x04, 0x00, 0x00, 0x00, 
	0x02, 0x00, 0x00, 0x00, 0x7e, 0xe8, 0xff, 0xff, 0x10, 0x00, 0x00, 0x00, 
	0x07, 0x00, 0x00, 0x00, 0x14, 0x00, 0x00, 0x00, 0x20, 0x00, 0x00, 0x00, 
	0x02, 0x00, 0x00, 0x00, 0x01, 0x00, 0x00, 0x00, 0x20, 0x00, 0x00, 0x00, 
	0x08, 0x00, 0x00, 0x00, 0x49, 0x64, 0x65, 0x6e, 0x74, 0x69, 0x74, 0x79, 
	0x00, 0x00, 0x00, 0x00, 0xb8, 0xe8, 0xff, 0xff, 0x00, 0x00, 0x0e, 0x00, 
	0x16, 0x00, 0x00, 0x00, 0x08, 0x00, 0x0c, 0x00, 0x07, 0x00, 0x10, 0x00, 
	0x0e, 0x00, 0x00, 0x00, 0x00, 0x00, 0x00, 0x08, 0x24, 0x00, 0x00, 0x00, 
	0x18, 0x00, 0x00, 0x00, 0x0c, 0x00, 0x00, 0x00, 0x00, 0x00, 0x06, 0x00, 
	0x08, 0x00, 0x07, 0x00, 0x06, 0x00, 0x00, 0x00, 0x00, 0x00, 0x00, 0x01, 
	0x01, 0x00, 0x00, 0x00, 0x05, 0x00, 0x00, 0x00, 0x03, 0x00, 0x00, 0x00, 
	0x00, 0x00, 0x00, 0x00, 0x03, 0x00, 0x00, 0x00, 0x01, 0x00, 0x00, 0x00, 
	0x00, 0x00, 0x0a, 0x00, 0x0c, 0x00, 0x07, 0x00, 0x00, 0x00, 0x08, 0x00, 
	0x0a, 0x00, 0x00, 0x00, 0x00, 0x00, 0x00, 0x09, 0x01, 0x00, 0x00, 0x00, 
	0x16, 0xe9, 0xff, 0xff, 0x10, 0x00, 0x00, 0x00, 0x06, 0x00, 0x00, 0x00, 
	0x14, 0x00, 0x00, 0x00, 0x40, 0x00, 0x00, 0x00, 0x02, 0x00, 0x00, 0x00, 
	0x01, 0x00, 0x00, 0x00, 0x10, 0x00, 0x00, 0x00, 0x28, 0x00, 0x00, 0x00, 
	0x6d, 0x6f, 0x64, 0x65, 0x6c, 0x5f, 0x31, 0x2f, 0x64, 0x65, 0x6e, 0x73, 
	0x65, 0x2f, 0x52, 0x65, 0x6c, 0x75, 0x3b, 0x6d, 0x6f, 0x64, 0x65, 0x6c, 
	0x5f, 0x31, 0x2f, 0x64, 0x65, 0x6e, 0x73, 0x65, 0x2f, 0x42, 0x69, 0x61, 
	0x73, 0x41, 0x64, 0x64, 0x00, 0x00, 0x00, 0x00, 0x28, 0xe9, 0xff, 0xff, 
	0x0e, 0xea, 0xff, 0xff, 0x04, 0x00, 0x00, 0x00, 0x00, 0x08, 0x00, 0x00, 
	0x1e, 0x3b, 0x50, 0x3e, 0xb5, 0x23, 0xb5, 0x3d, 0x07, 0x0a, 0x42, 0x3c, 
	0xf9, 0x69, 0x6c, 0xbe, 0x3d, 0x56, 0x1e, 0x3d, 0x0e, 0xa0, 0xb4, 0x3e, 
	0x78, 0x92, 0x03, 0xbe, 0x62, 0xcc, 0xff, 0x3d, 0xfe, 0x5c, 0x37, 0x3f, 
	0xc7, 0xc1, 0xc6, 0x3e, 0x20, 0x1d, 0xe8, 0x3e, 0x99, 0x28, 0xfc, 0x3d, 
	0x82, 0xe9, 0x9a, 0xbe, 0x85, 0x7b, 0xf2, 0x3d, 0xce, 0x69, 0x36, 0x3f, 
	0x12, 0xa5, 0x03, 0xbd, 0xa5, 0xfb, 0xc5, 0x3d, 0x51, 0x21, 0x61, 0xbd, 
	0xcc, 0x29, 0xbe, 0x3c, 0x0e, 0xc7, 0x8c, 0x3e, 0x12, 0x81, 0x9d, 0x3e, 
	0x2c, 0xab, 0x8e, 0x3e, 0x35, 0xe8, 0xf9, 0x3e, 0x99, 0xc9, 0xd2, 0x3e, 
	0xbb, 0x9c, 0x16, 0x3f, 0x7d, 0xe8, 0x52, 0x3e, 0x51, 0x34, 0x29, 0xbe, 
	0x36, 0xe8, 0x61, 0x3d, 0x80, 0x41, 0x2f, 0xbe, 0x32, 0x9b, 0xce, 0x3e, 
	0x6e, 0xb6, 0x30, 0x3e, 0xe4, 0x71, 0x0f, 0x3e, 0x45, 0x16, 0x83, 0x3e, 
	0xd0, 0x58, 0xfb, 0x3e, 0xce, 0xdf, 0xae, 0x3d, 0xb5, 0xd7, 0x6e, 0xbe, 
	0x86, 0x3c, 0xa1, 0x3e, 0x58, 0x40, 0x7e, 0x3d, 0x14, 0x57, 0x24, 0xbd, 
	0xf7, 0x40, 0x85, 0x3e, 0x8c, 0xb9, 0x5f, 0x3f, 0xfe, 0x62, 0xa3, 0x3e, 
	0xde, 0x75, 0xc1, 0x3e, 0xdd, 0xc6, 0xc8, 0x3e, 0xb2, 0xa9, 0x83, 0x3c, 
	0x0c, 0xae, 0xe2, 0xbd, 0x81, 0x18, 0xcc, 0x3e, 0xd2, 0x72, 0x9a, 0xbe, 
	0x59, 0x7d, 0x1c, 0x3f, 0x9c, 0x61, 0x16, 0x3f, 0xea, 0x9a, 0x8a, 0x3d, 
	0x59, 0xeb, 0x42, 0x3d, 0x4d, 0x20, 0x32, 0x3d, 0x57, 0xab, 0x9b, 0x3e, 
	0x4a, 0xfc, 0x07, 0xbe, 0x9e, 0xf2, 0x87, 0x3e, 0xbf, 0xed, 0x71, 0x3f, 
	0x0b, 0xea, 0x22, 0x3e, 0x2c, 0x92, 0x6e, 0x3e, 0xd0, 0x82, 0x10, 0x3e, 
	0xcf, 0x04, 0x29, 0xbe, 0x44, 0x21, 0x5f, 0xbb, 0x0f, 0x03, 0xc2, 0x3e, 
	0x46, 0x80, 0x70, 0xbe, 0x6f, 0xef, 0x73, 0xbf, 0xf6, 0xf7, 0x49, 0xbf, 
	0xda, 0x8c, 0xa8, 0xbe, 0x48, 0x82, 0x04, 0xbe, 0xbc, 0x3e, 0x41, 0xbf, 
	0x77, 0x4e, 0x97, 0xbf, 0x90, 0xe0, 0x67, 0x3e, 0xcb, 0x82, 0x0c, 0xbf, 
	0x0c, 0x0f, 0x1d, 0xbe, 0x66, 0x7c, 0xbe, 0xbf, 0x4a, 0x57, 0x44, 0xbf, 
	0x03, 0xf9, 0x7e, 0xbf, 0xb8, 0xb5, 0x6b, 0xbe, 0x0a, 0xf5, 0xca, 0x3e, 
	0xcf, 0x18, 0x0b, 0xbf, 0xaa, 0x7d, 0x21, 0x3e, 0xb9, 0x47, 0x3c, 0xbf, 
	0x35, 0xc4, 0x33, 0xbf, 0x1a, 0x1f, 0xa8, 0xbe, 0x51, 0xcb, 0x2f, 0x3e, 
	0xcf, 0xcf, 0x15, 0xbf, 0xb9, 0x3a, 0x88, 0xbf, 0xb7, 0xd7, 0xd2, 0x3e, 
	0xbd, 0x6d, 0xc7, 0xbe, 0x03, 0x1b, 0xd8, 0xbd, 0x53, 0xb9, 0xa8, 0xbf, 
	0x4d, 0x53, 0xf3, 0xbe, 0x7e, 0x22, 0x69, 0xbf, 0x8e, 0x49, 0x86, 0xbe, 
	0x10, 0xd0, 0x5c, 0x3e, 0x58, 0x03, 0xe7, 0xbe, 0x3d, 0x70, 0x04, 0x3d, 
	0x40, 0x1b, 0x68, 0x3e, 0x4f, 0x97, 0x90, 0x3e, 0xf8, 0xbf, 0xf7, 0x3e, 
	0x9a, 0xb5, 0x81, 0x3e, 0xdc, 0x9b, 0x83, 0x3e, 0x68, 0x49, 0x06, 0x3e, 
	0x93, 0x13, 0xcf, 0xbd, 0x5e, 0xf3, 0x94, 0xbd, 0xf7, 0xe9, 0x86, 0x3e, 
	0x33, 0xf2, 0xcd, 0x3e, 0xee, 0x2a, 0xfd, 0xbd, 0x7a, 0x9d, 0x03, 0x3f, 
	0x26, 0xe4, 0x0d, 0x3e, 0x1b, 0x84, 0x50, 0xbf, 0x0c, 0x31, 0xba, 0x3e, 
	0xad, 0xfa, 0xb1, 0x3e, 0xe2, 0xbc, 0x1f, 0x3d, 0x37, 0xef, 0xab, 0xbc, 
	0x95, 0x5f, 0x58, 0x3e, 0x19, 0x89, 0xa2, 0xbd, 0xf1, 0x97, 0xd5, 0x3e, 
	0x36, 0xc9, 0x03, 0x3f, 0x59, 0x38, 0xd7, 0x3e, 0xb3, 0x9d, 0xcd, 0x3e, 
	0xc4, 0xff, 0x38, 0x3f, 0x3f, 0xe8, 0xfd, 0x3b, 0x67, 0xb8, 0x16, 0x3e, 
	0x6a, 0xa9, 0x71, 0x3c, 0xad, 0xef, 0xa4, 0xbd, 0xf7, 0x98, 0xaa, 0x3e, 
	0xdf, 0x49, 0xb9, 0x3e, 0xa8, 0x76, 0x99, 0x3e, 0x6c, 0x3e, 0x26, 0xbd, 
	0x26, 0xd3, 0xe7, 0x3d, 0xd7, 0x07, 0xd3, 0x3e, 0x8b, 0x07, 0x68, 0xbe, 
	0x03, 0xef, 0x3f, 0x3e, 0x9c, 0x40, 0xf5, 0x3e, 0x4f, 0x7c, 0xbb, 0x3e, 
	0x81, 0x89, 0x00, 0x3f, 0x99, 0xc2, 0x80, 0x3f, 0x84, 0xdc, 0xd8, 0x3e, 
	0x9e, 0xdc, 0x38, 0x3e, 0x10, 0xfa, 0x12, 0x3f, 0x96, 0x7f, 0x40, 0x3e, 
	0x5c, 0x43, 0x21, 0xbe, 0x82, 0x94, 0x45, 0x3e, 0xdd, 0x39, 0x35, 0xbe, 
	0xa7, 0xb7, 0xf6, 0x3e, 0x1a, 0xf5, 0xe1, 0x3e, 0xfc, 0x53, 0x01, 0xbd, 
	0x8e, 0x35, 0x35, 0xbe, 0x04, 0x41, 0xd7, 0xbc, 0x01, 0x28, 0x00, 0x3f, 
	0x17, 0x29, 0x94, 0x3d, 0xae, 0x34, 0x61, 0x3e, 0xe5, 0xd2, 0x46, 0x3f, 
	0x90, 0x0a, 0x09, 0x3f, 0x02, 0xe1, 0x36, 0x3e, 0x59, 0xd4, 0xca, 0xbc, 
	0x18, 0x78, 0x8d, 0x3e, 0xae, 0xf2, 0xd0, 0xbd, 0x63, 0x9e, 0x0e, 0x3f, 
	0xfc, 0xe9, 0x4d, 0x3e, 0x69, 0xd7, 0x9a, 0x3e, 0xba, 0x59, 0xad, 0x3c, 
	0x64, 0x66, 0x3a, 0x3e, 0xe9, 0x05, 0x30, 0x3e, 0x10, 0xfa, 0xaa, 0x3e, 
	0x12, 0x5f, 0x2b, 0x3d, 0x2d, 0x53, 0x2d, 0x3e, 0xce, 0x2d, 0xbd, 0x3e, 
	0x1e, 0x77, 0x23, 0x3f, 0xa9, 0xed, 0x81, 0x3e, 0xcd, 0x1a, 0x33, 0x3e, 
	0x37, 0xb8, 0x60, 0x3e, 0x48, 0x05, 0x82, 0xbe, 0xb2, 0xce, 0xfe, 0xbd, 
	0x55, 0xbc, 0x00, 0x3f, 0xf2, 0x50, 0x13, 0xbe, 0xa5, 0xef, 0xab, 0x3e, 
	0x0d, 0xfc, 0x04, 0x3f, 0x79, 0xbd, 0x7a, 0x3e, 0x55, 0xb4, 0x14, 0xbe, 
	0x57, 0x5f, 0xed, 0x3e, 0x89, 0x27, 0x02, 0x3f, 0xac, 0x30, 0x44, 0x3e, 
	0xfa, 0x95, 0xb8, 0xbd, 0xb6, 0x36, 0x7d, 0x3f, 0x5a, 0xe4, 0x77, 0x3e, 
	0xfd, 0xf2, 0x15, 0x3d, 0x16, 0xe6, 0x60, 0xbe, 0xec, 0xe9, 0x7f, 0xbd, 
	0xfa, 0x1a, 0x9e, 0xbd, 0x64, 0xf8, 0x58, 0x3f, 0x2c, 0x6e, 0xe9, 0x3d, 
	0xad, 0xcb, 0x20, 0x3e, 0x95, 0xb9, 0x58, 0x3d, 0xe6, 0xa1, 0xd3, 0x3e, 
	0x88, 0x42, 0x9c, 0x3d, 0x78, 0x57, 0xc3, 0x3e, 0xfa, 0xd5, 0xbf, 0x3e, 
	0x72, 0x06, 0x1c, 0xbe, 0xb3, 0x5a, 0x3d, 0x3e, 0xa3, 0x58, 0x04, 0x3f, 
	0x6b, 0x51, 0x6c, 0x3e, 0x5f, 0x84, 0x96, 0x3e, 0x2e, 0xb0, 0x0e, 0x3f, 
	0x88, 0x40, 0x08, 0xbd, 0x8c, 0x0d, 0xe8, 0x3e, 0x8c, 0xa9, 0x0a, 0x3f, 
	0xc7, 0x41, 0x9a, 0x3e, 0x2e, 0xc4, 0x64, 0x3e, 0xce, 0xfb, 0xcd, 0x3e, 
	0xe9, 0xe5, 0xa4, 0x3e, 0x7d, 0xbe, 0x0c, 0xbd, 0x30, 0x3e, 0xdb, 0x3e, 
	0x06, 0x47, 0x9a, 0x3e, 0x70, 0x9d, 0x8f, 0x3e, 0xe3, 0xd7, 0x58, 0x3e, 
	0xe4, 0x33, 0x95, 0x3f, 0x87, 0x18, 0xcb, 0x3e, 0xca, 0x9e, 0x04, 0xbe, 
	0x26, 0x05, 0x19, 0xbe, 0x3d, 0x41, 0x35, 0xbd, 0xd4, 0x48, 0x89, 0xbd, 
	0xde, 0xd2, 0x11, 0x3f, 0x1a, 0xc1, 0x43, 0x3e, 0xc8, 0x09, 0xa5, 0x3e, 
	0x18, 0x1a, 0xd3, 0x3e, 0xc0, 0x76, 0xec, 0x3e, 0xe3, 0xa5, 0x52, 0xbe, 
	0xf7, 0xb7, 0x39, 0x3d, 0xa2, 0x28, 0x0b, 0x3e, 0x6e, 0x52, 0x58, 0x3d, 
	0x42, 0xd9, 0x9f, 0x3e, 0xdd, 0x52, 0x91, 0x3f, 0xe7, 0x5f, 0xf2, 0x3a, 
	0x13, 0x2e, 0xde, 0x3e, 0x31, 0x05, 0x0d, 0xbe, 0x57, 0x20, 0x57, 0xbd, 
	0x83, 0x97, 0x12, 0xbe, 0xbb, 0xbd, 0xe8, 0x3e, 0x13, 0xf5, 0xaa, 0x3e, 
	0x65, 0xd6, 0x85, 0x3e, 0x08, 0x56, 0x9e, 0x3a, 0x6e, 0xd3, 0x4a, 0xbc, 
	0xbd, 0x21, 0xaf, 0xbe, 0xd1, 0x96, 0x10, 0xbe, 0x5c, 0xf4, 0xbe, 0x3e, 
	0xe0, 0x6c, 0x92, 0xbe, 0x57, 0xd7, 0x2b, 0xbf, 0xd7, 0x3f, 0x86, 0x3e, 
	0x00, 0xce, 0x2a, 0x3e, 0x1d, 0xa5, 0x88, 0xbe, 0xd9, 0xba, 0x6c, 0xbe, 
	0x13, 0x77, 0x50, 0x3e, 0xcb, 0x33, 0xe2, 0x3e, 0x9e, 0x9c, 0xcf, 0xbd, 
	0x9e, 0x17, 0x1c, 0x3e, 0xaa, 0xa1, 0x18, 0x3e, 0xc7, 0xaf, 0x57, 0x3e, 
	0xa3, 0x94, 0xfa, 0x3e, 0x1d, 0xcf, 0xd6, 0x3c, 0x28, 0xcf, 0x07, 0x3f, 
	0xe3, 0xa6, 0xbb, 0x3e, 0x04, 0x4a, 0x88, 0xbd, 0xf1, 0x2f, 0xb1, 0x3e, 
	0x8a, 0x13, 0x5a, 0x3f, 0x6f, 0xc6, 0x49, 0x3e, 0x60, 0x89, 0x57, 0xbd, 
	0x90, 0xe8, 0x35, 0x3e, 0x64, 0x9a, 0x8f, 0xbe, 0xa5, 0x85, 0x59, 0xbd, 
	0xa0, 0x06, 0x02, 0x3f, 0xeb, 0x0d, 0xab, 0x3e, 0x71, 0x0a, 0xff, 0x3e, 
	0xf7, 0x78, 0xd8, 0xbd, 0xca, 0x68, 0xe7, 0x3e, 0xb0, 0x8c, 0x37, 0xbe, 
	0xf2, 0x41, 0x03, 0x3f, 0xe8, 0xbe, 0x01, 0x3f, 0x19, 0x72, 0xd8, 0x3e, 
	0x20, 0x63, 0xd7, 0x3e, 0x2c, 0xd7, 0x8c, 0x3f, 0xe5, 0xbf, 0x03, 0x3f, 
	0x48, 0x0a, 0xa6, 0xbd, 0x31, 0x33, 0xd1, 0x3e, 0x78, 0x60, 0x59, 0x3e, 
	0x10, 0xee, 0xa6, 0x3e, 0x49, 0x38, 0xb9, 0x3e, 0x78, 0x5d, 0x1a, 0x3c, 
	0x5e, 0x23, 0xcd, 0x3e, 0x2c, 0x8f, 0x68, 0x3e, 0x6c, 0x22, 0x66, 0x3d, 
	0x4d, 0x78, 0x72, 0xbe, 0x25, 0x8a, 0xd9, 0x3e, 0x9a, 0xaa, 0x92, 0x3e, 
	0xf7, 0x7e, 0xc2, 0xbd, 0xe9, 0xf8, 0xe9, 0x3d, 0xe0, 0x74, 0x95, 0x3f, 
	0x37, 0x25, 0x90, 0x3e, 0x80, 0x58, 0x32, 0xbd, 0x85, 0xaa, 0xcb, 0xbe, 
	0x60, 0x89, 0x4e, 0x3e, 0xc1, 0x8d, 0x0d, 0x3e, 0x0c, 0xda, 0xee, 0x3e, 
	0x00, 0x31, 0xf6, 0x3d, 0x51, 0x64, 0x06, 0x3f, 0x02, 0x9c, 0xf9, 0x3e, 
	0x15, 0xc5, 0xf9, 0xbd, 0x18, 0x9a, 0x69, 0xbe, 0x7d, 0x1e, 0x1e, 0xbe, 
	0x0a, 0xb4, 0x93, 0xbb, 0x8a, 0xe3, 0x88, 0x3e, 0x35, 0x31, 0x1c, 0xbd, 
	0xcf, 0x71, 0x0c, 0x3f, 0xbc, 0xca, 0xd1, 0x3e, 0xbe, 0x9d, 0x9d, 0x3e, 
	0x06, 0x8d, 0x1c, 0x3f, 0xae, 0x50, 0x87, 0xbe, 0xa0, 0x05, 0x98, 0x3e, 
	0x53, 0x14, 0xfe, 0x3e, 0x32, 0x53, 0x6d, 0xbe, 0x0b, 0xcb, 0xd7, 0xbc, 
	0xa4, 0xf0, 0x9d, 0x3e, 0x3d, 0x58, 0xa1, 0x3e, 0x20, 0x4b, 0x37, 0xbe, 
	0x21, 0x5b, 0x8e, 0x3d, 0x63, 0x15, 0x80, 0xbd, 0x77, 0x26, 0xed, 0xbb, 
	0xbb, 0xa8, 0x8c, 0x3e, 0xb1, 0x3f, 0x8d, 0x3f, 0xdc, 0x79, 0x36, 0x3e, 
	0x35, 0xde, 0x14, 0x3e, 0xba, 0xcc, 0xf5, 0x3e, 0xfa, 0xd1, 0xd9, 0x3d, 
	0x44, 0x08, 0xd3, 0x3e, 0xd4, 0x74, 0x89, 0x3e, 0x53, 0x23, 0x0a, 0xbe, 
	0x20, 0x4e, 0xd4, 0x3e, 0xc6, 0x28, 0x89, 0xbb, 0xd8, 0xab, 0x72, 0x3e, 
	0x48, 0x23, 0x38, 0xbe, 0x03, 0xce, 0xb1, 0xbd, 0x7f, 0xf1, 0xaa, 0x3e, 
	0xf4, 0xac, 0x18, 0xbe, 0xce, 0x39, 0xd8, 0xbd, 0xe2, 0x7c, 0x3a, 0x3f, 
	0x74, 0xa4, 0x8f, 0x3e, 0x85, 0x37, 0x72, 0x3e, 0x47, 0xd3, 0x2e, 0x3e, 
	0x0c, 0xe8, 0x61, 0xbe, 0x94, 0x7c, 0x18, 0x3e, 0x4a, 0x68, 0x10, 0x3f, 
	0xde, 0x62, 0x7a, 0xbe, 0x62, 0xc1, 0xf0, 0x3e, 0xce, 0xd5, 0xb3, 0x3e, 
	0x08, 0xfa, 0x32, 0x3e, 0xe1, 0xf3, 0xdd, 0x3e, 0x7f, 0xce, 0xc8, 0x3e, 
	0x0c, 0x40, 0xf7, 0x3e, 0x9d, 0xaf, 0xac, 0x3e, 0x06, 0x01, 0x24, 0x3e, 
	0xf1, 0xc9, 0x36, 0x3f, 0xe8, 0xdd, 0x96, 0xbd, 0xb6, 0x8a, 0x7b, 0x3e, 
	0xab, 0x93, 0x0e, 0x3f, 0x0d, 0x73, 0xa5, 0x3e, 0xfa, 0x8e, 0xe4, 0xbd, 
	0xb4, 0x54, 0x10, 0x3f, 0xbd, 0x6a, 0x8a, 0x3e, 0xf0, 0x97, 0x0e, 0xbe, 
	0x08, 0x1f, 0x7d, 0x3e, 0xc4, 0x4a, 0xbd, 0x3e, 0xab, 0xfb, 0x84, 0xbe, 
	0xc6, 0x21, 0xfa, 0x3e, 0x6e, 0xe2, 0x0b, 0xbe, 0x7f, 0x33, 0x37, 0x3d, 
	0x39, 0xc4, 0x82, 0xbd, 0xda, 0xf0, 0x38, 0x3f, 0x15, 0xa6, 0xba, 0x3e, 
	0x2a, 0x41, 0x01, 0x3f, 0xbf, 0xef, 0x83, 0x3d, 0xd0, 0x5b, 0x0c, 0xbe, 
	0x4e, 0xc8, 0xbb, 0x3e, 0x55, 0xc4, 0xef, 0x3e, 0xe6, 0x0a, 0x9c, 0xbe, 
	0x74, 0x29, 0x4a, 0x3e, 0xc5, 0x5d, 0xb3, 0x3e, 0xd8, 0xb4, 0xa1, 0x3e, 
	0x81, 0xe1, 0xfe, 0xbd, 0x4a, 0xe3, 0xf3, 0x3e, 0xa9, 0xc1, 0xc1, 0x3e, 
	0x05, 0x60, 0x91, 0x3e, 0x89, 0xb5, 0xa4, 0xbd, 0x25, 0xbd, 0x58, 0x3f, 
	0x21, 0x04, 0xbc, 0x3e, 0xd8, 0x9c, 0x36, 0xbe, 0x0e, 0x31, 0x18, 0x3f, 
	0x26, 0x3f, 0x56, 0xbe, 0x75, 0x12, 0xf9, 0x3e, 0xd1, 0x36, 0x94, 0x3e, 
	0x78, 0x45, 0x46, 0xbe, 0x42, 0x86, 0xbd, 0x3c, 0xa6, 0x52, 0x68, 0x3e, 
	0xfc, 0x44, 0xa9, 0xbd, 0x8d, 0x1f, 0x70, 0x3e, 0x8b, 0xfb, 0x40, 0x3f, 
	0x6f, 0x25, 0xd0, 0x3e, 0xf0, 0x87, 0x8c, 0xbb, 0x79, 0x4c, 0x3b, 0x3d, 
	0xf5, 0x43, 0x09, 0x3f, 0xce, 0x40, 0x08, 0x3f, 0xd2, 0xe3, 0x07, 0x3f, 
	0xb0, 0xd8, 0xc3, 0xbd, 0xed, 0x20, 0x97, 0xbe, 0xf0, 0x75, 0xa6, 0xbc, 
	0x2d, 0x91, 0x61, 0x3f, 0xfd, 0x0e, 0x27, 0xbe, 0xae, 0xa6, 0xd4, 0x3d, 
	0xa6, 0xbd, 0x98, 0x3d, 0x04, 0xbf, 0x72, 0x3d, 0x3c, 0x34, 0x5a, 0x3e, 
	0x3d, 0xeb, 0xd8, 0xbc, 0x91, 0x60, 0x50, 0x3d, 0xa9, 0x2e, 0x65, 0x3e, 
	0xfe, 0x3e, 0xed, 0xbd, 0x83, 0x7a, 0x96, 0x3f, 0x9a, 0x58, 0x08, 0x3f, 
	0x44, 0x77, 0xda, 0x3e, 0x97, 0x82, 0x8b, 0x3e, 0xb0, 0x8c, 0x1e, 0x3e, 
	0xbe, 0x1b, 0xc8, 0x3e, 0x36, 0xac, 0x5a, 0x3e, 0xc0, 0x87, 0xd0, 0x3d, 
	0xcf, 0x5b, 0x91, 0x3e, 0x4a, 0xb7, 0xe4, 0x3b, 0x70, 0xf6, 0xa0, 0x3e, 
	0x73, 0x0b, 0x84, 0x3d, 0xa4, 0xf4, 0xe8, 0xbd, 0x04, 0xd6, 0x9f, 0x3e, 
	0x40, 0xf1, 0x9d, 0x3e, 0xc4, 0xd9, 0x1e, 0x3c, 0x92, 0xad, 0x35, 0x3f, 
	0x6a, 0x55, 0xef, 0x3e, 0x1a, 0xb9, 0x02, 0xbd, 0x64, 0x61, 0x65, 0x3e, 
	0x48, 0x97, 0x47, 0xbe, 0x67, 0x83, 0x2b, 0xbe, 0x63, 0xa1, 0xf1, 0x3e, 
	0xa2, 0xd9, 0x6f, 0x3e, 0x33, 0x24, 0x48, 0xbe, 0x41, 0x08, 0xe0, 0x3d, 
	0x77, 0x07, 0xa7, 0x3e, 0xf4, 0x38, 0x9a, 0x3d, 0x7e, 0xba, 0xc5, 0x3e, 
	0xcb, 0x9e, 0x3d, 0x3f, 0x6e, 0xa1, 0x17, 0x3e, 0x24, 0x7f, 0x78, 0x3e, 
	0x11, 0x57, 0x73, 0x3f, 0x42, 0x50, 0xdb, 0x3e, 0x88, 0x15, 0x1b, 0x3c, 
	0xd9, 0x0f, 0xf6, 0x3d, 0xbf, 0xbb, 0x44, 0xbe, 0xb2, 0xf9, 0x34, 0xbe, 
	0x89, 0xe0, 0x40, 0x3f, 0x46, 0xba, 0x63, 0x3e, 0xd9, 0xed, 0xdb, 0x3e, 
	0x14, 0xbc, 0x0f, 0x3e, 0x80, 0x0e, 0xa4, 0x3d, 0x29, 0x01, 0x30, 0x3e, 
	0x68, 0xe8, 0xb4, 0x3e, 0x12, 0xbe, 0x94, 0x3e, 0x1e, 0x0a, 0xdb, 0xbd, 
	0x1e, 0xd1, 0x5d, 0x3e, 0x5c, 0x61, 0x81, 0x3f, 0xe6, 0x1b, 0xbc, 0x3e, 
	0x71, 0x14, 0xa6, 0x3e, 0xbc, 0x95, 0x9c, 0x3d, 0x49, 0x85, 0x66, 0x3e, 
	0xd2, 0x5f, 0x19, 0x3e, 0x16, 0x57, 0xfa, 0x3e, 0x9f, 0xec, 0xe3, 0xbd, 
	0x11, 0x5a, 0xca, 0xbe, 0x4f, 0xa4, 0x93, 0x3d, 0xd3, 0xa1, 0xa6, 0x3e, 
	0x44, 0xba, 0x63, 0x3d, 0x25, 0x3c, 0x5f, 0xbe, 0x12, 0x66, 0x69, 0xbe, 
	0xa8, 0xbb, 0x91, 0xbe, 0xc2, 0xc3, 0x79, 0xbe, 0x75, 0x77, 0x5b, 0x3f, 
	0x1c, 0x25, 0x4c, 0xbe, 0x17, 0x1c, 0xf0, 0xbd, 0xa7, 0x96, 0x37, 0x3f, 
	0x10, 0x45, 0x5a, 0x3c, 0x3b, 0xe6, 0xc6, 0xbc, 0x6b, 0xbf, 0xcd, 0xbd, 
	0x63, 0x66, 0xa6, 0x3e, 0xae, 0x63, 0xb9, 0x3e, 0xb3, 0xa0, 0x81, 0x3e, 
	0x80, 0x40, 0xd3, 0x3e, 0x11, 0xee, 0x38, 0xbd, 0x88, 0x41, 0x44, 0x3e, 
	0x82, 0x4a, 0xed, 0x3e, 0xba, 0x28, 0x10, 0x3d, 0xe1, 0x52, 0xc6, 0x3d, 
	0xd7, 0x69, 0x8d, 0x3f, 0x92, 0xab, 0xa1, 0x3d, 0x24, 0xdc, 0x8c, 0x3e, 
	0x87, 0xe3, 0x0b, 0xbe, 0xe2, 0x2e, 0x29, 0xbb, 0xa6, 0xa3, 0xf0, 0x3e, 
	0xcf, 0x87, 0x0f, 0x3f, 0x9c, 0x9f, 0x85, 0x3e, 0x76, 0xf1, 0xff, 0xff, 
	0x10, 0x00, 0x00, 0x00, 0x05, 0x00, 0x00, 0x00, 0x14, 0x00, 0x00, 0x00, 
	0x2c, 0x00, 0x00, 0x00, 0x02, 0x00, 0x00, 0x00, 0x20, 0x00, 0x00, 0x00, 
	0x10, 0x00, 0x00, 0x00, 0x16, 0x00, 0x00, 0x00, 0x6d, 0x6f, 0x64, 0x65, 
	0x6c, 0x5f, 0x31, 0x2f, 0x64, 0x65, 0x6e, 0x73, 0x65, 0x5f, 0x31, 0x2f, 
	0x4d, 0x61, 0x74, 0x4d, 0x75, 0x6c, 0x00, 0x00, 0x74, 0xf1, 0xff, 0xff, 
	0x5a, 0xf2, 0xff, 0xff, 0x04, 0x00, 0x00, 0x00, 0x80, 0x0c, 0x00, 0x00, 
	0x97, 0x8e, 0xd4, 0x3e, 0x58, 0x42, 0x95, 0x3e, 0x32, 0x1c, 0x1d, 0x3d, 
	0x3b, 0x52, 0xbb, 0x3e, 0x3a, 0xda, 0xdd, 0xbe, 0xb1, 0x78, 0x84, 0x3d, 
	0x8a, 0xdd, 0xb7, 0x3c, 0xb7, 0xc5, 0xd3, 0xbe, 0x32, 0x54, 0xa3, 0x3e, 
	0x72, 0xe1, 0xab, 0x3d, 0x05, 0x96, 0xb1, 0x3e, 0x8f, 0x31, 0x64, 0x3e, 
	0x94, 0x52, 0x1a, 0xbe, 0x4d, 0x06, 0xb3, 0x3e, 0xc3, 0xf7, 0x98, 0xbe, 
	0x80, 0xdd, 0x4e, 0xbe, 0xe4, 0x8b, 0x04, 0x3e, 0xd5, 0xcb, 0x85, 0xbe, 
	0xd4, 0x4a, 0x90, 0x3e, 0x0b, 0xef, 0x27, 0xbe, 0xb9, 0x2a, 0x1d, 0x3d, 
	0x9b, 0x7c, 0x89, 0x3e, 0x4b, 0x95, 0x0e, 0xbe, 0x02, 0x11, 0xa9, 0xbd, 
	0x0d, 0x32, 0x3f, 0x3d, 0x26, 0x8d, 0x87, 0x3d, 0xfc, 0xdf, 0x0d, 0x3e, 
	0x1c, 0x36, 0x97, 0xbd, 0x68, 0x25, 0xf6, 0x3d, 0xff, 0x98, 0x8f, 0xbc, 
	0x32, 0x29, 0x43, 0xbe, 0x63, 0x92, 0x02, 0x3d, 0x9c, 0x64, 0xe7, 0xbd, 
	0x5f, 0xff, 0x05, 0xbd, 0x39, 0xa8, 0xa3, 0xbd, 0xb4, 0xaa, 0xd4, 0x3c, 
	0xfc, 0x13, 0x64, 0x3d, 0x41, 0x3f, 0xbe, 0xbe, 0xc7, 0x34, 0x28, 0xbe, 
	0x87, 0x12, 0x9c, 0xbe, 0x04, 0x95, 0xff, 0xbd, 0xaf, 0x8b, 0x18, 0xbe, 
	0x3a, 0x27, 0x34, 0xbe, 0xd2, 0xe7, 0x89, 0x3e, 0xca, 0x02, 0xba, 0xbe, 
	0xa8, 0xc7, 0x04, 0xbe, 0x31, 0xed, 0x33, 0xbe, 0xed, 0x75, 0xea, 0xbe, 
	0xd2, 0x85, 0xb6, 0x3e, 0xf8, 0x54, 0x22, 0xbf, 0xf9, 0x12, 0xe3, 0xbc, 
	0x32, 0x4f, 0x5b, 0x3e, 0xf1, 0xc5, 0x32, 0x3e, 0xd2, 0x30, 0xe3, 0x3e, 
	0xa0, 0x04, 0x37, 0xbe, 0x29, 0x10, 0x4d, 0x3e, 0xfd, 0x51, 0x96, 0xbd, 
	0x28, 0x8d, 0x95, 0xbe, 0xb2, 0x2f, 0xa6, 0x3d, 0x28, 0x32, 0xe3, 0xbe, 
	0x15, 0xc9, 0xc7, 0xbb, 0x4c, 0xb7, 0x14, 0x3d, 0x38, 0xba, 0x38, 0xbe, 
	0x22, 0x27, 0xc8, 0xbd, 0x7b, 0xda, 0xdb, 0x3d, 0x45, 0x51, 0x32, 0x3e, 
	0x74, 0x88, 0x97, 0x3e, 0xca, 0x91, 0xe2, 0xb8, 0xa5, 0xd0, 0x19, 0x3e, 
	0x24, 0x70, 0xb4, 0xbe, 0xd1, 0xb8, 0x06, 0xbb, 0x79, 0xe4, 0x90, 0x3d, 
	0xdc, 0x2c, 0x89, 0xbe, 0x38, 0x49, 0xea, 0x3d, 0x39, 0x8b, 0x58, 0xbe, 
	0x02, 0xf2, 0x11, 0x3e, 0x46, 0x5b, 0xa7, 0x3e, 0xf7, 0xc2, 0xee, 0xbd, 
	0x56, 0x24, 0x86, 0x3e, 0x23, 0xd7, 0x98, 0xbe, 0xde, 0xb5, 0x9c, 0x3d, 
	0xb2, 0x5e, 0xc9, 0xbd, 0x1f, 0xcd, 0x8e, 0xbd, 0xf7, 0x3c, 0xd1, 0x3e, 
	0x50, 0x86, 0x46, 0xbe, 0x9c, 0x98, 0x0d, 0xbe, 0x09, 0x99, 0xce, 0x3d, 
	0xae, 0x9a, 0xc5, 0xbe, 0xd4, 0x85, 0x03, 0x3e, 0x5e, 0x12, 0xec, 0xbc, 
	0x9d, 0x4a, 0x94, 0x3d, 0xfa, 0x02, 0x65, 0xbd, 0x76, 0x3d, 0x80, 0xbe, 
	0xe4, 0x65, 0xca, 0xbd, 0x65, 0x4d, 0x03, 0xbf, 0xd6, 0xd6, 0x9c, 0x3d, 
	0x36, 0xe9, 0xfa, 0xbd, 0xcf, 0xe5, 0xc6, 0xbe, 0x4c, 0x7c, 0xd7, 0x3d, 
	0x9f, 0x99, 0x2f, 0xbe, 0x96, 0x28, 0x38, 0x3d, 0xdf, 0x73, 0xab, 0x3e, 
	0xba, 0x1b, 0x84, 0xbe, 0x0a, 0x53, 0x09, 0xbc, 0x76, 0xa4, 0x86, 0xbe, 
	0xc4, 0x77, 0xe8, 0x3d, 0x4a, 0xb8, 0x0c, 0x3e, 0xf1, 0xd0, 0x89, 0x3c, 
	0xe5, 0x15, 0x9d, 0x3e, 0xbf, 0x8e, 0x58, 0xbc, 0xd7, 0x31, 0x72, 0xbd, 
	0x77, 0x06, 0xfd, 0x3d, 0x55, 0x64, 0xc6, 0x3d, 0x12, 0xdb, 0x24, 0xbd, 
	0x55, 0xea, 0x35, 0xbe, 0xf4, 0x4e, 0xb0, 0x3d, 0x93, 0x69, 0xf7, 0x3c, 
	0xaf, 0xf4, 0x97, 0x3d, 0xda, 0x66, 0x9f, 0x3e, 0xfb, 0xbb, 0x10, 0xbe, 
	0x91, 0x3b, 0x68, 0xbe, 0x59, 0x75, 0x95, 0x3e, 0x68, 0x17, 0x85, 0xbe, 
	0x9f, 0xe8, 0x68, 0x3d, 0xf0, 0x85, 0x52, 0x3d, 0xc2, 0x19, 0x9c, 0xbe, 
	0x41, 0x5f, 0x8d, 0x3c, 0x87, 0x9a, 0x9d, 0xbd, 0x9f, 0x93, 0xa6, 0x3c, 
	0xf6, 0x2a, 0x3b, 0xbc, 0xf0, 0xa5, 0x51, 0xbe, 0xa3, 0xcf, 0x09, 0x3e, 
	0x38, 0x9f, 0x1c, 0xbe, 0x7b, 0x70, 0xa2, 0x3e, 0x23, 0xc4, 0x94, 0xbe, 
	0x6a, 0xee, 0x2d, 0x3e, 0x62, 0x16, 0x58, 0xbd, 0x25, 0x50, 0x7d, 0xbe, 
	0x3f, 0x0b, 0xd8, 0xbd, 0x78, 0x77, 0x88, 0xbd, 0xb1, 0x67, 0xb0, 0x3d, 
	0x5c, 0xa4, 0x09, 0x3e, 0x6a, 0x64, 0xee, 0xbe, 0x1c, 0x05, 0xa4, 0x3d, 
	0xc4, 0x8b, 0x9c, 0xbd, 0x11, 0xf4, 0xa3, 0xbe, 0x17, 0xec, 0xe2, 0x3d, 
	0x8e, 0xa9, 0x54, 0xbe, 0x8d, 0x2f, 0x04, 0x3e, 0x34, 0x56, 0x67, 0xbe, 
	0xf0, 0x62, 0xb1, 0x3d, 0xa5, 0x31, 0xba, 0xbc, 0x85, 0xb2, 0xe1, 0x3c, 
	0x2b, 0x6d, 0xcd, 0xbd, 0xb0, 0xa7, 0x77, 0xbe, 0x58, 0xdd, 0x96, 0xbd, 
	0x32, 0xb1, 0xdd, 0x3d, 0xae, 0xfc, 0xf4, 0x3d, 0xaf, 0xe2, 0xbb, 0xbe, 
	0x01, 0x02, 0x03, 0x3c, 0x6d, 0x94, 0x6e, 0xbe, 0x29, 0x80, 0x1c, 0xbb, 
	0xa4, 0x9b, 0x3d, 0x3e, 0x8f, 0x12, 0x57, 0x3e, 0x95, 0x6d, 0xb2, 0x3d, 
	0xb4, 0x72, 0xa6, 0xbe, 0xd0, 0x9f, 0x6f, 0x3c, 0x7d, 0x13, 0x91, 0xbe, 
	0xe2, 0x5c, 0x28, 0x3c, 0xba, 0x2c, 0x4e, 0x3d, 0x6e, 0xa2, 0x0d, 0xbe, 
	0x52, 0x9c, 0xdc, 0x3d, 0x80, 0xb0, 0x32, 0xbe, 0xb3, 0x16, 0xc6, 0x3d, 
	0xac, 0x5f, 0x32, 0x3e, 0x3d, 0xd1, 0x33, 0x3e, 0x38, 0x52, 0x57, 0x3e, 
	0x2d, 0x4f, 0x5e, 0xbd, 0xc8, 0x47, 0x92, 0xbe, 0xda, 0x9f, 0x65, 0xbe, 
	0x18, 0xd0, 0xdc, 0x3d, 0xfa, 0x8e, 0xda, 0x3d, 0x4e, 0xf3, 0xd1, 0x3d, 
	0x50, 0xaf, 0x49, 0x3e, 0x7f, 0x57, 0xbb, 0xbd, 0x5d, 0xa2, 0x2d, 0x3e, 
	0xc1, 0x4e, 0xda, 0x3b, 0x12, 0x83, 0x9b, 0x3c, 0x45, 0x80, 0x91, 0xbd, 
	0x3c, 0x4b, 0x10, 0x3e, 0x06, 0xd3, 0x3e, 0x3c, 0x7b, 0x68, 0x6b, 0xbe, 
	0x9d, 0x6b, 0x2e, 0xbe, 0x86, 0xfb, 0x10, 0xbd, 0x72, 0x86, 0x56, 0xbe, 
	0x4b, 0x06, 0x58, 0xbe, 0x1e, 0x8e, 0x4e, 0xbd, 0x63, 0x0b, 0x22, 0x3e, 
	0x33, 0x5c, 0x2c, 0xbe, 0x56, 0xc4, 0x6f, 0x3d, 0x6c, 0x7c, 0x41, 0x3e, 
	0x31, 0x3d, 0x38, 0xbd, 0x4f, 0xed, 0xb6, 0xbe, 0xbd, 0xb6, 0x95, 0x3e, 
	0x31, 0xde, 0x68, 0xbe, 0x8d, 0x7f, 0xbf, 0x3e, 0xbf, 0x22, 0x9b, 0x3e, 
	0xb6, 0x42, 0x9b, 0xbe, 0x8c, 0xcc, 0xa2, 0x3e, 0x4e, 0xcb, 0x55, 0x3b, 
	0x00, 0xff, 0x51, 0x3e, 0xa3, 0xf0, 0x4c, 0x3e, 0xac, 0x3f, 0xad, 0xbe, 
	0x38, 0x8a, 0xb7, 0x3c, 0x92, 0x8e, 0xf9, 0x3d, 0x01, 0xe7, 0xea, 0xbd, 
	0x17, 0xc9, 0x54, 0xbd, 0x5d, 0x6f, 0x79, 0xbe, 0xc7, 0x51, 0x96, 0x3e, 
	0xd5, 0x97, 0x2c, 0x3d, 0x82, 0x8e, 0x61, 0xbe, 0xf0, 0xdb, 0xb1, 0x3e, 
	0x08, 0xf2, 0x49, 0xbd, 0x4a, 0xc2, 0x0f, 0x3e, 0xf2, 0x53, 0xea, 0xbe, 
	0x4b, 0xeb, 0xc1, 0x3d, 0xbb, 0x82, 0x43, 0x3e, 0xb6, 0xf6, 0xfa, 0xbd, 
	0xad, 0xf8, 0x58, 0x3e, 0x57, 0x33, 0x24, 0xbe, 0x66, 0x2c, 0x8f, 0xbe, 
	0xa7, 0xf7, 0xc2, 0x3d, 0xac, 0x9d, 0xec, 0xbe, 0x85, 0x41, 0x3b, 0x3e, 
	0xc5, 0x7f, 0xb5, 0xbe, 0xbf, 0x19, 0x6c, 0x3d, 0x11, 0x48, 0x1f, 0xbb, 
	0xe9, 0x3e, 0xcd, 0xbe, 0x2b, 0x60, 0x44, 0xbd, 0x27, 0x11, 0xf7, 0xbe, 
	0xa2, 0x10, 0x13, 0x3e, 0xbf, 0x0b, 0x02, 0xbe, 0x63, 0x82, 0x34, 0xbe, 
	0xf1, 0xb0, 0xd4, 0x3d, 0x00, 0x83, 0xaa, 0xbe, 0x0a, 0x58, 0x81, 0xbd, 
	0x2b, 0x81, 0x00, 0x3e, 0xa2, 0x89, 0x15, 0x3d, 0x71, 0x0d, 0x39, 0xbc, 
	0x2a, 0x4f, 0x46, 0xbd, 0x93, 0xc0, 0x4a, 0x3e, 0x6d, 0x3f, 0x4c, 0x3e, 
	0xf0, 0xe8, 0x48, 0xbe, 0x95, 0xcf, 0xe7, 0x3d, 0x49, 0xc8, 0x86, 0xbe, 
	0xa4, 0x58, 0xc4, 0x3d, 0x9f, 0x8a, 0x37, 0x3e, 0x5b, 0x56, 0xba, 0xbe, 
	0x1e, 0xd0, 0x26, 0x3d, 0xbb, 0x1d, 0xa8, 0x3d, 0x27, 0x7b, 0x9d, 0x3c, 
	0x88, 0x92, 0xd8, 0x3e, 0x35, 0x95, 0xb9, 0x3d, 0x66, 0xac, 0x9c, 0x3e, 
	0x0b, 0x9c, 0xc5, 0xbc, 0xe9, 0x69, 0xd8, 0x3e, 0xf5, 0x78, 0xc2, 0xbc, 
	0xa0, 0x5d, 0xd1, 0xbe, 0xc4, 0x61, 0x4b, 0x3d, 0x1a, 0x74, 0x32, 0xbe, 
	0xa4, 0xf3, 0x47, 0x3e, 0x49, 0x69, 0x38, 0xbd, 0x10, 0xf7, 0x69, 0xbe, 
	0xe7, 0x42, 0xed, 0x3e, 0xbb, 0xe4, 0xb7, 0xbd, 0x79, 0x29, 0x49, 0xbe, 
	0x9c, 0xae, 0x50, 0x3e, 0x84, 0xcb, 0xd5, 0xbe, 0x81, 0x0f, 0x17, 0x3e, 
	0x8b, 0xcd, 0xaa, 0xbe, 0xd1, 0x53, 0x41, 0x3e, 0xdd, 0x32, 0xd1, 0x3a, 
	0x90, 0x9a, 0xc3, 0xbe, 0xe3, 0x61, 0x10, 0xbd, 0x96, 0x50, 0xff, 0xbe, 
	0xf8, 0x2b, 0x74, 0xbd, 0xb1, 0x12, 0x62, 0xbe, 0x74, 0x21, 0xc6, 0xbc, 
	0xff, 0x6c, 0x3b, 0x3c, 0xeb, 0xbc, 0xb7, 0xbe, 0x94, 0x3f, 0x88, 0x3d, 
	0xb5, 0x3b, 0x66, 0xbd, 0x93, 0x89, 0x40, 0xbd, 0xe6, 0x86, 0x79, 0x3e, 
	0x6e, 0x8f, 0xa7, 0xbe, 0xd0, 0x32, 0xba, 0xbc, 0xab, 0xf0, 0xe8, 0x3d, 
	0x4b, 0x6c, 0xb5, 0xbe, 0xa9, 0x6b, 0xbb, 0xbc, 0xdd, 0xa1, 0x14, 0xbe, 
	0x1f, 0x33, 0x0a, 0x3d, 0x6c, 0xaf, 0x67, 0x3e, 0x5e, 0xe9, 0x20, 0xbd, 
	0x57, 0xa1, 0x5b, 0x3d, 0x79, 0x0b, 0x01, 0x3e, 0x37, 0x4e, 0x8b, 0xbd, 
	0x02, 0x32, 0xc4, 0x3e, 0x87, 0x75, 0x24, 0xbe, 0xf8, 0x09, 0x2c, 0x3e, 
	0x68, 0x09, 0x38, 0x3e, 0x22, 0xd1, 0x0b, 0xbe, 0x24, 0xeb, 0x05, 0x3e, 
	0x6c, 0x94, 0x2f, 0xbe, 0x20, 0xbb, 0xcd, 0x3e, 0x35, 0x41, 0x0e, 0xbe, 
	0xc8, 0xad, 0x0d, 0xbe, 0xa6, 0x1a, 0xa4, 0x3e, 0x39, 0xce, 0x3d, 0xbe, 
	0x4e, 0x41, 0xf6, 0x3d, 0x86, 0x52, 0x5a, 0xbd, 0x1b, 0x67, 0x5e, 0xbe, 
	0x2a, 0x49, 0xb5, 0x3c, 0x26, 0xa4, 0x38, 0x3e, 0xf9, 0x2d, 0x99, 0x3e, 
	0x21, 0x5a, 0x10, 0x3d, 0xfe, 0x71, 0xe2, 0x3b, 0x5b, 0x7a, 0x4c, 0xbd, 
	0x15, 0x97, 0x13, 0x3e, 0x2e, 0xa2, 0xc5, 0x3e, 0x91, 0x09, 0xf1, 0x3d, 
	0x70, 0xf4, 0xa4, 0x3e, 0x53, 0xfc, 0x15, 0xbe, 0xcc, 0x89, 0xac, 0xbd, 
	0x7e, 0xa2, 0x50, 0x3e, 0x35, 0xe3, 0xc8, 0xbd, 0xea, 0xd5, 0x8e, 0xbb, 
	0x48, 0x98, 0x54, 0x3e, 0x7b, 0x7c, 0x1a, 0x3e, 0xf0, 0x8c, 0x95, 0xbc, 
	0x40, 0x87, 0x4f, 0x3c, 0x0d, 0x4c, 0x04, 0xbe, 0x4c, 0x56, 0x92, 0x3e, 
	0x3c, 0x95, 0x00, 0x3e, 0x06, 0x60, 0x22, 0xbc, 0x03, 0xea, 0x56, 0x3e, 
	0x43, 0xb9, 0x7b, 0x3e, 0xaa, 0xe8, 0x2a, 0xbd, 0x41, 0xeb, 0x95, 0xbe, 
	0x8a, 0x49, 0x28, 0xbc, 0x17, 0x5d, 0x57, 0xbe, 0x11, 0x41, 0x3a, 0xbc, 
	0x3a, 0xe6, 0x36, 0x3e, 0x24, 0xeb, 0xb6, 0xbe, 0x26, 0x3b, 0xfe, 0x3d, 
	0xc2, 0xef, 0xe2, 0xbe, 0xe0, 0xab, 0xb4, 0x3e, 0xfa, 0x45, 0xde, 0xbd, 
	0xe5, 0x73, 0x0d, 0x3d, 0xeb, 0xc7, 0xa8, 0x3d, 0xea, 0xcd, 0x58, 0xbc, 
	0x3f, 0x82, 0x63, 0xbe, 0xa8, 0x1b, 0x2f, 0xbe, 0x01, 0xce, 0x9b, 0xbe, 
	0x8a, 0x14, 0xa5, 0x3e, 0xfe, 0x07, 0xcb, 0x3d, 0xe9, 0xa9, 0x99, 0x3e, 
	0x6a, 0xf5, 0x47, 0xbd, 0x40, 0x6f, 0x3d, 0x3d, 0x04, 0x86, 0xb8, 0x3e, 
	0x78, 0x0f, 0x0a, 0xbe, 0xf1, 0x02, 0x31, 0xbe, 0xe1, 0x79, 0x53, 0x3e, 
	0x00, 0x06, 0x52, 0xbb, 0x61, 0xee, 0x2c, 0xbd, 0xf0, 0x17, 0xc2, 0xbe, 
	0x57, 0x46, 0x02, 0xbd, 0x88, 0xac, 0x15, 0xbe, 0x81, 0xf8, 0xd9, 0xbe, 
	0x57, 0x3e, 0x77, 0x3e, 0xf0, 0x6e, 0x0e, 0xbf, 0x72, 0xa7, 0x14, 0x3e, 
	0x36, 0xf2, 0x38, 0x3e, 0x33, 0xd5, 0xab, 0xbd, 0x44, 0x7d, 0xe9, 0x3e, 
	0x65, 0xcd, 0x64, 0xbe, 0x54, 0x5c, 0x81, 0x3d, 0x91, 0x82, 0x7c, 0x3d, 
	0x57, 0x27, 0x8e, 0xbe, 0x07, 0xe3, 0xfc, 0x3e, 0x40, 0xa4, 0xf9, 0xbd, 
	0x0a, 0x2c, 0x56, 0x3b, 0xbd, 0x63, 0xf6, 0xbd, 0xd3, 0x78, 0x0a, 0xbf, 
	0xaa, 0x94, 0xa2, 0x3e, 0xa5, 0xeb, 0xf1, 0xbe, 0x77, 0x9e, 0x8c, 0x3c, 
	0x99, 0xd0, 0xb0, 0xbe, 0x79, 0xbb, 0xef, 0xbc, 0xe7, 0xdf, 0x98, 0x3e, 
	0xae, 0x0a, 0x0e, 0xbf, 0xbf, 0x0d, 0xbe, 0x3d, 0xd9, 0xe5, 0xd0, 0x3a, 
	0xa5, 0xa5, 0xa6, 0x3d, 0x00, 0xac, 0x9e, 0xbe, 0xbd, 0xac, 0x07, 0x3e, 
	0x1c, 0x5c, 0x5d, 0x3e, 0x94, 0xa1, 0xad, 0x3e, 0x62, 0x8e, 0x71, 0x3c, 
	0x5a, 0x45, 0x7f, 0x3e, 0xed, 0xd1, 0x61, 0xbe, 0x14, 0xa1, 0x84, 0x3e, 
	0x15, 0x0b, 0x8f, 0xbd, 0x55, 0x81, 0x15, 0xbd, 0xc0, 0x51, 0x85, 0x3d, 
	0x12, 0x4d, 0x1e, 0xbe, 0x15, 0x20, 0xdc, 0xbd, 0xab, 0x76, 0xb7, 0x3e, 
	0x8b, 0x09, 0x29, 0xbe, 0x75, 0xa5, 0x9f, 0xbe, 0xdb, 0x24, 0xc4, 0x3c, 
	0x84, 0xa8, 0x8a, 0x3e, 0x4d, 0x12, 0x4a, 0x3c, 0x00, 0x5b, 0xac, 0xbb, 
	0xca, 0xfd, 0xa1, 0xbe, 0x1c, 0x9f, 0xc6, 0x3d, 0xa1, 0xc4, 0x96, 0x3c, 
	0x9b, 0x1b, 0x13, 0x3c, 0x90, 0xa3, 0x84, 0xbe, 0x0e, 0x4e, 0x1d, 0xbe, 
	0x72, 0x98, 0x8c, 0xbe, 0x21, 0x77, 0x27, 0x3e, 0x82, 0x43, 0xee, 0xbd, 
	0x9c, 0xfb, 0xaa, 0xbd, 0xcc, 0x54, 0x32, 0xbe, 0x97, 0x61, 0x33, 0xbe, 
	0x53, 0x05, 0x86, 0xbd, 0x6c, 0xed, 0x0d, 0x3e, 0xd2, 0x7e, 0x8d, 0x3d, 
	0x4d, 0x5d, 0xee, 0x3e, 0xa0, 0xc6, 0x50, 0xbe, 0x24, 0x62, 0x56, 0xbe, 
	0x60, 0xdd, 0xb3, 0x3d, 0xf8, 0x88, 0x41, 0x3c, 0x87, 0xb5, 0x0f, 0x3e, 
	0xf2, 0x62, 0x3f, 0xbe, 0xf8, 0x88, 0x45, 0xbe, 0x97, 0xc9, 0x01, 0x3d, 
	0xd1, 0x8e, 0x0c, 0xbd, 0xdf, 0x29, 0xbc, 0x3e, 0x4b, 0x26, 0x82, 0xbe, 
	0x75, 0xec, 0x5d, 0x3e, 0x32, 0x04, 0x9d, 0x3d, 0x9c, 0x76, 0xb4, 0x3d, 
	0xf4, 0x7b, 0x35, 0x3e, 0x67, 0x18, 0x13, 0x3d, 0x8f, 0x4a, 0x61, 0x3e, 
	0xa8, 0x32, 0xd2, 0x3e, 0xfc, 0x77, 0xd3, 0xbc, 0x10, 0xe5, 0x62, 0x3e, 
	0xd8, 0xc8, 0x98, 0xbe, 0xc7, 0xb5, 0x6e, 0x3e, 0x2b, 0xd0, 0xc7, 0x3e, 
	0x01, 0x64, 0x86, 0xbe, 0x24, 0x94, 0xd6, 0xbd, 0x8e, 0xbd, 0xc6, 0xbe, 
	0xff, 0xe1, 0x15, 0xbd, 0xc6, 0x6a, 0x13, 0x3c, 0x35, 0x22, 0x30, 0xbe, 
	0xf8, 0x89, 0x95, 0x3e, 0x42, 0x5b, 0xa4, 0xbe, 0x1f, 0xfb, 0xc7, 0x3d, 
	0x33, 0x73, 0xd8, 0x3d, 0x0b, 0xef, 0xbd, 0xbe, 0x3f, 0x3d, 0xa8, 0x3e, 
	0x76, 0x84, 0x16, 0xbf, 0xd7, 0x0b, 0x51, 0xbd, 0xf1, 0x8b, 0x98, 0xbd, 
	0x1e, 0x3c, 0x1d, 0xbd, 0x52, 0xcd, 0xdd, 0x3e, 0xac, 0xb3, 0x99, 0xbe, 
	0x60, 0x40, 0x60, 0x3e, 0xdb, 0x28, 0x0e, 0x3d, 0x55, 0xa8, 0x09, 0xbe, 
	0x6c, 0xa5, 0x02, 0x3e, 0x3c, 0x1e, 0xd5, 0xbe, 0x66, 0x60, 0x89, 0xbd, 
	0xd3, 0x21, 0x01, 0xbd, 0x97, 0x26, 0xe6, 0xbe, 0xca, 0x78, 0x1e, 0x3e, 
	0x4e, 0x6d, 0x29, 0xbe, 0x39, 0x45, 0x60, 0xbe, 0x9d, 0x61, 0xac, 0x3d, 
	0xf2, 0x7e, 0x45, 0xbe, 0x3b, 0x47, 0xcf, 0xbd, 0x37, 0x06, 0xcc, 0xbe, 
	0x07, 0x65, 0x04, 0xbb, 0x05, 0x1e, 0x95, 0x3d, 0x59, 0xcf, 0xe4, 0xbe, 
	0x77, 0x57, 0x9d, 0x3e, 0x16, 0xf2, 0x0a, 0xbf, 0xfc, 0xd5, 0x2b, 0x3e, 
	0x21, 0x85, 0xa5, 0x3e, 0x62, 0xbd, 0xd1, 0xbe, 0xed, 0x29, 0x88, 0x3e, 
	0x4b, 0x84, 0xbb, 0x3d, 0x91, 0x1e, 0xdc, 0x3d, 0x98, 0x00, 0x7c, 0x3e, 
	0x43, 0x0b, 0xb7, 0x3c, 0xe8, 0x99, 0x7f, 0x3e, 0x4c, 0x47, 0xb3, 0xbe, 
	0x4a, 0x6b, 0xbc, 0x3e, 0x33, 0x72, 0x99, 0x3e, 0xd6, 0x42, 0x5d, 0xbe, 
	0x50, 0xcc, 0x53, 0x3e, 0x25, 0xf1, 0x8d, 0xbe, 0x12, 0x6b, 0x95, 0x3e, 
	0x1a, 0xc6, 0x5c, 0x3d, 0x23, 0x9d, 0x6c, 0xbe, 0x39, 0x48, 0x8d, 0x3c, 
	0xd1, 0x8b, 0x87, 0xbe, 0x40, 0x9f, 0x5f, 0x3d, 0x1b, 0x35, 0x07, 0xbe, 
	0xa0, 0xd6, 0x0d, 0xbe, 0x5d, 0xfc, 0xab, 0x3e, 0xfc, 0x90, 0xda, 0xbe, 
	0xb9, 0xbb, 0x01, 0x3e, 0x62, 0x42, 0xd4, 0xbc, 0xb3, 0xf5, 0xeb, 0xbd, 
	0x6b, 0xc9, 0xd5, 0x3d, 0xb8, 0x4f, 0x1a, 0xbd, 0x9b, 0xf8, 0x68, 0x3c, 
	0x1b, 0x44, 0x73, 0xbe, 0xd9, 0x6d, 0xda, 0xbc, 0x12, 0x50, 0x90, 0x3e, 
	0x10, 0x4a, 0x6f, 0x3c, 0xd4, 0x4a, 0x28, 0xbe, 0xa9, 0xcc, 0x52, 0xbe, 
	0x1b, 0x62, 0x0e, 0xbf, 0x2a, 0xa6, 0xdb, 0x3e, 0xd8, 0xa0, 0x9c, 0xbe, 
	0x50, 0x8e, 0x86, 0xbe, 0x1d, 0x6d, 0x3c, 0xbe, 0xed, 0x8c, 0xd2, 0xbe, 
	0x41, 0xa9, 0x9b, 0x3e, 0xb6, 0xd0, 0xc0, 0xbd, 0xd2, 0x61, 0xa8, 0xbe, 
	0x21, 0x9c, 0x8a, 0xbe, 0xfa, 0x6f, 0x56, 0xbe, 0x16, 0x19, 0xa9, 0x3d, 
	0x55, 0xb1, 0xb6, 0xbe, 0x1c, 0xe3, 0x93, 0x3d, 0x3a, 0x00, 0xf0, 0x3e, 
	0x45, 0xd5, 0xa8, 0xbe, 0x7e, 0x45, 0xcc, 0x3e, 0xdd, 0x25, 0x9d, 0xbe, 
	0xa8, 0x52, 0x6a, 0x3e, 0x52, 0x45, 0x8f, 0xbd, 0xc1, 0x13, 0xb4, 0x3c, 
	0x24, 0x3a, 0x00, 0x3e, 0x50, 0x0e, 0x44, 0xbe, 0x9b, 0x46, 0xa5, 0xbd, 
	0xab, 0x26, 0x87, 0x3e, 0xa5, 0x79, 0x87, 0xbd, 0x8c, 0x8a, 0x00, 0x3f, 
	0x3d, 0x81, 0xc3, 0xbe, 0x54, 0x73, 0x64, 0x3e, 0x6d, 0xd9, 0x3c, 0x3d, 
	0x70, 0x20, 0x4e, 0xbd, 0xed, 0x7c, 0xea, 0x3e, 0x9c, 0xb0, 0xb2, 0xbd, 
	0x87, 0x74, 0x0d, 0xbe, 0x32, 0x67, 0xf1, 0xbd, 0xd8, 0x41, 0xb1, 0xbe, 
	0x8f, 0xd5, 0xae, 0x3e, 0xe9, 0xe9, 0xec, 0xbe, 0xf1, 0x5f, 0x07, 0xbe, 
	0xad, 0xdb, 0xa9, 0xbd, 0x67, 0xea, 0xc7, 0xbe, 0x91, 0x7d, 0x71, 0x3e, 
	0x82, 0xb9, 0xad, 0xbe, 0x98, 0xad, 0x7b, 0xbe, 0xa6, 0xed, 0xbe, 0x3c, 
	0x0f, 0x1a, 0x0c, 0xbf, 0x28, 0x57, 0x99, 0x3e, 0x8c, 0x07, 0xf7, 0xbe, 
	0xe7, 0x26, 0x3f, 0xbd, 0xec, 0x25, 0x82, 0x3e, 0x6e, 0xb2, 0xb2, 0xbe, 
	0x2c, 0xc0, 0x5c, 0xbc, 0xcf, 0xb9, 0x1f, 0xbf, 0x4c, 0xfe, 0x31, 0x3d, 
	0xce, 0xf3, 0x2e, 0x3c, 0x8d, 0x6e, 0xdc, 0xbe, 0x17, 0x4f, 0x07, 0x3f, 
	0x8d, 0x5b, 0x24, 0xbf, 0x2f, 0x53, 0x72, 0x3e, 0x96, 0x58, 0x22, 0xbd, 
	0x9d, 0x4b, 0x5d, 0xbe, 0x0f, 0x6f, 0x2f, 0x3c, 0x05, 0xa3, 0x93, 0xbe, 
	0x1e, 0xb5, 0xd8, 0x3d, 0xa2, 0x52, 0x70, 0xbe, 0xcf, 0x89, 0x95, 0xbe, 
	0x09, 0x96, 0xea, 0xbd, 0x1f, 0x54, 0x99, 0x3d, 0x93, 0xc4, 0x6b, 0x3e, 
	0xda, 0xe5, 0x7a, 0xbe, 0x09, 0xbc, 0x07, 0xbe, 0xc6, 0x7e, 0x39, 0xbb, 
	0x93, 0x38, 0x8b, 0xbe, 0x1c, 0x83, 0x0b, 0x3e, 0x36, 0x7f, 0x53, 0x3d, 
	0xd0, 0xd6, 0xab, 0xbd, 0xdb, 0x16, 0xf3, 0x3d, 0x8f, 0x76, 0x0e, 0x3e, 
	0x40, 0x37, 0xaa, 0x3c, 0xcc, 0x15, 0xae, 0xbe, 0x87, 0x83, 0x76, 0x3c, 
	0x2c, 0x3b, 0x36, 0x3e, 0x83, 0x35, 0x53, 0x3e, 0x4e, 0x78, 0x61, 0xbe, 
	0x32, 0xc7, 0x40, 0xbc, 0x72, 0x2d, 0x93, 0xbe, 0xca, 0xc3, 0xa8, 0xbe, 
	0x7b, 0xfa, 0xbf, 0xbd, 0x39, 0x6f, 0x8d, 0x3d, 0x23, 0xcd, 0xfe, 0x3d, 
	0x2d, 0x7b, 0xb2, 0xbd, 0x38, 0xf4, 0x74, 0xbe, 0x9c, 0xb6, 0xff, 0xbc, 
	0x00, 0x2a, 0x6f, 0x3e, 0x4e, 0xdd, 0x48, 0x3e, 0x89, 0x25, 0x83, 0x3d, 
	0x88, 0x54, 0x4f, 0x3d, 0x54, 0xf9, 0xc3, 0x3d, 0x12, 0x0d, 0xa9, 0xbe, 
	0xfb, 0x21, 0x7d, 0xbe, 0x56, 0xc0, 0x32, 0xbe, 0x3a, 0x5d, 0x0e, 0x3b, 
	0x98, 0x26, 0x71, 0xbe, 0x82, 0x5c, 0x7b, 0x3e, 0xc5, 0x54, 0x3b, 0x3d, 
	0x46, 0x9a, 0xc6, 0x3d, 0x23, 0xc1, 0xc9, 0x3d, 0x89, 0xdf, 0x3a, 0xbc, 
	0x68, 0xfa, 0xe2, 0xbc, 0xa0, 0x8e, 0x5b, 0xbc, 0x31, 0x84, 0x90, 0xbe, 
	0x8f, 0xa6, 0x4c, 0x3d, 0x72, 0x4c, 0xb7, 0xbd, 0x9e, 0xb5, 0xad, 0x3e, 
	0xb6, 0xac, 0x2b, 0xbe, 0x9d, 0x76, 0xc5, 0x3d, 0xf2, 0x83, 0xb3, 0x3e, 
	0x5c, 0x22, 0x3a, 0xbe, 0x87, 0xba, 0xbd, 0x3e, 0x79, 0xb1, 0x0b, 0xbe, 
	0xf4, 0x2c, 0x09, 0x3d, 0xc1, 0x8e, 0xb7, 0x3e, 0x31, 0xbf, 0x81, 0xbc, 
	0x5d, 0xa4, 0x53, 0xbd, 0x12, 0x70, 0x9b, 0x3e, 0x73, 0xbc, 0xb7, 0x3d, 
	0x40, 0xfe, 0x9c, 0x3e, 0x0d, 0x2a, 0x1d, 0x3e, 0xc1, 0xc8, 0x6d, 0x3e, 
	0x05, 0xea, 0xa8, 0x3e, 0x4a, 0x41, 0x83, 0xbd, 0xe0, 0xbf, 0xfc, 0x3d, 
	0x8d, 0x21, 0x9c, 0xbe, 0x4a, 0xae, 0x3a, 0xbc, 0x15, 0xc7, 0x15, 0x3c, 
	0x0e, 0xd5, 0x85, 0x3e, 0xed, 0xf6, 0xcc, 0x3e, 0xc5, 0xb1, 0x9f, 0xbd, 
	0xd4, 0x2c, 0xb3, 0x3e, 0x6d, 0x23, 0x98, 0x3a, 0x9f, 0x4f, 0x9b, 0x3e, 
	0x2e, 0xa3, 0xee, 0x3d, 0x3c, 0x0b, 0x93, 0x3e, 0x68, 0x28, 0x59, 0xbd, 
	0x35, 0xac, 0x35, 0xbe, 0x6b, 0x42, 0x91, 0x3e, 0x52, 0x9b, 0xa3, 0x3c, 
	0xf4, 0x70, 0x81, 0xbe, 0x57, 0x18, 0xeb, 0x3c, 0x18, 0xef, 0x19, 0xbe, 
	0xf9, 0x13, 0x3d, 0xbe, 0x4b, 0xb6, 0xc4, 0x3e, 0x2c, 0xb5, 0x0f, 0x3d, 
	0x94, 0xa3, 0x1f, 0x3e, 0xf3, 0xd2, 0x2f, 0xbe, 0x93, 0xad, 0x48, 0xbd, 
	0x09, 0x46, 0xe8, 0x3d, 0x97, 0x81, 0xd4, 0x3c, 0xa6, 0xd4, 0xef, 0xbd, 
	0x47, 0x49, 0x88, 0x3e, 0xd6, 0xf8, 0xc7, 0x3d, 0x5f, 0x4e, 0x61, 0x3e, 
	0x03, 0x28, 0x69, 0x3e, 0xf5, 0xee, 0x3a, 0x3e, 0xb7, 0x36, 0x44, 0x3e, 
	0x3d, 0x58, 0x6b, 0xbd, 0x86, 0xa3, 0x70, 0xbc, 0xaf, 0x88, 0x18, 0x3e, 
	0x63, 0x72, 0x27, 0x3e, 0xf5, 0x7f, 0x92, 0x3e, 0x15, 0x74, 0xf2, 0x3d, 
	0xc0, 0x42, 0x60, 0xbe, 0x9a, 0x5f, 0x55, 0xbd, 0x48, 0xda, 0x1a, 0x3e, 
	0xd3, 0xc9, 0x18, 0x3e, 0x9c, 0xc6, 0x1e, 0xbe, 0xd2, 0x99, 0xa7, 0x3e, 
	0xe9, 0xd0, 0xbf, 0xbe, 0x61, 0xbb, 0xa5, 0x3d, 0x88, 0x17, 0x99, 0x3e, 
	0x76, 0xe1, 0x3a, 0xbe, 0xa2, 0x28, 0xb3, 0x3d, 0xcc, 0x9b, 0xd0, 0xbe, 
	0x45, 0x81, 0xe8, 0xbd, 0xdb, 0x57, 0x84, 0xbc, 0x29, 0x05, 0x74, 0xbe, 
	0x3f, 0xad, 0x8b, 0x3e, 0x2c, 0x58, 0xbc, 0xbe, 0x67, 0xc6, 0xa5, 0x3d, 
	0x26, 0x3e, 0xa7, 0x3e, 0xb2, 0x2d, 0xf7, 0xbd, 0x41, 0x22, 0x7f, 0xbc, 
	0xde, 0x73, 0x23, 0xbe, 0xf6, 0x70, 0x0f, 0x3e, 0x57, 0x60, 0x0e, 0x3e, 
	0x8d, 0xd7, 0x0b, 0xbe, 0xb5, 0xa7, 0x18, 0xbc, 0xf3, 0xbd, 0x48, 0xbe, 
	0x2c, 0x5b, 0x80, 0x3e, 0x61, 0xc2, 0x9d, 0x3e, 0xba, 0xea, 0x30, 0xbd, 
	0x18, 0xe4, 0xb5, 0x3e, 0xdd, 0x8f, 0x9b, 0xbe, 0xae, 0x96, 0x4e, 0x3d, 
	0x3b, 0x69, 0x64, 0x3e, 0x77, 0x4f, 0xd4, 0xbe, 0x48, 0xe7, 0xb3, 0x3c, 
	0xe0, 0x57, 0xb3, 0xbd, 0x33, 0xd9, 0x95, 0xbe, 0xf3, 0x0c, 0x54, 0xbe, 
	0x62, 0x83, 0x04, 0xbf, 0xa2, 0x13, 0x95, 0xbc, 0x44, 0xa7, 0x16, 0xbe, 
	0xb1, 0x00, 0x7f, 0xbe, 0xd7, 0xbe, 0x1c, 0x3e, 0x14, 0x65, 0x71, 0xbe, 
	0x53, 0x81, 0x92, 0x3e, 0x6d, 0xe8, 0x80, 0xbe, 0xb0, 0x5e, 0x47, 0x3c, 
	0x8a, 0x87, 0x9c, 0xbe, 0xb2, 0x11, 0x59, 0xbe, 0xb2, 0x78, 0x1a, 0xbe, 
	0xcd, 0xff, 0x51, 0xbe, 0x42, 0xec, 0x85, 0x3e, 0x7e, 0x50, 0x98, 0x3d, 
	0x7e, 0x7b, 0xca, 0xbd, 0x6b, 0xc9, 0x4c, 0xbe, 0xfa, 0xcc, 0x03, 0xbc, 
	0x84, 0xa3, 0x80, 0x3e, 0x96, 0xa3, 0x21, 0xbe, 0xdb, 0xe8, 0x9d, 0x3c, 
	0xdf, 0x1c, 0x90, 0xbe, 0x20, 0x44, 0x8f, 0x3e, 0x44, 0x89, 0x9c, 0xbe, 
	0xff, 0x81, 0x16, 0x3d, 0x26, 0xec, 0x93, 0x3d, 0x7b, 0x73, 0x93, 0xbe, 
	0xc2, 0xb1, 0x8c, 0x3d, 0xe7, 0xd0, 0x89, 0x3e, 0x1b, 0x22, 0x84, 0x3e, 
	0xc8, 0xc6, 0x5d, 0x3e, 0x7b, 0x10, 0x59, 0x3e, 0x04, 0x85, 0x3f, 0x3d, 
	0x86, 0x11, 0xdf, 0xbc, 0xa5, 0x12, 0x33, 0xbd, 0xc5, 0x3b, 0x3e, 0xbe, 
	0xa8, 0x13, 0xd8, 0x3d, 0xdb, 0xce, 0x2c, 0x3d, 0x6a, 0xdd, 0x4b, 0xbe, 
	0x49, 0xa1, 0x97, 0x3d, 0x91, 0x07, 0x7a, 0x3c, 0x89, 0x37, 0x5c, 0xbe, 
	0xc1, 0x17, 0x2b, 0xbe, 0xdc, 0x38, 0x48, 0xbd, 0x10, 0xd3, 0x1e, 0xbd, 
	0x17, 0x6a, 0x2c, 0xbe, 0xe2, 0xd8, 0x5c, 0xbc, 0xe3, 0xe7, 0x26, 0xbe, 
	0x4e, 0x14, 0x8c, 0xbe, 0x9e, 0x5c, 0x8a, 0x3e, 0x84, 0xe3, 0x95, 0x3e, 
	0x07, 0xf9, 0x8b, 0xbe, 0x7e, 0x82, 0xa5, 0x3c, 0x42, 0xfe, 0xff, 0xff, 
	0x10, 0x00, 0x00, 0x00, 0x04, 0x00, 0x00, 0x00, 0x14, 0x00, 0x00, 0x00, 
	0x2c, 0x00, 0x00, 0x00, 0x02, 0x00, 0x00, 0x00, 0x10, 0x00, 0x00, 0x00, 
	0x32, 0x00, 0x00, 0x00, 0x14, 0x00, 0x00, 0x00, 0x6d, 0x6f, 0x64, 0x65, 
	0x6c, 0x5f, 0x31, 0x2f, 0x64, 0x65, 0x6e, 0x73, 0x65, 0x2f, 0x4d, 0x61, 
	0x74, 0x4d, 0x75, 0x6c, 0x00, 0x00, 0x00, 0x00, 0x40, 0xfe, 0xff, 0xff, 
	0x26, 0xff, 0xff, 0xff, 0x04, 0x00, 0x00, 0x00, 0x80, 0x00, 0x00, 0x00, 
	0x06, 0xc3, 0x38, 0x3f, 0xc0, 0xbc, 0xbe, 0x3e, 0xf5, 0xe2, 0x49, 0x3f, 
	0x3e, 0xc9, 0x6c, 0x3f, 0x61, 0xe1, 0x54, 0x3f, 0xad, 0xdf, 0xba, 0x3e, 
	0x5a, 0x04, 0xda, 0x3e, 0x0a, 0xed, 0xef, 0x3e, 0x4b, 0x96, 0x26, 0x3f, 
	0x6e, 0xcb, 0x24, 0x3f, 0xf8, 0xb9, 0x21, 0x3f, 0x97, 0x8e, 0x46, 0x3f, 
	0xf4, 0x39, 0x18, 0x3f, 0xfb, 0x54, 0x0c, 0x3f, 0x09, 0xf5, 0x3c, 0x3f, 
	0xd0, 0x2d, 0xc4, 0x3e, 0x29, 0xda, 0x4b, 0x3f, 0xf5, 0x6f, 0xea, 0x3e, 
	0xb7, 0x9a, 0x22, 0x3f, 0x39, 0x7b, 0x04, 0x3f, 0x65, 0x38, 0xe7, 0x3e, 
	0xcb, 0x86, 0x32, 0x3f, 0x97, 0x46, 0x13, 0x3f, 0xc3, 0x0e, 0xe8, 0x3e, 
	0x76, 0x6a, 0xfe, 0x3e, 0xd5, 0x14, 0x73, 0x3f, 0xb2, 0x61, 0xd8, 0x3e, 
	0x10, 0xd0, 0x5f, 0x3f, 0xcf, 0x4c, 0x6f, 0x3f, 0x3e, 0xbe, 0x0c, 0x3f, 
	0x49, 0x55, 0x62, 0x3f, 0x4d, 0xff, 0x10, 0x3f, 0x0e, 0xff, 0xff, 0xff, 
	0x10, 0x00, 0x00, 0x00, 0x03, 0x00, 0x00, 0x00, 0x10, 0x00, 0x00, 0x00, 
	0x38, 0x00, 0x00, 0x00, 0x01, 0x00, 0x00, 0x00, 0x20, 0x00, 0x00, 0x00, 
	0x26, 0x00, 0x00, 0x00, 0x6d, 0x6f, 0x64, 0x65, 0x6c, 0x5f, 0x31, 0x2f, 
	0x64, 0x65, 0x6e, 0x73, 0x65, 0x5f, 0x31, 0x2f, 0x42, 0x69, 0x61, 0x73, 
	0x41, 0x64, 0x64, 0x2f, 0x52, 0x65, 0x61, 0x64, 0x56, 0x61, 0x72, 0x69, 
	0x61, 0x62, 0x6c, 0x65, 0x4f, 0x70, 0x00, 0x00, 0x60, 0xff, 0xff, 0xff, 
	0x00, 0x00, 0x06, 0x00, 0x08, 0x00, 0x04, 0x00, 0x06, 0x00, 0x00, 0x00, 
	0x04, 0x00, 0x00, 0x00, 0x40, 0x00, 0x00, 0x00, 0x27, 0xc6, 0x9d, 0x3e, 
	0xb0, 0x3e, 0xc5, 0x3e, 0x9d, 0x7d, 0xad, 0x3e, 0x50, 0x3d, 0xaf, 0xbd, 
	0xd9, 0xb1, 0xab, 0x3e, 0x70, 0xb3, 0xca, 0x3e, 0x1a, 0x6e, 0x96, 0x3e, 
	0xbf, 0x3b, 0xc6, 0x3e, 0x88, 0xae, 0xbf, 0x3e, 0xc6, 0x42, 0xc9, 0x3e, 
	0x8c, 0xe2, 0xac, 0x3e, 0xd5, 0x36, 0xe9, 0x3e, 0x0f, 0x04, 0x77, 0xbd, 
	0x6e, 0x86, 0x82, 0x3e, 0x5d, 0xb5, 0x93, 0x3e, 0xf9, 0x53, 0xe2, 0xbb, 
	0xae, 0xff, 0xff, 0xff, 0x10, 0x00, 0x00, 0x00, 0x02, 0x00, 0x00, 0x00, 
	0x10, 0x00, 0x00, 0x00, 0x3c, 0x00, 0x00, 0x00, 0x01, 0x00, 0x00, 0x00, 
	0x10, 0x00, 0x00, 0x00, 0x24, 0x00, 0x00, 0x00, 0x6d, 0x6f, 0x64, 0x65, 
	0x6c, 0x5f, 0x31, 0x2f, 0x64, 0x65, 0x6e, 0x73, 0x65, 0x2f, 0x42, 0x69, 
	0x61, 0x73, 0x41, 0x64, 0x64, 0x2f, 0x52, 0x65, 0x61, 0x64, 0x56, 0x61, 
	0x72, 0x69, 0x61, 0x62, 0x6c, 0x65, 0x4f, 0x70, 0x00, 0x00, 0x00, 0x00, 
	0x04, 0x00, 0x06, 0x00, 0x04, 0x00, 0x00, 0x00, 0x00, 0x00, 0x0e, 0x00, 
	0x14, 0x00, 0x04, 0x00, 0x00, 0x00, 0x08, 0x00, 0x0c, 0x00, 0x10, 0x00, 
	0x0e, 0x00, 0x00, 0x00, 0x10, 0x00, 0x00, 0x00, 0x01, 0x00, 0x00, 0x00, 
	0x14, 0x00, 0x00, 0x00, 0x1c, 0x00, 0x00, 0x00, 0x02, 0x00, 0x00, 0x00, 
	0x01, 0x00, 0x00, 0x00, 0x32, 0x00, 0x00, 0x00, 0x07, 0x00, 0x00, 0x00, 
	0x69, 0x6e, 0x70, 0x75, 0x74, 0x5f, 0x31, 0x00, 0xfc, 0xff, 0xff, 0xff, 
	0x04, 0x00, 0x04, 0x00, 0x04, 0x00, 0x00, 0x00
};
const int enc1_32_seq10_len = 6476;