
// if having troubles with min/max, uncomment the following
// #undef min    
// #undef max
#ifdef __has_attribute
#define HAVE_ATTRIBUTE(x) __has_attribute(x)
#else
#define HAVE_ATTRIBUTE(x) 0
#endif
#if HAVE_ATTRIBUTE(aligned) || (defined(__GNUC__) && !defined(__clang__))
#define DATA_ALIGN_ATTRIBUTE __attribute__((aligned(4)))
#else
#define DATA_ALIGN_ATTRIBUTE
#endif
const unsigned char enc2_32_seq10[] DATA_ALIGN_ATTRIBUTE = {
	0x1c, 0x00, 0x00, 0x00, 0x54, 0x46, 0x4c, 0x33, 0x00, 0x00, 0x12, 0x00, 
	0x1c, 0x00, 0x04, 0x00, 0x08, 0x00, 0x0c, 0x00, 0x10, 0x00, 0x14, 0x00, 
	0x00, 0x00, 0x18, 0x00, 0x12, 0x00, 0x00, 0x00, 0x03, 0x00, 0x00, 0x00, 
	0x14, 0x00, 0x00, 0x00, 0x18, 0x00, 0x00, 0x00, 0x94, 0x00, 0x00, 0x00, 
	0x18, 0x00, 0x00, 0x00, 0x3c, 0x00, 0x00, 0x00, 0x01, 0x00, 0x00, 0x00, 
	0xd4, 0x01, 0x00, 0x00, 0x01, 0x00, 0x00, 0x00, 0xa0, 0x00, 0x00, 0x00, 
	0x09, 0x00, 0x00, 0x00, 0x80, 0x16, 0x00, 0x00, 0x7c, 0x16, 0x00, 0x00, 
	0x98, 0x15, 0x00, 0x00, 0xb4, 0x14, 0x00, 0x00, 0x64, 0x0a, 0x00, 0x00, 
	0x14, 0x02, 0x00, 0x00, 0x68, 0x16, 0x00, 0x00, 0x64, 0x16, 0x00, 0x00, 
	0x38, 0x00, 0x00, 0x00, 0x01, 0x00, 0x00, 0x00, 0x0c, 0x00, 0x00, 0x00, 
	0x08, 0x00, 0x0c, 0x00, 0x04, 0x00, 0x08, 0x00, 0x08, 0x00, 0x00, 0x00, 
	0x08, 0x00, 0x00, 0x00, 0x08, 0x00, 0x00, 0x00, 0x13, 0x00, 0x00, 0x00, 
	0x6d, 0x69, 0x6e, 0x5f, 0x72, 0x75, 0x6e, 0x74, 0x69, 0x6d, 0x65, 0x5f, 
	0x76, 0x65, 0x72, 0x73, 0x69, 0x6f, 0x6e, 0x00, 0xbe, 0xea, 0xff, 0xff, 
	0x04, 0x00, 0x00, 0x00, 0x10, 0x00, 0x00, 0x00, 0x31, 0x2e, 0x35, 0x2e, 
	0x30, 0x00, 0x00, 0x00, 0x00, 0x00, 0x00, 0x00, 0x00, 0x00, 0x00, 0x00, 
	0x0f, 0x00, 0x00, 0x00, 0x4d, 0x4c, 0x49, 0x52, 0x20, 0x43, 0x6f, 0x6e, 
	0x76, 0x65, 0x72, 0x74, 0x65, 0x64, 0x2e, 0x00, 0x00, 0x00, 0x0e, 0x00, 
	0x18, 0x00, 0x04, 0x00, 0x08, 0x00, 0x0c, 0x00, 0x10, 0x00, 0x14, 0x00, 
	0x0e, 0x00, 0x00, 0x00, 0x14, 0x00, 0x00, 0x00, 0x30, 0x00, 0x00, 0x00, 
	0x34, 0x00, 0x00, 0x00, 0x38, 0x00, 0x00, 0x00, 0x40, 0x00, 0x00, 0x00, 
	0x07, 0x00, 0x00, 0x00, 0x98, 0x15, 0x00, 0x00, 0x34, 0x15, 0x00, 0x00, 
	0x90, 0x14, 0x00, 0x00, 0xc0, 0x13, 0x00, 0x00, 0x70, 0x09, 0x00, 0x00, 
	0x08, 0x01, 0x00, 0x00, 0x6c, 0x00, 0x00, 0x00, 0x01, 0x00, 0x00, 0x00, 
	0x00, 0x00, 0x00, 0x00, 0x01, 0x00, 0x00, 0x00, 0x06, 0x00, 0x00, 0x00, 
	0x02, 0x00, 0x00, 0x00, 0x98, 0x00, 0x00, 0x00, 0x1c, 0x00, 0x00, 0x00, 
	0x04, 0x00, 0x00, 0x00, 0x6d, 0x61, 0x69, 0x6e, 0x00, 0x00, 0x0e, 0x00, 
	0x14, 0x00, 0x00, 0x00, 0x08, 0x00, 0x0c, 0x00, 0x07, 0x00, 0x10, 0x00, 
	0x0e, 0x00, 0x00, 0x00, 0x00, 0x00, 0x00, 0x08, 0x1c, 0x00, 0x00, 0x00, 
	0x10, 0x00, 0x00, 0x00, 0x04, 0x00, 0x00, 0x00, 0x86, 0xff, 0xff, 0xff, 
	0x00, 0x00, 0x00, 0x01, 0x01, 0x00, 0x00, 0x00, 0x06, 0x00, 0x00, 0x00, 
	0x03, 0x00, 0x00, 0x00, 0x05, 0x00, 0x00, 0x00, 0x04, 0x00, 0x00, 0x00, 
	0x02, 0x00, 0x00, 0x00, 0xfa, 0xea, 0xff, 0xff, 0x10, 0x00, 0x00, 0x00, 
	0x07, 0x00, 0x00, 0x00, 0x14, 0x00, 0x00, 0x00, 0x20, 0x00, 0x00, 0x00, 
	0x02, 0x00, 0x00, 0x00, 0x01, 0x00, 0x00, 0x00, 0x20, 0x00, 0x00, 0x00, 
	0x08, 0x00, 0x00, 0x00, 0x49, 0x64, 0x65, 0x6e, 0x74, 0x69, 0x74, 0x79, 
	0x00, 0x00, 0x00, 0x00, 0x34, 0xeb, 0xff, 0xff, 0x00, 0x00, 0x0e, 0x00, 
	0x16, 0x00, 0x00, 0x00, 0x08, 0x00, 0x0c, 0x00, 0x07, 0x00, 0x10, 0x00, 
	0x0e, 0x00, 0x00, 0x00, 0x00, 0x00, 0x00, 0x08, 0x24, 0x00, 0x00, 0x00, 
	0x18, 0x00, 0x00, 0x00, 0x0c, 0x00, 0x00, 0x00, 0x00, 0x00, 0x06, 0x00, 
	0x08, 0x00, 0x07, 0x00, 0x06, 0x00, 0x00, 0x00, 0x00, 0x00, 0x00, 0x01, 
	0x01, 0x00, 0x00, 0x00, 0x05, 0x00, 0x00, 0x00, 0x03, 0x00, 0x00, 0x00, 
	0x00, 0x00, 0x00, 0x00, 0x03, 0x00, 0x00, 0x00, 0x01, 0x00, 0x00, 0x00, 
	0x00, 0x00, 0x0a, 0x00, 0x0c, 0x00, 0x07, 0x00, 0x00, 0x00, 0x08, 0x00, 
	0x0a, 0x00, 0x00, 0x00, 0x00, 0x00, 0x00, 0x09, 0x01, 0x00, 0x00, 0x00, 
	0x92, 0xeb, 0xff, 0xff, 0x10, 0x00, 0x00, 0x00, 0x06, 0x00, 0x00, 0x00, 
	0x14, 0x00, 0x00, 0x00, 0x44, 0x00, 0x00, 0x00, 0x02, 0x00, 0x00, 0x00, 
	0x01, 0x00, 0x00, 0x00, 0x10, 0x00, 0x00, 0x00, 0x2c, 0x00, 0x00, 0x00, 
	0x6d, 0x6f, 0x64, 0x65, 0x6c, 0x5f, 0x34, 0x2f, 0x64, 0x65, 0x6e, 0x73, 
	0x65, 0x5f, 0x34, 0x2f, 0x52, 0x65, 0x6c, 0x75, 0x3b, 0x6d, 0x6f, 0x64, 
	0x65, 0x6c, 0x5f, 0x34, 0x2f, 0x64, 0x65, 0x6e, 0x73, 0x65, 0x5f, 0x34, 
	0x2f, 0x42, 0x69, 0x61, 0x73, 0x41, 0x64, 0x64, 0x00, 0x00, 0x00, 0x00, 
	0xa8, 0xeb, 0xff, 0xff, 0x8e, 0xec, 0xff, 0xff, 0x04, 0x00, 0x00, 0x00, 
	0x00, 0x08, 0x00, 0x00, 0xce, 0xbb, 0x33, 0x3d, 0x20, 0x4f, 0x53, 0xbc, 
	0xa8, 0xca, 0xa5, 0x3e, 0xfb, 0x08, 0x80, 0x3e, 0x26, 0x58, 0xc8, 0xbd, 
	0x68, 0x1c, 0x2d, 0xbd, 0x67, 0xf6, 0x99, 0xbc, 0xd8, 0xb2, 0x12, 0xbf, 
	0x29, 0x48, 0x6d, 0x3e, 0x17, 0x1e, 0x71, 0xbd, 0x78, 0x81, 0xc1, 0x3d, 
	0xfe, 0x3c, 0xc7, 0x3d, 0x15, 0x8b, 0xb1, 0x3e, 0x75, 0xe3, 0x73, 0xbe, 
	0x26, 0x97, 0x20, 0x3e, 0x0b, 0xfc, 0x08, 0x3e, 0x1f, 0xb7, 0xe3, 0x3e, 
	0x1a, 0x72, 0x65, 0xbe, 0xcb, 0x9b, 0xa8, 0xbc, 0x50, 0xde, 0xdd, 0xbd, 
	0x04, 0x6d, 0xe1, 0x3e, 0xa0, 0xc2, 0x07, 0x3c, 0x55, 0xee, 0x8b, 0x3c, 
	0x20, 0x77, 0x31, 0x3e, 0xf9, 0x8f, 0x94, 0x3e, 0x09, 0x07, 0x94, 0x3d, 
	0xec, 0xd5, 0xc9, 0x3d, 0x77, 0xcb, 0x8f, 0xbd, 0xbb, 0xb0, 0x92, 0x3e, 
	0x9f, 0xe4, 0x98, 0xbe, 0x67, 0x70, 0x5a, 0x3d, 0x96, 0x48, 0xdb, 0xbd, 
	0x26, 0xe0, 0xc5, 0x3e, 0xd0, 0xca, 0x96, 0xbe, 0x2e, 0x1e, 0x5e, 0x3e, 
	0x58, 0x00, 0x93, 0xbe, 0x88, 0x54, 0x1e, 0x3e, 0x48, 0xc4, 0x8c, 0xbe, 
	0x19, 0xd0, 0xac, 0x3e, 0x70, 0x3a, 0x06, 0xbe, 0xd2, 0xf8, 0xb9, 0x3e, 
	0x87, 0x10, 0x12, 0xbe, 0x1a, 0x94, 0xa7, 0xbe, 0x0a, 0x2b, 0xba, 0x3d, 
	0x18, 0x24, 0x44, 0x3e, 0x72, 0x30, 0xca, 0xbe, 0xaf, 0x8c, 0xf2, 0xbd, 
	0xcb, 0x06, 0xd3, 0xbd, 0xe3, 0x75, 0x2c, 0x3e, 0xb8, 0x80, 0x1a, 0x3d, 
	0x02, 0x67, 0x85, 0x3e, 0xd2, 0xe3, 0x92, 0x3e, 0x24, 0xad, 0xac, 0x3e, 
	0xdc, 0xee, 0xdc, 0x3d, 0x45, 0xe1, 0xd4, 0x3e, 0x55, 0x4d, 0x3c, 0xbb, 
	0x10, 0x3a, 0xa9, 0x3e, 0xd6, 0x2f, 0x23, 0x3e, 0x80, 0x81, 0x72, 0x3d, 
	0x30, 0xbf, 0x4c, 0x3c, 0xb4, 0x22, 0x86, 0x3d, 0xe2, 0x2d, 0xcf, 0xbe, 
	0x66, 0xfe, 0x83, 0xbe, 0x93, 0xc4, 0x08, 0xbe, 0xdb, 0xa2, 0x1d, 0x3e, 
	0xd0, 0xbb, 0xe6, 0xbd, 0x06, 0xa7, 0xcd, 0x3e, 0xec, 0x5d, 0xab, 0x3d, 
	0x49, 0x1b, 0xc3, 0x3e, 0x8d, 0xe2, 0x33, 0xbe, 0x7b, 0x08, 0x03, 0x3f, 
	0x16, 0xa2, 0x5b, 0x3e, 0xeb, 0x2d, 0x02, 0x3f, 0x2e, 0xbb, 0x73, 0x3e, 
	0x9b, 0x9c, 0x9b, 0xbe, 0xc8, 0x87, 0xb9, 0x3d, 0x9a, 0x67, 0xa8, 0x3e, 
	0x10, 0x19, 0x14, 0xbf, 0x0d, 0xdf, 0x31, 0xbe, 0xdd, 0x86, 0xdc, 0x3d, 
	0x8b, 0x4c, 0x78, 0xbc, 0x9c, 0xcc, 0xad, 0x3d, 0xf8, 0xc8, 0x6c, 0x3e, 
	0x22, 0xad, 0x24, 0x3e, 0x2c, 0xe6, 0x90, 0x3e, 0xe0, 0xc9, 0x90, 0x3d, 
	0x91, 0x4f, 0x11, 0x3e, 0x2e, 0xfa, 0x08, 0x3e, 0x51, 0xe7, 0x80, 0x3e, 
	0xe6, 0xa5, 0xfc, 0x3d, 0x4f, 0x8a, 0xa8, 0x3e, 0xba, 0x9c, 0xb5, 0xbc, 
	0xbb, 0xc7, 0x27, 0x3e, 0x02, 0x3a, 0x2e, 0xbf, 0xee, 0xa7, 0x21, 0xbe, 
	0x81, 0x7b, 0xb2, 0xbe, 0x79, 0xe6, 0xce, 0x3e, 0x27, 0x51, 0x4c, 0xbe, 
	0x73, 0x05, 0xcd, 0x3e, 0x60, 0xed, 0xb3, 0x3d, 0xbf, 0xb0, 0xde, 0xbd, 
	0x46, 0xd8, 0x16, 0x3e, 0x49, 0xa9, 0xa9, 0x3d, 0x86, 0xcc, 0x0a, 0x3e, 
	0x67, 0x9f, 0xc4, 0x3e, 0x2f, 0x33, 0x23, 0xbe, 0xf8, 0xfd, 0x41, 0x3d, 
	0x6a, 0xb8, 0x99, 0xbd, 0x26, 0x4f, 0x97, 0x3e, 0x71, 0x47, 0x1d, 0xbf, 
	0xdd, 0x93, 0x83, 0x3e, 0x06, 0xe8, 0xf6, 0xbe, 0xf1, 0xae, 0xd9, 0x3d, 
	0xe2, 0xe3, 0x3d, 0x3e, 0x9c, 0xee, 0xb6, 0x3e, 0xdb, 0xd7, 0x05, 0xbc, 
	0x17, 0x9e, 0xb2, 0x3e, 0x64, 0x86, 0x90, 0xbe, 0xda, 0xb5, 0x62, 0x3e, 
	0x83, 0x87, 0x67, 0x3e, 0x74, 0xa0, 0x67, 0xbc, 0xe8, 0x35, 0x9a, 0x3e, 
	0x11, 0x42, 0xa3, 0xbe, 0x4b, 0xbb, 0xd0, 0x3d, 0x25, 0x41, 0xbf, 0x3e, 
	0xf8, 0x98, 0x1b, 0xbf, 0xec, 0xe3, 0x5b, 0x3e, 0x71, 0xe6, 0x35, 0xbe, 
	0x79, 0x23, 0xc1, 0x3e, 0x79, 0xa2, 0x3f, 0xbe, 0x26, 0xc4, 0x26, 0xbe, 
	0x58, 0xae, 0x40, 0x3d, 0x69, 0xbe, 0x56, 0xbc, 0x93, 0x94, 0xad, 0x3e, 
	0x8f, 0xdd, 0x1b, 0x3e, 0x4f, 0xb4, 0x14, 0xbd, 0xbf, 0xfb, 0x03, 0x3f, 
	0x31, 0x0f, 0x27, 0x3e, 0xac, 0x4b, 0x00, 0xbe, 0xd0, 0xab, 0x9e, 0x3d, 
	0x58, 0x58, 0xa8, 0x3e, 0xab, 0x79, 0x42, 0xbf, 0xda, 0x0e, 0x3a, 0x3d, 
	0xb9, 0x26, 0x5c, 0xbf, 0x17, 0x04, 0xa3, 0x3e, 0x20, 0xac, 0x6a, 0xbe, 
	0x19, 0xa0, 0xbf, 0x3e, 0x48, 0xc7, 0x52, 0x3d, 0x47, 0x91, 0x2e, 0xbe, 
	0x96, 0x3d, 0x2f, 0x3e, 0xeb, 0x26, 0xeb, 0x3e, 0xe9, 0xae, 0x14, 0xbd, 
	0xe0, 0x16, 0x1d, 0x3d, 0x70, 0x48, 0xe1, 0x3c, 0x4e, 0x82, 0x07, 0x3e, 
	0x2e, 0x02, 0xba, 0x3e, 0xc4, 0x5f, 0x16, 0x3d, 0x4b, 0xe4, 0x1c, 0xbf, 
	0x3c, 0xda, 0xe5, 0x3c, 0x06, 0xd7, 0x0b, 0xbf, 0xb9, 0x6d, 0x86, 0x3e, 
	0x71, 0x3b, 0xa8, 0x3e, 0x2d, 0x7f, 0xb2, 0x3e, 0x63, 0x4c, 0x89, 0x3e, 
	0x59, 0x41, 0x9e, 0x3e, 0x1b, 0xf1, 0x8c, 0x3e, 0x02, 0x8d, 0x4d, 0x3d, 
	0x18, 0xfe, 0x47, 0x3e, 0x8e, 0xc1, 0x33, 0x3e, 0x53, 0x9e, 0x01, 0xbc, 
	0xb1, 0x8d, 0xae, 0xbe, 0x52, 0x2b, 0xd4, 0x3e, 0xbb, 0x6e, 0x8b, 0xbe, 
	0x73, 0x17, 0x50, 0xbd, 0xdc, 0x53, 0x3b, 0x3e, 0x55, 0x0f, 0x31, 0xbe, 
	0x01, 0x4c, 0xc4, 0xbe, 0x7f, 0xdc, 0xa4, 0x3e, 0xa0, 0xcf, 0x4a, 0x3c, 
	0x9f, 0xa3, 0x87, 0xbe, 0xc9, 0x61, 0x4b, 0xbe, 0x10, 0x7b, 0x14, 0x3d, 
	0x1f, 0x47, 0x42, 0xbe, 0xd4, 0xd3, 0x6b, 0x3d, 0xa7, 0x4b, 0x83, 0xbe, 
	0xdd, 0x83, 0x01, 0x3e, 0x70, 0x84, 0x80, 0x3d, 0x0b, 0x46, 0xc9, 0xbd, 
	0x85, 0x3e, 0x5f, 0xbd, 0x62, 0x8c, 0x4a, 0x3e, 0xbc, 0x4c, 0xb4, 0x3c, 
	0x69, 0x4f, 0xe8, 0x3e, 0x9b, 0x4c, 0xef, 0xbd, 0xf0, 0x28, 0x24, 0xbd, 
	0x13, 0xb6, 0xb7, 0x3e, 0xb8, 0xad, 0x6a, 0xbd, 0x35, 0xcf, 0x20, 0xbe, 
	0x51, 0x32, 0x28, 0xbe, 0xd4, 0x6a, 0x84, 0xbe, 0x37, 0x45, 0xdb, 0xbe, 
	0xf3, 0x4e, 0x12, 0x3f, 0x62, 0xef, 0x92, 0xbd, 0xf8, 0x36, 0x08, 0x3d, 
	0x8a, 0xd0, 0x43, 0x3e, 0xbe, 0x9d, 0x95, 0x3d, 0x16, 0x40, 0x6b, 0x3d, 
	0x9a, 0xba, 0x64, 0x3e, 0x48, 0x1c, 0xae, 0x3c, 0x4c, 0xf6, 0x9e, 0x3e, 
	0xd4, 0x55, 0xc5, 0xbd, 0x17, 0x38, 0x85, 0xbe, 0xce, 0x6e, 0x0e, 0x3e, 
	0xd1, 0xfd, 0xb7, 0x3e, 0x00, 0xd4, 0x6e, 0xbc, 0x2c, 0x95, 0x8e, 0x3e, 
	0xbb, 0xb7, 0xa9, 0x3e, 0x84, 0xb0, 0xa8, 0x3e, 0xb3, 0x16, 0x3a, 0xbe, 
	0xf0, 0xfd, 0x59, 0xbd, 0xe3, 0xd8, 0x1d, 0x3e, 0xeb, 0xaa, 0x1d, 0xbd, 
	0x46, 0x41, 0x8c, 0xbe, 0x45, 0x2a, 0x88, 0xbe, 0x91, 0xa4, 0x44, 0xbf, 
	0xea, 0x35, 0xf0, 0x3e, 0x26, 0xb9, 0x63, 0x3e, 0x22, 0x0a, 0xc6, 0x3e, 
	0x30, 0x23, 0xc5, 0xbd, 0xa5, 0x7e, 0x76, 0x3e, 0x40, 0x97, 0x24, 0xbd, 
	0xe3, 0x8f, 0x98, 0x3e, 0xfb, 0x76, 0x02, 0xbe, 0x7c, 0xc7, 0x0a, 0xbd, 
	0x69, 0x08, 0x3e, 0x3e, 0x50, 0xb6, 0x4c, 0xbe, 0x43, 0x03, 0x2d, 0xbe, 
	0x8a, 0xa4, 0x70, 0xbd, 0x23, 0x98, 0x51, 0xbf, 0x43, 0xba, 0x47, 0xbe, 
	0xaa, 0x4a, 0x81, 0xbf, 0x1d, 0x38, 0xf8, 0x3d, 0xf0, 0x7c, 0xf4, 0xbd, 
	0xfd, 0xc1, 0x81, 0x3d, 0x60, 0x99, 0x81, 0xbe, 0xc2, 0x5d, 0x15, 0xbf, 
	0x82, 0xe2, 0xb0, 0xbe, 0x0d, 0x41, 0xa4, 0x3e, 0x60, 0x9c, 0x34, 0x3d, 
	0xbe, 0xdc, 0xe8, 0x3d, 0x1b, 0x90, 0x1d, 0x3e, 0xb1, 0xcb, 0x80, 0x3e, 
	0x37, 0xcd, 0x6e, 0x3c, 0x82, 0x23, 0xba, 0xbe, 0xfc, 0x2f, 0x3b, 0xbe, 
	0x44, 0x21, 0x9a, 0xbd, 0xa8, 0xae, 0x3b, 0x3d, 0x5c, 0x58, 0x11, 0x3e, 
	0xc0, 0xa5, 0xae, 0x3d, 0x7f, 0x8c, 0x0f, 0x3e, 0x55, 0x49, 0x45, 0x3d, 
	0x0a, 0x9f, 0x07, 0x3f, 0x9f, 0x6e, 0x95, 0xbe, 0x63, 0x6c, 0xc4, 0x3d, 
	0xb7, 0xbb, 0xce, 0x3e, 0x60, 0xc2, 0x84, 0x3e, 0xae, 0x4f, 0xdf, 0xbb, 
	0x80, 0x60, 0x0a, 0xbb, 0x1a, 0xa7, 0x04, 0x3f, 0x77, 0xc2, 0xc8, 0xbc, 
	0x56, 0xd4, 0x4d, 0xbe, 0x3a, 0x81, 0x73, 0xbd, 0xa9, 0x47, 0x4f, 0xbe, 
	0x7d, 0x05, 0xa1, 0x3e, 0x97, 0x49, 0xa7, 0x3e, 0xdd, 0x86, 0xc9, 0x3e, 
	0x50, 0x8f, 0xb6, 0x3e, 0x41, 0x2a, 0xa1, 0x3e, 0x9c, 0x1e, 0x9d, 0xbe, 
	0x95, 0xf9, 0x0f, 0x3d, 0x54, 0x9b, 0x20, 0xbe, 0xd5, 0x30, 0xc8, 0x3d, 
	0x18, 0xf4, 0xe3, 0x3e, 0x12, 0x4d, 0x48, 0x3e, 0x80, 0xfc, 0xe8, 0x3d, 
	0x4d, 0xa0, 0x98, 0x3e, 0x31, 0xa2, 0x1b, 0xbf, 0x0b, 0x10, 0xad, 0x3c, 
	0x5e, 0x4c, 0x34, 0xbc, 0x83, 0x96, 0xd7, 0x3e, 0x92, 0x85, 0x3f, 0x3e, 
	0x51, 0x3e, 0xeb, 0x3d, 0x2d, 0xa5, 0x46, 0xbc, 0x28, 0x19, 0xdb, 0xbd, 
	0x0a, 0x39, 0x19, 0x3e, 0x38, 0x35, 0x0f, 0x3e, 0xc6, 0x79, 0xdf, 0x3e, 
	0x26, 0xe7, 0xe9, 0x3b, 0xdd, 0xd5, 0x02, 0x3f, 0xb4, 0x20, 0xe7, 0xbd, 
	0x16, 0xac, 0x82, 0x3e, 0x19, 0x82, 0xa6, 0x3d, 0xc7, 0x21, 0x28, 0xbe, 
	0xf1, 0x8f, 0x6b, 0xbe, 0x99, 0xa0, 0x9a, 0x3e, 0xb9, 0xa1, 0x22, 0x3e, 
	0x30, 0x58, 0x73, 0xbd, 0x70, 0x60, 0xf0, 0xbd, 0x87, 0x9d, 0x9a, 0xbe, 
	0x7c, 0x60, 0x85, 0xbd, 0xd6, 0x37, 0xaf, 0xbe, 0xa4, 0x0e, 0x0f, 0x3f, 
	0xc9, 0xa5, 0xa7, 0x3e, 0x34, 0x31, 0x07, 0xbd, 0x65, 0x4c, 0xdd, 0x3c, 
	0x57, 0x73, 0xa9, 0x3e, 0x5c, 0xb1, 0x79, 0x3e, 0x1c, 0x67, 0xb5, 0x3d, 
	0xf4, 0x1f, 0x01, 0xbf, 0x5e, 0x32, 0xeb, 0xbd, 0xac, 0x4e, 0xbc, 0xbe, 
	0xe9, 0x84, 0xaf, 0x3e, 0xd3, 0x86, 0x1a, 0xbe, 0xe5, 0x8f, 0x16, 0x3d, 
	0x9c, 0x54, 0x0d, 0x3e, 0x02, 0x77, 0x51, 0xbe, 0x40, 0x17, 0x93, 0xbd, 
	0xd2, 0x10, 0x12, 0xbf, 0xe9, 0xc0, 0xfe, 0x3e, 0x1e, 0x99, 0xd9, 0x3e, 
	0x90, 0xc6, 0x04, 0xbf, 0x29, 0x58, 0x88, 0x3e, 0xbe, 0xf4, 0xb6, 0xbe, 
	0x40, 0x45, 0xb3, 0x3e, 0xa8, 0xaa, 0x36, 0xbe, 0x03, 0xd0, 0x05, 0xbe, 
	0x8e, 0x59, 0xa0, 0xbe, 0x84, 0xaf, 0xb1, 0xbd, 0x86, 0x6e, 0xd7, 0xbd, 
	0xdb, 0xd1, 0xc8, 0xbb, 0xd0, 0xa6, 0x5e, 0x3d, 0x28, 0x36, 0xe0, 0xbd, 
	0xb1, 0x1e, 0x5f, 0xbe, 0x00, 0x78, 0x67, 0xba, 0x7a, 0xd5, 0x68, 0xbe, 
	0xca, 0xeb, 0x84, 0xbe, 0xa8, 0xd8, 0x89, 0xbd, 0x60, 0xe4, 0xb4, 0x3d, 
	0xe7, 0x61, 0x97, 0xbe, 0xad, 0xdb, 0x40, 0xbe, 0x0c, 0xc9, 0x87, 0xbe, 
	0x0c, 0xb3, 0xa1, 0xbd, 0x9e, 0x6d, 0x25, 0xbe, 0xb8, 0x39, 0x96, 0xbd, 
	0xf4, 0x77, 0xe5, 0x3d, 0x3e, 0xb6, 0xd4, 0x3e, 0x73, 0x47, 0x5c, 0x3e, 
	0x7e, 0x62, 0xfc, 0x3e, 0x40, 0xbb, 0x0b, 0x3e, 0x7d, 0xb0, 0x14, 0x3f, 
	0x0e, 0x1f, 0xe7, 0x3e, 0x86, 0x4f, 0xc1, 0x3b, 0xef, 0x63, 0x0b, 0xbe, 
	0x21, 0x55, 0x89, 0x3e, 0x9d, 0x3f, 0x92, 0x3e, 0xb3, 0x20, 0xa9, 0x3e, 
	0x50, 0xb4, 0x2f, 0xbe, 0x6c, 0x11, 0x5f, 0x3d, 0xe3, 0x34, 0x83, 0xbd, 
	0xd0, 0xb4, 0x91, 0x3d, 0x05, 0xf6, 0xaa, 0x3e, 0x41, 0x0b, 0xf3, 0x3e, 
	0xe4, 0xfc, 0x9e, 0xbd, 0x8f, 0xfc, 0xe7, 0x3e, 0xb0, 0x6e, 0xb1, 0xbd, 
	0x35, 0xca, 0x69, 0xbe, 0x32, 0x94, 0x84, 0xbe, 0xf9, 0xe7, 0x9b, 0x3d, 
	0x7b, 0xc0, 0x7f, 0xbe, 0x96, 0xe6, 0x2b, 0x3e, 0x98, 0x68, 0x36, 0x3e, 
	0x3c, 0xd4, 0xee, 0xbe, 0xf2, 0x06, 0x9a, 0xbd, 0x4a, 0x27, 0x29, 0x3e, 
	0xf1, 0xd3, 0xb1, 0xbe, 0xed, 0x1f, 0xd3, 0x3e, 0x25, 0x4d, 0x9f, 0x3e, 
	0x28, 0x99, 0x8c, 0xbc, 0x78, 0xe8, 0x82, 0xbe, 0x7e, 0x36, 0x01, 0x3f, 
	0x54, 0xa2, 0x13, 0x3e, 0xf7, 0xe5, 0x7e, 0x3d, 0xb8, 0x0a, 0x9b, 0xbd, 
	0x22, 0x22, 0x4f, 0x3e, 0x4d, 0xe6, 0x63, 0x3e, 0x80, 0xc4, 0x55, 0x3b, 
	0xbf, 0x33, 0xf4, 0x3e, 0xd1, 0x34, 0xdc, 0xbc, 0x25, 0x40, 0x49, 0xbe, 
	0x97, 0x99, 0xb4, 0x3e, 0x47, 0x1c, 0x7b, 0xbe, 0x3b, 0x36, 0xc2, 0x3e, 
	0x51, 0xe4, 0x8d, 0xbe, 0xfc, 0xeb, 0x14, 0x3d, 0x3f, 0x02, 0xb1, 0x3c, 
	0x1e, 0x3e, 0x8d, 0x3e, 0x16, 0x87, 0x6a, 0x3e, 0x9e, 0x1b, 0xf3, 0x3e, 
	0x9d, 0x92, 0x0c, 0x3e, 0x89, 0x5f, 0x0c, 0xbe, 0x43, 0x66, 0x05, 0x3f, 
	0x8e, 0xe7, 0x57, 0x3e, 0x60, 0xaa, 0x0d, 0x3e, 0xe2, 0x6e, 0x1d, 0xbe, 
	0x0d, 0xe3, 0xce, 0xbd, 0x6d, 0xcc, 0x69, 0xbe, 0x19, 0x69, 0xd9, 0xbe, 
	0x7b, 0x3e, 0xb1, 0xbd, 0x98, 0xc3, 0xb2, 0xbd, 0x38, 0x65, 0x26, 0x3e, 
	0x87, 0x9f, 0x30, 0x3e, 0xf2, 0x6d, 0x0b, 0xbf, 0x47, 0x0c, 0x82, 0x3e, 
	0x4a, 0xcf, 0x93, 0xbd, 0xe8, 0x54, 0xf1, 0x3e, 0x29, 0x49, 0xaf, 0xbe, 
	0x5c, 0x53, 0x92, 0xbc, 0xe2, 0x6c, 0x05, 0xbe, 0x9a, 0xab, 0xe7, 0xbe, 
	0x8e, 0xc3, 0x9b, 0x3e, 0xad, 0xf0, 0x56, 0xbf, 0x68, 0x0e, 0x62, 0x3e, 
	0x30, 0x14, 0x4b, 0xbf, 0xe3, 0xe6, 0xe0, 0x3e, 0xf0, 0x8c, 0xcf, 0xbd, 
	0x67, 0xb2, 0x44, 0x3e, 0x5f, 0x41, 0xce, 0xbc, 0x87, 0x08, 0xca, 0x3e, 
	0x98, 0xd5, 0x8a, 0xbe, 0xe8, 0x0d, 0x1a, 0x3e, 0x8c, 0x30, 0xa4, 0x3e, 
	0x9a, 0x16, 0xdc, 0x3e, 0xd1, 0x5a, 0x8b, 0x3e, 0x74, 0x37, 0x7e, 0xbe, 
	0x73, 0x7a, 0x59, 0x3e, 0xe2, 0xff, 0xb5, 0x3e, 0x22, 0xef, 0x9a, 0xbe, 
	0x1c, 0x82, 0xe7, 0xbd, 0x53, 0x8d, 0x8f, 0xbe, 0x4f, 0x33, 0x87, 0x3e, 
	0x03, 0xf5, 0x95, 0x3e, 0x7f, 0x59, 0x8c, 0xbd, 0x12, 0x8c, 0x18, 0x3e, 
	0xa3, 0x90, 0xa0, 0x3d, 0xb0, 0xf4, 0x2b, 0xbe, 0x18, 0x32, 0xb8, 0x3e, 
	0x61, 0x49, 0x8f, 0x3e, 0xbb, 0x3b, 0xbe, 0xbc, 0x6f, 0xa1, 0x00, 0x3f, 
	0x3e, 0x13, 0x14, 0x3e, 0x2f, 0xd1, 0x96, 0x3e, 0xc4, 0xed, 0xdc, 0xbd, 
	0x99, 0x50, 0xcd, 0xbe, 0x6a, 0x8b, 0x02, 0xbe, 0x3c, 0xe8, 0x85, 0xbe, 
	0xcc, 0x7d, 0x39, 0x3c, 0xcb, 0x68, 0x01, 0xbe, 0x30, 0xb8, 0xd3, 0xbe, 
	0x4a, 0x25, 0x68, 0x3e, 0xa4, 0x75, 0xb8, 0x3e, 0xea, 0x56, 0x45, 0x3e, 
	0xec, 0x77, 0xdc, 0xbd, 0x85, 0x5d, 0x23, 0xbe, 0x6b, 0xea, 0x40, 0xbd, 
	0xee, 0x47, 0x6f, 0x3c, 0xc6, 0xce, 0x1a, 0x3e, 0xbe, 0xdf, 0x29, 0x3f, 
	0xad, 0x1d, 0x3a, 0x3e, 0x1c, 0x8f, 0x28, 0xbf, 0x84, 0xb5, 0xed, 0xbc, 
	0x93, 0xc7, 0x37, 0xbf, 0x52, 0xdd, 0xcb, 0x3e, 0xfd, 0xeb, 0x3f, 0xbe, 
	0xa5, 0xe3, 0xbe, 0x3e, 0x0a, 0x62, 0x6a, 0xbe, 0xcd, 0x7d, 0x3e, 0xbd, 
	0xc5, 0x38, 0x8c, 0x3e, 0xd4, 0x76, 0xea, 0x3e, 0x19, 0x39, 0xff, 0x3d, 
	0x89, 0x9c, 0xd1, 0x3e, 0xe0, 0x17, 0x64, 0x3e, 0x4b, 0x66, 0x9d, 0xbe, 
	0xc5, 0x3c, 0x10, 0x3e, 0x1b, 0x36, 0x06, 0x3e, 0x1e, 0xed, 0xea, 0xbe, 
	0x87, 0xde, 0x0d, 0xbd, 0xef, 0x97, 0x11, 0x3c, 0x0e, 0x75, 0xd1, 0x3e, 
	0x2c, 0x62, 0x7d, 0xbe, 0x1b, 0x6f, 0x71, 0xbf, 0xc0, 0x91, 0xdc, 0xbc, 
	0x2d, 0x2b, 0x75, 0xbe, 0x96, 0x19, 0x94, 0xbe, 0xcc, 0xe8, 0xc9, 0x3d, 
	0x0c, 0xcf, 0xed, 0x3c, 0xe6, 0xd8, 0xa2, 0x3d, 0x65, 0xc7, 0xe2, 0x3e, 
	0x70, 0xca, 0x9f, 0x3d, 0x9c, 0x0b, 0xf7, 0xbd, 0xdc, 0x9d, 0xdd, 0x3e, 
	0x2d, 0xdb, 0x35, 0x3d, 0xef, 0xd0, 0x0c, 0x3c, 0xd4, 0xdc, 0xc0, 0xbd, 
	0xf6, 0xf3, 0xff, 0xff, 0x10, 0x00, 0x00, 0x00, 0x05, 0x00, 0x00, 0x00, 
	0x14, 0x00, 0x00, 0x00, 0x2c, 0x00, 0x00, 0x00, 0x02, 0x00, 0x00, 0x00, 
	0x20, 0x00, 0x00, 0x00, 0x10, 0x00, 0x00, 0x00, 0x16, 0x00, 0x00, 0x00, 
	0x6d, 0x6f, 0x64, 0x65, 0x6c, 0x5f, 0x34, 0x2f, 0x64, 0x65, 0x6e, 0x73, 
	0x65, 0x5f, 0x35, 0x2f, 0x4d, 0x61, 0x74, 0x4d, 0x75, 0x6c, 0x00, 0x00, 
	0xf4, 0xf3, 0xff, 0xff, 0xda, 0xf4, 0xff, 0xff, 0x04, 0x00, 0x00, 0x00, 
	0x00, 0x0a, 0x00, 0x00, 0xa2, 0x98, 0xa3, 0xbe, 0xb2, 0x34, 0x1b, 0x3e, 
	0x14, 0xa1, 0x27, 0xbe, 0x65, 0x8e, 0x1b, 0x3e, 0x5c, 0x72, 0x5b, 0x3d, 
	0x4b, 0xf0, 0x0d, 0x3e, 0x40, 0xb7, 0x33, 0xbd, 0x8e, 0x62, 0x9f, 0x3d, 
	0x89, 0x18, 0xfd, 0xbd, 0xbb, 0x72, 0xce, 0x3e, 0xa1, 0xd1, 0x9e, 0xbe, 
	0xdb, 0x1b, 0x52, 0x3e, 0x43, 0xe8, 0xc3, 0xbe, 0xa2, 0x08, 0x80, 0x3e, 
	0x04, 0x59, 0xca, 0xbe, 0xb1, 0x4f, 0x3d, 0x3e, 0x1b, 0xef, 0xc2, 0xbe, 
	0x6c, 0x1e, 0xad, 0x3e, 0x67, 0x20, 0xee, 0x3d, 0x84, 0xcd, 0x4a, 0x3d, 
	0x7c, 0x93, 0xa7, 0xbe, 0xa6, 0xc7, 0x11, 0xbe, 0x1a, 0xdb, 0x3b, 0xbe, 
	0x8f, 0x17, 0x82, 0x3e, 0x44, 0xf9, 0xa0, 0xbe, 0x8f, 0x93, 0xf6, 0x3e, 
	0x44, 0xc5, 0xbf, 0xbe, 0x74, 0xa0, 0xe2, 0x3e, 0x72, 0x56, 0x90, 0x3d, 
	0x68, 0x9e, 0x97, 0x3d, 0xb8, 0x0e, 0x80, 0xbe, 0xac, 0x0e, 0x58, 0x3e, 
	0xce, 0x51, 0xb2, 0x3d, 0xdb, 0x56, 0xfe, 0x3e, 0x1b, 0xe0, 0x22, 0xbe, 
	0xd4, 0xf3, 0x9b, 0x3c, 0x86, 0xa0, 0x5a, 0xbe, 0x59, 0x7a, 0x05, 0x3d, 
	0xba, 0x15, 0xcb, 0xbd, 0x50, 0x92, 0x72, 0xbd, 0x79, 0x85, 0x76, 0xbe, 
	0x54, 0x0d, 0x76, 0x3e, 0x05, 0x0c, 0x1f, 0xbe, 0x70, 0x50, 0x84, 0x3d, 
	0x10, 0x6b, 0x7f, 0x3d, 0x98, 0xcf, 0xf8, 0x3d, 0x86, 0x88, 0xbe, 0xbd, 
	0x08, 0x01, 0x6e, 0xbd, 0xde, 0xc4, 0x9e, 0xbd, 0xda, 0x68, 0xcd, 0xbd, 
	0x50, 0x72, 0x7e, 0x3e, 0x53, 0xc8, 0x1c, 0xbe, 0xde, 0xa0, 0x84, 0x3e, 
	0x24, 0xda, 0x86, 0x3d, 0xbc, 0x3d, 0x82, 0x3e, 0x44, 0xcd, 0x94, 0xbe, 
	0xe4, 0xd9, 0xe3, 0xbd, 0x50, 0x39, 0x7f, 0xbd, 0x86, 0x7d, 0x84, 0xbe, 
	0xbc, 0x9f, 0xab, 0xbd, 0xd5, 0x36, 0x72, 0xbe, 0x14, 0xeb, 0x64, 0x3e, 
	0x60, 0xd0, 0x0f, 0xbc, 0x1e, 0xdb, 0x83, 0xbe, 0x4e, 0x40, 0xa5, 0xbe, 
	0xc0, 0x87, 0xb6, 0xbd, 0x30, 0xf3, 0xfb, 0x3d, 0xcb, 0xda, 0x84, 0xbe, 
	0xbe, 0x1f, 0x1f, 0x3e, 0xc8, 0xdc, 0x14, 0x3e, 0xa1, 0xde, 0x85, 0xbe, 
	0xb8, 0x4d, 0x76, 0x3d, 0xcf, 0xc5, 0x43, 0xbe, 0x08, 0xb2, 0x33, 0xbd, 
	0x60, 0x89, 0x9a, 0xbd, 0xf0, 0x72, 0x9d, 0x3d, 0xc0, 0xc0, 0x01, 0x3c, 
	0x36, 0xae, 0xa0, 0x3e, 0x88, 0xb4, 0x4c, 0xbd, 0x90, 0x1b, 0x3f, 0x3d, 
	0xa4, 0x7f, 0xf5, 0xbd, 0x62, 0xff, 0x0d, 0x3d, 0xf1, 0xd2, 0x65, 0x3d, 
	0x32, 0x15, 0x03, 0x3f, 0x3f, 0x4a, 0x7d, 0xbb, 0xf6, 0xb6, 0x45, 0x3e, 
	0x2b, 0xef, 0x8f, 0x3e, 0x1e, 0xca, 0x74, 0xbd, 0x2e, 0xc8, 0x8e, 0xbe, 
	0xe5, 0xfc, 0xcb, 0x3e, 0x8a, 0x50, 0x6a, 0x3c, 0x7f, 0x47, 0xe8, 0x3e, 
	0x7a, 0x5a, 0x97, 0x3e, 0x64, 0x73, 0xcf, 0x3e, 0xb1, 0x0b, 0x73, 0xbe, 
	0xfc, 0xd8, 0x91, 0x3e, 0x92, 0x63, 0x88, 0xbe, 0xf6, 0x8f, 0xd0, 0x3d, 
	0x93, 0x4d, 0xbc, 0xbe, 0xb4, 0xd9, 0x73, 0x3d, 0xb5, 0x07, 0x93, 0xbc, 
	0xf8, 0x10, 0x02, 0x3f, 0x9d, 0xda, 0x1b, 0x3e, 0xd6, 0x5f, 0x46, 0x3e, 
	0xed, 0x63, 0xb0, 0xbe, 0x9f, 0xed, 0x59, 0x3e, 0x65, 0x50, 0x9e, 0x3c, 
	0xa4, 0x81, 0x80, 0x3e, 0x6c, 0x6e, 0x62, 0x3e, 0xa6, 0x3a, 0x6c, 0x3e, 
	0x51, 0xbe, 0x27, 0x3e, 0x2f, 0xd0, 0x08, 0x3f, 0xb8, 0xff, 0x25, 0x3e, 
	0x83, 0xc7, 0x69, 0x3e, 0x5d, 0x3e, 0x29, 0xbe, 0x78, 0x61, 0x08, 0x3f, 
	0x6f, 0x27, 0xc4, 0x3c, 0xf7, 0xaf, 0x3a, 0x3e, 0x26, 0x44, 0xae, 0xbc, 
	0x59, 0x49, 0xd6, 0x3e, 0x4b, 0x37, 0x5e, 0xbd, 0x22, 0x43, 0x6c, 0x3e, 
	0x30, 0x5f, 0xd5, 0x3d, 0x4f, 0x35, 0x9e, 0xbe, 0x86, 0x97, 0x97, 0x3b, 
	0x36, 0xfe, 0x87, 0x3e, 0xcb, 0x30, 0xad, 0xbe, 0xe1, 0xa1, 0x8c, 0xbe, 
	0x88, 0x5d, 0x7f, 0x3e, 0x0f, 0xae, 0xef, 0x3d, 0xdb, 0xb3, 0xd9, 0xbc, 
	0x27, 0xa5, 0x6c, 0x3e, 0xe3, 0x42, 0xf9, 0xbd, 0x3e, 0xa3, 0x30, 0x3c, 
	0xf9, 0x08, 0x49, 0x3e, 0x8d, 0xfe, 0x2b, 0x3e, 0xce, 0x2a, 0x6c, 0xbe, 
	0x52, 0x63, 0xd8, 0x3d, 0x54, 0xca, 0x10, 0xbd, 0x40, 0x1b, 0xa0, 0xbe, 
	0x0a, 0x5b, 0x1d, 0xbe, 0xd2, 0x4c, 0x0b, 0xbe, 0xca, 0x2b, 0x2c, 0xbe, 
	0x3c, 0x12, 0xbb, 0x3c, 0x86, 0xb2, 0x7a, 0xbe, 0x6c, 0x17, 0x1b, 0x3e, 
	0x50, 0xe3, 0xaa, 0xbe, 0xe6, 0x24, 0x93, 0xbe, 0x70, 0x4e, 0x9a, 0xbe, 
	0xc8, 0x63, 0x18, 0x3e, 0x45, 0x65, 0x0e, 0xbe, 0x9a, 0xc7, 0x0d, 0xbe, 
	0x1a, 0x1a, 0x7c, 0x3e, 0xda, 0xb1, 0x63, 0x3d, 0xb2, 0xe1, 0x14, 0x3d, 
	0x90, 0xb6, 0x36, 0x3d, 0x45, 0xbf, 0x72, 0xbd, 0xa4, 0x84, 0xe9, 0xbd, 
	0x20, 0x69, 0x7a, 0xbd, 0x42, 0x84, 0x39, 0x3e, 0x60, 0x61, 0x50, 0x3e, 
	0xfe, 0x26, 0xc7, 0x3e, 0xd0, 0xdc, 0xc3, 0x3c, 0xbd, 0xf4, 0xd2, 0x3e, 
	0x3c, 0x3a, 0x51, 0x3e, 0xd4, 0x0d, 0x00, 0x3e, 0x5e, 0x8b, 0xbc, 0xbe, 
	0xcd, 0xaa, 0xa5, 0x3d, 0xe2, 0xb3, 0x71, 0xbd, 0x99, 0x1e, 0xec, 0x3e, 
	0xd5, 0x61, 0xae, 0xbe, 0x1a, 0xc8, 0xb3, 0x3d, 0x88, 0xf7, 0x2b, 0x3d, 
	0xf2, 0x2c, 0x82, 0x3c, 0xe2, 0xfb, 0xae, 0xbd, 0x78, 0x90, 0xb1, 0x3e, 
	0x4d, 0x30, 0x3f, 0xbe, 0x25, 0x70, 0xcd, 0x3e, 0x4d, 0x5a, 0x78, 0xbe, 
	0x15, 0xf5, 0xa2, 0x3c, 0x5f, 0x70, 0x84, 0xbd, 0xe9, 0xcf, 0xc8, 0x3e, 
	0xa8, 0x76, 0xad, 0xbe, 0xf8, 0x1e, 0xcf, 0x3e, 0x7d, 0xca, 0x6f, 0xbe, 
	0xd4, 0xed, 0xb3, 0x3e, 0x1c, 0x00, 0x2f, 0xbe, 0xd0, 0x4b, 0x00, 0x3f, 
	0x27, 0xed, 0xeb, 0xbe, 0x09, 0xaa, 0xe7, 0xbc, 0x09, 0x5a, 0x40, 0xbe, 
	0x70, 0x0c, 0x8e, 0xbd, 0xeb, 0x16, 0xa1, 0xbb, 0x4e, 0x2b, 0x05, 0x3f, 
	0x44, 0xa9, 0x85, 0xbe, 0x87, 0x42, 0x94, 0x3e, 0x87, 0x50, 0xed, 0xbe, 
	0xc0, 0x84, 0x22, 0xbb, 0x27, 0xaa, 0xd7, 0x3d, 0x64, 0xc3, 0x0f, 0xbd, 
	0x8c, 0xed, 0x80, 0x3d, 0x62, 0xf8, 0x20, 0xbe, 0x6a, 0xcd, 0x33, 0xbe, 
	0xc8, 0x77, 0xb9, 0xbd, 0x00, 0x3c, 0x03, 0xbd, 0x30, 0x1f, 0x91, 0xbd, 
	0xf0, 0x6c, 0x5f, 0x3d, 0xb1, 0x9e, 0x5c, 0xbe, 0xce, 0xe9, 0x94, 0x3e, 
	0x04, 0x0f, 0x0e, 0xbe, 0xd0, 0x97, 0x51, 0xbd, 0xe0, 0x2d, 0x9f, 0xbc, 
	0xf7, 0xb7, 0x55, 0xbe, 0x1f, 0x6d, 0x93, 0xbe, 0x70, 0x08, 0x3a, 0xbe, 
	0xbe, 0xa9, 0x22, 0xbe, 0x42, 0x53, 0xfd, 0xbd, 0x3d, 0x4d, 0x97, 0xbe, 
	0x68, 0x26, 0x3b, 0x3d, 0x17, 0xd4, 0x9d, 0xbe, 0xb0, 0x66, 0x9b, 0x3e, 
	0xf2, 0xf9, 0xbe, 0xbd, 0x40, 0x91, 0xb9, 0xbc, 0xdc, 0x55, 0xc1, 0xbd, 
	0xe1, 0x17, 0xa2, 0xbe, 0xd1, 0x1e, 0x07, 0xbe, 0x00, 0xfb, 0x1a, 0xbc, 
	0x21, 0x1e, 0x2d, 0xbe, 0x4f, 0xf8, 0x96, 0xbe, 0xb8, 0xaa, 0x01, 0xbd, 
	0x00, 0xdb, 0x8e, 0x3b, 0x84, 0x31, 0xdb, 0xbd, 0x40, 0xb4, 0x7a, 0x3c, 
	0xcc, 0x3b, 0x49, 0x3e, 0x64, 0x87, 0xea, 0x3d, 0xf8, 0xeb, 0xb8, 0xbd, 
	0x7a, 0x8a, 0xd8, 0xbd, 0xec, 0x17, 0x4b, 0x3e, 0x88, 0xf9, 0x64, 0xbd, 
	0x9c, 0xec, 0xa7, 0xbd, 0x87, 0x3a, 0x49, 0xbe, 0x87, 0x09, 0x97, 0x3e, 
	0xba, 0xee, 0x93, 0x3d, 0xff, 0xc4, 0x5f, 0x3c, 0xba, 0xfc, 0xb7, 0xbe, 
	0x99, 0x70, 0x7c, 0xbd, 0x9a, 0xee, 0x62, 0x3e, 0x0a, 0x7a, 0xf3, 0x3e, 
	0x6f, 0x67, 0x8e, 0xbe, 0xd6, 0x11, 0x07, 0x3e, 0x92, 0x2a, 0x89, 0xbe, 
	0x21, 0xcf, 0xf4, 0x3e, 0x84, 0x1d, 0x15, 0xbd, 0x53, 0x26, 0xd5, 0x3d, 
	0x5e, 0xc7, 0x31, 0x3d, 0x61, 0xa8, 0xf0, 0x3e, 0x14, 0x06, 0x08, 0x3c, 
	0x10, 0xf0, 0x8f, 0x3e, 0xc1, 0x81, 0xa0, 0xbe, 0x37, 0xf4, 0x7c, 0x3e, 
	0x8b, 0x3f, 0xb7, 0xba, 0xe6, 0x9a, 0x96, 0x3d, 0x78, 0xe1, 0x6f, 0xbe, 
	0x87, 0xce, 0xe9, 0xbd, 0x17, 0xf8, 0xc8, 0xbe, 0x4f, 0x08, 0x9d, 0x3e, 
	0x07, 0x37, 0x1a, 0xbe, 0x7f, 0x04, 0xf3, 0x3e, 0xd8, 0x9e, 0xb4, 0xbe, 
	0x96, 0xc4, 0x8e, 0x3e, 0xd9, 0x1f, 0xd5, 0xbe, 0xdc, 0xbc, 0xc4, 0x3e, 
	0x9a, 0xce, 0xf6, 0xbe, 0x43, 0xbf, 0x35, 0x3e, 0x65, 0x7b, 0x6f, 0xbe, 
	0x57, 0x24, 0x04, 0x3e, 0x7d, 0xdc, 0xac, 0xbe, 0x9a, 0xa9, 0x0e, 0x3f, 
	0xc9, 0x5e, 0xaa, 0xbe, 0xe8, 0x4c, 0xef, 0x3e, 0x25, 0x4c, 0x00, 0xbe, 
	0xf8, 0xf8, 0xaa, 0x3e, 0x51, 0x31, 0x5b, 0x3e, 0x0c, 0x54, 0xdf, 0x3e, 
	0x70, 0xbd, 0x66, 0x3e, 0x74, 0x8d, 0x0c, 0x3e, 0xcb, 0xc4, 0x3b, 0x3e, 
	0x66, 0x3b, 0x97, 0xbb, 0x3c, 0xef, 0x9a, 0xbe, 0x48, 0xe2, 0x12, 0x3f, 
	0xcd, 0xf4, 0xaa, 0xbe, 0xd0, 0x0f, 0xc5, 0x3e, 0x4e, 0x81, 0xcb, 0xbc, 
	0x0f, 0x03, 0x9e, 0x3e, 0xad, 0xde, 0x35, 0x3c, 0xce, 0x54, 0xc2, 0x3e, 
	0x1e, 0x56, 0x5d, 0xbe, 0x36, 0x52, 0xc6, 0x3e, 0x98, 0xe8, 0x2e, 0x3e, 
	0x88, 0xff, 0xc4, 0x3e, 0x2c, 0xdc, 0x8f, 0x3d, 0xc4, 0xfe, 0x18, 0x3e, 
	0x37, 0x4c, 0x40, 0x3e, 0x0a, 0x8a, 0x85, 0x3e, 0xb6, 0x5c, 0x3d, 0xbd, 
	0xa7, 0xc7, 0xc0, 0x3e, 0x6f, 0x70, 0x8b, 0x3d, 0x76, 0x20, 0xb3, 0x3e, 
	0x7e, 0x0a, 0x42, 0xbe, 0x5e, 0x6a, 0xd8, 0x3e, 0x93, 0xd1, 0x13, 0xbe, 
	0xf0, 0xc5, 0x1b, 0x3f, 0xde, 0xdc, 0x27, 0x3e, 0x67, 0xd0, 0x04, 0x3f, 
	0xb5, 0x73, 0x4d, 0xbe, 0xc6, 0x31, 0x99, 0x3e, 0x1d, 0xa8, 0xdf, 0xbe, 
	0x1f, 0x6a, 0x28, 0x3f, 0x36, 0x21, 0x2d, 0x3c, 0x6e, 0x8a, 0xec, 0x3e, 
	0x29, 0xd5, 0x11, 0xbe, 0x8a, 0x9f, 0x1e, 0x3d, 0xc6, 0x3e, 0x9d, 0xbe, 
	0xc6, 0x33, 0x57, 0x3e, 0x3c, 0x11, 0x2b, 0x3d, 0xd5, 0x91, 0xb8, 0x3e, 
	0xa5, 0x36, 0x35, 0xbd, 0xfb, 0x0d, 0x1e, 0x3e, 0x8e, 0xf1, 0xab, 0xbe, 
	0xc5, 0x46, 0x8f, 0x3d, 0xff, 0xf2, 0x8e, 0xbe, 0x7f, 0x56, 0xde, 0xbc, 
	0x71, 0xf5, 0x9e, 0xbe, 0x64, 0x0d, 0x8e, 0x3e, 0x83, 0xa6, 0x79, 0xbe, 
	0xda, 0x30, 0x32, 0x3e, 0x60, 0xe9, 0xcb, 0x3d, 0xa9, 0x27, 0x64, 0x3d, 
	0x48, 0xe7, 0x12, 0xbc, 0x90, 0x65, 0xc2, 0xbd, 0xe4, 0xca, 0xde, 0x3d, 
	0x53, 0x95, 0xe9, 0x3e, 0x21, 0xa0, 0x09, 0x3e, 0x37, 0x92, 0x38, 0x3e, 
	0x40, 0x6e, 0x8d, 0x3d, 0x1e, 0xb6, 0x12, 0x3e, 0x42, 0x8b, 0x3b, 0x3c, 
	0x72, 0xa7, 0x8d, 0x3e, 0x73, 0x0f, 0xed, 0xbe, 0xc4, 0x06, 0xfc, 0x3e, 
	0x6a, 0x68, 0x7c, 0xbe, 0xfc, 0x5b, 0x9c, 0x3e, 0xb1, 0x45, 0xd7, 0xbe, 
	0x62, 0x4a, 0xc1, 0x3e, 0x5b, 0xb3, 0xf4, 0xbe, 0xb1, 0x64, 0x83, 0x3e, 
	0x5e, 0x65, 0xf8, 0x3d, 0x60, 0x61, 0x8b, 0x3e, 0x19, 0xa8, 0x05, 0xbf, 
	0xa2, 0x08, 0xba, 0x3e, 0xaa, 0x64, 0x6e, 0xbe, 0xdc, 0xf8, 0xd7, 0x3e, 
	0x40, 0xdc, 0x93, 0x3e, 0xdc, 0x40, 0xe9, 0x3e, 0x44, 0x2c, 0xa3, 0x3c, 
	0x1f, 0xdd, 0x3d, 0x3e, 0x81, 0xb0, 0x91, 0x3e, 0x65, 0x34, 0x04, 0x3f, 
	0x06, 0x82, 0x1d, 0xbe, 0x53, 0x82, 0x1c, 0xbd, 0x9c, 0xb9, 0xc4, 0x3c, 
	0x1a, 0x38, 0x1a, 0x3f, 0x08, 0x0f, 0x68, 0x3e, 0x6b, 0xf7, 0x00, 0x3f, 
	0x8e, 0x7c, 0x33, 0x3e, 0xa9, 0x3e, 0xc1, 0x3d, 0x7f, 0x68, 0x1b, 0xbe, 
	0x95, 0x12, 0xb8, 0x3e, 0x39, 0xd7, 0x19, 0xbe, 0x91, 0x87, 0xa9, 0x3e, 
	0x77, 0x57, 0x92, 0xbe, 0x79, 0xb6, 0x13, 0x3f, 0x88, 0xb7, 0x85, 0xbc, 
	0x02, 0x51, 0x08, 0x3f, 0xe3, 0x0b, 0xaa, 0xbc, 0xcc, 0xab, 0x93, 0x3e, 
	0x98, 0x3e, 0xd7, 0xbc, 0x83, 0x37, 0x9c, 0x3c, 0x30, 0x74, 0xf1, 0x3d, 
	0xa0, 0x6b, 0xd4, 0x3e, 0xff, 0x3f, 0x56, 0xbe, 0xeb, 0xfa, 0xd4, 0x3e, 
	0x51, 0x12, 0x08, 0x3e, 0x9f, 0xbe, 0xaa, 0x3d, 0x5d, 0xb6, 0xb7, 0x3c, 
	0x2e, 0xe0, 0x6b, 0x3e, 0x66, 0xf0, 0xa3, 0x3c, 0x6f, 0x93, 0x08, 0x3e, 
	0x3f, 0xec, 0x62, 0xbd, 0x5f, 0x59, 0x3d, 0x3e, 0xd0, 0x59, 0xf9, 0xbc, 
	0x76, 0x81, 0x9d, 0x3e, 0x36, 0x9c, 0x6f, 0xbe, 0x2f, 0xaa, 0x6f, 0xbe, 
	0xb3, 0xc2, 0x68, 0xbe, 0x82, 0x01, 0xa3, 0xbe, 0x50, 0x27, 0x1b, 0xbd, 
	0x18, 0x7a, 0x1f, 0x3d, 0x60, 0x09, 0xb1, 0x3c, 0x80, 0x04, 0x9a, 0x3e, 
	0xd8, 0xaa, 0x8f, 0xbe, 0x0e, 0x53, 0x8a, 0x3e, 0x84, 0x8e, 0x28, 0x3e, 
	0x3a, 0x15, 0x46, 0xbe, 0xb4, 0x60, 0x47, 0x3e, 0xa6, 0x28, 0x3b, 0xbe, 
	0x1a, 0xc7, 0xa8, 0xbd, 0xec, 0x69, 0x92, 0x3e, 0x37, 0xd3, 0x91, 0xbe, 
	0xfc, 0xf1, 0x11, 0xbe, 0x52, 0x93, 0xd5, 0xbd, 0x96, 0xec, 0x99, 0x3e, 
	0x8c, 0x85, 0x9f, 0x3d, 0x07, 0xf2, 0x63, 0xbe, 0x90, 0xd2, 0x37, 0xbd, 
	0xbc, 0x88, 0xba, 0x3d, 0xf8, 0xca, 0x61, 0x3d, 0x2f, 0x82, 0x97, 0xbe, 
	0xde, 0x2a, 0x93, 0x3e, 0x8c, 0x6e, 0xe9, 0xbd, 0xb4, 0xed, 0xe1, 0x3d, 
	0x70, 0xd9, 0xf0, 0x3c, 0x22, 0x7f, 0x0d, 0xbe, 0x79, 0xbd, 0x97, 0xbe, 
	0x18, 0x86, 0xd3, 0x3d, 0x76, 0x96, 0xa4, 0xbe, 0x6c, 0x53, 0xc6, 0xbd, 
	0x1a, 0xe0, 0x88, 0x3e, 0x00, 0x6a, 0xf8, 0xbd, 0x38, 0x72, 0x20, 0x3e, 
	0x98, 0x7d, 0x1d, 0xbd, 0x13, 0x2e, 0xc6, 0x3e, 0x8f, 0xab, 0x13, 0x3e, 
	0x79, 0x4c, 0xd8, 0x3e, 0x0c, 0xfa, 0xa2, 0xbe, 0x2b, 0xd1, 0x9e, 0x3e, 
	0x33, 0x7f, 0x19, 0x3e, 0xdb, 0x03, 0x8e, 0x3e, 0x22, 0xb7, 0x80, 0xbe, 
	0x42, 0x41, 0xda, 0x3e, 0x50, 0xa1, 0xd6, 0x3a, 0x9f, 0x36, 0xe0, 0xbd, 
	0xe1, 0x4b, 0xc6, 0xbe, 0x3d, 0x89, 0xcc, 0x3e, 0x1e, 0x8f, 0xb4, 0xbe, 
	0x12, 0xb8, 0x26, 0x3e, 0xde, 0xcb, 0xcd, 0xbe, 0xca, 0x3c, 0x40, 0x3d, 
	0x2a, 0xb1, 0xdf, 0xbe, 0x69, 0xdf, 0x7e, 0x3e, 0xd1, 0xbd, 0x3b, 0x3e, 
	0x61, 0x82, 0x9b, 0x3e, 0x68, 0xa6, 0xbb, 0xbe, 0xaf, 0xa1, 0xb5, 0x3e, 
	0xd5, 0x4e, 0xe3, 0xbd, 0xcb, 0xd9, 0x0b, 0x3f, 0x7d, 0x87, 0x09, 0x3e, 
	0x24, 0x3a, 0x04, 0x3f, 0x9f, 0x64, 0x8b, 0xbe, 0x06, 0x39, 0x28, 0x3e, 
	0x86, 0x9d, 0x9a, 0xbd, 0xf9, 0x70, 0x5f, 0x3c, 0xf2, 0x8f, 0xa3, 0xbe, 
	0xea, 0x89, 0xda, 0x3e, 0xda, 0xa1, 0xfe, 0xbd, 0x5c, 0x63, 0x3d, 0xbd, 
	0xc3, 0xbd, 0x14, 0x3c, 0xfd, 0x80, 0x1f, 0x3c, 0x99, 0x11, 0x42, 0xbd, 
	0x17, 0xcf, 0x06, 0x3f, 0x0c, 0x2b, 0xce, 0xbe, 0x46, 0xc0, 0xbc, 0x3e, 
	0xc1, 0xde, 0x63, 0x3e, 0xbb, 0xb3, 0x0e, 0x3e, 0x88, 0x52, 0x20, 0xbd, 
	0xa4, 0x2c, 0x74, 0x3d, 0xf1, 0xa4, 0x2f, 0x3e, 0x35, 0xbc, 0xf4, 0x3e, 
	0xf0, 0x42, 0x37, 0xbe, 0x73, 0x39, 0x20, 0x3e, 0xc9, 0x47, 0x1a, 0xbe, 
	0xcf, 0xa4, 0xf1, 0xbd, 0x5b, 0x8b, 0xd4, 0xbe, 0x4e, 0xe0, 0xfd, 0x3e, 
	0x07, 0x09, 0x41, 0xbd, 0x38, 0x4f, 0xcd, 0x3e, 0x8e, 0x37, 0xda, 0x3d, 
	0x77, 0xfc, 0x22, 0xbd, 0xcb, 0xc3, 0xb4, 0x3d, 0x13, 0xd7, 0x7b, 0x3e, 
	0x64, 0xd2, 0x9d, 0xbe, 0x49, 0x5a, 0x91, 0xbd, 0x2d, 0xca, 0xf2, 0xbe, 
	0xd1, 0xe5, 0x84, 0x3e, 0xcd, 0x0c, 0xda, 0xbe, 0x1e, 0x41, 0xae, 0x3e, 
	0xaa, 0xaf, 0xa6, 0x3c, 0x77, 0x8f, 0x16, 0x3e, 0xf6, 0x76, 0x0c, 0x3e, 
	0xbb, 0xd7, 0xcb, 0x3e, 0xe1, 0x86, 0xca, 0xbe, 0xb3, 0xe7, 0x09, 0x3f, 
	0xa0, 0x56, 0x3d, 0xbe, 0xd2, 0xbb, 0x07, 0xbd, 0xed, 0x21, 0xed, 0x3d, 
	0xbc, 0x4f, 0x98, 0x3e, 0x14, 0xcb, 0x91, 0xbe, 0xda, 0x1d, 0x02, 0x3f, 
	0x74, 0x12, 0x73, 0x3d, 0xef, 0xc7, 0xaa, 0x3d, 0x55, 0x6f, 0x1f, 0x3e, 
	0x41, 0x9e, 0x9b, 0x3d, 0xb0, 0x53, 0xc8, 0x3c, 0x10, 0xdc, 0xa5, 0xbe, 
	0x95, 0x1a, 0xab, 0x3e, 0x6f, 0x0a, 0x13, 0x3d, 0xdc, 0x96, 0x40, 0x3d, 
	0x28, 0xb9, 0x2d, 0xbe, 0xca, 0xff, 0x17, 0x3c, 0x9f, 0xdb, 0x8f, 0xbe, 
	0xe2, 0xff, 0xa3, 0x3e, 0x87, 0x6b, 0xab, 0xbe, 0xeb, 0xa2, 0xc3, 0x3e, 
	0xab, 0x4a, 0xa8, 0xbe, 0x99, 0xaa, 0x43, 0x3e, 0xd4, 0xc9, 0x5c, 0x3d, 
	0xd2, 0xf6, 0x75, 0x3e, 0xb0, 0xbf, 0x4d, 0xbe, 0x79, 0xa3, 0xf0, 0x3e, 
	0x08, 0xfe, 0xab, 0xbe, 0x5e, 0xea, 0xe9, 0x3e, 0x47, 0x03, 0xf2, 0xbd, 
	0xb4, 0x0c, 0x04, 0x3f, 0x1a, 0x65, 0xd6, 0xbc, 0xbc, 0x18, 0x08, 0x3f, 
	0x50, 0xa0, 0x09, 0xbf, 0xd9, 0xb2, 0x4a, 0xbc, 0x61, 0x0f, 0x28, 0xbe, 
	0x1d, 0x31, 0x20, 0x3e, 0x45, 0xc1, 0xb2, 0xbd, 0x87, 0x46, 0x95, 0x3e, 
	0x1c, 0x2a, 0x13, 0xbe, 0x5e, 0xbc, 0xaa, 0x3e, 0x79, 0x59, 0xca, 0xbe, 
	0x6a, 0xf5, 0xec, 0x3d, 0xac, 0xfa, 0xbc, 0xbe, 0x56, 0x2e, 0x12, 0x3f, 
	0x16, 0x4e, 0x8a, 0xbe, 0x9b, 0x41, 0x9b, 0x3c, 0x92, 0x1e, 0xb5, 0xbe, 
	0xe4, 0x7b, 0x02, 0x3e, 0xa3, 0x56, 0x07, 0xbe, 0x14, 0xb6, 0x8b, 0xbe, 
	0xf5, 0x08, 0x0d, 0xbe, 0x4c, 0x85, 0x15, 0xbe, 0x10, 0xf9, 0xa4, 0x3d, 
	0xb7, 0x0a, 0x96, 0x3e, 0xdb, 0xec, 0x0c, 0xbe, 0xed, 0x87, 0x4a, 0xbd, 
	0xa7, 0x6a, 0x50, 0x3e, 0xb8, 0xba, 0x29, 0xbe, 0xd9, 0xb1, 0x9b, 0xbe, 
	0x5c, 0x39, 0x81, 0xbd, 0xe1, 0x0b, 0x3b, 0x3e, 0xac, 0xff, 0xf3, 0xbd, 
	0xed, 0x2e, 0x88, 0xbe, 0x92, 0xb4, 0x4d, 0xbe, 0x2a, 0x21, 0x62, 0x3e, 
	0x49, 0x7f, 0x56, 0x3e, 0x8e, 0x4e, 0x98, 0x3e, 0x92, 0x3c, 0x7d, 0x3e, 
	0xd0, 0x47, 0x06, 0x3e, 0x00, 0x31, 0x28, 0xbe, 0xc5, 0x2c, 0xb6, 0x3d, 
	0x4a, 0x4c, 0xda, 0x3d, 0x62, 0x22, 0x95, 0x3e, 0x06, 0x0c, 0xa9, 0xbd, 
	0x6a, 0x2c, 0x17, 0x3c, 0xbc, 0x69, 0x4a, 0x3e, 0x0c, 0xd8, 0x88, 0xbe, 
	0x61, 0xc5, 0x6b, 0xbd, 0x96, 0x0e, 0xd4, 0x3d, 0xa0, 0xf6, 0x73, 0xbd, 
	0xeb, 0xa6, 0xdc, 0xbd, 0x9e, 0x5c, 0x88, 0xbe, 0x63, 0xf6, 0x40, 0xbe, 
	0xe6, 0xce, 0x1a, 0xbe, 0x51, 0x2e, 0xcd, 0x3d, 0xf8, 0xa0, 0x85, 0xbd, 
	0xc0, 0x2c, 0x76, 0xbe, 0x4d, 0xc4, 0x38, 0x3c, 0xda, 0x19, 0x22, 0x3e, 
	0x90, 0x36, 0xae, 0x3e, 0xf9, 0x3d, 0xc2, 0xbe, 0xa2, 0x80, 0xcb, 0x3e, 
	0x53, 0xd7, 0xea, 0xbe, 0xb9, 0xa5, 0x47, 0x3e, 0xe8, 0x39, 0x05, 0x3e, 
	0xd5, 0x9f, 0xd6, 0x3e, 0x2b, 0xbe, 0x67, 0xbe, 0xd2, 0x57, 0xc9, 0xbd, 
	0xcf, 0x69, 0x9f, 0x3d, 0x2c, 0xb4, 0x39, 0x3e, 0xfc, 0x93, 0xa1, 0xbe, 
	0x9d, 0x5a, 0x53, 0x3e, 0x8c, 0x0a, 0xb0, 0xbd, 0x87, 0xa3, 0xa4, 0x3e, 
	0x1a, 0xdd, 0xcf, 0xbe, 0xf0, 0xdf, 0x38, 0x3d, 0xad, 0xd2, 0xcb, 0xbc, 
	0x6c, 0xf1, 0xd0, 0x3e, 0x85, 0x3e, 0x7a, 0xbe, 0x0b, 0xd6, 0x63, 0x3e, 
	0xe2, 0x75, 0x0e, 0xbe, 0xf7, 0xa1, 0x73, 0x3e, 0xab, 0xea, 0xe4, 0xbd, 
	0x52, 0xf5, 0xb4, 0x3c, 0x73, 0x64, 0x05, 0xbe, 0xf6, 0x0e, 0xc1, 0x3e, 
	0x09, 0xca, 0x98, 0xbe, 0xbc, 0xd9, 0xc2, 0x3e, 0x63, 0x71, 0x3c, 0xbe, 
	0x12, 0xbe, 0x39, 0x3e, 0xba, 0x7b, 0x5b, 0xbe, 0xa5, 0xf2, 0x8b, 0x3e, 
	0x4c, 0x21, 0x65, 0xbe, 0xa0, 0x5a, 0x0d, 0x3f, 0xdc, 0xc9, 0xaa, 0xbe, 
	0x3a, 0x4f, 0x56, 0x3e, 0x44, 0x8d, 0x1a, 0xbe, 0x42, 0xfe, 0xff, 0xff, 
	0x10, 0x00, 0x00, 0x00, 0x04, 0x00, 0x00, 0x00, 0x14, 0x00, 0x00, 0x00, 
	0x2c, 0x00, 0x00, 0x00, 0x02, 0x00, 0x00, 0x00, 0x10, 0x00, 0x00, 0x00, 
	0x28, 0x00, 0x00, 0x00, 0x16, 0x00, 0x00, 0x00, 0x6d, 0x6f, 0x64, 0x65, 
	0x6c, 0x5f, 0x34, 0x2f, 0x64, 0x65, 0x6e, 0x73, 0x65, 0x5f, 0x34, 0x2f, 
	0x4d, 0x61, 0x74, 0x4d, 0x75, 0x6c, 0x00, 0x00, 0x40, 0xfe, 0xff, 0xff, 
	0x26, 0xff, 0xff, 0xff, 0x04, 0x00, 0x00, 0x00, 0x80, 0x00, 0x00, 0x00, 
	0x25, 0x48, 0x03, 0x3f, 0x51, 0x3a, 0x95, 0x3e, 0xee, 0xf3, 0xd0, 0x3e, 
	0x93, 0x3a, 0x95, 0x3e, 0x44, 0xe4, 0x96, 0x3e, 0x0e, 0xfc, 0xb4, 0x3e, 
	0x5b, 0x28, 0xce, 0x3e, 0xd4, 0x80, 0xb3, 0x3e, 0xbc, 0xca, 0x35, 0x3f, 
	0xa6, 0x51, 0xb4, 0x3e, 0x66, 0x7a, 0x8d, 0x3e, 0xd3, 0x7b, 0x2f, 0x3d, 
	0x01, 0x17, 0xc4, 0x3e, 0xea, 0x1b, 0x19, 0x3f, 0xd3, 0x40, 0x2c, 0x3f, 
	0x9b, 0xfd, 0x8b, 0xbb, 0x81, 0xf2, 0x9b, 0x3e, 0x32, 0x69, 0xa9, 0x3e, 
	0xb1, 0xed, 0x8e, 0x3e, 0x5f, 0x77, 0xcb, 0x3e, 0x8d, 0xbb, 0x05, 0x3f, 
	0x19, 0x69, 0xd1, 0xbc, 0xe2, 0x4d, 0xa7, 0x3e, 0xf2, 0x9b, 0x04, 0x3f, 
	0x76, 0x9a, 0xcf, 0x3e, 0xbb, 0x36, 0xeb, 0x3e, 0x73, 0xc1, 0xfe, 0x3d, 
	0xba, 0x63, 0xa1, 0x3e, 0xf5, 0x3e, 0xba, 0x3e, 0x12, 0x76, 0x31, 0x3f, 
	0x23, 0x5e, 0x90, 0x3e, 0x84, 0xa9, 0x08, 0x3f, 0x0e, 0xff, 0xff, 0xff, 
	0x10, 0x00, 0x00, 0x00, 0x03, 0x00, 0x00, 0x00, 0x10, 0x00, 0x00, 0x00, 
	0x38, 0x00, 0x00, 0x00, 0x01, 0x00, 0x00, 0x00, 0x20, 0x00, 0x00, 0x00, 
	0x26, 0x00, 0x00, 0x00, 0x6d, 0x6f, 0x64, 0x65, 0x6c, 0x5f, 0x34, 0x2f, 
	0x64, 0x65, 0x6e, 0x73, 0x65, 0x5f, 0x35, 0x2f, 0x42, 0x69, 0x61, 0x73, 
	0x41, 0x64, 0x64, 0x2f, 0x52, 0x65, 0x61, 0x64, 0x56, 0x61, 0x72, 0x69, 
	0x61, 0x62, 0x6c, 0x65, 0x4f, 0x70, 0x00, 0x00, 0x60, 0xff, 0xff, 0xff, 
	0x00, 0x00, 0x06, 0x00, 0x08, 0x00, 0x04, 0x00, 0x06, 0x00, 0x00, 0x00, 
	0x04, 0x00, 0x00, 0x00, 0x40, 0x00, 0x00, 0x00, 0x50, 0x05, 0x81, 0x3d, 
	0x00, 0x00, 0x00, 0x00, 0x58, 0x84, 0x2c, 0x3e, 0xaa, 0x2a, 0x76, 0xbc, 
	0xb3, 0x61, 0xc7, 0x3d, 0x00, 0x00, 0x00, 0x00, 0x7a, 0xe8, 0xaa, 0x3d, 
	0x85, 0x90, 0x41, 0x3e, 0x0e, 0x1a, 0x68, 0x3d, 0xd4, 0xf6, 0x3b, 0x3e, 
	0x00, 0x00, 0x00, 0x00, 0x9d, 0x5d, 0xbf, 0x3d, 0x1b, 0x32, 0x90, 0x3d, 
	0xff, 0xa6, 0x39, 0xbd, 0x68, 0xe9, 0xd2, 0xbc, 0x49, 0x72, 0xef, 0xbd, 
	0xae, 0xff, 0xff, 0xff, 0x10, 0x00, 0x00, 0x00, 0x02, 0x00, 0x00, 0x00, 
	0x10, 0x00, 0x00, 0x00, 0x3c, 0x00, 0x00, 0x00, 0x01, 0x00, 0x00, 0x00, 
	0x10, 0x00, 0x00, 0x00, 0x26, 0x00, 0x00, 0x00, 0x6d, 0x6f, 0x64, 0x65, 
	0x6c, 0x5f, 0x34, 0x2f, 0x64, 0x65, 0x6e, 0x73, 0x65, 0x5f, 0x34, 0x2f, 
	0x42, 0x69, 0x61, 0x73, 0x41, 0x64, 0x64, 0x2f, 0x52, 0x65, 0x61, 0x64, 
	0x56, 0x61, 0x72, 0x69, 0x61, 0x62, 0x6c, 0x65, 0x4f, 0x70, 0x00, 0x00, 
	0x04, 0x00, 0x06, 0x00, 0x04, 0x00, 0x00, 0x00, 0x00, 0x00, 0x0e, 0x00, 
	0x14, 0x00, 0x04, 0x00, 0x00, 0x00, 0x08, 0x00, 0x0c, 0x00, 0x10, 0x00, 
	0x0e, 0x00, 0x00, 0x00, 0x10, 0x00, 0x00, 0x00, 0x01, 0x00, 0x00, 0x00, 
	0x14, 0x00, 0x00, 0x00, 0x1c, 0x00, 0x00, 0x00, 0x02, 0x00, 0x00, 0x00, 
	0x01, 0x00, 0x00, 0x00, 0x28, 0x00, 0x00, 0x00, 0x07, 0x00, 0x00, 0x00, 
	0x69, 0x6e, 0x70, 0x75, 0x74, 0x5f, 0x33, 0x00, 0xfc, 0xff, 0xff, 0xff, 
	0x04, 0x00, 0x04, 0x00, 0x04, 0x00, 0x00, 0x00
};
const int enc2_32_seq10_len = 5840;