
// if having troubles with min/max, uncomment the following
// #undef min    
// #undef max
#ifdef __has_attribute
#define HAVE_ATTRIBUTE(x) __has_attribute(x)
#else
#define HAVE_ATTRIBUTE(x) 0
#endif
#if HAVE_ATTRIBUTE(aligned) || (defined(__GNUC__) && !defined(__clang__))
#define DATA_ALIGN_ATTRIBUTE __attribute__((aligned(4)))
#else
#define DATA_ALIGN_ATTRIBUTE
#endif
const unsigned char enc3_32_seq10[] DATA_ALIGN_ATTRIBUTE = {
	0x1c, 0x00, 0x00, 0x00, 0x54, 0x46, 0x4c, 0x33, 0x00, 0x00, 0x12, 0x00, 
	0x1c, 0x00, 0x04, 0x00, 0x08, 0x00, 0x0c, 0x00, 0x10, 0x00, 0x14, 0x00, 
	0x00, 0x00, 0x18, 0x00, 0x12, 0x00, 0x00, 0x00, 0x03, 0x00, 0x00, 0x00, 
	0x14, 0x00, 0x00, 0x00, 0x18, 0x00, 0x00, 0x00, 0x94, 0x00, 0x00, 0x00, 
	0x18, 0x00, 0x00, 0x00, 0x3c, 0x00, 0x00, 0x00, 0x01, 0x00, 0x00, 0x00, 
	0xd4, 0x01, 0x00, 0x00, 0x01, 0x00, 0x00, 0x00, 0xa0, 0x00, 0x00, 0x00, 
	0x09, 0x00, 0x00, 0x00, 0x00, 0x19, 0x00, 0x00, 0xfc, 0x18, 0x00, 0x00, 
	0x18, 0x18, 0x00, 0x00, 0x34, 0x17, 0x00, 0x00, 0x64, 0x0a, 0x00, 0x00, 
	0x14, 0x02, 0x00, 0x00, 0xe8, 0x18, 0x00, 0x00, 0xe4, 0x18, 0x00, 0x00, 
	0x38, 0x00, 0x00, 0x00, 0x01, 0x00, 0x00, 0x00, 0x0c, 0x00, 0x00, 0x00, 
	0x08, 0x00, 0x0c, 0x00, 0x04, 0x00, 0x08, 0x00, 0x08, 0x00, 0x00, 0x00, 
	0x08, 0x00, 0x00, 0x00, 0x08, 0x00, 0x00, 0x00, 0x13, 0x00, 0x00, 0x00, 
	0x6d, 0x69, 0x6e, 0x5f, 0x72, 0x75, 0x6e, 0x74, 0x69, 0x6d, 0x65, 0x5f, 
	0x76, 0x65, 0x72, 0x73, 0x69, 0x6f, 0x6e, 0x00, 0x3e, 0xe8, 0xff, 0xff, 
	0x04, 0x00, 0x00, 0x00, 0x10, 0x00, 0x00, 0x00, 0x31, 0x2e, 0x35, 0x2e, 
	0x30, 0x00, 0x00, 0x00, 0x00, 0x00, 0x00, 0x00, 0x00, 0x00, 0x00, 0x00, 
	0x0f, 0x00, 0x00, 0x00, 0x4d, 0x4c, 0x49, 0x52, 0x20, 0x43, 0x6f, 0x6e, 
	0x76, 0x65, 0x72, 0x74, 0x65, 0x64, 0x2e, 0x00, 0x00, 0x00, 0x0e, 0x00, 
	0x18, 0x00, 0x04, 0x00, 0x08, 0x00, 0x0c, 0x00, 0x10, 0x00, 0x14, 0x00, 
	0x0e, 0x00, 0x00, 0x00, 0x14, 0x00, 0x00, 0x00, 0x30, 0x00, 0x00, 0x00, 
	0x34, 0x00, 0x00, 0x00, 0x38, 0x00, 0x00, 0x00, 0x40, 0x00, 0x00, 0x00, 
	0x07, 0x00, 0x00, 0x00, 0x18, 0x18, 0x00, 0x00, 0xb4, 0x17, 0x00, 0x00, 
	0x10, 0x17, 0x00, 0x00, 0x40, 0x16, 0x00, 0x00, 0x70, 0x09, 0x00, 0x00, 
	0x08, 0x01, 0x00, 0x00, 0x6c, 0x00, 0x00, 0x00, 0x01, 0x00, 0x00, 0x00, 
	0x00, 0x00, 0x00, 0x00, 0x01, 0x00, 0x00, 0x00, 0x06, 0x00, 0x00, 0x00, 
	0x02, 0x00, 0x00, 0x00, 0x98, 0x00, 0x00, 0x00, 0x1c, 0x00, 0x00, 0x00, 
	0x04, 0x00, 0x00, 0x00, 0x6d, 0x61, 0x69, 0x6e, 0x00, 0x00, 0x0e, 0x00, 
	0x14, 0x00, 0x00, 0x00, 0x08, 0x00, 0x0c, 0x00, 0x07, 0x00, 0x10, 0x00, 
	0x0e, 0x00, 0x00, 0x00, 0x00, 0x00, 0x00, 0x08, 0x1c, 0x00, 0x00, 0x00, 
	0x10, 0x00, 0x00, 0x00, 0x04, 0x00, 0x00, 0x00, 0x86, 0xff, 0xff, 0xff, 
	0x00, 0x00, 0x00, 0x01, 0x01, 0x00, 0x00, 0x00, 0x06, 0x00, 0x00, 0x00, 
	0x03, 0x00, 0x00, 0x00, 0x05, 0x00, 0x00, 0x00, 0x04, 0x00, 0x00, 0x00, 
	0x02, 0x00, 0x00, 0x00, 0x7a, 0xe8, 0xff, 0xff, 0x10, 0x00, 0x00, 0x00, 
	0x07, 0x00, 0x00, 0x00, 0x14, 0x00, 0x00, 0x00, 0x20, 0x00, 0x00, 0x00, 
	0x02, 0x00, 0x00, 0x00, 0x01, 0x00, 0x00, 0x00, 0x20, 0x00, 0x00, 0x00, 
	0x08, 0x00, 0x00, 0x00, 0x49, 0x64, 0x65, 0x6e, 0x74, 0x69, 0x74, 0x79, 
	0x00, 0x00, 0x00, 0x00, 0xb4, 0xe8, 0xff, 0xff, 0x00, 0x00, 0x0e, 0x00, 
	0x16, 0x00, 0x00, 0x00, 0x08, 0x00, 0x0c, 0x00, 0x07, 0x00, 0x10, 0x00, 
	0x0e, 0x00, 0x00, 0x00, 0x00, 0x00, 0x00, 0x08, 0x24, 0x00, 0x00, 0x00, 
	0x18, 0x00, 0x00, 0x00, 0x0c, 0x00, 0x00, 0x00, 0x00, 0x00, 0x06, 0x00, 
	0x08, 0x00, 0x07, 0x00, 0x06, 0x00, 0x00, 0x00, 0x00, 0x00, 0x00, 0x01, 
	0x01, 0x00, 0x00, 0x00, 0x05, 0x00, 0x00, 0x00, 0x03, 0x00, 0x00, 0x00, 
	0x00, 0x00, 0x00, 0x00, 0x03, 0x00, 0x00, 0x00, 0x01, 0x00, 0x00, 0x00, 
	0x00, 0x00, 0x0a, 0x00, 0x0c, 0x00, 0x07, 0x00, 0x00, 0x00, 0x08, 0x00, 
	0x0a, 0x00, 0x00, 0x00, 0x00, 0x00, 0x00, 0x09, 0x01, 0x00, 0x00, 0x00, 
	0x12, 0xe9, 0xff, 0xff, 0x10, 0x00, 0x00, 0x00, 0x06, 0x00, 0x00, 0x00, 
	0x14, 0x00, 0x00, 0x00, 0x44, 0x00, 0x00, 0x00, 0x02, 0x00, 0x00, 0x00, 
	0x01, 0x00, 0x00, 0x00, 0x10, 0x00, 0x00, 0x00, 0x2c, 0x00, 0x00, 0x00, 
	0x6d, 0x6f, 0x64, 0x65, 0x6c, 0x5f, 0x37, 0x2f, 0x64, 0x65, 0x6e, 0x73, 
	0x65, 0x5f, 0x38, 0x2f, 0x52, 0x65, 0x6c, 0x75, 0x3b, 0x6d, 0x6f, 0x64, 
	0x65, 0x6c, 0x5f, 0x37, 0x2f, 0x64, 0x65, 0x6e, 0x73, 0x65, 0x5f, 0x38, 
	0x2f, 0x42, 0x69, 0x61, 0x73, 0x41, 0x64, 0x64, 0x00, 0x00, 0x00, 0x00, 
	0x28, 0xe9, 0xff, 0xff, 0x0e, 0xea, 0xff, 0xff, 0x04, 0x00, 0x00, 0x00, 
	0x00, 0x08, 0x00, 0x00, 0x1a, 0x47, 0xb2, 0xbd, 0x4d, 0x65, 0x90, 0x3e, 
	0x26, 0x4a, 0x2a, 0xbe, 0xa0, 0xd8, 0x2b, 0x3c, 0xce, 0x2c, 0x29, 0xbf, 
	0x00, 0xec, 0xad, 0x3d, 0x05, 0x19, 0xb1, 0x3d, 0x66, 0x29, 0x8d, 0xbe, 
	0x6e, 0x55, 0xa9, 0x3d, 0x96, 0x49, 0x64, 0x3e, 0x1a, 0xa3, 0xb4, 0xbe, 
	0x5a, 0x3d, 0x01, 0x3e, 0x31, 0xcf, 0xe2, 0x3d, 0x53, 0xe7, 0x26, 0x3e, 
	0x9d, 0x0f, 0x9d, 0x3e, 0xc1, 0x12, 0xbc, 0x3e, 0x18, 0x10, 0xba, 0xbe, 
	0x17, 0x86, 0xba, 0xbe, 0xdb, 0x09, 0x91, 0xbe, 0x80, 0x5e, 0xcb, 0x3d, 
	0x1d, 0x70, 0x3c, 0xbc, 0xd2, 0x7b, 0x40, 0x3e, 0xc0, 0xc2, 0xbc, 0x3c, 
	0xe0, 0xb8, 0x77, 0x3c, 0xd2, 0x59, 0x96, 0x3e, 0xf3, 0x3b, 0xbb, 0xbe, 
	0x5c, 0xb5, 0xd4, 0x3d, 0xa1, 0xe7, 0x42, 0xbe, 0x62, 0xf4, 0x1c, 0xbe, 
	0x34, 0x10, 0xd5, 0xbd, 0xd2, 0x49, 0x60, 0xbe, 0xc8, 0xbb, 0x80, 0xbe, 
	0xb2, 0xc0, 0x0f, 0x3e, 0xf0, 0xcc, 0x1b, 0xbc, 0x2a, 0xf2, 0x7c, 0xbe, 
	0x56, 0x80, 0xa5, 0xbe, 0xdd, 0x43, 0x36, 0xbf, 0x5a, 0xac, 0x4a, 0x3e, 
	0xd9, 0xc2, 0x8d, 0x3d, 0xbb, 0x97, 0x5d, 0xbe, 0xcd, 0x10, 0xfd, 0x3e, 
	0x47, 0x78, 0x95, 0xbc, 0x4e, 0xcb, 0x50, 0x3e, 0x17, 0xa0, 0xc0, 0x3e, 
	0x66, 0xf8, 0xcc, 0x3e, 0x45, 0xa3, 0xd2, 0x3e, 0xbc, 0x6c, 0xd3, 0x3d, 
	0x04, 0x46, 0x68, 0x3e, 0xeb, 0x7f, 0xec, 0x3e, 0x3c, 0x77, 0x3c, 0xbe, 
	0x20, 0x43, 0x40, 0xbd, 0x4e, 0x43, 0x6f, 0x3e, 0xc7, 0x5f, 0x89, 0xbe, 
	0x20, 0xae, 0x11, 0xbd, 0x3d, 0x3a, 0x92, 0x3a, 0x90, 0xaa, 0xa3, 0xbc, 
	0x4d, 0xaf, 0x21, 0xbe, 0xc0, 0x77, 0x02, 0x3f, 0x5e, 0x7d, 0x2b, 0x3e, 
	0xcc, 0xae, 0xff, 0xbd, 0x78, 0x1b, 0xec, 0xbd, 0x55, 0x5f, 0x33, 0x3e, 
	0x47, 0x80, 0xae, 0x3e, 0xb3, 0xd2, 0xf2, 0xbe, 0xcc, 0x21, 0x03, 0xbf, 
	0x29, 0x26, 0xc9, 0xbe, 0x58, 0x8e, 0x79, 0xbe, 0x78, 0x38, 0x4c, 0x3d, 
	0x56, 0xab, 0x36, 0xbf, 0xe3, 0x46, 0xa8, 0x3e, 0xf4, 0x18, 0xfe, 0x3e, 
	0x21, 0x6f, 0x82, 0x3e, 0xf1, 0x72, 0xda, 0x3d, 0x6f, 0x81, 0x5b, 0xbe, 
	0x04, 0xe0, 0xe9, 0x3d, 0x91, 0x16, 0x07, 0x3f, 0xd4, 0x45, 0xef, 0x3e, 
	0x35, 0xfe, 0xad, 0xbd, 0x04, 0xe9, 0xdb, 0x3d, 0x5a, 0x91, 0xe1, 0xbe, 
	0xed, 0xa1, 0xba, 0xbc, 0xfe, 0x85, 0xeb, 0x3e, 0xb6, 0xba, 0x65, 0x3e, 
	0xe6, 0x89, 0x50, 0xbe, 0x9f, 0x86, 0x4e, 0xbf, 0x2a, 0x23, 0x6e, 0xbe, 
	0x03, 0x4f, 0x30, 0xbd, 0xae, 0x31, 0x6f, 0x3e, 0xf5, 0x15, 0x94, 0x3e, 
	0x73, 0xba, 0x54, 0x3c, 0x80, 0x41, 0x19, 0x3c, 0xfe, 0x83, 0x8e, 0x3e, 
	0xdd, 0x45, 0x91, 0x3e, 0x00, 0xe0, 0xe9, 0x3e, 0xd0, 0xe8, 0xc5, 0x3d, 
	0xc8, 0x5d, 0x31, 0x3c, 0x7b, 0x51, 0xad, 0x3e, 0x77, 0xa3, 0xf9, 0x3e, 
	0xe5, 0x3c, 0x64, 0xbe, 0xda, 0x73, 0x68, 0xbe, 0xba, 0xf9, 0x4e, 0xbf, 
	0x81, 0xf8, 0x9c, 0x3e, 0xe1, 0x9a, 0x09, 0x3f, 0xda, 0x28, 0x59, 0x3e, 
	0x26, 0xbf, 0xf4, 0xbd, 0x15, 0xaf, 0xcb, 0x3e, 0x32, 0xea, 0x3a, 0x3e, 
	0x48, 0x12, 0x71, 0xbc, 0xcc, 0x48, 0x05, 0x3f, 0xe6, 0x31, 0x91, 0x3e, 
	0xf9, 0x95, 0x74, 0xbe, 0xfb, 0xa3, 0x87, 0x3d, 0x93, 0xbe, 0xe2, 0xba, 
	0x90, 0x07, 0x22, 0xbe, 0x74, 0xd0, 0x3f, 0xbe, 0x30, 0x0a, 0xca, 0x3c, 
	0x76, 0x38, 0x9c, 0xbe, 0xa8, 0x6d, 0xd5, 0xbd, 0xae, 0x84, 0x05, 0x3f, 
	0x48, 0x7c, 0xa6, 0xbd, 0x1a, 0xef, 0xf5, 0x3e, 0x4a, 0x6f, 0xc5, 0x3c, 
	0x8c, 0x77, 0x02, 0x3e, 0x91, 0x49, 0x56, 0x3e, 0x70, 0x56, 0x6a, 0x3d, 
	0x65, 0x93, 0xa2, 0x3e, 0x83, 0x65, 0x9c, 0x3e, 0x66, 0x12, 0x91, 0x3e, 
	0xd0, 0x8f, 0xf8, 0x3c, 0x40, 0xea, 0x1a, 0x3e, 0x94, 0x61, 0x31, 0xbe, 
	0x19, 0x79, 0x9d, 0x3e, 0x7c, 0x4d, 0x4a, 0xbf, 0x98, 0x2f, 0xcf, 0x3d, 
	0x21, 0x0f, 0x05, 0x3f, 0x83, 0x57, 0x9a, 0xbe, 0x7c, 0x3a, 0xab, 0x3e, 
	0x02, 0xc6, 0x02, 0x3f, 0x88, 0x39, 0x85, 0xbd, 0x0a, 0x51, 0x68, 0x3e, 
	0x15, 0x26, 0x44, 0x3e, 0x16, 0xb4, 0xf0, 0x3e, 0x7f, 0xc9, 0xb4, 0xbe, 
	0xad, 0x37, 0x79, 0x3e, 0x24, 0x8c, 0xae, 0xbd, 0x2f, 0x26, 0xa5, 0x3e, 
	0xaa, 0xa8, 0xa7, 0xbe, 0x16, 0x6d, 0x33, 0x3e, 0xda, 0xb7, 0xb7, 0xbe, 
	0x4d, 0x22, 0x16, 0xbe, 0x6a, 0x35, 0x81, 0x3e, 0xb9, 0x3e, 0x93, 0xbe, 
	0x10, 0xa3, 0xd8, 0x3e, 0x3a, 0x56, 0x59, 0x3e, 0x18, 0xc1, 0xb1, 0xbe, 
	0xb6, 0x2e, 0xd3, 0x3e, 0x0a, 0x1a, 0xa1, 0x3e, 0xca, 0x90, 0x72, 0xbe, 
	0x18, 0x8d, 0x11, 0x3d, 0xa0, 0xa4, 0x4b, 0x3d, 0x33, 0x00, 0x5f, 0xbd, 
	0xea, 0x57, 0xce, 0x3e, 0x8d, 0xed, 0xa3, 0xbe, 0x36, 0x09, 0x1b, 0x3e, 
	0x3a, 0x28, 0xa8, 0xbe, 0x17, 0xf2, 0x14, 0xbe, 0xd9, 0xd9, 0xab, 0xbe, 
	0x00, 0x1e, 0x0f, 0xbb, 0x20, 0x9c, 0xb1, 0xbe, 0x55, 0x2f, 0x12, 0x3c, 
	0xa5, 0xf4, 0x8b, 0x3e, 0x39, 0x02, 0x01, 0x3f, 0xef, 0x67, 0x36, 0xbf, 
	0xa4, 0x8a, 0x08, 0x3e, 0x50, 0xf1, 0x0c, 0x3e, 0x63, 0xa5, 0x0b, 0x3f, 
	0xdc, 0x55, 0xfb, 0x3e, 0x8a, 0x57, 0x2a, 0xbe, 0xbc, 0x74, 0x79, 0xbe, 
	0x72, 0x83, 0x65, 0x3e, 0x4a, 0xf7, 0x7a, 0xbf, 0x65, 0xcd, 0x9b, 0xbe, 
	0xbf, 0x19, 0x3a, 0xbb, 0x4e, 0x64, 0x62, 0x3e, 0xcf, 0x3e, 0x10, 0x3f, 
	0x6b, 0x58, 0x1d, 0x3e, 0xa8, 0x07, 0xda, 0x3d, 0x16, 0x58, 0x93, 0xbd, 
	0x8d, 0x04, 0xdd, 0x3e, 0xcc, 0xf0, 0x99, 0x3d, 0x2d, 0x44, 0x86, 0x3e, 
	0xb1, 0x41, 0x9d, 0x3e, 0xa8, 0x4b, 0x45, 0xbe, 0x78, 0x97, 0xb2, 0x3e, 
	0x91, 0x08, 0x2a, 0xbe, 0xf0, 0xab, 0x55, 0x3d, 0xdb, 0x9d, 0x4d, 0xbf, 
	0xa0, 0xf8, 0xc5, 0xbc, 0x3a, 0xbe, 0xb3, 0x3e, 0xb7, 0x9d, 0x94, 0x3e, 
	0x1f, 0xd1, 0x57, 0x3d, 0x34, 0xef, 0xb8, 0xbd, 0x6e, 0xb3, 0x56, 0x3e, 
	0xbe, 0x88, 0x7c, 0xbd, 0xa7, 0x1a, 0xdc, 0x3e, 0x3c, 0x03, 0x8f, 0x3e, 
	0xe0, 0xed, 0x53, 0x3c, 0xd2, 0xfe, 0xd5, 0x3e, 0xa2, 0x91, 0x46, 0xbf, 
	0x69, 0x55, 0x54, 0x3f, 0xc0, 0x30, 0x9b, 0xbd, 0x6b, 0x2e, 0x32, 0xbe, 
	0xe3, 0xd8, 0x9f, 0x3d, 0xf3, 0xf6, 0x97, 0xbe, 0x98, 0x7c, 0xc1, 0x3e, 
	0x48, 0x02, 0xaa, 0xbd, 0x37, 0xef, 0xd2, 0xbe, 0x82, 0xb1, 0x93, 0xbc, 
	0x86, 0x73, 0x32, 0x3e, 0xd0, 0x6a, 0x9f, 0xbe, 0x04, 0xad, 0xd6, 0x3d, 
	0x77, 0xc6, 0x36, 0xbe, 0x34, 0xff, 0x92, 0x3d, 0xfa, 0x99, 0x28, 0x3e, 
	0xe8, 0x79, 0xab, 0x3d, 0xc4, 0x2f, 0xd9, 0x3e, 0xc0, 0x27, 0x2f, 0xbc, 
	0x46, 0xaf, 0x5b, 0x3e, 0x8c, 0x6d, 0x83, 0xbf, 0xaa, 0xb7, 0x37, 0x3e, 
	0x69, 0xa6, 0x25, 0xbd, 0xe4, 0xc2, 0xc7, 0x3d, 0x39, 0x8a, 0xab, 0xbd, 
	0x25, 0x88, 0xf9, 0x3e, 0x5c, 0xa2, 0x3b, 0xbe, 0x7c, 0x23, 0xc1, 0x3e, 
	0xc8, 0x59, 0xf7, 0x3e, 0x4e, 0x1c, 0xa8, 0x3e, 0x3b, 0xd1, 0xac, 0x3e, 
	0xd0, 0xee, 0x5c, 0x3e, 0x61, 0x98, 0x85, 0x3e, 0x1d, 0x9d, 0x0f, 0xbd, 
	0xd0, 0x94, 0xdd, 0x3d, 0xc6, 0x74, 0x86, 0xbe, 0x70, 0x90, 0xf0, 0xbe, 
	0xf0, 0x45, 0x92, 0x3d, 0x72, 0x90, 0x60, 0xbd, 0xa3, 0x5f, 0x13, 0xbe, 
	0x4c, 0x9f, 0xa8, 0x3e, 0x0f, 0xca, 0x18, 0x3c, 0x65, 0x8b, 0xb4, 0xbe, 
	0xbf, 0xde, 0x49, 0xbc, 0x7b, 0x6d, 0x0a, 0x3e, 0x89, 0xfe, 0xaa, 0x3e, 
	0x41, 0x42, 0x96, 0x3e, 0x36, 0xf6, 0x48, 0x3e, 0x27, 0x39, 0x33, 0xbe, 
	0x9d, 0x0f, 0xd3, 0x3e, 0xf4, 0x7d, 0x4e, 0xbe, 0xc0, 0xfb, 0xfb, 0xbc, 
	0x9f, 0x70, 0x55, 0xbf, 0x19, 0x09, 0x90, 0x3e, 0xee, 0x23, 0xa8, 0x3e, 
	0xdc, 0x05, 0xfd, 0x3d, 0x4b, 0x10, 0x9b, 0x3e, 0x8d, 0x66, 0x3e, 0x3e, 
	0x70, 0x30, 0xce, 0xbc, 0x9a, 0x7b, 0x0b, 0x3e, 0xb9, 0x03, 0x19, 0x3e, 
	0xb9, 0x1a, 0x0a, 0x3f, 0xd2, 0x19, 0x9c, 0xbe, 0x9e, 0xec, 0xaa, 0x3e, 
	0xf7, 0x3d, 0x82, 0x3e, 0x63, 0xb2, 0xee, 0xbd, 0x18, 0x16, 0x5f, 0xbd, 
	0xa0, 0x6a, 0x4a, 0xbd, 0x79, 0xde, 0x59, 0xbf, 0x75, 0x34, 0x85, 0x3e, 
	0x77, 0xc2, 0x70, 0x3e, 0x02, 0x8e, 0x05, 0x3e, 0xeb, 0x27, 0xa8, 0x3e, 
	0x18, 0xcc, 0xb8, 0x3e, 0xda, 0x5b, 0x08, 0xbe, 0x3c, 0x3d, 0x2f, 0x3d, 
	0xa7, 0xef, 0xca, 0x3e, 0x05, 0xf5, 0xec, 0x3e, 0x72, 0x70, 0x25, 0xbe, 
	0x5c, 0xcf, 0xb4, 0x3e, 0xb2, 0x52, 0x17, 0xbf, 0x5d, 0xe1, 0xb8, 0x3d, 
	0x98, 0x6d, 0x4c, 0x3d, 0x44, 0x8f, 0xd9, 0x3d, 0x66, 0xe2, 0x16, 0x3d, 
	0xc8, 0x21, 0x68, 0xbd, 0xc7, 0xcf, 0xd4, 0x3c, 0xa4, 0xb6, 0x97, 0xbd, 
	0x05, 0x5b, 0x9d, 0x3e, 0xdf, 0x08, 0xe5, 0x3e, 0x50, 0xb7, 0xa1, 0x3c, 
	0x0b, 0x23, 0xda, 0x3c, 0xd2, 0xa4, 0x36, 0x3d, 0x7c, 0x7f, 0x8c, 0x3d, 
	0x92, 0xe4, 0x21, 0x3e, 0x23, 0x0a, 0x00, 0xbf, 0xd4, 0x8f, 0xd9, 0x3e, 
	0x34, 0xcf, 0x7a, 0x3e, 0xbe, 0x1b, 0x4c, 0xbe, 0x72, 0x7a, 0x38, 0x3e, 
	0xaa, 0x60, 0x0d, 0xbf, 0x00, 0xcc, 0x86, 0x3d, 0xfb, 0xb7, 0x90, 0xbd, 
	0xba, 0xff, 0x3e, 0xbe, 0x7f, 0xb1, 0x85, 0x3e, 0x6c, 0x52, 0xaa, 0x3e, 
	0x18, 0x07, 0x9f, 0xbd, 0x38, 0x47, 0xec, 0x3e, 0xb8, 0xdb, 0x81, 0x3e, 
	0xd4, 0x34, 0xce, 0xbd, 0x80, 0x34, 0x15, 0x3c, 0x29, 0xc7, 0xea, 0x3e, 
	0x43, 0x18, 0x34, 0x3e, 0x43, 0x84, 0x5b, 0x3e, 0xc0, 0x3c, 0xab, 0x3c, 
	0x4a, 0x43, 0x67, 0xbe, 0xad, 0xd7, 0x32, 0xbf, 0xe2, 0x9a, 0x18, 0x3e, 
	0x2d, 0xe0, 0x0b, 0x3d, 0x38, 0x25, 0x01, 0xbd, 0x95, 0x41, 0x15, 0x3f, 
	0xc2, 0xdb, 0x66, 0x3e, 0x62, 0x0a, 0x79, 0x3e, 0x4a, 0x9c, 0x2a, 0x3c, 
	0xdc, 0xeb, 0x2e, 0xbd, 0x46, 0x7a, 0xb4, 0x3e, 0x60, 0x20, 0xc0, 0x3c, 
	0x37, 0x44, 0x37, 0xbe, 0x71, 0x67, 0xa5, 0xbe, 0xb9, 0x82, 0xa5, 0x3e, 
	0x82, 0xd7, 0x5b, 0x3e, 0x68, 0x5f, 0xd9, 0xbd, 0x8f, 0xe8, 0x6c, 0xbf, 
	0x8a, 0x49, 0x17, 0x3e, 0x08, 0xd4, 0xf6, 0x3d, 0x45, 0x52, 0xa3, 0x3e, 
	0x86, 0xac, 0x02, 0x3f, 0xcf, 0x14, 0x6d, 0xbe, 0xd9, 0x9d, 0x98, 0x3e, 
	0xff, 0x9b, 0xd4, 0x3e, 0x9f, 0xc5, 0xac, 0xbe, 0xb5, 0x3f, 0xf0, 0xbe, 
	0xa0, 0x82, 0x22, 0xbe, 0x99, 0xae, 0x9b, 0x3e, 0xb7, 0x75, 0xa7, 0x3e, 
	0x7f, 0x44, 0x25, 0x3d, 0x5f, 0xa0, 0x8c, 0x3e, 0xe0, 0x0d, 0x69, 0xbd, 
	0xe0, 0x4f, 0x64, 0xbe, 0x98, 0x88, 0x24, 0x3d, 0x97, 0x87, 0x27, 0x3e, 
	0xc0, 0x59, 0xa0, 0xbd, 0xbd, 0xde, 0xd4, 0x3e, 0xb3, 0x87, 0x33, 0x3d, 
	0x44, 0x5d, 0x79, 0xbe, 0x97, 0x3a, 0x8f, 0x3e, 0x10, 0xd5, 0x8d, 0x3e, 
	0x33, 0x8f, 0x09, 0x3f, 0x8d, 0x0e, 0x44, 0xbe, 0xae, 0x10, 0x32, 0x3c, 
	0x26, 0x1b, 0xbe, 0x3e, 0xc5, 0x54, 0xa4, 0x3e, 0x51, 0x1a, 0xaf, 0x3e, 
	0x36, 0xe8, 0xed, 0xbd, 0x2f, 0x32, 0xfa, 0xbe, 0x61, 0x12, 0x8a, 0xbe, 
	0x7e, 0x89, 0x7e, 0x3e, 0x80, 0x37, 0x0d, 0x3e, 0xc3, 0x5f, 0xe7, 0x3d, 
	0x63, 0xe0, 0xcf, 0x3e, 0x00, 0xab, 0xd3, 0xba, 0xc6, 0x32, 0xdf, 0x3e, 
	0x2e, 0xf3, 0xc5, 0x3e, 0x4e, 0x7e, 0xbc, 0x3d, 0xee, 0x84, 0x36, 0xbe, 
	0xb9, 0xa1, 0x35, 0x3e, 0xdb, 0xb5, 0x84, 0x3e, 0x0f, 0xab, 0xd8, 0xbc, 
	0x96, 0x81, 0x3f, 0x3e, 0xf0, 0x39, 0xa0, 0xbe, 0x52, 0x62, 0xdf, 0xbe, 
	0x28, 0x8c, 0x40, 0x3d, 0xd4, 0xf8, 0x5f, 0xbc, 0x8c, 0x32, 0xd1, 0x3d, 
	0x0c, 0x51, 0xe6, 0x3e, 0x03, 0x44, 0xc0, 0x3c, 0x38, 0x29, 0xb9, 0xbd, 
	0x64, 0x25, 0x93, 0x3e, 0xcc, 0x0c, 0xb4, 0x3d, 0x25, 0x02, 0x80, 0x3e, 
	0xb2, 0x9e, 0x2e, 0x3e, 0x29, 0xb9, 0xd4, 0x3e, 0xe7, 0x4e, 0xdb, 0x3e, 
	0x65, 0x47, 0xdc, 0xbd, 0x1e, 0x9c, 0x82, 0xbe, 0x24, 0xb7, 0xfc, 0xbd, 
	0x6f, 0xef, 0x37, 0xbf, 0x68, 0x19, 0xc4, 0x3d, 0x3d, 0xcc, 0xa8, 0x3e, 
	0xfc, 0x6c, 0x8d, 0xbe, 0x22, 0xb8, 0xe7, 0xbd, 0x7c, 0x2d, 0x43, 0x3d, 
	0xd0, 0xc4, 0x9c, 0xbd, 0x95, 0x77, 0x7b, 0x3e, 0x19, 0x59, 0xf7, 0x3e, 
	0xde, 0x79, 0x13, 0xbd, 0x89, 0x76, 0x83, 0x3e, 0x4a, 0xff, 0x9a, 0x3c, 
	0x8c, 0xa8, 0x00, 0x3f, 0x5c, 0x06, 0x8d, 0xbd, 0x00, 0xa4, 0x37, 0xbc, 
	0x00, 0xb3, 0xe4, 0x3b, 0xef, 0xfc, 0xd0, 0xbe, 0x31, 0xf4, 0x4f, 0xbe, 
	0x21, 0x0b, 0x9a, 0x3e, 0x60, 0x6f, 0xa5, 0xbe, 0x7f, 0xd4, 0xa5, 0x3e, 
	0xcd, 0x86, 0x8a, 0xbd, 0xc2, 0x2c, 0x3b, 0xbe, 0xa6, 0x6a, 0x86, 0xbd, 
	0x79, 0xe9, 0xd6, 0xbe, 0x6f, 0xfd, 0xb9, 0x3e, 0xc0, 0xcc, 0x9d, 0x3d, 
	0x28, 0xa9, 0x36, 0xbf, 0x9c, 0x9e, 0xf9, 0xbd, 0x87, 0x78, 0x51, 0x3e, 
	0xa3, 0x71, 0x95, 0xbe, 0xc0, 0x35, 0x9a, 0xbe, 0xde, 0xfd, 0x90, 0xbe, 
	0xa2, 0xaa, 0x5a, 0x3e, 0xec, 0xa4, 0xd7, 0x3e, 0x88, 0x36, 0xd7, 0x3d, 
	0xb4, 0xe0, 0x2a, 0xbc, 0x0c, 0x79, 0x24, 0xbe, 0x88, 0x6c, 0xba, 0xbd, 
	0xff, 0x58, 0x4d, 0x3e, 0xa2, 0x7f, 0xc4, 0x3d, 0x16, 0x78, 0xd1, 0x3e, 
	0x74, 0x3f, 0xa7, 0x3d, 0xe0, 0xf7, 0x3e, 0x3e, 0xe9, 0xb3, 0x05, 0x3e, 
	0xf2, 0x3a, 0xae, 0x3e, 0x05, 0x45, 0x26, 0xbe, 0x38, 0x89, 0x57, 0xbd, 
	0x1a, 0x18, 0x40, 0xbf, 0x47, 0xd7, 0x83, 0xbe, 0x1b, 0x3c, 0xa3, 0x3e, 
	0xab, 0x80, 0x25, 0xbe, 0x50, 0xd9, 0xe8, 0x3d, 0xf8, 0x96, 0x00, 0xbe, 
	0xaf, 0x09, 0x38, 0xbe, 0x80, 0x03, 0xdb, 0x3e, 0x76, 0xa2, 0x0b, 0x3e, 
	0x77, 0x58, 0xa2, 0x3e, 0xa2, 0xb3, 0xa7, 0xbe, 0xca, 0xb1, 0x4f, 0xbe, 
	0xf1, 0x6a, 0x8b, 0x3e, 0xe5, 0xd6, 0xc5, 0x3d, 0x72, 0xfd, 0x37, 0x3e, 
	0x09, 0x77, 0x5f, 0xbe, 0xa7, 0x83, 0x99, 0x3c, 0xd4, 0x30, 0xa5, 0x3d, 
	0xc6, 0x12, 0x95, 0x3e, 0x57, 0xb1, 0x85, 0x3e, 0x0b, 0x7d, 0x7a, 0x3e, 
	0x66, 0x61, 0xb6, 0x3e, 0xb0, 0x61, 0xb1, 0x3d, 0xdc, 0x20, 0xda, 0x3e, 
	0x0f, 0xe3, 0x10, 0xbf, 0xab, 0xc0, 0x10, 0xbf, 0x98, 0xfd, 0x6c, 0xbd, 
	0x00, 0x7e, 0xe8, 0xbe, 0xd5, 0xb1, 0xef, 0x3e, 0x4e, 0x50, 0xf3, 0x3e, 
	0xc2, 0x36, 0x24, 0xbe, 0x27, 0xef, 0xb1, 0x3e, 0x24, 0x22, 0x26, 0xbf, 
	0x5c, 0xd8, 0x8f, 0xbd, 0xe4, 0xf4, 0xd9, 0x3e, 0x8f, 0xf1, 0x54, 0xbe, 
	0x8f, 0x01, 0x1b, 0x3e, 0x1d, 0x3b, 0xa8, 0xbd, 0xd7, 0x0f, 0x9a, 0x3e, 
	0x77, 0xe4, 0x64, 0x3d, 0xeb, 0xab, 0xca, 0x3e, 0x26, 0xdb, 0x87, 0x3e, 
	0x66, 0x71, 0x0c, 0x3e, 0x5a, 0x11, 0xdc, 0x3e, 0xf7, 0x4b, 0xc7, 0x3e, 
	0xd0, 0xbe, 0x03, 0x3f, 0xfe, 0x40, 0x94, 0xbe, 0x47, 0xef, 0x1a, 0xbe, 
	0x8d, 0x0e, 0xc3, 0xbd, 0x0b, 0x37, 0x97, 0x3e, 0x62, 0x82, 0xae, 0xbf, 
	0x88, 0x48, 0xf7, 0x3d, 0xa9, 0x27, 0x3f, 0x3e, 0x51, 0x6c, 0x95, 0x3e, 
	0x8c, 0xb7, 0x99, 0x3d, 0xec, 0x30, 0x67, 0x3e, 0x0e, 0xa1, 0x76, 0x3e, 
	0xd6, 0xdc, 0x40, 0x3e, 0xc0, 0x88, 0x00, 0xbe, 0x14, 0xa2, 0x8a, 0x3e, 
	0x76, 0xf1, 0xff, 0xff, 0x10, 0x00, 0x00, 0x00, 0x05, 0x00, 0x00, 0x00, 
	0x14, 0x00, 0x00, 0x00, 0x2c, 0x00, 0x00, 0x00, 0x02, 0x00, 0x00, 0x00, 
	0x20, 0x00, 0x00, 0x00, 0x10, 0x00, 0x00, 0x00, 0x16, 0x00, 0x00, 0x00, 
	0x6d, 0x6f, 0x64, 0x65, 0x6c, 0x5f, 0x37, 0x2f, 0x64, 0x65, 0x6e, 0x73, 
	0x65, 0x5f, 0x39, 0x2f, 0x4d, 0x61, 0x74, 0x4d, 0x75, 0x6c, 0x00, 0x00, 
	0x74, 0xf1, 0xff, 0xff, 0x5a, 0xf2, 0xff, 0xff, 0x04, 0x00, 0x00, 0x00, 
	0x80, 0x0c, 0x00, 0x00, 0x3a, 0x75, 0xcb, 0x3d, 0xc4, 0xc9, 0xb3, 0x3e, 
	0x9d, 0xe6, 0x82, 0x3e, 0xe9, 0x20, 0x13, 0xbe, 0xaf, 0x87, 0xbf, 0xbd, 
	0x6b, 0x83, 0xaf, 0xbe, 0x21, 0x79, 0x5e, 0x3e, 0xc0, 0x1a, 0xf9, 0x3e, 
	0x75, 0x2c, 0xcb, 0xbd, 0x82, 0x05, 0x6e, 0x3d, 0x5e, 0x39, 0xe2, 0x3d, 
	0xba, 0x5e, 0x4b, 0x3e, 0x3b, 0xb1, 0x0a, 0x3e, 0xe6, 0xd3, 0xe2, 0xbe, 
	0xd4, 0xc0, 0x2b, 0x3e, 0x3c, 0x33, 0xf9, 0xbc, 0xa1, 0x89, 0xa0, 0x3e, 
	0x28, 0x8e, 0xf3, 0x3e, 0xdf, 0xc4, 0xa3, 0xbe, 0x1e, 0x33, 0x0c, 0xbe, 
	0x4e, 0x48, 0xb6, 0x3d, 0xae, 0xf7, 0xb2, 0x3d, 0xbf, 0xea, 0x82, 0x3e, 
	0x73, 0x28, 0x92, 0xbe, 0x09, 0x9c, 0x0b, 0xbe, 0x63, 0x6d, 0x97, 0x3d, 
	0xbd, 0x00, 0x63, 0x3e, 0x8e, 0x68, 0x12, 0x3e, 0x0f, 0xa2, 0x1d, 0xbe, 
	0x33, 0xf1, 0x5b, 0xbe, 0x6d, 0xa4, 0xb2, 0xbd, 0xb3, 0x2c, 0xe5, 0x3d, 
	0x97, 0x74, 0x05, 0x3f, 0x21, 0x34, 0xe5, 0xbd, 0xab, 0xb2, 0x72, 0xbe, 
	0xc2, 0xee, 0x13, 0xbd, 0x4f, 0x7a, 0xc9, 0x3d, 0x2a, 0x8d, 0xce, 0x3e, 
	0xd8, 0x61, 0xcd, 0xbd, 0x00, 0x2e, 0x73, 0xbe, 0xbb, 0x9c, 0x72, 0xbe, 
	0x8d, 0x46, 0x33, 0x3c, 0xa6, 0x40, 0x29, 0x3e, 0xdb, 0xc4, 0xee, 0xbd, 
	0x31, 0x2d, 0x0d, 0xbe, 0xcf, 0x80, 0xe5, 0xbe, 0x52, 0xe3, 0xfc, 0x3e, 
	0xa9, 0x29, 0x09, 0x3e, 0xfc, 0x73, 0x88, 0xbe, 0x43, 0x71, 0x00, 0xbe, 
	0x17, 0xa2, 0xbd, 0x3c, 0x5a, 0xf4, 0xa6, 0x3d, 0x13, 0xb4, 0xc3, 0x3d, 
	0xd3, 0x02, 0x06, 0xbe, 0xe0, 0x80, 0xae, 0xbe, 0x60, 0x5d, 0x5c, 0xbd, 
	0x59, 0xb0, 0x91, 0x3e, 0x38, 0x4a, 0x35, 0xbb, 0x6b, 0xd3, 0x4f, 0xbe, 
	0x4d, 0x69, 0xc3, 0xbe, 0x55, 0xe6, 0xa1, 0xbd, 0x24, 0x5b, 0x8b, 0x3d, 
	0xa3, 0x18, 0x04, 0xbe, 0x63, 0xc4, 0xb4, 0xbe, 0x1d, 0xcc, 0xdc, 0xbe, 
	0x1f, 0xf6, 0xa1, 0xbe, 0xbf, 0x5b, 0xfc, 0x3d, 0xba, 0x6b, 0x3e, 0x3e, 
	0xa7, 0xda, 0x0c, 0x3d, 0x08, 0xad, 0x87, 0xbe, 0xbb, 0xa8, 0x70, 0xbe, 
	0xab, 0xce, 0x33, 0x3d, 0xc6, 0x90, 0x42, 0x3e, 0xcd, 0x2d, 0xea, 0xbe, 
	0x6d, 0x25, 0x08, 0xbe, 0x77, 0xc1, 0x2a, 0xbe, 0x67, 0x30, 0xdb, 0x3e, 
	0x27, 0x0f, 0xc1, 0x3e, 0xcc, 0x85, 0xea, 0xbe, 0xb5, 0xfc, 0x37, 0x3d, 
	0x15, 0x0a, 0x12, 0x3e, 0x05, 0xa1, 0x09, 0xbd, 0x76, 0x34, 0xa4, 0x3e, 
	0xb5, 0xbb, 0x9e, 0xbd, 0xd3, 0xa7, 0xe9, 0xbe, 0xae, 0xca, 0x54, 0xbe, 
	0x21, 0xc5, 0xda, 0x3d, 0x21, 0x70, 0xe7, 0x3e, 0x94, 0x79, 0x8c, 0xbe, 
	0x0d, 0xb6, 0x92, 0x3c, 0x3c, 0x4e, 0x62, 0xbe, 0x27, 0x1f, 0x86, 0x3e, 
	0x18, 0x6d, 0xb2, 0x3e, 0xc1, 0xde, 0x40, 0xbe, 0xe0, 0x4d, 0x41, 0xbe, 
	0x0f, 0x3f, 0xae, 0xbe, 0x28, 0xc4, 0xfc, 0x3e, 0xd1, 0xbc, 0xa1, 0x3d, 
	0xc2, 0x62, 0x3f, 0xbe, 0xaa, 0x3b, 0x9a, 0x3d, 0xce, 0x94, 0x90, 0x3e, 
	0x2e, 0x0e, 0x1d, 0x3e, 0x08, 0x55, 0x7e, 0xbd, 0x70, 0x12, 0xde, 0x3c, 
	0x88, 0x6f, 0x57, 0xbe, 0x20, 0xc6, 0x21, 0x3e, 0xc0, 0x50, 0x46, 0xbc, 
	0x9a, 0x5a, 0x8a, 0x3e, 0x44, 0xd6, 0x8b, 0x3e, 0x3a, 0xde, 0xcd, 0xbd, 
	0x80, 0x20, 0x64, 0x3d, 0x12, 0x38, 0x81, 0x3e, 0x30, 0xfe, 0x83, 0xbe, 
	0xf4, 0x67, 0x5d, 0x3e, 0xc6, 0x8c, 0x1c, 0x3e, 0xd2, 0xcb, 0x6d, 0xbe, 
	0x1c, 0xf7, 0x55, 0x3e, 0x88, 0xc1, 0x5b, 0xbe, 0x60, 0x36, 0xd5, 0x3d, 
	0x9c, 0x04, 0x58, 0x3e, 0x51, 0x28, 0x8f, 0xbe, 0x57, 0x61, 0x8a, 0xbe, 
	0xc3, 0x48, 0x2d, 0xbe, 0xc8, 0xda, 0x74, 0x3d, 0x88, 0xc8, 0x38, 0xbe, 
	0x5c, 0x9e, 0x7f, 0xbd, 0x5c, 0x91, 0xce, 0x3d, 0x10, 0x8e, 0x83, 0xbc, 
	0xdb, 0xcd, 0x47, 0xbe, 0x4a, 0xd7, 0x31, 0xbe, 0x43, 0xd0, 0x81, 0xbe, 
	0xa0, 0xf8, 0x89, 0xbd, 0x08, 0xd5, 0x7e, 0x3d, 0x6e, 0xef, 0x28, 0xbe, 
	0x94, 0x9a, 0xab, 0x3d, 0xcf, 0xcf, 0x14, 0xbe, 0xd1, 0x25, 0x04, 0xbe, 
	0xf0, 0x8f, 0xb7, 0x3d, 0xe9, 0x6b, 0x7b, 0xbe, 0xbf, 0x46, 0x70, 0xbe, 
	0x58, 0x8d, 0x0a, 0xbd, 0xc1, 0xda, 0x00, 0xbe, 0xc6, 0xc5, 0xd1, 0xbd, 
	0xf0, 0xa2, 0x79, 0x3e, 0xd0, 0xda, 0x49, 0x3d, 0xac, 0xd0, 0x89, 0xbe, 
	0xf8, 0xe5, 0x84, 0x3d, 0xf5, 0xae, 0x92, 0xbe, 0x4f, 0xc6, 0x72, 0xbe, 
	0x9a, 0xe0, 0x76, 0xbe, 0x0c, 0xf1, 0x9b, 0xbd, 0x6e, 0x7e, 0xde, 0xbd, 
	0x08, 0xeb, 0x52, 0x3d, 0x88, 0x00, 0x13, 0xbd, 0x48, 0x3f, 0x42, 0x3d, 
	0x1e, 0x6a, 0x89, 0x3e, 0xa2, 0x2e, 0x43, 0xbe, 0x10, 0xdf, 0xe4, 0x3c, 
	0x48, 0x69, 0x7f, 0x3e, 0x02, 0xba, 0x90, 0x3e, 0x6d, 0x8d, 0x76, 0xbe, 
	0x48, 0xba, 0x88, 0xbe, 0x78, 0xea, 0x39, 0xbe, 0xb6, 0x78, 0xff, 0xbd, 
	0x65, 0x11, 0x8f, 0xbe, 0x38, 0xa6, 0x03, 0x3e, 0x4e, 0x65, 0x45, 0x3e, 
	0x33, 0xf0, 0x97, 0xbe, 0x20, 0x7e, 0x0e, 0xbe, 0x3c, 0xd0, 0x72, 0x3e, 
	0x5b, 0x67, 0x87, 0xbe, 0x02, 0xf2, 0x83, 0x3e, 0xf4, 0xce, 0x82, 0xbe, 
	0x60, 0xe3, 0xe4, 0x3d, 0x3a, 0x3a, 0x85, 0xbe, 0x8c, 0x39, 0x6f, 0xbd, 
	0x60, 0x1b, 0x39, 0x3c, 0xd6, 0x01, 0x92, 0xbd, 0x6c, 0xdd, 0xe4, 0xbd, 
	0x2d, 0x23, 0x8c, 0xbe, 0x88, 0xb2, 0x81, 0xbe, 0x06, 0x2b, 0x24, 0x3e, 
	0x64, 0x14, 0x8a, 0xbe, 0xef, 0xae, 0x65, 0xbe, 0x02, 0xd5, 0x42, 0xbe, 
	0xb8, 0xe0, 0xc6, 0xbd, 0x80, 0x5a, 0x86, 0xbb, 0x20, 0x77, 0x4e, 0x3e, 
	0x5a, 0x8e, 0x85, 0x3e, 0xde, 0x7c, 0x88, 0xbe, 0x68, 0x6f, 0x19, 0xbd, 
	0xf0, 0x15, 0xec, 0x3c, 0xaa, 0x86, 0x23, 0x3e, 0x02, 0x6b, 0xf1, 0xbd, 
	0x50, 0x51, 0x02, 0x3d, 0x50, 0xab, 0xc3, 0x3c, 0x72, 0xb0, 0x83, 0x3e, 
	0xa8, 0xb1, 0x85, 0xbe, 0xbd, 0xd5, 0x83, 0xbe, 0x3f, 0x0d, 0x21, 0xbe, 
	0x57, 0xfa, 0x82, 0x3e, 0x78, 0x2a, 0xda, 0xbc, 0xd0, 0x4a, 0x0f, 0xbe, 
	0x30, 0x8d, 0xf9, 0x3d, 0xe9, 0x8b, 0x20, 0xbe, 0xa6, 0xe0, 0xb2, 0x3e, 
	0x5f, 0x64, 0x05, 0xbe, 0x54, 0x45, 0x0c, 0xbe, 0xd1, 0x38, 0x5c, 0xbe, 
	0xa7, 0x0d, 0x9a, 0x3d, 0x0f, 0xa2, 0x25, 0x3e, 0xbc, 0x48, 0x65, 0xbe, 
	0xb5, 0x91, 0xbc, 0x3d, 0xf7, 0xbb, 0xf2, 0x3d, 0x27, 0x09, 0xdc, 0xbe, 
	0xa5, 0xa9, 0xee, 0x3e, 0xbd, 0xef, 0xa9, 0x3d, 0x03, 0xdb, 0xac, 0x3d, 
	0x1e, 0xc9, 0xe0, 0x3d, 0x71, 0xe3, 0xba, 0xbe, 0x8b, 0x75, 0xdf, 0x3e, 
	0x1b, 0xd8, 0x19, 0x3e, 0x05, 0x66, 0x51, 0xbe, 0xbd, 0x38, 0x11, 0xbd, 
	0xf0, 0x70, 0xae, 0xbe, 0x06, 0x7b, 0x01, 0x3f, 0xf9, 0x1b, 0xb3, 0x3b, 
	0x6f, 0x98, 0xe5, 0x3d, 0xdb, 0x42, 0x46, 0x3c, 0xe0, 0xf3, 0x04, 0xbf, 
	0x3b, 0xbe, 0x8e, 0x3e, 0xb9, 0x59, 0x7d, 0xbe, 0xd5, 0xff, 0x69, 0xbe, 
	0x13, 0x28, 0x82, 0xbd, 0x0a, 0x45, 0x41, 0xbe, 0xc2, 0x8b, 0xce, 0x3e, 
	0x60, 0x2d, 0x56, 0xbe, 0x8c, 0x63, 0x68, 0xbe, 0xb5, 0x87, 0xbd, 0xbe, 
	0x8a, 0x4b, 0xdd, 0xbd, 0xfa, 0x16, 0xfb, 0x3e, 0xe1, 0xae, 0xe4, 0xbe, 
	0x37, 0xe2, 0x59, 0xbe, 0xba, 0x9a, 0xf1, 0xbd, 0x4c, 0x21, 0xc5, 0xbe, 
	0x9c, 0x33, 0x0a, 0x3e, 0x00, 0x7b, 0xf6, 0xbd, 0xbb, 0xf7, 0xb5, 0xbe, 
	0xe1, 0x6d, 0xe3, 0xbe, 0x27, 0x5f, 0xef, 0xbd, 0xe8, 0xdb, 0x26, 0x3e, 
	0x74, 0xf5, 0x23, 0x3e, 0x70, 0x51, 0x1b, 0xbd, 0xd0, 0xf2, 0x2b, 0x3e, 
	0x68, 0xb7, 0xf3, 0x3d, 0x18, 0xe9, 0x3a, 0xbd, 0x16, 0xb3, 0x85, 0x3e, 
	0x6a, 0x98, 0x5b, 0xbe, 0x43, 0xc2, 0x15, 0xbe, 0xa8, 0x74, 0x1c, 0xbe, 
	0xc1, 0x20, 0x2c, 0xbe, 0x1d, 0xde, 0x0b, 0xbe, 0x54, 0x8a, 0x4e, 0xbe, 
	0x74, 0x3f, 0xdc, 0xbd, 0xd2, 0xca, 0x59, 0xbe, 0xcc, 0xac, 0x62, 0xbd, 
	0x0c, 0x4a, 0xeb, 0x3d, 0x34, 0x59, 0x6c, 0xbe, 0xc5, 0xf0, 0x75, 0xbe, 
	0x40, 0x6d, 0x94, 0x3e, 0x00, 0xa4, 0x8d, 0xb9, 0x30, 0xe8, 0x20, 0xbd, 
	0xdc, 0x5f, 0x50, 0x3e, 0x84, 0xd2, 0x52, 0x3e, 0x04, 0xd1, 0x5b, 0xbd, 
	0xc8, 0xec, 0xf9, 0xbd, 0x8a, 0x02, 0x95, 0xbd, 0x90, 0x34, 0x92, 0x3d, 
	0x1c, 0x83, 0x8d, 0x3d, 0x00, 0xef, 0x7f, 0xbc, 0x20, 0x5f, 0x74, 0xbc, 
	0x2a, 0x9b, 0xf8, 0xbd, 0x18, 0x12, 0x64, 0xbd, 0x93, 0x54, 0x18, 0xbe, 
	0x2a, 0x59, 0xd9, 0xbd, 0x65, 0x0e, 0x50, 0xbe, 0xad, 0xb2, 0x81, 0xbe, 
	0x0e, 0x8b, 0x70, 0xbe, 0x38, 0x39, 0xfe, 0x3d, 0x50, 0xb2, 0xe2, 0x3c, 
	0xcb, 0x04, 0x89, 0xbe, 0x77, 0x74, 0x8d, 0xbe, 0x10, 0x4e, 0xec, 0x3d, 
	0x00, 0x4e, 0x61, 0xbb, 0x60, 0x99, 0x22, 0xbd, 0xd8, 0x63, 0x90, 0x3e, 
	0x51, 0x58, 0x44, 0xbe, 0xb4, 0xf8, 0x80, 0x3d, 0x0e, 0xf1, 0x20, 0xbe, 
	0xb2, 0x81, 0x26, 0x3e, 0xc4, 0x7a, 0x0d, 0xbe, 0x12, 0x57, 0xf6, 0x3e, 
	0xad, 0x81, 0x8a, 0x3e, 0xf5, 0xd5, 0xe3, 0xbd, 0x1d, 0xe3, 0x81, 0x39, 
	0xcf, 0x24, 0xef, 0x3d, 0x96, 0x11, 0xfa, 0x3d, 0xd5, 0x9f, 0x5a, 0x3e, 
	0x24, 0x86, 0xbd, 0x3c, 0x9c, 0x14, 0x8f, 0xba, 0xbf, 0x0d, 0x4c, 0xbe, 
	0xd0, 0x99, 0x0a, 0x3f, 0x95, 0xfa, 0xee, 0x3c, 0xcd, 0x6f, 0xf7, 0xbe, 
	0x0e, 0xe3, 0x88, 0x3c, 0x6b, 0x33, 0x11, 0x3e, 0x0e, 0xb6, 0x26, 0x3d, 
	0x01, 0x6e, 0x14, 0x3f, 0x80, 0xd7, 0xcd, 0xbd, 0xb5, 0x30, 0xdb, 0xbe, 
	0x77, 0xc5, 0xd1, 0x3d, 0xa5, 0x36, 0x00, 0x3f, 0xa5, 0x9c, 0x19, 0x3e, 
	0x57, 0x63, 0x62, 0xbe, 0x8b, 0x57, 0xd3, 0xbe, 0x31, 0xc3, 0x8a, 0xbd, 
	0x53, 0x13, 0xde, 0x3d, 0xf8, 0x56, 0xf7, 0x3e, 0x74, 0x14, 0x5e, 0xbe, 
	0xf8, 0xd3, 0x52, 0xbe, 0xeb, 0xb6, 0x5a, 0xbe, 0x2f, 0x0e, 0x00, 0x3f, 
	0x97, 0x3a, 0xf2, 0x3e, 0xe0, 0xad, 0x01, 0xbf, 0x6e, 0x39, 0x9b, 0xbd, 
	0x81, 0xc1, 0xd0, 0xbe, 0x1f, 0xfa, 0xc9, 0x3e, 0xbe, 0x86, 0x68, 0x3e, 
	0xa0, 0xdd, 0x30, 0xbd, 0x1c, 0xb2, 0xb8, 0xbe, 0xdc, 0x0c, 0xcd, 0xbe, 
	0x86, 0x6c, 0xa7, 0x3e, 0x99, 0xe5, 0xda, 0x3e, 0xfd, 0xad, 0xde, 0xbe, 
	0xb7, 0xf7, 0x0f, 0xba, 0x17, 0x20, 0x65, 0xbe, 0xec, 0x66, 0x25, 0x3f, 
	0xf9, 0x1f, 0x93, 0x3e, 0x93, 0xef, 0xfd, 0xbe, 0x2b, 0x06, 0x83, 0xbe, 
	0x04, 0xf3, 0x79, 0x3e, 0x46, 0x49, 0x38, 0x3e, 0x6f, 0x28, 0x82, 0xbe, 
	0x4c, 0xe8, 0x92, 0x3d, 0x08, 0x1a, 0x09, 0xbd, 0x24, 0x5b, 0xae, 0x3d, 
	0xbc, 0x01, 0x93, 0x3e, 0x10, 0x45, 0x34, 0x3e, 0x10, 0xf2, 0x80, 0x3e, 
	0x46, 0xa3, 0x38, 0xbe, 0x10, 0xbc, 0x62, 0xbe, 0xfe, 0xad, 0x79, 0xbe, 
	0x58, 0xe3, 0x91, 0xbe, 0x1e, 0x38, 0x86, 0xbd, 0x00, 0xd6, 0x5e, 0xbc, 
	0xba, 0x59, 0x7c, 0xbe, 0x14, 0x02, 0xc2, 0xbd, 0x6e, 0xc4, 0xb3, 0xbd, 
	0x18, 0x68, 0x7a, 0xbd, 0xb4, 0x4f, 0xc3, 0xbd, 0x58, 0x6b, 0x5b, 0x3d, 
	0x04, 0x2e, 0xd7, 0x3d, 0x80, 0xed, 0x4a, 0xbd, 0xde, 0x67, 0x16, 0xbe, 
	0x50, 0x00, 0x59, 0x3e, 0xce, 0x3b, 0x1f, 0xbe, 0x00, 0xb6, 0xca, 0xbc, 
	0xc0, 0x7e, 0x73, 0xbd, 0x50, 0x69, 0x29, 0xbd, 0xb8, 0xbe, 0x3c, 0xbe, 
	0xa0, 0x8e, 0xe8, 0xbc, 0x38, 0xbf, 0xca, 0xbd, 0x58, 0xae, 0x0a, 0x3d, 
	0xb8, 0xa3, 0x51, 0xbe, 0xb2, 0x3e, 0x51, 0xbe, 0x58, 0xa5, 0x69, 0x3e, 
	0x18, 0x0f, 0x47, 0xbe, 0xe0, 0x35, 0xf7, 0x3d, 0xe4, 0xf5, 0x69, 0x3e, 
	0xc4, 0x3e, 0xb6, 0x3d, 0x44, 0xc9, 0x5f, 0xbd, 0x6f, 0x70, 0x2f, 0xbe, 
	0x4a, 0xeb, 0x18, 0x3e, 0xac, 0x75, 0x39, 0x3e, 0xc8, 0x49, 0x9a, 0x3e, 
	0x04, 0xf2, 0x76, 0xbe, 0x80, 0x30, 0x31, 0x3e, 0x58, 0xdd, 0xeb, 0xbd, 
	0xd0, 0xce, 0xe9, 0x3c, 0x00, 0x9a, 0x99, 0x3b, 0x27, 0x6f, 0xc0, 0x3d, 
	0x9d, 0xd7, 0x43, 0xbc, 0xec, 0x97, 0xa2, 0x3e, 0x28, 0x39, 0x8f, 0xbd, 
	0x9c, 0xa3, 0xe6, 0xbe, 0xde, 0x2d, 0xc2, 0xbd, 0x0c, 0x3b, 0x1a, 0xbd, 
	0x4d, 0x1a, 0x6a, 0x3d, 0x07, 0xef, 0x01, 0xbf, 0xef, 0x15, 0x9a, 0xbd, 
	0x20, 0x7d, 0x5c, 0xbe, 0xdf, 0x99, 0x24, 0x3d, 0x94, 0x69, 0xe4, 0x3e, 
	0xa1, 0x3a, 0xd7, 0xbe, 0x0f, 0x69, 0xa0, 0xbe, 0x75, 0x7e, 0x17, 0xbe, 
	0xde, 0x6b, 0xab, 0x3e, 0x7a, 0xe6, 0xda, 0x3c, 0x5f, 0xa6, 0x96, 0xbd, 
	0x5b, 0x57, 0xec, 0xbe, 0x8a, 0x83, 0x38, 0xbd, 0x1f, 0x32, 0xd8, 0x3e, 
	0x85, 0xee, 0xb0, 0x3e, 0x0d, 0x6c, 0xc7, 0xbe, 0xc2, 0x0f, 0xb0, 0xbd, 
	0xef, 0x1b, 0xbe, 0xbd, 0x56, 0xca, 0xd2, 0xbc, 0x37, 0x95, 0x5e, 0x3b, 
	0xf0, 0xff, 0x3c, 0xbe, 0xfd, 0x36, 0x23, 0xbe, 0xff, 0x7c, 0xf7, 0xbd, 
	0x8f, 0x70, 0x58, 0x3e, 0xb4, 0x6b, 0x5c, 0x3c, 0x33, 0xc1, 0xd9, 0xbd, 
	0x98, 0x2e, 0x57, 0xbd, 0xbb, 0x5c, 0x64, 0xbe, 0x3d, 0xeb, 0x02, 0x3f, 
	0xac, 0xfe, 0x8d, 0x3e, 0xc0, 0x6c, 0x16, 0xbf, 0x66, 0xc8, 0x7a, 0xbe, 
	0x31, 0x76, 0x61, 0xbe, 0x9b, 0xa4, 0xd3, 0x3e, 0xe5, 0x15, 0xa2, 0x3e, 
	0x37, 0xb3, 0x18, 0xbf, 0x8e, 0x15, 0x87, 0xbe, 0xad, 0x33, 0xc1, 0xbe, 
	0x98, 0x21, 0x2d, 0x3e, 0x77, 0xc2, 0xc9, 0x3e, 0xb7, 0x14, 0x58, 0xbe, 
	0x25, 0xef, 0xd4, 0xbe, 0x7a, 0xa7, 0x0f, 0x3e, 0x1e, 0xa5, 0x93, 0x3e, 
	0x66, 0x46, 0xe0, 0xbd, 0x06, 0xdd, 0x82, 0x3d, 0x82, 0x34, 0xd0, 0xbe, 
	0xc3, 0xba, 0x06, 0x3e, 0xb1, 0x4d, 0x27, 0x3e, 0x36, 0x57, 0x5c, 0x3e, 
	0x96, 0xd1, 0x5f, 0x3d, 0xcb, 0xde, 0x09, 0xbe, 0x67, 0x63, 0x8c, 0xbd, 
	0x10, 0x27, 0x36, 0x3e, 0x08, 0x9b, 0xc2, 0xbd, 0xd3, 0x38, 0x69, 0xbe, 
	0xb4, 0xb0, 0xde, 0x3d, 0x02, 0xb5, 0x8d, 0xbe, 0xc0, 0x5e, 0x37, 0x3e, 
	0x5c, 0x42, 0x94, 0x3e, 0x28, 0xa8, 0xe6, 0xbe, 0x5e, 0x69, 0x66, 0xbc, 
	0x98, 0xa4, 0xcb, 0xbe, 0x1d, 0xfe, 0xe2, 0x3e, 0xcb, 0xe0, 0x1a, 0x3e, 
	0xe5, 0x50, 0xfe, 0x3b, 0xc0, 0x55, 0xe7, 0xbe, 0x45, 0x67, 0xb0, 0xbe, 
	0xca, 0x47, 0x01, 0x3e, 0x7d, 0x37, 0xb0, 0x3e, 0x1c, 0xe7, 0xd6, 0xba, 
	0xdd, 0x58, 0x36, 0xbe, 0xb8, 0x80, 0xde, 0x3c, 0x58, 0x7b, 0xe7, 0x3e, 
	0xd8, 0x2d, 0x78, 0x3d, 0x1e, 0x1e, 0xd5, 0xbb, 0x2a, 0xeb, 0xd8, 0xbd, 
	0xa6, 0x5e, 0xd6, 0xbc, 0x35, 0xa7, 0xcb, 0x3e, 0x0d, 0x84, 0x04, 0x3c, 
	0xc6, 0xbd, 0xa7, 0xbe, 0xed, 0x21, 0x03, 0x3e, 0xc7, 0xea, 0xd1, 0xbe, 
	0x0a, 0x20, 0x2f, 0xbc, 0xb8, 0xa9, 0xca, 0x3e, 0x9d, 0xcb, 0xbb, 0xbe, 
	0xec, 0x11, 0x22, 0xbe, 0xca, 0x8c, 0x39, 0xbe, 0x26, 0x6e, 0x08, 0x3e, 
	0xe4, 0x4c, 0xda, 0x3d, 0x07, 0x04, 0x4b, 0xbe, 0x5a, 0x13, 0xcd, 0xbe, 
	0x32, 0x1f, 0x8a, 0xbe, 0xd2, 0x05, 0x34, 0x3e, 0x5c, 0x03, 0xf3, 0x3d, 
	0xaf, 0x69, 0x82, 0xbe, 0x26, 0x42, 0xc2, 0xbd, 0x10, 0xae, 0x20, 0xbd, 
	0xdc, 0x41, 0x97, 0xbe, 0x00, 0x10, 0xf1, 0x39, 0x50, 0x88, 0x0e, 0x3d, 
	0x70, 0x92, 0x9e, 0x3c, 0xc8, 0x43, 0x76, 0x3e, 0x98, 0x3a, 0x5d, 0xbe, 
	0xf8, 0x26, 0x3e, 0xbe, 0x40, 0x0b, 0x53, 0x3c, 0xd4, 0x56, 0x33, 0x3e, 
	0xd0, 0x7e, 0x5f, 0xbe, 0xfd, 0x56, 0x23, 0xbe, 0xdc, 0xc5, 0xde, 0x3d, 
	0x50, 0xd4, 0xf7, 0x3c, 0x22, 0xce, 0xe3, 0xbd, 0xd2, 0x42, 0x0d, 0xbe, 
	0x20, 0x14, 0x03, 0x3e, 0xd0, 0xdc, 0x62, 0xbe, 0x20, 0x7f, 0x5d, 0xbc, 
	0x3a, 0x50, 0x89, 0x3e, 0x4e, 0x54, 0x83, 0x3e, 0x20, 0x82, 0x07, 0xbe, 
	0x80, 0xfd, 0x92, 0xbe, 0xde, 0x08, 0x1f, 0x3e, 0x16, 0xcb, 0x10, 0x3e, 
	0xe7, 0x65, 0x15, 0xbe, 0x24, 0x15, 0xeb, 0xbd, 0xb8, 0xc8, 0x38, 0xbe, 
	0x10, 0x7c, 0xbb, 0xbc, 0xf8, 0x35, 0xb3, 0xbd, 0xf2, 0x0e, 0x81, 0xbe, 
	0x9a, 0x53, 0x88, 0x3e, 0x58, 0x53, 0x89, 0x3e, 0x06, 0x29, 0x2a, 0xbe, 
	0xc2, 0x35, 0xfe, 0xbd, 0xc8, 0x54, 0x4a, 0xbd, 0x88, 0xcd, 0x29, 0xbe, 
	0xff, 0x3e, 0x80, 0xbe, 0xc1, 0xb9, 0x7a, 0xbe, 0xaf, 0x14, 0x1e, 0xbe, 
	0x18, 0xae, 0x1d, 0xbe, 0xb8, 0x58, 0x48, 0x3e, 0xc0, 0x72, 0x9d, 0xbb, 
	0x68, 0x17, 0x98, 0x3e, 0x28, 0x67, 0xf1, 0x3d, 0xb2, 0x7b, 0x87, 0xbe, 
	0xfa, 0xbe, 0xf8, 0x3d, 0x74, 0x1b, 0x1c, 0xbe, 0xab, 0xe7, 0x8a, 0xbd, 
	0x90, 0x60, 0xb9, 0x3c, 0xe4, 0x6a, 0xfd, 0xbd, 0xb8, 0x23, 0x83, 0x3e, 
	0x39, 0xf5, 0x88, 0x3e, 0xd7, 0x42, 0x01, 0xbe, 0x49, 0xf6, 0x23, 0xbe, 
	0xa4, 0x16, 0x3c, 0x3b, 0x21, 0xe6, 0xef, 0x3c, 0x82, 0xfe, 0xa4, 0x3e, 
	0xa0, 0x69, 0xd3, 0xbd, 0xb0, 0xb1, 0xb3, 0xbb, 0x09, 0x00, 0x59, 0xbc, 
	0xec, 0x53, 0x8e, 0x3e, 0x2c, 0x7c, 0xa9, 0x3e, 0x89, 0xf7, 0x96, 0xbe, 
	0xe9, 0xf6, 0xe2, 0xbe, 0xd5, 0x8b, 0x16, 0xbd, 0xd1, 0xa2, 0x59, 0xbd, 
	0x82, 0xb5, 0x95, 0xbd, 0xd6, 0x2c, 0xdf, 0xbe, 0x18, 0x87, 0xd1, 0xbe, 
	0x35, 0xfb, 0x2b, 0x3d, 0xe5, 0x01, 0xa9, 0x3e, 0x5a, 0xa3, 0x71, 0x3d, 
	0xbb, 0xa4, 0xd3, 0xbd, 0x05, 0x1f, 0x86, 0xbe, 0x44, 0x1d, 0xe5, 0xbc, 
	0x53, 0x48, 0xd5, 0x3d, 0x53, 0xe6, 0xa0, 0x3e, 0xe6, 0x9d, 0xff, 0xbe, 
	0x13, 0xed, 0x79, 0x3c, 0x33, 0x65, 0x44, 0xbd, 0x02, 0xf9, 0xce, 0x3e, 
	0x3c, 0x34, 0x7a, 0x3e, 0x6f, 0x96, 0x00, 0xbf, 0xbb, 0xe0, 0x17, 0xbe, 
	0x86, 0x04, 0x47, 0xbe, 0x0d, 0xfe, 0x81, 0x3d, 0x7b, 0x7f, 0x32, 0x3e, 
	0x1f, 0x10, 0x92, 0xbe, 0x9b, 0xb8, 0xd0, 0x3c, 0x53, 0x82, 0x07, 0xbf, 
	0x86, 0x62, 0x8a, 0x3e, 0x40, 0xee, 0x63, 0x3e, 0x28, 0xe5, 0xfe, 0xbe, 
	0xe4, 0x95, 0x99, 0xbe, 0xcf, 0xea, 0xa2, 0xbe, 0x37, 0xa9, 0x6b, 0x3e, 
	0x73, 0x21, 0x9f, 0x3d, 0x3e, 0x09, 0xc1, 0xbe, 0x2e, 0xc1, 0x41, 0xbd, 
	0x9d, 0x5a, 0x74, 0x3d, 0xe3, 0x0c, 0xef, 0x3e, 0xa3, 0x4d, 0x24, 0x3d, 
	0x8b, 0xdd, 0x10, 0x3d, 0x9e, 0x62, 0xb8, 0xbe, 0x57, 0x25, 0xa5, 0xbe, 
	0xb4, 0xfd, 0xec, 0x3e, 0x02, 0x88, 0xb3, 0x3e, 0xd8, 0xaf, 0xa7, 0xbe, 
	0xa7, 0xda, 0x7d, 0xbe, 0x74, 0x51, 0xac, 0x3d, 0x5d, 0x7d, 0x20, 0x3e, 
	0x8b, 0xe5, 0x91, 0x3d, 0x7b, 0x93, 0x6c, 0xbe, 0x3b, 0xc6, 0x6e, 0xbe, 
	0x40, 0x11, 0xab, 0xbe, 0x1f, 0x04, 0x07, 0x3e, 0x93, 0x66, 0x04, 0x3f, 
	0xe7, 0x5f, 0x95, 0xbe, 0xee, 0x33, 0x24, 0x3e, 0x4c, 0x5d, 0x3f, 0xbe, 
	0x7a, 0x0c, 0x2c, 0x3d, 0x29, 0x8a, 0xcf, 0x3e, 0xbb, 0xff, 0x6e, 0xbe, 
	0x9c, 0xb7, 0x76, 0xbe, 0xfd, 0x9b, 0xf5, 0x3c, 0x19, 0x80, 0x5e, 0x3e, 
	0x97, 0x1b, 0x0b, 0x3f, 0x9c, 0x4c, 0xe4, 0xbe, 0x7e, 0x2e, 0x6e, 0xbe, 
	0xb9, 0x8c, 0x0f, 0xbe, 0x8f, 0xa4, 0x2d, 0x3e, 0xfb, 0x43, 0x3e, 0x3e, 
	0xef, 0x8f, 0xc2, 0xbe, 0x30, 0x5a, 0x95, 0xbd, 0x4e, 0xa8, 0x88, 0xbe, 
	0xcd, 0xe2, 0x62, 0x3e, 0x10, 0xe5, 0x16, 0x3e, 0xac, 0x9c, 0x7d, 0xbe, 
	0xce, 0x36, 0x7a, 0xbe, 0xca, 0x2d, 0xb2, 0xbd, 0x12, 0xc2, 0x44, 0x3e, 
	0xec, 0xa8, 0x00, 0x3f, 0x85, 0x6d, 0x84, 0x3b, 0x7b, 0x49, 0x88, 0xbd, 
	0x3c, 0x95, 0x09, 0x3d, 0x0b, 0xc2, 0x1e, 0x3e, 0x52, 0xe7, 0x25, 0x3e, 
	0xab, 0x7d, 0x56, 0xbe, 0xcc, 0xa7, 0x21, 0x3e, 0x86, 0x70, 0x17, 0x3e, 
	0xd1, 0xca, 0x01, 0xbe, 0xe0, 0x2c, 0xe9, 0xbd, 0x7c, 0x07, 0x6c, 0xbe, 
	0xc7, 0xc2, 0x9e, 0xbe, 0xd2, 0x23, 0x87, 0xbe, 0xbd, 0x2a, 0x30, 0xbd, 
	0x28, 0xce, 0xd6, 0x3e, 0xc8, 0xe8, 0xc7, 0xbe, 0x79, 0x01, 0x5e, 0xbd, 
	0x65, 0x3a, 0xf5, 0x3d, 0x72, 0x2c, 0xea, 0xbd, 0xde, 0x7b, 0xf3, 0x3d, 
	0xee, 0xe5, 0xa0, 0xbe, 0x66, 0x56, 0x87, 0xbe, 0xea, 0xbd, 0x13, 0xbd, 
	0xce, 0x31, 0x34, 0x3e, 0x35, 0x53, 0xd4, 0x3e, 0xad, 0xbd, 0x71, 0xbe, 
	0x84, 0xfd, 0x8c, 0x3d, 0x6f, 0xd6, 0xaf, 0xbe, 0xde, 0x8d, 0xd6, 0x3e, 
	0x21, 0x82, 0x21, 0x3e, 0xd4, 0xc4, 0x50, 0xbe, 0xd5, 0x50, 0x8b, 0xbd, 
	0x39, 0x06, 0xb6, 0x3d, 0x76, 0xe8, 0xa4, 0x3e, 0x7d, 0x1f, 0xb2, 0x3d, 
	0x14, 0xb3, 0x37, 0xbe, 0x72, 0xc5, 0xf5, 0xbb, 0x8a, 0x79, 0xe6, 0xbe, 
	0x7f, 0x6b, 0x96, 0x3c, 0x29, 0x6d, 0x10, 0x3e, 0xdf, 0x44, 0xe6, 0xbe, 
	0xcb, 0x1a, 0xa6, 0xbd, 0x0a, 0xec, 0x94, 0xbd, 0xb5, 0xfb, 0x94, 0x3e, 
	0x31, 0xd6, 0xe6, 0x3e, 0x09, 0x53, 0xdb, 0xbe, 0x4a, 0x5d, 0x95, 0xbd, 
	0xc3, 0x75, 0xe3, 0xbe, 0x27, 0xc2, 0x8c, 0x3e, 0x51, 0xac, 0xb6, 0x3e, 
	0x25, 0xed, 0xf3, 0xbe, 0xe7, 0x7a, 0x47, 0xbd, 0xe0, 0x86, 0x93, 0xbc, 
	0xac, 0x0d, 0x74, 0xbd, 0x00, 0xc3, 0x2f, 0xbd, 0x2c, 0x79, 0xd0, 0x3d, 
	0xc0, 0x2f, 0x96, 0xbd, 0x2e, 0x30, 0x28, 0x3e, 0xc8, 0x91, 0x93, 0xbe, 
	0x2e, 0x6f, 0xed, 0xbd, 0x32, 0x95, 0x2e, 0xbe, 0x04, 0x4b, 0xfe, 0x3d, 
	0x88, 0x3b, 0x9b, 0xbd, 0x40, 0x1b, 0x2f, 0xbc, 0x00, 0x32, 0xaa, 0x3a, 
	0x00, 0x2a, 0xb8, 0xbc, 0x98, 0x26, 0xf6, 0x3d, 0xb4, 0x3a, 0xec, 0x3d, 
	0x06, 0xed, 0x85, 0xbe, 0x16, 0x4c, 0x81, 0xbe, 0xfd, 0xe5, 0x8f, 0xbe, 
	0xb0, 0x9d, 0x63, 0xbe, 0x2a, 0x08, 0x90, 0xbd, 0x8b, 0xfb, 0x7b, 0xbe, 
	0x98, 0x3b, 0x59, 0x3d, 0x75, 0x2e, 0x54, 0xbe, 0x3e, 0xaa, 0x37, 0x3e, 
	0xaf, 0x4f, 0x69, 0xbe, 0xa5, 0x2a, 0x3e, 0xbe, 0x60, 0xed, 0xae, 0xbc, 
	0x6e, 0xfe, 0x80, 0x3e, 0xda, 0xa5, 0x89, 0x3e, 0xae, 0xd5, 0x24, 0xbe, 
	0xa0, 0x7d, 0x61, 0x3d, 0xfb, 0x5e, 0x5d, 0xbe, 0x46, 0xc1, 0x8c, 0xbe, 
	0x5f, 0x21, 0x93, 0xbe, 0xa4, 0x45, 0x14, 0xbe, 0x54, 0x7e, 0xd7, 0x3d, 
	0x6c, 0x47, 0x56, 0x3e, 0x42, 0x5f, 0xa0, 0xbd, 0x50, 0x20, 0x2b, 0x3d, 
	0xb4, 0x27, 0x79, 0x3e, 0x54, 0x4d, 0x7e, 0x3e, 0xfe, 0x99, 0x3d, 0x3e, 
	0xd7, 0x41, 0x2b, 0xbe, 0xfa, 0x65, 0x8b, 0xbd, 0xac, 0x23, 0x80, 0x3e, 
	0xee, 0x67, 0x19, 0x3e, 0x92, 0xb3, 0x87, 0xbd, 0xf0, 0x8a, 0xc1, 0x3d, 
	0x50, 0x0b, 0x66, 0x3e, 0xf0, 0xf0, 0x00, 0x3e, 0xc2, 0xb2, 0xd7, 0x3e, 
	0xa7, 0xfc, 0x51, 0x3e, 0x6a, 0x55, 0x3d, 0xbe, 0x24, 0x54, 0x51, 0xbe, 
	0xee, 0x3e, 0x24, 0x3e, 0xe1, 0x8d, 0x87, 0x3e, 0x93, 0x7a, 0xb5, 0x3e, 
	0x7a, 0xb8, 0xe3, 0xbe, 0xf4, 0xc6, 0x5e, 0x3d, 0xf9, 0xb8, 0x27, 0x3e, 
	0x8a, 0xd6, 0x6a, 0x3c, 0x3b, 0x3f, 0xb4, 0x3e, 0x70, 0xcb, 0xc9, 0xbe, 
	0x96, 0x95, 0xc7, 0x3d, 0x22, 0x7f, 0x3c, 0xbe, 0x55, 0x49, 0x9e, 0x3e, 
	0x73, 0x81, 0x9a, 0x3c, 0x01, 0xbd, 0x78, 0xbd, 0x54, 0xbe, 0xc3, 0xbe, 
	0x94, 0xcd, 0x0b, 0xbe, 0x60, 0x2c, 0x09, 0x3f, 0x96, 0x2f, 0xa9, 0x3e, 
	0xc8, 0x68, 0xe4, 0xbe, 0xee, 0xe0, 0x01, 0x3e, 0x85, 0x5f, 0x1c, 0xbe, 
	0x23, 0x23, 0x70, 0x3e, 0xe0, 0x9e, 0x1e, 0x3e, 0x04, 0xe6, 0xad, 0xbe, 
	0x4c, 0xdd, 0xa9, 0xbe, 0xcb, 0x71, 0x4c, 0xbc, 0xca, 0xce, 0xfc, 0x3e, 
	0xcb, 0x4e, 0x06, 0x3f, 0xc0, 0x56, 0xbb, 0xbe, 0x0b, 0x33, 0xd0, 0xbe, 
	0xf5, 0x3d, 0xcc, 0xbd, 0x28, 0xed, 0xe1, 0x3e, 0x8e, 0x88, 0xdb, 0x3e, 
	0xe0, 0xc5, 0xdf, 0xbd, 0xf1, 0x67, 0x26, 0x3d, 0xa1, 0x57, 0xac, 0xbc, 
	0xa9, 0x83, 0x79, 0x3e, 0x59, 0xbe, 0xea, 0x3d, 0x4a, 0x51, 0x89, 0x3d, 
	0xb1, 0xb7, 0xc8, 0xbe, 0xdc, 0xf2, 0xbb, 0xbe, 0x71, 0x04, 0xd0, 0x3e, 
	0xf0, 0x0d, 0xdc, 0x3e, 0x9e, 0x14, 0x36, 0xbe, 0x8e, 0x2e, 0x0b, 0x3e, 
	0x42, 0xfe, 0xff, 0xff, 0x10, 0x00, 0x00, 0x00, 0x04, 0x00, 0x00, 0x00, 
	0x14, 0x00, 0x00, 0x00, 0x2c, 0x00, 0x00, 0x00, 0x02, 0x00, 0x00, 0x00, 
	0x10, 0x00, 0x00, 0x00, 0x32, 0x00, 0x00, 0x00, 0x16, 0x00, 0x00, 0x00, 
	0x6d, 0x6f, 0x64, 0x65, 0x6c, 0x5f, 0x37, 0x2f, 0x64, 0x65, 0x6e, 0x73, 
	0x65, 0x5f, 0x38, 0x2f, 0x4d, 0x61, 0x74, 0x4d, 0x75, 0x6c, 0x00, 0x00, 
	0x40, 0xfe, 0xff, 0xff, 0x26, 0xff, 0xff, 0xff, 0x04, 0x00, 0x00, 0x00, 
	0x80, 0x00, 0x00, 0x00, 0xd0, 0xe3, 0x96, 0x3e, 0x51, 0x88, 0xed, 0xbc, 
	0xe1, 0x1a, 0x8e, 0x3e, 0x03, 0x63, 0x87, 0x3e, 0x0f, 0x21, 0xba, 0x3e, 
	0x32, 0xe9, 0x95, 0x3e, 0x73, 0xab, 0x83, 0x3e, 0xe8, 0x35, 0x9d, 0x3e, 
	0xcc, 0x7e, 0x83, 0x3e, 0x54, 0x1c, 0x70, 0x3e, 0x25, 0x04, 0xca, 0x3d, 
	0x4a, 0x55, 0x85, 0x3e, 0x12, 0x8a, 0xa7, 0x3e, 0xb2, 0xd1, 0xfb, 0x3d, 
	0x5e, 0x54, 0x86, 0x3e, 0x8a, 0xa9, 0x8c, 0x3e, 0x35, 0x83, 0x89, 0x3e, 
	0xe3, 0xa1, 0x90, 0x3e, 0x16, 0x4f, 0xe2, 0x3d, 0xd4, 0xb2, 0x96, 0x3e, 
	0x41, 0x6a, 0xc4, 0x3e, 0x51, 0x84, 0x4e, 0x3e, 0xc0, 0x4c, 0xb0, 0x3e, 
	0x31, 0x46, 0x9b, 0x3e, 0x86, 0xd8, 0x93, 0x3e, 0x52, 0xd4, 0xb7, 0x3e, 
	0x7d, 0x62, 0x10, 0x3f, 0x6a, 0x77, 0x98, 0x3e, 0x58, 0xf6, 0xe2, 0x3e, 
	0xee, 0x45, 0xe4, 0x3e, 0xa7, 0xbd, 0x89, 0x3e, 0x12, 0xd1, 0xd8, 0x3e, 
	0x0e, 0xff, 0xff, 0xff, 0x10, 0x00, 0x00, 0x00, 0x03, 0x00, 0x00, 0x00, 
	0x10, 0x00, 0x00, 0x00, 0x38, 0x00, 0x00, 0x00, 0x01, 0x00, 0x00, 0x00, 
	0x20, 0x00, 0x00, 0x00, 0x26, 0x00, 0x00, 0x00, 0x6d, 0x6f, 0x64, 0x65, 
	0x6c, 0x5f, 0x37, 0x2f, 0x64, 0x65, 0x6e, 0x73, 0x65, 0x5f, 0x39, 0x2f, 
	0x42, 0x69, 0x61, 0x73, 0x41, 0x64, 0x64, 0x2f, 0x52, 0x65, 0x61, 0x64, 
	0x56, 0x61, 0x72, 0x69, 0x61, 0x62, 0x6c, 0x65, 0x4f, 0x70, 0x00, 0x00, 
	0x60, 0xff, 0xff, 0xff, 0x00, 0x00, 0x06, 0x00, 0x08, 0x00, 0x04, 0x00, 
	0x06, 0x00, 0x00, 0x00, 0x04, 0x00, 0x00, 0x00, 0x40, 0x00, 0x00, 0x00, 
	0xb7, 0xfd, 0xb0, 0x3d, 0x71, 0x9c, 0x88, 0x3d, 0x00, 0x00, 0x00, 0x00, 
	0x00, 0x00, 0x00, 0x00, 0x96, 0x36, 0xb5, 0x3c, 0x00, 0x00, 0x00, 0x00, 
	0x6e, 0xfd, 0x0c, 0x3e, 0x00, 0x00, 0x00, 0x00, 0x86, 0x41, 0x97, 0x3b, 
	0x17, 0x4c, 0x71, 0x3d, 0x00, 0x00, 0x00, 0x00, 0xd7, 0x08, 0x47, 0x3c, 
	0xfe, 0x97, 0xa7, 0x3d, 0xac, 0x9f, 0x36, 0x3d, 0x00, 0x00, 0x00, 0x00, 
	0x9e, 0x5d, 0xdd, 0x3d, 0xae, 0xff, 0xff, 0xff, 0x10, 0x00, 0x00, 0x00, 
	0x02, 0x00, 0x00, 0x00, 0x10, 0x00, 0x00, 0x00, 0x3c, 0x00, 0x00, 0x00, 
	0x01, 0x00, 0x00, 0x00, 0x10, 0x00, 0x00, 0x00, 0x26, 0x00, 0x00, 0x00, 
	0x6d, 0x6f, 0x64, 0x65, 0x6c, 0x5f, 0x37, 0x2f, 0x64, 0x65, 0x6e, 0x73, 
	0x65, 0x5f, 0x38, 0x2f, 0x42, 0x69, 0x61, 0x73, 0x41, 0x64, 0x64, 0x2f, 
	0x52, 0x65, 0x61, 0x64, 0x56, 0x61, 0x72, 0x69, 0x61, 0x62, 0x6c, 0x65, 
	0x4f, 0x70, 0x00, 0x00, 0x04, 0x00, 0x06, 0x00, 0x04, 0x00, 0x00, 0x00, 
	0x00, 0x00, 0x0e, 0x00, 0x14, 0x00, 0x04, 0x00, 0x00, 0x00, 0x08, 0x00, 
	0x0c, 0x00, 0x10, 0x00, 0x0e, 0x00, 0x00, 0x00, 0x10, 0x00, 0x00, 0x00, 
	0x01, 0x00, 0x00, 0x00, 0x14, 0x00, 0x00, 0x00, 0x1c, 0x00, 0x00, 0x00, 
	0x02, 0x00, 0x00, 0x00, 0x01, 0x00, 0x00, 0x00, 0x32, 0x00, 0x00, 0x00, 
	0x07, 0x00, 0x00, 0x00, 0x69, 0x6e, 0x70, 0x75, 0x74, 0x5f, 0x35, 0x00, 
	0xfc, 0xff, 0xff, 0xff, 0x04, 0x00, 0x04, 0x00, 0x04, 0x00, 0x00, 0x00
};
const int enc3_32_seq10_len = 6480;