
// if having troubles with min/max, uncomment the following
// #undef min    
// #undef max
#ifdef __has_attribute
#define HAVE_ATTRIBUTE(x) __has_attribute(x)
#else
#define HAVE_ATTRIBUTE(x) 0
#endif
#if HAVE_ATTRIBUTE(aligned) || (defined(__GNUC__) && !defined(__clang__))
#define DATA_ALIGN_ATTRIBUTE __attribute__((aligned(4)))
#else
#define DATA_ALIGN_ATTRIBUTE
#endif
const unsigned char lat1_32_seq10[] DATA_ALIGN_ATTRIBUTE = {
	0x1c, 0x00, 0x00, 0x00, 0x54, 0x46, 0x4c, 0x33, 0x00, 0x00, 0x12, 0x00, 
	0x1c, 0x00, 0x04, 0x00, 0x08, 0x00, 0x0c, 0x00, 0x10, 0x00, 0x14, 0x00, 
	0x00, 0x00, 0x18, 0x00, 0x12, 0x00, 0x00, 0x00, 0x03, 0x00, 0x00, 0x00, 
	0x14, 0x00, 0x00, 0x00, 0x18, 0x00, 0x00, 0x00, 0x94, 0x00, 0x00, 0x00, 
	0x18, 0x00, 0x00, 0x00, 0x3c, 0x00, 0x00, 0x00, 0x01, 0x00, 0x00, 0x00, 
	0xd4, 0x01, 0x00, 0x00, 0x01, 0x00, 0x00, 0x00, 0xa0, 0x00, 0x00, 0x00, 
	0x09, 0x00, 0x00, 0x00, 0x44, 0x0c, 0x00, 0x00, 0x40, 0x0c, 0x00, 0x00, 
	0x5c, 0x0b, 0x00, 0x00, 0xf4, 0x0a, 0x00, 0x00, 0xa4, 0x02, 0x00, 0x00, 
	0x14, 0x02, 0x00, 0x00, 0x2c, 0x0c, 0x00, 0x00, 0x28, 0x0c, 0x00, 0x00, 
	0x38, 0x00, 0x00, 0x00, 0x01, 0x00, 0x00, 0x00, 0x0c, 0x00, 0x00, 0x00, 
	0x08, 0x00, 0x0c, 0x00, 0x04, 0x00, 0x08, 0x00, 0x08, 0x00, 0x00, 0x00, 
	0x08, 0x00, 0x00, 0x00, 0x08, 0x00, 0x00, 0x00, 0x13, 0x00, 0x00, 0x00, 
	0x6d, 0x69, 0x6e, 0x5f, 0x72, 0x75, 0x6e, 0x74, 0x69, 0x6d, 0x65, 0x5f, 
	0x76, 0x65, 0x72, 0x73, 0x69, 0x6f, 0x6e, 0x00, 0xfa, 0xf4, 0xff, 0xff, 
	0x04, 0x00, 0x00, 0x00, 0x10, 0x00, 0x00, 0x00, 0x31, 0x2e, 0x35, 0x2e, 
	0x30, 0x00, 0x00, 0x00, 0x00, 0x00, 0x00, 0x00, 0x00, 0x00, 0x00, 0x00, 
	0x0f, 0x00, 0x00, 0x00, 0x4d, 0x4c, 0x49, 0x52, 0x20, 0x43, 0x6f, 0x6e, 
	0x76, 0x65, 0x72, 0x74, 0x65, 0x64, 0x2e, 0x00, 0x00, 0x00, 0x0e, 0x00, 
	0x18, 0x00, 0x04, 0x00, 0x08, 0x00, 0x0c, 0x00, 0x10, 0x00, 0x14, 0x00, 
	0x0e, 0x00, 0x00, 0x00, 0x14, 0x00, 0x00, 0x00, 0x30, 0x00, 0x00, 0x00, 
	0x34, 0x00, 0x00, 0x00, 0x38, 0x00, 0x00, 0x00, 0x40, 0x00, 0x00, 0x00, 
	0x07, 0x00, 0x00, 0x00, 0x5c, 0x0b, 0x00, 0x00, 0xf8, 0x0a, 0x00, 0x00, 
	0x54, 0x0a, 0x00, 0x00, 0x00, 0x0a, 0x00, 0x00, 0xb0, 0x01, 0x00, 0x00, 
	0x08, 0x01, 0x00, 0x00, 0x6c, 0x00, 0x00, 0x00, 0x01, 0x00, 0x00, 0x00, 
	0x00, 0x00, 0x00, 0x00, 0x01, 0x00, 0x00, 0x00, 0x06, 0x00, 0x00, 0x00, 
	0x02, 0x00, 0x00, 0x00, 0x98, 0x00, 0x00, 0x00, 0x1c, 0x00, 0x00, 0x00, 
	0x04, 0x00, 0x00, 0x00, 0x6d, 0x61, 0x69, 0x6e, 0x00, 0x00, 0x0e, 0x00, 
	0x14, 0x00, 0x00, 0x00, 0x08, 0x00, 0x0c, 0x00, 0x07, 0x00, 0x10, 0x00, 
	0x0e, 0x00, 0x00, 0x00, 0x00, 0x00, 0x00, 0x08, 0x1c, 0x00, 0x00, 0x00, 
	0x10, 0x00, 0x00, 0x00, 0x04, 0x00, 0x00, 0x00, 0x86, 0xff, 0xff, 0xff, 
	0x00, 0x00, 0x00, 0x01, 0x01, 0x00, 0x00, 0x00, 0x06, 0x00, 0x00, 0x00, 
	0x03, 0x00, 0x00, 0x00, 0x05, 0x00, 0x00, 0x00, 0x04, 0x00, 0x00, 0x00, 
	0x02, 0x00, 0x00, 0x00, 0x36, 0xf5, 0xff, 0xff, 0x10, 0x00, 0x00, 0x00, 
	0x07, 0x00, 0x00, 0x00, 0x14, 0x00, 0x00, 0x00, 0x20, 0x00, 0x00, 0x00, 
	0x02, 0x00, 0x00, 0x00, 0x01, 0x00, 0x00, 0x00, 0x01, 0x00, 0x00, 0x00, 
	0x08, 0x00, 0x00, 0x00, 0x49, 0x64, 0x65, 0x6e, 0x74, 0x69, 0x74, 0x79, 
	0x00, 0x00, 0x00, 0x00, 0x70, 0xf5, 0xff, 0xff, 0x00, 0x00, 0x0e, 0x00, 
	0x16, 0x00, 0x00, 0x00, 0x08, 0x00, 0x0c, 0x00, 0x07, 0x00, 0x10, 0x00, 
	0x0e, 0x00, 0x00, 0x00, 0x00, 0x00, 0x00, 0x08, 0x24, 0x00, 0x00, 0x00, 
	0x18, 0x00, 0x00, 0x00, 0x0c, 0x00, 0x00, 0x00, 0x00, 0x00, 0x06, 0x00, 
	0x08, 0x00, 0x07, 0x00, 0x06, 0x00, 0x00, 0x00, 0x00, 0x00, 0x00, 0x01, 
	0x01, 0x00, 0x00, 0x00, 0x05, 0x00, 0x00, 0x00, 0x03, 0x00, 0x00, 0x00, 
	0x00, 0x00, 0x00, 0x00, 0x03, 0x00, 0x00, 0x00, 0x01, 0x00, 0x00, 0x00, 
	0x00, 0x00, 0x0a, 0x00, 0x0c, 0x00, 0x07, 0x00, 0x00, 0x00, 0x08, 0x00, 
	0x0a, 0x00, 0x00, 0x00, 0x00, 0x00, 0x00, 0x09, 0x01, 0x00, 0x00, 0x00, 
	0xce, 0xf5, 0xff, 0xff, 0x10, 0x00, 0x00, 0x00, 0x06, 0x00, 0x00, 0x00, 
	0x14, 0x00, 0x00, 0x00, 0x44, 0x00, 0x00, 0x00, 0x02, 0x00, 0x00, 0x00, 
	0x01, 0x00, 0x00, 0x00, 0x10, 0x00, 0x00, 0x00, 0x2c, 0x00, 0x00, 0x00, 
	0x6d, 0x6f, 0x64, 0x65, 0x6c, 0x5f, 0x32, 0x2f, 0x64, 0x65, 0x6e, 0x73, 
	0x65, 0x5f, 0x32, 0x2f, 0x52, 0x65, 0x6c, 0x75, 0x3b, 0x6d, 0x6f, 0x64, 
	0x65, 0x6c, 0x5f, 0x32, 0x2f, 0x64, 0x65, 0x6e, 0x73, 0x65, 0x5f, 0x32, 
	0x2f, 0x42, 0x69, 0x61, 0x73, 0x41, 0x64, 0x64, 0x00, 0x00, 0x00, 0x00, 
	0xe4, 0xf5, 0xff, 0xff, 0xca, 0xf6, 0xff, 0xff, 0x04, 0x00, 0x00, 0x00, 
	0x40, 0x00, 0x00, 0x00, 0x39, 0xaf, 0x59, 0x3f, 0x55, 0xf5, 0xc8, 0xbe, 
	0x38, 0xec, 0x4c, 0x3f, 0x07, 0x41, 0x14, 0x3f, 0x04, 0x87, 0xa2, 0xbf, 
	0x9a, 0x26, 0x6e, 0xbe, 0x4f, 0xb6, 0x04, 0x3f, 0x82, 0x8b, 0x04, 0xbf, 
	0x49, 0x3c, 0x31, 0x3f, 0x7c, 0xcb, 0xc2, 0xbe, 0xb7, 0xd9, 0xc7, 0x3e, 
	0x38, 0x2b, 0xcc, 0xbe, 0x9c, 0xbd, 0xef, 0xbe, 0x17, 0x05, 0xe5, 0xbe, 
	0xc6, 0x6a, 0x10, 0x3f, 0xb4, 0xb9, 0x95, 0xbe, 0x72, 0xf6, 0xff, 0xff, 
	0x10, 0x00, 0x00, 0x00, 0x05, 0x00, 0x00, 0x00, 0x14, 0x00, 0x00, 0x00, 
	0x2c, 0x00, 0x00, 0x00, 0x02, 0x00, 0x00, 0x00, 0x01, 0x00, 0x00, 0x00, 
	0x10, 0x00, 0x00, 0x00, 0x16, 0x00, 0x00, 0x00, 0x6d, 0x6f, 0x64, 0x65, 
	0x6c, 0x5f, 0x32, 0x2f, 0x64, 0x65, 0x6e, 0x73, 0x65, 0x5f, 0x33, 0x2f, 
	0x4d, 0x61, 0x74, 0x4d, 0x75, 0x6c, 0x00, 0x00, 0x70, 0xf6, 0xff, 0xff, 
	0x56, 0xf7, 0xff, 0xff, 0x04, 0x00, 0x00, 0x00, 0x00, 0x08, 0x00, 0x00, 
	0x7f, 0x6e, 0xd0, 0x3d, 0x19, 0x3a, 0xea, 0x3e, 0xc0, 0x63, 0x0b, 0x3f, 
	0x2e, 0x35, 0x30, 0x3f, 0x7e, 0x90, 0xdc, 0xbf, 0x75, 0x4f, 0xd0, 0xbe, 
	0xe5, 0x60, 0x28, 0x3f, 0xac, 0x8b, 0xdc, 0x3a, 0xf1, 0x80, 0xd8, 0x3e, 
	0x06, 0xdc, 0x06, 0x3f, 0x34, 0x99, 0xc0, 0x3d, 0xd2, 0xac, 0x0b, 0x3f, 
	0x99, 0x0a, 0x81, 0x3e, 0x46, 0x5f, 0x8f, 0x3e, 0x14, 0x14, 0xee, 0x3e, 
	0x6a, 0xee, 0x1e, 0x3f, 0x3b, 0x09, 0xaf, 0x3e, 0xf2, 0x1c, 0xeb, 0x3e, 
	0xab, 0xd2, 0xae, 0x3e, 0x90, 0xbe, 0x53, 0x3e, 0x74, 0x04, 0xd4, 0x3e, 
	0x12, 0x63, 0xde, 0x3d, 0x2c, 0xd0, 0xb0, 0x3e, 0xfd, 0x44, 0xb8, 0x3e, 
	0x51, 0x48, 0x07, 0x3f, 0x26, 0x47, 0x2f, 0x3f, 0x6b, 0xd5, 0x55, 0x3e, 
	0x73, 0x7f, 0x96, 0x3e, 0xc0, 0x6d, 0x88, 0x3e, 0xb2, 0xf0, 0xe8, 0x3d, 
	0x69, 0x14, 0x92, 0x3f, 0x6a, 0xdb, 0xc0, 0x3e, 0xeb, 0xb5, 0x47, 0xbe, 
	0x62, 0x61, 0x83, 0x3d, 0xf9, 0xaa, 0xf9, 0x3a, 0x18, 0xa6, 0x80, 0x3d, 
	0xee, 0x68, 0xaa, 0xbe, 0x01, 0x72, 0xa9, 0xbe, 0xeb, 0xa3, 0x7d, 0x3e, 
	0xe1, 0x20, 0xb4, 0xbe, 0xf6, 0xbb, 0x2c, 0x3e, 0x16, 0xf9, 0x00, 0x3e, 
	0xb7, 0x4b, 0x9e, 0x3e, 0xb9, 0xae, 0x74, 0xbe, 0x49, 0xd4, 0x12, 0xbe, 
	0x6c, 0x19, 0x48, 0x3c, 0x0a, 0x03, 0x66, 0xbe, 0xb2, 0xb9, 0xe1, 0xba, 
	0x19, 0x93, 0x1c, 0xbe, 0xf2, 0xc2, 0xc8, 0x3d, 0x38, 0x71, 0x9f, 0x3e, 
	0x3c, 0x5e, 0x71, 0xbc, 0x2a, 0xf7, 0xb0, 0xbe, 0x42, 0xe3, 0x8b, 0xbe, 
	0xdc, 0xa2, 0x1c, 0xbe, 0x58, 0x56, 0x4c, 0xbe, 0x3c, 0x88, 0xa2, 0x3c, 
	0x70, 0xf6, 0x01, 0x3d, 0x0c, 0xb5, 0xb3, 0xbd, 0xce, 0x8a, 0x5c, 0xbe, 
	0xeb, 0x71, 0xfe, 0x3d, 0xeb, 0xb5, 0x5d, 0xbe, 0xf3, 0x67, 0xad, 0x3e, 
	0xa9, 0xac, 0x4b, 0x3d, 0x99, 0x99, 0xaa, 0x3e, 0xe0, 0x51, 0xef, 0x3e, 
	0x18, 0x93, 0x83, 0x3e, 0x98, 0x61, 0xb6, 0x3e, 0xee, 0x81, 0xc6, 0xbf, 
	0x81, 0xf9, 0x3c, 0xbf, 0xb7, 0x5a, 0x37, 0x3f, 0xad, 0x09, 0xef, 0x3e, 
	0xa8, 0x58, 0xec, 0x3e, 0x71, 0x21, 0x18, 0x3f, 0x5e, 0x16, 0x0e, 0x3f, 
	0x54, 0x32, 0x88, 0x3e, 0x06, 0x9d, 0x6e, 0x3e, 0xd3, 0x6c, 0xce, 0x3e, 
	0xb2, 0xe4, 0x58, 0x3e, 0x12, 0x53, 0xc2, 0x3e, 0x03, 0xfb, 0x97, 0x3e, 
	0x38, 0x59, 0x56, 0x3e, 0x7a, 0x5c, 0x18, 0x3e, 0x04, 0xd9, 0xbb, 0x3e, 
	0x0e, 0xca, 0x03, 0x3f, 0xed, 0x41, 0x13, 0x3f, 0xa5, 0x0f, 0xf2, 0x3d, 
	0xe5, 0x8b, 0xb8, 0x3e, 0x76, 0x42, 0xa6, 0x3e, 0xae, 0xe7, 0x22, 0x3f, 
	0x16, 0x1f, 0x29, 0xbe, 0x60, 0x2d, 0x0e, 0x3f, 0xc8, 0x9a, 0x26, 0x3f, 
	0x3b, 0xab, 0x71, 0x3e, 0xec, 0xf9, 0x65, 0x3f, 0x78, 0x33, 0x05, 0x3d, 
	0x5c, 0x00, 0x2f, 0x3f, 0x3f, 0x99, 0x24, 0xbe, 0xe6, 0x52, 0x14, 0x3f, 
	0x6a, 0xd6, 0x5f, 0x3f, 0xce, 0x85, 0xe6, 0xbf, 0xc9, 0x00, 0x83, 0xbf, 
	0xe2, 0xde, 0x7c, 0x3f, 0xa5, 0x1e, 0x17, 0xbe, 0xc5, 0xc5, 0xf9, 0x3e, 
	0xb3, 0xde, 0xf5, 0x3e, 0xb5, 0xb3, 0xf3, 0x3e, 0x18, 0xa0, 0xe5, 0x3e, 
	0x7d, 0xcd, 0xe9, 0x3d, 0x2b, 0x15, 0x96, 0x3d, 0xa9, 0xf8, 0x87, 0x3e, 
	0xb8, 0xb2, 0x20, 0x3f, 0xba, 0xf2, 0x1e, 0x3f, 0x5d, 0xc6, 0x50, 0x3e, 
	0xab, 0x44, 0x4e, 0x3f, 0xfb, 0x28, 0xdd, 0x3e, 0x8a, 0x73, 0xc0, 0x3e, 
	0xa9, 0x51, 0x22, 0x3c, 0xee, 0xad, 0x70, 0x3e, 0x3c, 0x00, 0x5b, 0x3e, 
	0x6c, 0xc1, 0xc2, 0x3e, 0x23, 0x0a, 0x6b, 0x3f, 0xb6, 0x83, 0x3a, 0xbd, 
	0x6a, 0xb3, 0xd8, 0x3e, 0xc6, 0x43, 0x5d, 0x3f, 0x06, 0x36, 0x56, 0x3d, 
	0xa4, 0x04, 0x7c, 0x3f, 0xbe, 0xb4, 0xcc, 0x3e, 0xd3, 0x5f, 0x19, 0xbd, 
	0x99, 0x7b, 0x15, 0x3e, 0xe1, 0xa1, 0xd8, 0x3e, 0x2c, 0x94, 0xec, 0x3e, 
	0xf0, 0x69, 0xc9, 0x3f, 0xf3, 0xc8, 0x7a, 0x3f, 0x66, 0x0a, 0xeb, 0xbe, 
	0xc1, 0xb7, 0xd1, 0x3c, 0x9d, 0xe6, 0x60, 0xbe, 0xb5, 0x33, 0x08, 0x3e, 
	0xb9, 0x5e, 0x9e, 0x3e, 0x70, 0x61, 0x2e, 0xbe, 0x10, 0xa2, 0x23, 0x3e, 
	0xfb, 0x35, 0xcb, 0xbe, 0x37, 0x01, 0x9f, 0xbe, 0x9b, 0xaf, 0xbb, 0xbe, 
	0xcb, 0xc6, 0xa0, 0x3d, 0xc7, 0xdb, 0xbe, 0x3e, 0x63, 0x96, 0xeb, 0xbe, 
	0x4a, 0xfa, 0x9a, 0x3e, 0x8a, 0x05, 0x8d, 0xbe, 0x70, 0x9d, 0x18, 0x3c, 
	0xec, 0xe4, 0x1c, 0xbe, 0xab, 0xda, 0x6f, 0x3d, 0x89, 0x38, 0x20, 0x3e, 
	0x93, 0x96, 0xb3, 0x3e, 0x35, 0x4e, 0x0c, 0xbe, 0x7b, 0x03, 0x6c, 0xbd, 
	0x2c, 0x57, 0x53, 0xba, 0x37, 0x05, 0xb9, 0x3d, 0x4c, 0x1f, 0x20, 0xbf, 
	0xf3, 0xfb, 0x79, 0xbe, 0x58, 0xfc, 0x62, 0x3e, 0xd5, 0xef, 0x6a, 0x3e, 
	0x00, 0x1e, 0x2b, 0x3e, 0xa2, 0x1f, 0xb4, 0x3e, 0xc3, 0x15, 0x42, 0xbe, 
	0x77, 0xfc, 0x23, 0xbd, 0xb5, 0x96, 0x99, 0x3e, 0xdc, 0xdc, 0x54, 0xbe, 
	0x8f, 0x54, 0x6e, 0xbe, 0x90, 0x6a, 0x8a, 0x3e, 0x9b, 0x01, 0x67, 0x3d, 
	0x79, 0xac, 0xac, 0xbe, 0xc6, 0x00, 0x71, 0x3e, 0x36, 0x8a, 0x58, 0xbd, 
	0xc0, 0x3a, 0xb9, 0xbe, 0xb4, 0xe8, 0xc5, 0xbe, 0xcf, 0x92, 0xcf, 0x3c, 
	0x9b, 0xe2, 0x81, 0x3e, 0x76, 0x09, 0x73, 0xbe, 0x1c, 0x42, 0x98, 0xbe, 
	0x3f, 0x35, 0x52, 0xbe, 0xb3, 0xae, 0x02, 0xbe, 0x54, 0x0a, 0x1d, 0xbe, 
	0x00, 0x95, 0xb5, 0xbe, 0xde, 0x03, 0xf7, 0x3d, 0x6b, 0xdb, 0xd9, 0x3c, 
	0xc8, 0x6e, 0xa7, 0xbe, 0xe9, 0x06, 0xad, 0xbe, 0x43, 0xc7, 0xe4, 0xbc, 
	0xde, 0x15, 0xdc, 0xbd, 0x35, 0x4a, 0xbc, 0xbe, 0xc3, 0x5a, 0x8b, 0x3d, 
	0x0e, 0xe2, 0x52, 0x3f, 0xb8, 0xd0, 0x16, 0x3e, 0x80, 0xca, 0xfa, 0x3e, 
	0xbb, 0xdf, 0x2c, 0x3f, 0x45, 0xe8, 0xc9, 0xbf, 0xc6, 0x8c, 0x8a, 0xbf, 
	0xe3, 0xcf, 0x19, 0x3f, 0x92, 0x75, 0x41, 0x3e, 0x07, 0x3d, 0xbe, 0x3c, 
	0xb5, 0xb4, 0x93, 0x3e, 0x3c, 0xe1, 0x2e, 0x3d, 0x7e, 0xbe, 0x70, 0x3f, 
	0xc2, 0x12, 0x20, 0xbd, 0x56, 0x4e, 0xaf, 0x3e, 0xc1, 0xb9, 0x33, 0x3d, 
	0x8e, 0xb7, 0x83, 0x3f, 0x93, 0xad, 0x2d, 0x3f, 0x0d, 0x4f, 0xe7, 0x3e, 
	0x16, 0x46, 0xae, 0x3e, 0x72, 0x9d, 0xe1, 0x3e, 0x0c, 0xfd, 0xa5, 0x3e, 
	0xe9, 0xb1, 0x02, 0x3f, 0x8e, 0xc1, 0x0e, 0xbc, 0xef, 0x5c, 0xce, 0x3e, 
	0x13, 0x3a, 0x12, 0xbc, 0xc7, 0x1c, 0x9b, 0x3e, 0x69, 0xb4, 0xf0, 0x3d, 
	0x5b, 0x37, 0x3f, 0x3f, 0xe8, 0xcd, 0x70, 0x3f, 0xfa, 0xd8, 0x28, 0x3e, 
	0x21, 0x08, 0x9d, 0x3f, 0x7c, 0xd8, 0xcb, 0x3e, 0xf5, 0x36, 0x99, 0x3e, 
	0x38, 0x37, 0xa2, 0xbe, 0x0a, 0xa9, 0x39, 0x3e, 0x6d, 0x68, 0x8e, 0x3e, 
	0xfe, 0xa6, 0x5e, 0x3e, 0x98, 0xfd, 0x68, 0x3d, 0x1b, 0x30, 0xa4, 0xbe, 
	0x13, 0x6a, 0x98, 0xbe, 0xe0, 0xe0, 0x6b, 0x3d, 0x50, 0x06, 0x1d, 0xbe, 
	0x8e, 0x75, 0xad, 0xbe, 0x26, 0x52, 0x50, 0x3e, 0xe3, 0xbf, 0xb0, 0x3e, 
	0x2e, 0xe7, 0x6c, 0xbe, 0xfa, 0xb4, 0x0a, 0x3e, 0xd7, 0x8f, 0x55, 0xbe, 
	0x12, 0x43, 0x49, 0x3e, 0xba, 0xf6, 0x3f, 0x3e, 0x49, 0xed, 0x83, 0xbe, 
	0xa0, 0xd4, 0x13, 0x3d, 0x2e, 0xfe, 0x83, 0xbe, 0xa0, 0x5c, 0xdb, 0x3c, 
	0xa6, 0xd8, 0x05, 0x3e, 0x9c, 0x76, 0x69, 0xbe, 0xe0, 0xe8, 0x66, 0xbd, 
	0x06, 0x96, 0x34, 0xbe, 0x62, 0x11, 0x19, 0xbe, 0x55, 0x8a, 0x6f, 0xbe, 
	0x86, 0x0f, 0xa0, 0xbe, 0xfa, 0xbb, 0x85, 0xbe, 0x3f, 0x7b, 0x9e, 0x3e, 
	0x7c, 0xcc, 0xaf, 0xbe, 0x57, 0x1a, 0x1b, 0x3f, 0x9e, 0x32, 0xf3, 0x3e, 
	0x49, 0xa3, 0x2d, 0x3f, 0xac, 0xc3, 0xf9, 0x3e, 0x01, 0x41, 0xc7, 0xbf, 
	0x0e, 0xbc, 0x1d, 0xbf, 0x5c, 0x5f, 0xd7, 0x3e, 0xb2, 0xe7, 0xb7, 0x3e, 
	0x86, 0x50, 0x1f, 0x3d, 0x7c, 0x19, 0x36, 0x3e, 0xe8, 0x24, 0x02, 0x3e, 
	0xd0, 0xa8, 0xe9, 0x3e, 0xa7, 0x66, 0xe9, 0x3d, 0xa9, 0xad, 0x02, 0x3f, 
	0xc5, 0x0e, 0xb0, 0xbc, 0x09, 0xa2, 0xdf, 0x3e, 0x3b, 0x0e, 0x90, 0x3e, 
	0x11, 0xcb, 0x9c, 0xbd, 0xd4, 0xbb, 0x31, 0x3e, 0x22, 0x4b, 0xb5, 0x3e, 
	0x78, 0x7c, 0x9c, 0x3e, 0xed, 0xca, 0x01, 0xbd, 0xf0, 0xc8, 0xd6, 0x3e, 
	0x7d, 0x8b, 0x2a, 0x3d, 0xc7, 0xa9, 0x14, 0xbe, 0xac, 0x1c, 0xb3, 0x3e, 
	0x4a, 0xa8, 0xf8, 0x3e, 0xe1, 0x29, 0x2b, 0x3f, 0x82, 0x0b, 0xb0, 0x3e, 
	0x27, 0xfa, 0x3b, 0x3e, 0x87, 0x0d, 0x4e, 0x3f, 0x06, 0xc9, 0x70, 0x3d, 
	0x6f, 0xc4, 0x4a, 0x3d, 0x13, 0x29, 0x05, 0xbe, 0xdf, 0x20, 0x8f, 0xbe, 
	0x64, 0x39, 0xea, 0xbb, 0x8d, 0x85, 0x54, 0xbe, 0xc1, 0xa1, 0x06, 0x3d, 
	0xeb, 0x09, 0x89, 0x3e, 0x99, 0x7d, 0x8b, 0xbe, 0x33, 0x79, 0x71, 0xbd, 
	0xde, 0xf1, 0x9e, 0x3e, 0x7c, 0x07, 0x3a, 0xbe, 0xd0, 0xc7, 0x09, 0x3c, 
	0xcf, 0x6f, 0xb5, 0x3b, 0xe5, 0x2f, 0x79, 0xbe, 0x5e, 0x7a, 0x30, 0x3c, 
	0x4e, 0x7a, 0x96, 0x3e, 0x7e, 0x19, 0x6e, 0xbd, 0xae, 0xc5, 0xbb, 0xbe, 
	0x1b, 0x26, 0x7f, 0x3e, 0xb3, 0xbc, 0x1f, 0xbe, 0xd0, 0x57, 0xa4, 0x3e, 
	0x97, 0xda, 0x76, 0x3d, 0xad, 0xcb, 0x57, 0x3e, 0x33, 0xbc, 0x9a, 0x3e, 
	0x8b, 0x24, 0x33, 0xbe, 0xe1, 0x30, 0x2a, 0xbe, 0xe9, 0x8c, 0xd4, 0xbd, 
	0x40, 0x8f, 0xd0, 0xbc, 0xbc, 0xe1, 0xb6, 0xbe, 0x57, 0x62, 0x2e, 0x3e, 
	0x53, 0x45, 0xd5, 0x3c, 0xa1, 0xf7, 0x4d, 0xbe, 0x43, 0xcb, 0x15, 0x3f, 
	0x4b, 0xd8, 0x1f, 0xbd, 0x33, 0xa3, 0xe3, 0x3e, 0x0b, 0x9d, 0xf5, 0x3e, 
	0xde, 0xaa, 0xa7, 0xbf, 0x95, 0xf5, 0xb6, 0xbf, 0x07, 0x9b, 0x41, 0x3f, 
	0x9d, 0x23, 0xc3, 0xbd, 0x98, 0x39, 0x00, 0x3e, 0x66, 0xa7, 0x20, 0x3e, 
	0x29, 0x71, 0xce, 0x3e, 0x23, 0xe4, 0xfb, 0x3e, 0x4d, 0x05, 0xfb, 0x3e, 
	0xa3, 0x02, 0x23, 0x3e, 0x7f, 0x1c, 0x23, 0x3f, 0x8c, 0xe8, 0x45, 0x3f, 
	0x36, 0xa7, 0x16, 0x3f, 0x8b, 0x8f, 0x80, 0x3e, 0x5d, 0xcf, 0xed, 0x3e, 
	0x96, 0xfb, 0xbd, 0x3e, 0x8e, 0xb7, 0x0a, 0xbe, 0x37, 0x58, 0x1a, 0x3f, 
	0x93, 0xe7, 0x0e, 0x3f, 0xc6, 0xdf, 0x91, 0x3a, 0x8f, 0x94, 0xb9, 0x3e, 
	0xb6, 0x4d, 0x06, 0x3f, 0xaa, 0xac, 0xbd, 0xbd, 0x78, 0xea, 0x7f, 0x3e, 
	0x9a, 0x24, 0x1f, 0x3f, 0x20, 0xff, 0x30, 0x3e, 0xc0, 0x68, 0x28, 0x3f, 
	0xec, 0x85, 0x86, 0xbd, 0xe5, 0x20, 0x2a, 0x3d, 0x6c, 0x57, 0x16, 0x3e, 
	0x34, 0x7f, 0x23, 0xbe, 0xf2, 0xcd, 0xcd, 0xbc, 0xc8, 0xcc, 0x35, 0xbe, 
	0xcd, 0xd3, 0x6d, 0xbe, 0x74, 0x3f, 0x8d, 0x3e, 0x6d, 0x3d, 0x2c, 0xbe, 
	0x77, 0x10, 0xc9, 0xbe, 0x1f, 0x98, 0xb7, 0xbe, 0x0c, 0x11, 0xe1, 0x3d, 
	0x7e, 0xd5, 0x1e, 0x3c, 0xff, 0x75, 0x0a, 0xbe, 0xee, 0x0b, 0xb0, 0x3d, 
	0xf5, 0xd7, 0x74, 0xbc, 0xe6, 0x97, 0x64, 0x3e, 0x9f, 0xa4, 0x29, 0x3e, 
	0x6a, 0xb3, 0xdd, 0xbd, 0xbc, 0xdc, 0xbd, 0xbe, 0xf8, 0xa8, 0x90, 0xbe, 
	0x6a, 0x80, 0x82, 0xbe, 0xfb, 0xeb, 0x83, 0xbe, 0x95, 0xbe, 0x1b, 0x3d, 
	0x95, 0x54, 0x90, 0x3e, 0x2d, 0x55, 0x55, 0x3e, 0x3a, 0x4b, 0x3e, 0x3e, 
	0x61, 0x40, 0xab, 0xbe, 0x2a, 0x7e, 0xde, 0xbc, 0x56, 0xeb, 0xc8, 0xbe, 
	0x3f, 0xc1, 0x3b, 0xbd, 0xe1, 0x5e, 0x1c, 0x3e, 0xa5, 0x22, 0xe9, 0x3d, 
	0x23, 0x51, 0x75, 0xbe, 0xe8, 0x6b, 0xfd, 0x3c, 0x61, 0x9d, 0x6f, 0xbe, 
	0xa2, 0x79, 0x39, 0x3e, 0x9a, 0x71, 0x67, 0xbe, 0x15, 0xf9, 0x77, 0xbe, 
	0x6b, 0x00, 0x66, 0x3d, 0x7f, 0xc9, 0x4f, 0x3e, 0xae, 0x47, 0xe0, 0xbd, 
	0x0c, 0x39, 0x4f, 0x3e, 0xf5, 0x73, 0x8f, 0x3d, 0x64, 0x18, 0xfa, 0x3d, 
	0xcd, 0x76, 0xab, 0xbe, 0xf0, 0x23, 0x7b, 0xbe, 0xe3, 0xe0, 0x7a, 0xbd, 
	0xa3, 0xf1, 0xbc, 0xbe, 0x60, 0xf3, 0x7c, 0x3e, 0xc2, 0x05, 0x70, 0x3e, 
	0xa2, 0xb2, 0x9f, 0x3e, 0x96, 0x2f, 0x21, 0x3e, 0xf9, 0x6e, 0xcd, 0xbe, 
	0x38, 0xd4, 0x64, 0xbe, 0x9f, 0xf4, 0xb9, 0xbe, 0x0a, 0x8a, 0xd4, 0xbe, 
	0xc6, 0x3a, 0x96, 0xbd, 0x76, 0x94, 0xcc, 0xbd, 0xa6, 0xe7, 0xbf, 0xbe, 
	0x70, 0xcd, 0x6c, 0xbe, 0xe0, 0x26, 0x53, 0x3d, 0xbd, 0xa2, 0x96, 0x3e, 
	0x69, 0x53, 0x91, 0xbd, 0x8d, 0x78, 0x32, 0x3e, 0x7d, 0xcf, 0x08, 0xbe, 
	0x5c, 0x7a, 0x13, 0x3e, 0x81, 0xad, 0xf5, 0x3d, 0xc1, 0x00, 0xfc, 0xbd, 
	0x3e, 0x9e, 0xa7, 0x3c, 0xee, 0x5a, 0xe8, 0x3d, 0x20, 0x8f, 0x6c, 0xbd, 
	0x15, 0x3c, 0x97, 0x3e, 0x01, 0x67, 0x9f, 0xbe, 0x75, 0xe2, 0xaf, 0xbe, 
	0x79, 0x18, 0x62, 0x3e, 0x7b, 0xc7, 0x92, 0x3e, 0x72, 0xb0, 0xc6, 0xbe, 
	0xbc, 0x07, 0x23, 0xbe, 0x98, 0x02, 0x85, 0x3e, 0x24, 0x9c, 0x95, 0x3e, 
	0x0c, 0x0a, 0x8b, 0x3d, 0x47, 0x3a, 0x5a, 0xbe, 0xe4, 0x7a, 0x81, 0xbe, 
	0x02, 0x89, 0x87, 0xbe, 0x6d, 0xc7, 0x0d, 0x3e, 0x98, 0x2a, 0x21, 0x3e, 
	0x20, 0x03, 0x13, 0xbe, 0x93, 0x6a, 0x32, 0xbe, 0xd5, 0xb2, 0x9f, 0xbe, 
	0x14, 0x7c, 0x03, 0x3d, 0x6b, 0x5a, 0x63, 0xbd, 0xb8, 0x65, 0xe8, 0x3d, 
	0xb5, 0xd1, 0x64, 0x3b, 0x9e, 0x3d, 0xe5, 0xbd, 0xde, 0x44, 0x5e, 0x3e, 
	0x37, 0x17, 0x47, 0x3e, 0x85, 0xce, 0x02, 0x3f, 0x6f, 0xc0, 0x03, 0x3e, 
	0xcd, 0xf9, 0xfb, 0x3e, 0xf1, 0x1e, 0x4d, 0x3f, 0x44, 0x3a, 0xb9, 0xbf, 
	0xa8, 0x9d, 0x8e, 0xbf, 0x69, 0x14, 0x91, 0x3f, 0xcc, 0x28, 0xd8, 0x3e, 
	0x1b, 0x39, 0xc0, 0x3e, 0x4a, 0x3e, 0x1d, 0x3f, 0xf5, 0x0c, 0x2d, 0x3c, 
	0x65, 0x1c, 0xaa, 0x3e, 0xd6, 0x53, 0x1d, 0xbe, 0xa8, 0x64, 0xc2, 0x3e, 
	0x33, 0x0b, 0x7d, 0x3e, 0x65, 0x05, 0x85, 0x3f, 0x6a, 0x8e, 0x2b, 0x3f, 
	0x94, 0x8e, 0xb5, 0x3d, 0xee, 0x5a, 0x5a, 0x3f, 0x2e, 0xef, 0xa2, 0x3e, 
	0x00, 0xf9, 0x2c, 0x3d, 0x8e, 0x87, 0xbd, 0x3e, 0x35, 0xab, 0x3c, 0x3e, 
	0x0f, 0xfa, 0xcd, 0x3e, 0xb6, 0x16, 0xcd, 0x3e, 0x9c, 0x7f, 0xd2, 0x3e, 
	0xc9, 0x08, 0xa6, 0x3a, 0xae, 0x6e, 0x2d, 0x3f, 0x30, 0xc9, 0x3e, 0x3f, 
	0xde, 0x19, 0x50, 0x3e, 0xdb, 0x2e, 0x80, 0x3f, 0xd9, 0x90, 0x27, 0xbe, 
	0x51, 0x26, 0x3d, 0xbe, 0x5e, 0x60, 0x81, 0xbe, 0x18, 0x91, 0xa7, 0x3d, 
	0x77, 0xe9, 0x85, 0xbe, 0xb2, 0xe1, 0x1c, 0x3e, 0x87, 0x72, 0x57, 0xbe, 
	0x35, 0x6c, 0xa9, 0xbe, 0xf5, 0x91, 0xc8, 0xbd, 0xe4, 0x2a, 0x13, 0x3e, 
	0x6a, 0x30, 0x82, 0x3e, 0x71, 0xf2, 0x73, 0xbe, 0xa3, 0x7e, 0x94, 0x3e, 
	0xac, 0x95, 0x53, 0xbe, 0x1a, 0x8e, 0x86, 0xbe, 0xd8, 0xed, 0x5b, 0x3e, 
	0x76, 0x9f, 0xad, 0xbe, 0x16, 0xca, 0x87, 0xbe, 0x2d, 0x52, 0x3a, 0xbe, 
	0x20, 0xf1, 0x19, 0x3c, 0x1a, 0x1b, 0x80, 0x3e, 0x94, 0x01, 0x06, 0xbd, 
	0xe6, 0x1f, 0xe9, 0xbd, 0xc4, 0x5a, 0x64, 0xbe, 0xd7, 0xed, 0x40, 0x3d, 
	0xf0, 0x2b, 0x1e, 0xbd, 0xb0, 0x1b, 0x02, 0x3e, 0x4a, 0xc0, 0x5e, 0xbe, 
	0xce, 0x26, 0x24, 0x3e, 0x09, 0x47, 0xa4, 0x3e, 0x7f, 0xa9, 0x39, 0xbe, 
	0xf2, 0xc0, 0x54, 0x3e, 0xd6, 0xca, 0x98, 0xbe, 0xbe, 0xfe, 0xff, 0xff, 
	0x10, 0x00, 0x00, 0x00, 0x04, 0x00, 0x00, 0x00, 0x14, 0x00, 0x00, 0x00, 
	0x2c, 0x00, 0x00, 0x00, 0x02, 0x00, 0x00, 0x00, 0x10, 0x00, 0x00, 0x00, 
	0x20, 0x00, 0x00, 0x00, 0x16, 0x00, 0x00, 0x00, 0x6d, 0x6f, 0x64, 0x65, 
	0x6c, 0x5f, 0x32, 0x2f, 0x64, 0x65, 0x6e, 0x73, 0x65, 0x5f, 0x32, 0x2f, 
	0x4d, 0x61, 0x74, 0x4d, 0x75, 0x6c, 0x00, 0x00, 0xbc, 0xfe, 0xff, 0xff, 
	0xa2, 0xff, 0xff, 0xff, 0x04, 0x00, 0x00, 0x00, 0x04, 0x00, 0x00, 0x00, 
	0x03, 0x85, 0x7a, 0x3e, 0x0e, 0xff, 0xff, 0xff, 0x10, 0x00, 0x00, 0x00, 
	0x03, 0x00, 0x00, 0x00, 0x10, 0x00, 0x00, 0x00, 0x38, 0x00, 0x00, 0x00, 
	0x01, 0x00, 0x00, 0x00, 0x01, 0x00, 0x00, 0x00, 0x26, 0x00, 0x00, 0x00, 
	0x6d, 0x6f, 0x64, 0x65, 0x6c, 0x5f, 0x32, 0x2f, 0x64, 0x65, 0x6e, 0x73, 
	0x65, 0x5f, 0x33, 0x2f, 0x42, 0x69, 0x61, 0x73, 0x41, 0x64, 0x64, 0x2f, 
	0x52, 0x65, 0x61, 0x64, 0x56, 0x61, 0x72, 0x69, 0x61, 0x62, 0x6c, 0x65, 
	0x4f, 0x70, 0x00, 0x00, 0x60, 0xff, 0xff, 0xff, 0x00, 0x00, 0x06, 0x00, 
	0x08, 0x00, 0x04, 0x00, 0x06, 0x00, 0x00, 0x00, 0x04, 0x00, 0x00, 0x00, 
	0x40, 0x00, 0x00, 0x00, 0xdc, 0x86, 0x90, 0x3e, 0x9b, 0xc3, 0xd9, 0xbc, 
	0x44, 0x2d, 0xa6, 0x3e, 0xd0, 0x70, 0xeb, 0x3e, 0xa3, 0x52, 0x12, 0xbf, 
	0xa9, 0xa8, 0x7c, 0xbd, 0x54, 0xbc, 0xd5, 0x3e, 0x00, 0x00, 0x00, 0x00, 
	0xc5, 0xbd, 0xa2, 0x3e, 0x46, 0x58, 0xf8, 0xbc, 0x66, 0x44, 0x25, 0x3f, 
	0xbd, 0x30, 0x3b, 0xbd, 0x13, 0xc8, 0x60, 0xbd, 0x20, 0x27, 0x1b, 0xbd, 
	0x21, 0x21, 0xf2, 0x3e, 0xe5, 0xe4, 0x11, 0xbc, 0xae, 0xff, 0xff, 0xff, 
	0x10, 0x00, 0x00, 0x00, 0x02, 0x00, 0x00, 0x00, 0x10, 0x00, 0x00, 0x00, 
	0x3c, 0x00, 0x00, 0x00, 0x01, 0x00, 0x00, 0x00, 0x10, 0x00, 0x00, 0x00, 
	0x26, 0x00, 0x00, 0x00, 0x6d, 0x6f, 0x64, 0x65, 0x6c, 0x5f, 0x32, 0x2f, 
	0x64, 0x65, 0x6e, 0x73, 0x65, 0x5f, 0x32, 0x2f, 0x42, 0x69, 0x61, 0x73, 
	0x41, 0x64, 0x64, 0x2f, 0x52, 0x65, 0x61, 0x64, 0x56, 0x61, 0x72, 0x69, 
	0x61, 0x62, 0x6c, 0x65, 0x4f, 0x70, 0x00, 0x00, 0x04, 0x00, 0x06, 0x00, 
	0x04, 0x00, 0x00, 0x00, 0x00, 0x00, 0x0e, 0x00, 0x14, 0x00, 0x04, 0x00, 
	0x00, 0x00, 0x08, 0x00, 0x0c, 0x00, 0x10, 0x00, 0x0e, 0x00, 0x00, 0x00, 
	0x10, 0x00, 0x00, 0x00, 0x01, 0x00, 0x00, 0x00, 0x14, 0x00, 0x00, 0x00, 
	0x1c, 0x00, 0x00, 0x00, 0x02, 0x00, 0x00, 0x00, 0x01, 0x00, 0x00, 0x00, 
	0x20, 0x00, 0x00, 0x00, 0x07, 0x00, 0x00, 0x00, 0x69, 0x6e, 0x70, 0x75, 
	0x74, 0x5f, 0x32, 0x00, 0xfc, 0xff, 0xff, 0xff, 0x04, 0x00, 0x04, 0x00, 
	0x04, 0x00, 0x00, 0x00
};
const int lat1_32_seq10_len = 3220;