
// if having troubles with min/max, uncomment the following
// #undef min    
// #undef max
#ifdef __has_attribute
#define HAVE_ATTRIBUTE(x) __has_attribute(x)
#else
#define HAVE_ATTRIBUTE(x) 0
#endif
#if HAVE_ATTRIBUTE(aligned) || (defined(__GNUC__) && !defined(__clang__))
#define DATA_ALIGN_ATTRIBUTE __attribute__((aligned(4)))
#else
#define DATA_ALIGN_ATTRIBUTE
#endif
const unsigned char pred1_16_seq10[] DATA_ALIGN_ATTRIBUTE = {
	0x1c, 0x00, 0x00, 0x00, 0x54, 0x46, 0x4c, 0x33, 0x00, 0x00, 0x12, 0x00, 
	0x1c, 0x00, 0x04, 0x00, 0x08, 0x00, 0x0c, 0x00, 0x10, 0x00, 0x14, 0x00, 
	0x00, 0x00, 0x18, 0x00, 0x12, 0x00, 0x00, 0x00, 0x03, 0x00, 0x00, 0x00, 
	0x14, 0x00, 0x00, 0x00, 0x18, 0x00, 0x00, 0x00, 0xac, 0x00, 0x00, 0x00, 
	0x18, 0x00, 0x00, 0x00, 0x54, 0x00, 0x00, 0x00, 0x01, 0x00, 0x00, 0x00, 
	0x30, 0x03, 0x00, 0x00, 0x01, 0x00, 0x00, 0x00, 0xb8, 0x00, 0x00, 0x00, 
	0x0f, 0x00, 0x00, 0x00, 0x50, 0x24, 0x00, 0x00, 0x4c, 0x24, 0x00, 0x00, 
	0x60, 0x23, 0x00, 0x00, 0x78, 0x22, 0x00, 0x00, 0xd8, 0x21, 0x00, 0x00, 
	0x74, 0x21, 0x00, 0x00, 0xa0, 0x14, 0x00, 0x00, 0x4c, 0x0c, 0x00, 0x00, 
	0xf8, 0x03, 0x00, 0x00, 0x64, 0x03, 0x00, 0x00, 0x28, 0x24, 0x00, 0x00, 
	0x24, 0x24, 0x00, 0x00, 0x20, 0x24, 0x00, 0x00, 0x1c, 0x24, 0x00, 0x00, 
	0x38, 0x00, 0x00, 0x00, 0x01, 0x00, 0x00, 0x00, 0x0c, 0x00, 0x00, 0x00, 
	0x08, 0x00, 0x0c, 0x00, 0x04, 0x00, 0x08, 0x00, 0x08, 0x00, 0x00, 0x00, 
	0x08, 0x00, 0x00, 0x00, 0x0e, 0x00, 0x00, 0x00, 0x13, 0x00, 0x00, 0x00, 
	0x6d, 0x69, 0x6e, 0x5f, 0x72, 0x75, 0x6e, 0x74, 0x69, 0x6d, 0x65, 0x5f, 
	0x76, 0x65, 0x72, 0x73, 0x69, 0x6f, 0x6e, 0x00, 0x0e, 0xdd, 0xff, 0xff, 
	0x04, 0x00, 0x00, 0x00, 0x10, 0x00, 0x00, 0x00, 0x31, 0x2e, 0x35, 0x2e, 
	0x30, 0x00, 0x00, 0x00, 0x00, 0x00, 0x00, 0x00, 0x00, 0x00, 0x00, 0x00, 
	0x0f, 0x00, 0x00, 0x00, 0x4d, 0x4c, 0x49, 0x52, 0x20, 0x43, 0x6f, 0x6e, 
	0x76, 0x65, 0x72, 0x74, 0x65, 0x64, 0x2e, 0x00, 0x00, 0x00, 0x0e, 0x00, 
	0x18, 0x00, 0x04, 0x00, 0x08, 0x00, 0x0c, 0x00, 0x10, 0x00, 0x14, 0x00, 
	0x0e, 0x00, 0x00, 0x00, 0x14, 0x00, 0x00, 0x00, 0x48, 0x00, 0x00, 0x00, 
	0x4c, 0x00, 0x00, 0x00, 0x50, 0x00, 0x00, 0x00, 0x60, 0x00, 0x00, 0x00, 
	0x0d, 0x00, 0x00, 0x00, 0x4c, 0x23, 0x00, 0x00, 0xe4, 0x22, 0x00, 0x00, 
	0x3c, 0x22, 0x00, 0x00, 0x5c, 0x21, 0x00, 0x00, 0xbc, 0x20, 0x00, 0x00, 
	0x64, 0x20, 0x00, 0x00, 0x90, 0x13, 0x00, 0x00, 0x3c, 0x0b, 0x00, 0x00, 
	0xe8, 0x02, 0x00, 0x00, 0x3c, 0x02, 0x00, 0x00, 0x78, 0x01, 0x00, 0x00, 
	0xd4, 0x00, 0x00, 0x00, 0x68, 0x00, 0x00, 0x00, 0x01, 0x00, 0x00, 0x00, 
	0x00, 0x00, 0x00, 0x00, 0x01, 0x00, 0x00, 0x00, 0x0c, 0x00, 0x00, 0x00, 
	0x04, 0x00, 0x00, 0x00, 0xc4, 0x01, 0x00, 0x00, 0x20, 0x01, 0x00, 0x00, 
	0x7c, 0x00, 0x00, 0x00, 0x10, 0x00, 0x00, 0x00, 0x04, 0x00, 0x00, 0x00, 
	0x6d, 0x61, 0x69, 0x6e, 0x00, 0x00, 0x00, 0x00, 0x06, 0xff, 0xff, 0xff, 
	0x00, 0x00, 0x00, 0x08, 0x1c, 0x00, 0x00, 0x00, 0x10, 0x00, 0x00, 0x00, 
	0x04, 0x00, 0x00, 0x00, 0x56, 0xfe, 0xff, 0xff, 0x00, 0x00, 0x00, 0x01, 
	0x01, 0x00, 0x00, 0x00, 0x0c, 0x00, 0x00, 0x00, 0x03, 0x00, 0x00, 0x00, 
	0x0b, 0x00, 0x00, 0x00, 0x08, 0x00, 0x00, 0x00, 0x04, 0x00, 0x00, 0x00, 
	0x5a, 0xdd, 0xff, 0xff, 0x10, 0x00, 0x00, 0x00, 0x0d, 0x00, 0x00, 0x00, 
	0x14, 0x00, 0x00, 0x00, 0x20, 0x00, 0x00, 0x00, 0x02, 0x00, 0x00, 0x00, 
	0x01, 0x00, 0x00, 0x00, 0x01, 0x00, 0x00, 0x00, 0x08, 0x00, 0x00, 0x00, 
	0x49, 0x64, 0x65, 0x6e, 0x74, 0x69, 0x74, 0x79, 0x00, 0x00, 0x00, 0x00, 
	0x48, 0xdd, 0xff, 0xff, 0x6e, 0xff, 0xff, 0xff, 0x00, 0x00, 0x00, 0x08, 
	0x1c, 0x00, 0x00, 0x00, 0x10, 0x00, 0x00, 0x00, 0x04, 0x00, 0x00, 0x00, 
	0xbe, 0xfe, 0xff, 0xff, 0x00, 0x00, 0x00, 0x01, 0x01, 0x00, 0x00, 0x00, 
	0x0b, 0x00, 0x00, 0x00, 0x03, 0x00, 0x00, 0x00, 0x0a, 0x00, 0x00, 0x00, 
	0x07, 0x00, 0x00, 0x00, 0x03, 0x00, 0x00, 0x00, 0xc2, 0xdd, 0xff, 0xff, 
	0x10, 0x00, 0x00, 0x00, 0x0c, 0x00, 0x00, 0x00, 0x14, 0x00, 0x00, 0x00, 
	0x48, 0x00, 0x00, 0x00, 0x02, 0x00, 0x00, 0x00, 0x01, 0x00, 0x00, 0x00, 
	0x10, 0x00, 0x00, 0x00, 0x30, 0x00, 0x00, 0x00, 0x6d, 0x6f, 0x64, 0x65, 
	0x6c, 0x5f, 0x31, 0x35, 0x2f, 0x64, 0x65, 0x6e, 0x73, 0x65, 0x5f, 0x32, 
	0x30, 0x2f, 0x52, 0x65, 0x6c, 0x75, 0x3b, 0x6d, 0x6f, 0x64, 0x65, 0x6c, 
	0x5f, 0x31, 0x35, 0x2f, 0x64, 0x65, 0x6e, 0x73, 0x65, 0x5f, 0x32, 0x30, 
	0x2f, 0x42, 0x69, 0x61, 0x73, 0x41, 0x64, 0x64, 0x00, 0x00, 0x00, 0x00, 
	0x24, 0xde, 0xff, 0xff, 0x00, 0x00, 0x0e, 0x00, 0x14, 0x00, 0x00, 0x00, 
	0x08, 0x00, 0x0c, 0x00, 0x07, 0x00, 0x10, 0x00, 0x0e, 0x00, 0x00, 0x00, 
	0x00, 0x00, 0x00, 0x08, 0x1c, 0x00, 0x00, 0x00, 0x10, 0x00, 0x00, 0x00, 
	0x04, 0x00, 0x00, 0x00, 0x5e, 0xff, 0xff, 0xff, 0x00, 0x00, 0x00, 0x01, 
	0x01, 0x00, 0x00, 0x00, 0x0a, 0x00, 0x00, 0x00, 0x03, 0x00, 0x00, 0x00, 
	0x09, 0x00, 0x00, 0x00, 0x06, 0x00, 0x00, 0x00, 0x02, 0x00, 0x00, 0x00, 
	0x62, 0xde, 0xff, 0xff, 0x10, 0x00, 0x00, 0x00, 0x0b, 0x00, 0x00, 0x00, 
	0x14, 0x00, 0x00, 0x00, 0x48, 0x00, 0x00, 0x00, 0x02, 0x00, 0x00, 0x00, 
	0x01, 0x00, 0x00, 0x00, 0x20, 0x00, 0x00, 0x00, 0x30, 0x00, 0x00, 0x00, 
	0x6d, 0x6f, 0x64, 0x65, 0x6c, 0x5f, 0x31, 0x35, 0x2f, 0x64, 0x65, 0x6e, 
	0x73, 0x65, 0x5f, 0x31, 0x39, 0x2f, 0x52, 0x65, 0x6c, 0x75, 0x3b, 0x6d, 
	0x6f, 0x64, 0x65, 0x6c, 0x5f, 0x31, 0x35, 0x2f, 0x64, 0x65, 0x6e, 0x73, 
	0x65, 0x5f, 0x31, 0x39, 0x2f, 0x42, 0x69, 0x61, 0x73, 0x41, 0x64, 0x64, 
	0x00, 0x00, 0x00, 0x00, 0xc4, 0xde, 0xff, 0xff, 0x00, 0x00, 0x0e, 0x00, 
	0x16, 0x00, 0x00, 0x00, 0x08, 0x00, 0x0c, 0x00, 0x07, 0x00, 0x10, 0x00, 
	0x0e, 0x00, 0x00, 0x00, 0x00, 0x00, 0x00, 0x08, 0x24, 0x00, 0x00, 0x00, 
	0x18, 0x00, 0x00, 0x00, 0x0c, 0x00, 0x00, 0x00, 0x00, 0x00, 0x06, 0x00, 
	0x08, 0x00, 0x07, 0x00, 0x06, 0x00, 0x00, 0x00, 0x00, 0x00, 0x00, 0x01, 
	0x01, 0x00, 0x00, 0x00, 0x09, 0x00, 0x00, 0x00, 0x03, 0x00, 0x00, 0x00, 
	0x00, 0x00, 0x00, 0x00, 0x05, 0x00, 0x00, 0x00, 0x01, 0x00, 0x00, 0x00, 
	0x00, 0x00, 0x0a, 0x00, 0x0c, 0x00, 0x07, 0x00, 0x00, 0x00, 0x08, 0x00, 
	0x0a, 0x00, 0x00, 0x00, 0x00, 0x00, 0x00, 0x09, 0x01, 0x00, 0x00, 0x00, 
	0x22, 0xdf, 0xff, 0xff, 0x10, 0x00, 0x00, 0x00, 0x0a, 0x00, 0x00, 0x00, 
	0x14, 0x00, 0x00, 0x00, 0x48, 0x00, 0x00, 0x00, 0x02, 0x00, 0x00, 0x00, 
	0x01, 0x00, 0x00, 0x00, 0x10, 0x00, 0x00, 0x00, 0x30, 0x00, 0x00, 0x00, 
	0x6d, 0x6f, 0x64, 0x65, 0x6c, 0x5f, 0x31, 0x35, 0x2f, 0x64, 0x65, 0x6e, 
	0x73, 0x65, 0x5f, 0x31, 0x38, 0x2f, 0x52, 0x65, 0x6c, 0x75, 0x3b, 0x6d, 
	0x6f, 0x64, 0x65, 0x6c, 0x5f, 0x31, 0x35, 0x2f, 0x64, 0x65, 0x6e, 0x73, 
	0x65, 0x5f, 0x31, 0x38, 0x2f, 0x42, 0x69, 0x61, 0x73, 0x41, 0x64, 0x64, 
	0x00, 0x00, 0x00, 0x00, 0x38, 0xdf, 0xff, 0xff, 0x26, 0xe0, 0xff, 0xff, 
	0x04, 0x00, 0x00, 0x00, 0x40, 0x00, 0x00, 0x00, 0x28, 0xd8, 0xd3, 0xbf, 
	0x42, 0x8b, 0xb1, 0xbf, 0xc8, 0xa6, 0x08, 0xc0, 0x3a, 0xf1, 0xc5, 0x3e, 
	0x62, 0x2a, 0x8a, 0xbe, 0xa7, 0xab, 0x1d, 0xbe, 0x18, 0x99, 0xe6, 0xbd, 
	0xd6, 0x44, 0xef, 0x3e, 0x7d, 0x17, 0x85, 0x3f, 0x2d, 0x56, 0x3d, 0x3f, 
	0x57, 0x58, 0x3a, 0x3f, 0xd6, 0x31, 0x4b, 0x3f, 0x2c, 0x07, 0xab, 0x3e, 
	0xed, 0xa3, 0x49, 0x3f, 0xd9, 0x35, 0x9d, 0xbe, 0x56, 0xa6, 0x08, 0xc0, 
	0xca, 0xdf, 0xff, 0xff, 0x10, 0x00, 0x00, 0x00, 0x09, 0x00, 0x00, 0x00, 
	0x14, 0x00, 0x00, 0x00, 0x30, 0x00, 0x00, 0x00, 0x02, 0x00, 0x00, 0x00, 
	0x01, 0x00, 0x00, 0x00, 0x10, 0x00, 0x00, 0x00, 0x18, 0x00, 0x00, 0x00, 
	0x6d, 0x6f, 0x64, 0x65, 0x6c, 0x5f, 0x31, 0x35, 0x2f, 0x64, 0x65, 0x6e, 
	0x73, 0x65, 0x5f, 0x32, 0x31, 0x2f, 0x4d, 0x61, 0x74, 0x4d, 0x75, 0x6c, 
	0x00, 0x00, 0x00, 0x00, 0xc8, 0xdf, 0xff, 0xff, 0xb6, 0xe0, 0xff, 0xff, 
	0x04, 0x00, 0x00, 0x00, 0x00, 0x08, 0x00, 0x00, 0xd4, 0x7a, 0x8d, 0x3e, 
	0x24, 0x5c, 0xd3, 0xbe, 0x18, 0x26, 0x1d, 0xbe, 0xff, 0x5c, 0x6c, 0x3d, 
	0xf6, 0x0a, 0xb0, 0xbe, 0x77, 0x4d, 0xff, 0xbc, 0x62, 0x50, 0x5f, 0xbe, 
	0x97, 0xb1, 0x67, 0x3e, 0x06, 0xff, 0xc8, 0x3e, 0x26, 0xc8, 0x70, 0xbe, 
	0x05, 0x01, 0x48, 0x3d, 0xed, 0xeb, 0xcf, 0x3e, 0x32, 0xa5, 0x5d, 0xbe, 
	0x6d, 0x12, 0x6e, 0x3d, 0x53, 0x2f, 0x0c, 0xbd, 0x4a, 0xf5, 0x0f, 0xbf, 
	0x51, 0xcb, 0xd7, 0xbe, 0x4b, 0x0f, 0xbc, 0xbd, 0xd5, 0x07, 0x7c, 0xbe, 
	0x63, 0x22, 0xc6, 0x3e, 0x8c, 0x1a, 0xfd, 0xbe, 0x53, 0x4a, 0x13, 0x3e, 
	0x66, 0xa2, 0x17, 0x3e, 0x85, 0x8a, 0xa2, 0xbe, 0x23, 0x02, 0x8d, 0xbe, 
	0x5f, 0x91, 0x4b, 0xbe, 0x86, 0xaf, 0x2e, 0x3e, 0x46, 0x8e, 0x70, 0xbe, 
	0x88, 0x9b, 0x80, 0xbc, 0x6f, 0x91, 0xbd, 0xbe, 0x80, 0x08, 0x41, 0x3d, 
	0x49, 0xd0, 0xf4, 0x3f, 0xe7, 0xc8, 0xd4, 0x3d, 0x40, 0xd1, 0x9a, 0xbe, 
	0xf2, 0x8f, 0x26, 0x3e, 0x0c, 0x02, 0x3e, 0xbe, 0x68, 0xed, 0xba, 0xbe, 
	0x90, 0x0f, 0x3f, 0x3e, 0x91, 0xce, 0x0a, 0xbe, 0xa6, 0xf1, 0xd6, 0x3e, 
	0xe0, 0xf2, 0xe6, 0xbd, 0x64, 0x06, 0x04, 0xbe, 0xdc, 0x60, 0xf8, 0xbd, 
	0xad, 0x49, 0xbc, 0x3e, 0xf0, 0x1c, 0x8a, 0xbe, 0xa2, 0x33, 0x90, 0x3e, 
	0xf1, 0x38, 0x80, 0xbe, 0xbb, 0x1b, 0xac, 0xbe, 0x2a, 0xd8, 0xe8, 0x3c, 
	0x00, 0x4f, 0xeb, 0xbd, 0x5e, 0x64, 0xa4, 0xbe, 0xd9, 0x78, 0x74, 0x3c, 
	0x7c, 0xe3, 0x01, 0xbe, 0x39, 0xf5, 0x32, 0xbe, 0xbb, 0x7d, 0xa1, 0x3e, 
	0x0b, 0x78, 0x0d, 0x3d, 0x9d, 0x2a, 0x2d, 0x3e, 0x37, 0x61, 0x1a, 0xbe, 
	0x25, 0x31, 0x99, 0x3e, 0x72, 0x1b, 0x0f, 0xbd, 0xd7, 0xd9, 0xaa, 0xbd, 
	0x62, 0x0b, 0xb3, 0xbd, 0x2f, 0xc1, 0x35, 0x3e, 0x98, 0x74, 0x1c, 0x40, 
	0x9e, 0x7f, 0xee, 0x3e, 0x06, 0x0e, 0xb4, 0xbe, 0x07, 0x3a, 0x99, 0xbe, 
	0xe4, 0x0d, 0x05, 0x3d, 0xde, 0xf1, 0x45, 0x3d, 0x69, 0xfb, 0xf5, 0x3e, 
	0x94, 0x49, 0xf9, 0xbd, 0xb0, 0x0f, 0x99, 0x3d, 0xab, 0x62, 0x49, 0x3e, 
	0x4c, 0xba, 0x78, 0xbb, 0x9b, 0x76, 0x31, 0xbe, 0x8a, 0x85, 0x03, 0xbe, 
	0xba, 0xc9, 0xfd, 0xbe, 0xe9, 0xe4, 0x17, 0x3e, 0xa1, 0x25, 0xba, 0xbd, 
	0x56, 0xc9, 0x04, 0x3e, 0xa5, 0xd5, 0x13, 0xbe, 0x08, 0x03, 0x91, 0xbe, 
	0xcd, 0x4a, 0x8c, 0xbe, 0x74, 0x4d, 0x4d, 0x3e, 0x57, 0x3d, 0xeb, 0xbd, 
	0xf3, 0x78, 0xab, 0x3d, 0xcc, 0x9d, 0xb2, 0x3e, 0x87, 0x6f, 0x99, 0xbe, 
	0xd6, 0x1b, 0xf7, 0x3e, 0xef, 0x85, 0xb9, 0x3c, 0x07, 0xcd, 0x57, 0x3e, 
	0xb9, 0x6f, 0x6c, 0x3d, 0x79, 0xc6, 0xa3, 0xbd, 0x2d, 0x91, 0xd8, 0xbe, 
	0xe8, 0x62, 0x39, 0xbe, 0xd0, 0x39, 0x0c, 0x40, 0x67, 0x0d, 0xaa, 0xbe, 
	0x9e, 0x44, 0x96, 0xbe, 0xf2, 0xcb, 0x76, 0x3e, 0x76, 0x12, 0xa2, 0xbe, 
	0x46, 0x5b, 0x34, 0x3e, 0xc4, 0xd3, 0x98, 0xbe, 0x58, 0x10, 0x1f, 0xbd, 
	0xff, 0xb9, 0xb2, 0x3e, 0x46, 0x77, 0x00, 0x3e, 0xe4, 0x27, 0x49, 0xbe, 
	0x4a, 0xd0, 0x3e, 0x3e, 0x55, 0xf6, 0x9f, 0x3e, 0x8f, 0xc1, 0x3b, 0xbe, 
	0x85, 0x3f, 0x3b, 0xbe, 0xc6, 0xdd, 0xda, 0xbd, 0xdf, 0x5c, 0x03, 0xbe, 
	0x5f, 0xfd, 0xaa, 0x3e, 0x68, 0xc2, 0x8d, 0x3d, 0xda, 0xd7, 0x7b, 0xbe, 
	0xe8, 0x6e, 0x16, 0x3d, 0xe3, 0x3f, 0x1f, 0xbe, 0x10, 0x40, 0x3d, 0xbe, 
	0x08, 0xbd, 0x8e, 0xbd, 0xd2, 0x6a, 0x78, 0xbe, 0x70, 0x0c, 0x4c, 0xbd, 
	0x71, 0x0f, 0x36, 0xbe, 0x93, 0xea, 0x50, 0xbe, 0x50, 0xa2, 0x54, 0xbd, 
	0x3e, 0x94, 0x21, 0x3e, 0xd3, 0x2e, 0x24, 0xbe, 0x5c, 0x4d, 0x8b, 0xbe, 
	0xa0, 0x55, 0x75, 0xbc, 0xf4, 0x4f, 0x1a, 0xbe, 0x9d, 0x28, 0x57, 0x3e, 
	0xe5, 0x6c, 0xac, 0xbe, 0x04, 0x07, 0xaa, 0xbe, 0x0a, 0x51, 0x64, 0xbe, 
	0x99, 0xff, 0xed, 0x3d, 0x3a, 0x38, 0x4b, 0x3e, 0xad, 0xc0, 0xa2, 0x3d, 
	0x72, 0xac, 0x56, 0x3e, 0x64, 0x45, 0xc5, 0xbd, 0x4c, 0x39, 0x80, 0xbe, 
	0x90, 0x2c, 0x65, 0xbd, 0xe3, 0xde, 0x00, 0x3e, 0x53, 0x52, 0xa4, 0xbe, 
	0xb4, 0x3a, 0xc2, 0x3d, 0x9c, 0x20, 0xae, 0xbe, 0x7b, 0x16, 0xe3, 0xbd, 
	0xee, 0x0d, 0xec, 0xbd, 0xaa, 0x99, 0x46, 0xbc, 0x49, 0xd9, 0x8e, 0xbe, 
	0x4a, 0x3e, 0x43, 0x3d, 0xe6, 0xad, 0x02, 0xbe, 0xec, 0xdd, 0x8f, 0x3d, 
	0x39, 0x0e, 0x0b, 0xbe, 0xd1, 0x89, 0x96, 0xbd, 0x12, 0x89, 0xcb, 0xbd, 
	0x3c, 0xb7, 0xa3, 0x3e, 0x49, 0x19, 0x6a, 0x3b, 0x68, 0x76, 0xb6, 0xbe, 
	0x84, 0x0b, 0x3a, 0xbe, 0x9e, 0x41, 0x4f, 0x3e, 0x13, 0xa1, 0x6a, 0xbe, 
	0x8c, 0xe4, 0xea, 0xbd, 0x51, 0x04, 0xb3, 0xbe, 0x19, 0x79, 0x45, 0x3c, 
	0x38, 0xa5, 0x87, 0xbe, 0xda, 0xd6, 0x9f, 0xbe, 0xe9, 0x20, 0x55, 0xbe, 
	0x85, 0x83, 0x80, 0x3e, 0x2d, 0x26, 0x8f, 0x3e, 0x63, 0x69, 0x00, 0x3e, 
	0xa3, 0x6f, 0x97, 0xbe, 0xa8, 0x6e, 0x36, 0xbe, 0xb1, 0xf9, 0x71, 0xbe, 
	0xc2, 0xa9, 0x97, 0xbe, 0xf5, 0xfc, 0x7f, 0x3e, 0x81, 0x6e, 0xa8, 0xbe, 
	0x4c, 0xc2, 0x42, 0xbe, 0xe7, 0xc0, 0x18, 0xbe, 0x79, 0x79, 0x35, 0x3e, 
	0x29, 0xc9, 0xc4, 0xbd, 0xcc, 0xf6, 0xce, 0xbd, 0x95, 0x99, 0x11, 0xbe, 
	0xa8, 0x4b, 0x92, 0x3d, 0x01, 0xd9, 0xa5, 0xbe, 0x67, 0x4f, 0x54, 0x3e, 
	0x6d, 0xf1, 0x9d, 0x3e, 0x95, 0x0f, 0xa3, 0xbe, 0xc8, 0x64, 0x3b, 0xbe, 
	0x6b, 0x59, 0x6a, 0xbe, 0x15, 0x63, 0xa1, 0x3e, 0xbd, 0xa1, 0x31, 0x3d, 
	0x30, 0x8a, 0x6d, 0x3d, 0x98, 0x00, 0x84, 0x3d, 0x00, 0x3c, 0xad, 0x39, 
	0x76, 0x91, 0x3a, 0xbe, 0xea, 0x33, 0x87, 0xbe, 0x40, 0xff, 0x96, 0x3c, 
	0x00, 0x40, 0x7f, 0xbe, 0x24, 0xd8, 0x9c, 0xbe, 0x18, 0x2a, 0x51, 0x3d, 
	0xdc, 0xcb, 0x32, 0xbe, 0x31, 0x8b, 0x41, 0xbe, 0xca, 0x77, 0x35, 0xbe, 
	0xdc, 0xa0, 0xae, 0xbe, 0x3c, 0x9c, 0xab, 0x3d, 0x40, 0xb6, 0x69, 0xbd, 
	0xf2, 0x5e, 0x92, 0xbe, 0x20, 0xa3, 0x3a, 0xbd, 0x70, 0xc8, 0x94, 0xbd, 
	0x0e, 0xba, 0xa9, 0xbe, 0x75, 0xe8, 0xa0, 0x3e, 0x12, 0x8a, 0x43, 0x3e, 
	0x96, 0xfe, 0x4a, 0x3e, 0x60, 0x84, 0x6d, 0xbe, 0x64, 0xee, 0xf7, 0xbd, 
	0x2e, 0xa2, 0x22, 0x3e, 0x80, 0xac, 0xa1, 0xbd, 0x10, 0xa3, 0xec, 0xbc, 
	0xa4, 0x3f, 0xe2, 0x3d, 0xd4, 0xd4, 0xf6, 0x3d, 0x0e, 0x41, 0x2c, 0x3e, 
	0x2e, 0x15, 0x09, 0xbe, 0x50, 0xaf, 0x17, 0xbd, 0xdf, 0x5d, 0xa6, 0xbe, 
	0x70, 0x19, 0x97, 0xbd, 0xc8, 0x63, 0x05, 0x3f, 0x33, 0xa8, 0x5f, 0x3e, 
	0x21, 0x43, 0x3f, 0x3e, 0x0c, 0xbd, 0x96, 0x3e, 0xca, 0x96, 0x18, 0xbe, 
	0x39, 0x2b, 0xe5, 0x3e, 0xb7, 0x46, 0xa7, 0x3e, 0xb9, 0x4a, 0xf9, 0x3e, 
	0x7e, 0x6f, 0x4e, 0x3f, 0x63, 0xb9, 0x49, 0x3f, 0x89, 0x53, 0x96, 0x3e, 
	0xa4, 0x87, 0x1d, 0x3f, 0xdc, 0x9a, 0x03, 0x40, 0x12, 0x6b, 0xb7, 0x3e, 
	0x52, 0xca, 0x11, 0x3c, 0x00, 0x6f, 0xe2, 0x3e, 0xda, 0x4f, 0x07, 0x3e, 
	0xe0, 0xdb, 0x9c, 0x3d, 0xa6, 0x71, 0xe2, 0x3e, 0x78, 0x68, 0x16, 0x3f, 
	0x5e, 0x36, 0x10, 0x3e, 0x3d, 0xef, 0x51, 0x3e, 0xdc, 0x3f, 0x64, 0x3f, 
	0x0c, 0x8b, 0xcb, 0x3e, 0xb0, 0x06, 0x5c, 0x3e, 0x0e, 0xb5, 0x55, 0x3e, 
	0x8c, 0x82, 0x23, 0x3f, 0xab, 0x23, 0x00, 0x3f, 0x7b, 0x47, 0x10, 0x3f, 
	0x89, 0xfe, 0x71, 0xbd, 0x22, 0x99, 0x68, 0x3e, 0x3f, 0xb0, 0x0e, 0xc0, 
	0x3c, 0x8c, 0x2d, 0x3e, 0xfc, 0xb9, 0x1e, 0x3e, 0x19, 0xa6, 0xef, 0x3e, 
	0xc8, 0x70, 0xa4, 0x3e, 0x5b, 0x44, 0x44, 0xbe, 0x9e, 0x4f, 0xa4, 0x3e, 
	0x3a, 0xb1, 0xf2, 0x3d, 0x94, 0xf7, 0x96, 0x3e, 0x8e, 0x7e, 0x51, 0x3f, 
	0x6e, 0x49, 0xc4, 0x3e, 0x31, 0x92, 0xbe, 0x3e, 0x6d, 0x65, 0x90, 0x3e, 
	0xb1, 0x66, 0x07, 0x40, 0x12, 0xdc, 0x95, 0x3e, 0x49, 0xcc, 0x46, 0xbe, 
	0x66, 0x88, 0xca, 0x3e, 0x79, 0xdc, 0x22, 0x3d, 0x01, 0x43, 0x77, 0x3d, 
	0xce, 0xa8, 0x0b, 0x3f, 0x4b, 0x6a, 0x44, 0x3f, 0x1d, 0x15, 0x22, 0xbe, 
	0x86, 0xb1, 0xd1, 0x3e, 0x04, 0x6b, 0x7a, 0x3f, 0x4c, 0x9b, 0x50, 0x3e, 
	0x81, 0x1d, 0x2d, 0x3e, 0xa7, 0x6a, 0x9a, 0x3e, 0xa5, 0xb7, 0x70, 0x3f, 
	0x83, 0x9c, 0x81, 0x3e, 0x10, 0xb0, 0x07, 0x3b, 0xbb, 0x89, 0x07, 0xbe, 
	0x15, 0xfb, 0xfa, 0x3e, 0xf4, 0xe8, 0x07, 0xc0, 0x5c, 0x5d, 0xd8, 0x3e, 
	0x60, 0xe3, 0xa4, 0x3e, 0x05, 0x30, 0xe4, 0x3e, 0x33, 0xcc, 0x7f, 0x3e, 
	0x19, 0xc4, 0xfb, 0x3d, 0x9e, 0x47, 0xd4, 0x3e, 0x42, 0xfe, 0xe9, 0x3e, 
	0x3d, 0x72, 0x2a, 0x3f, 0x18, 0x33, 0xf0, 0x3e, 0x7c, 0x42, 0x99, 0x3e, 
	0xd6, 0x97, 0xc1, 0x3e, 0xef, 0xe5, 0x6a, 0x3f, 0xac, 0x84, 0xf7, 0x3f, 
	0x33, 0x5b, 0xa2, 0x3e, 0xdb, 0x7a, 0x61, 0xbc, 0xa2, 0x31, 0x03, 0x3f, 
	0x64, 0x5b, 0xde, 0x3e, 0xfb, 0x21, 0x12, 0xbe, 0xb4, 0xf6, 0xe4, 0x3e, 
	0x2b, 0xa5, 0x52, 0x3f, 0xbb, 0xeb, 0x89, 0x3e, 0xb6, 0x84, 0xe9, 0x3d, 
	0x6d, 0xb7, 0xf4, 0x3e, 0xf3, 0x96, 0xce, 0x3e, 0x5e, 0x98, 0x92, 0x3e, 
	0x38, 0x21, 0xea, 0x3e, 0x24, 0x47, 0xe3, 0x3e, 0xfc, 0x1c, 0xc5, 0x3e, 
	0xf3, 0x5a, 0xf6, 0x3e, 0xa9, 0x62, 0xc6, 0x3e, 0x63, 0xb3, 0xeb, 0x3d, 
	0xe0, 0xeb, 0xfa, 0xbf, 0x30, 0x84, 0x07, 0x3e, 0x63, 0x4a, 0x45, 0x3e, 
	0x70, 0x91, 0xac, 0x3e, 0x45, 0x4c, 0x81, 0x3e, 0x64, 0x3e, 0x9c, 0x3e, 
	0x02, 0x34, 0x6b, 0x3e, 0x60, 0x4a, 0xd5, 0x3c, 0xe7, 0x66, 0x0b, 0x3f, 
	0x85, 0x2d, 0x80, 0x3e, 0xa7, 0x3e, 0x12, 0x3f, 0xb0, 0x49, 0xbb, 0x3e, 
	0x15, 0x81, 0x62, 0x3f, 0xa4, 0x4d, 0xe5, 0x3f, 0x4c, 0xca, 0x0d, 0x3f, 
	0x96, 0xdc, 0xc8, 0x3e, 0x0d, 0xe4, 0x12, 0x3f, 0x29, 0x18, 0xc4, 0x3e, 
	0x53, 0xe0, 0xe4, 0x3e, 0xce, 0xd5, 0xde, 0x3d, 0xff, 0x04, 0x4b, 0x3f, 
	0xce, 0x74, 0x81, 0x3e, 0xda, 0x06, 0xf3, 0x3e, 0x39, 0xa3, 0x99, 0x3e, 
	0x12, 0xfd, 0xe2, 0x3e, 0xa8, 0x18, 0x57, 0x3e, 0xaa, 0x2e, 0x76, 0x3e, 
	0x1a, 0x1f, 0x3c, 0x3f, 0xd3, 0x86, 0x97, 0x3e, 0x15, 0x1d, 0x3c, 0x3e, 
	0xe6, 0xe8, 0x00, 0x3e, 0x8f, 0xb4, 0x53, 0x3e, 0xb6, 0x1d, 0xd0, 0xbf, 
	0x1f, 0xcc, 0x1f, 0x3e, 0x69, 0x2a, 0x41, 0x3e, 0x1b, 0x58, 0x7f, 0x3e, 
	0x96, 0x70, 0x99, 0x3e, 0x91, 0xba, 0xf5, 0x3c, 0xdf, 0x20, 0x05, 0x3e, 
	0x00, 0xef, 0xf8, 0x3d, 0x37, 0x1a, 0x3f, 0x3f, 0xb3, 0x89, 0x52, 0x3f, 
	0xf6, 0xc0, 0x05, 0x3f, 0xd1, 0xef, 0xfb, 0x3d, 0xae, 0xc8, 0x0c, 0x3f, 
	0x26, 0xda, 0xfb, 0x3f, 0x37, 0xfc, 0xea, 0x3d, 0x00, 0xa0, 0x9a, 0x3e, 
	0x2b, 0xc6, 0xc0, 0x3e, 0x76, 0xd5, 0x06, 0x3e, 0x31, 0xec, 0xbd, 0x3e, 
	0x10, 0x80, 0x1d, 0x3d, 0xe6, 0xe8, 0x2f, 0x3f, 0x56, 0x38, 0xac, 0x3e, 
	0xbe, 0xe3, 0x6a, 0x3d, 0xe0, 0x94, 0x4f, 0x3f, 0x07, 0xbf, 0xb4, 0x3e, 
	0x7a, 0xdf, 0xca, 0x3e, 0x6f, 0xb3, 0x1e, 0x3e, 0xc0, 0x3b, 0x17, 0x3f, 
	0xaa, 0xb8, 0xec, 0x3e, 0x1c, 0x7a, 0x97, 0x3e, 0x83, 0x64, 0xde, 0xbc, 
	0x4c, 0xe8, 0xba, 0x3e, 0x58, 0x93, 0x0b, 0xc0, 0xce, 0x63, 0x1d, 0x3e, 
	0x9b, 0x85, 0x03, 0x3f, 0x00, 0x7e, 0xe3, 0x3e, 0xa9, 0x99, 0x0f, 0x3f, 
	0xfb, 0x86, 0x1a, 0x3e, 0xfb, 0x4a, 0x17, 0x3f, 0xb4, 0x93, 0xee, 0x3e, 
	0xe0, 0xef, 0xc2, 0x3e, 0x3d, 0x7a, 0xd3, 0x3e, 0x99, 0xa7, 0xda, 0x3e, 
	0xad, 0x94, 0x22, 0x3f, 0x42, 0xba, 0xc3, 0x3e, 0x1f, 0xf1, 0x1b, 0x40, 
	0xac, 0x9b, 0x76, 0x3e, 0x52, 0x03, 0xde, 0x3e, 0xfe, 0xf9, 0x9c, 0x3e, 
	0x2c, 0x20, 0x43, 0x3e, 0xdb, 0x65, 0xdd, 0x3d, 0x1b, 0xa0, 0xf9, 0xbc, 
	0x0d, 0x66, 0x2d, 0x3f, 0x4d, 0xf7, 0x55, 0x3c, 0x79, 0xaf, 0x03, 0x3f, 
	0x71, 0xa8, 0x8a, 0x3f, 0xf9, 0x63, 0x2f, 0xbd, 0x19, 0xde, 0x86, 0x3e, 
	0x28, 0x05, 0xc1, 0x3e, 0x7e, 0x0f, 0x33, 0x3f, 0xc0, 0x9a, 0x1e, 0x3f, 
	0x45, 0x53, 0xb5, 0x3e, 0xa0, 0xfb, 0x0b, 0x3f, 0x37, 0xa8, 0xe9, 0x3e, 
	0xd1, 0xc7, 0x0a, 0xc0, 0xa1, 0x5f, 0xbd, 0x3d, 0x8c, 0xeb, 0x76, 0x3e, 
	0x20, 0x43, 0xee, 0x3e, 0x15, 0x71, 0x37, 0x3e, 0xd4, 0x89, 0xe8, 0x3e, 
	0xd6, 0x6f, 0xca, 0x3e, 0x65, 0x2b, 0xc4, 0x3d, 0xd7, 0x1f, 0x22, 0x3e, 
	0xc2, 0x2f, 0x39, 0x3f, 0xc3, 0xe9, 0x49, 0x3f, 0x14, 0x35, 0x2e, 0x3e, 
	0x4d, 0x1c, 0x6a, 0x3f, 0x57, 0x1a, 0x03, 0x40, 0x64, 0x3b, 0x3a, 0x3e, 
	0x0a, 0x92, 0xa5, 0xbd, 0xa6, 0x93, 0xde, 0xbd, 0x23, 0x6e, 0x10, 0x3f, 
	0xff, 0xd8, 0xe7, 0x3e, 0x15, 0x0e, 0x0c, 0x3f, 0x14, 0xe2, 0x3b, 0x3f, 
	0x7a, 0xdb, 0x29, 0xbd, 0x24, 0x9a, 0xf9, 0x3e, 0xfd, 0xb5, 0xd2, 0x3e, 
	0xec, 0x2d, 0xf2, 0x3d, 0xbf, 0x87, 0x44, 0x3e, 0x0f, 0xbf, 0xda, 0x3e, 
	0xcc, 0xa8, 0x82, 0x3f, 0x2c, 0x11, 0x16, 0x3c, 0xb1, 0xa9, 0x61, 0x3b, 
	0x6e, 0xf2, 0x12, 0x3e, 0x42, 0xba, 0x9b, 0xbd, 0xb3, 0xe0, 0x10, 0xc0, 
	0x90, 0x60, 0xa1, 0xbe, 0xb5, 0xa9, 0x29, 0xbd, 0x0d, 0xad, 0x83, 0x3e, 
	0x54, 0xfa, 0x55, 0xbe, 0x10, 0x5f, 0x84, 0xbe, 0xea, 0xda, 0x08, 0x3e, 
	0x49, 0x3a, 0x7c, 0xbd, 0x27, 0xde, 0x1b, 0x3e, 0xf3, 0x37, 0x6f, 0x3d, 
	0x89, 0x9d, 0x89, 0x3e, 0x93, 0xe2, 0xe9, 0xbd, 0x06, 0x7d, 0xca, 0xbe, 
	0xf2, 0xc5, 0xbe, 0xbc, 0xe3, 0x3a, 0xcd, 0xbe, 0x74, 0xaf, 0x0f, 0x3e, 
	0xfa, 0x67, 0xcb, 0x3d, 0xda, 0x78, 0xbf, 0x3d, 0xfa, 0x35, 0x74, 0x3e, 
	0x20, 0x6c, 0x24, 0xbe, 0x3e, 0xc9, 0xd8, 0xbc, 0xa6, 0x3b, 0xd8, 0x3c, 
	0xa3, 0x57, 0xb6, 0x3d, 0x4c, 0xe0, 0x69, 0xbe, 0x26, 0xa6, 0x6b, 0x3e, 
	0x6a, 0xc1, 0xa1, 0xbe, 0x1b, 0xc4, 0x70, 0x3e, 0xeb, 0x58, 0x3b, 0x3e, 
	0x7f, 0xe7, 0xa0, 0xbe, 0x37, 0x3c, 0x9c, 0xbe, 0xf8, 0xfc, 0x8a, 0xbe, 
	0x26, 0xb3, 0x23, 0xbd, 0x7c, 0x7a, 0x9a, 0xbe, 0x74, 0xed, 0x90, 0x3d, 
	0x5b, 0x04, 0x01, 0xbf, 0x2f, 0x6a, 0x1a, 0xbf, 0x4c, 0x21, 0xfe, 0xbc, 
	0x6c, 0x28, 0x70, 0xbd, 0xd4, 0x16, 0xbd, 0x3e, 0x57, 0x5f, 0x05, 0xbe, 
	0x3a, 0xea, 0x01, 0xbe, 0x49, 0xfa, 0x25, 0xbd, 0x40, 0x4e, 0xa0, 0xbc, 
	0x96, 0xdb, 0xd4, 0xbc, 0x09, 0x6f, 0x08, 0x3f, 0xe2, 0x62, 0x14, 0x3e, 
	0x75, 0x25, 0x82, 0x3d, 0x9e, 0x43, 0xe4, 0xbe, 0xf9, 0x7b, 0x86, 0xbe, 
	0x71, 0x66, 0x03, 0x3e, 0x08, 0x5e, 0xce, 0xbd, 0xce, 0x9c, 0x9d, 0xbe, 
	0x36, 0x79, 0x4c, 0x3e, 0x81, 0x36, 0xae, 0xbe, 0xd6, 0xa6, 0xed, 0xbc, 
	0xc0, 0x95, 0x14, 0x3f, 0xe9, 0xb3, 0x25, 0x3e, 0xe9, 0x81, 0xca, 0x3e, 
	0xaa, 0x0f, 0x95, 0x3d, 0x0b, 0x86, 0xb6, 0x3e, 0xb9, 0x81, 0x8f, 0x3e, 
	0x73, 0xfc, 0x1d, 0x3e, 0x62, 0x6e, 0x32, 0xbf, 0xe4, 0xda, 0xa3, 0xbe, 
	0x22, 0x17, 0xaa, 0x3f, 0x1a, 0xe8, 0xff, 0xff, 0x10, 0x00, 0x00, 0x00, 
	0x08, 0x00, 0x00, 0x00, 0x14, 0x00, 0x00, 0x00, 0x30, 0x00, 0x00, 0x00, 
	0x02, 0x00, 0x00, 0x00, 0x10, 0x00, 0x00, 0x00, 0x20, 0x00, 0x00, 0x00, 
	0x18, 0x00, 0x00, 0x00, 0x6d, 0x6f, 0x64, 0x65, 0x6c, 0x5f, 0x31, 0x35, 
	0x2f, 0x64, 0x65, 0x6e, 0x73, 0x65, 0x5f, 0x32, 0x30, 0x2f, 0x4d, 0x61, 
	0x74, 0x4d, 0x75, 0x6c, 0x00, 0x00, 0x00, 0x00, 0x18, 0xe8, 0xff, 0xff, 
	0x06, 0xe9, 0xff, 0xff, 0x04, 0x00, 0x00, 0x00, 0x00, 0x08, 0x00, 0x00, 
	0xc2, 0x9f, 0x92, 0x3e, 0x4a, 0x7c, 0xcb, 0xbe, 0x50, 0xec, 0xcf, 0x3e, 
	0x15, 0x3e, 0x4c, 0xbe, 0x2d, 0x5b, 0x31, 0xbe, 0x08, 0xf9, 0x56, 0xbe, 
	0xfe, 0x17, 0x1d, 0x3f, 0xa3, 0xdf, 0x1a, 0x3e, 0x24, 0x24, 0x15, 0x3d, 
	0x0f, 0x37, 0x7d, 0x3e, 0xab, 0x8c, 0x9a, 0x3e, 0xc8, 0x7a, 0xa5, 0x3e, 
	0x65, 0xec, 0x11, 0x3b, 0x99, 0xad, 0x9f, 0xbd, 0x16, 0x6c, 0x18, 0xbd, 
	0xda, 0x6e, 0xec, 0x3d, 0x3b, 0x8c, 0x8a, 0x3e, 0xb4, 0xdb, 0x58, 0x3e, 
	0xef, 0xee, 0x23, 0x3f, 0x84, 0xb7, 0x82, 0x3d, 0xc4, 0x4c, 0x90, 0xbd, 
	0x27, 0x11, 0xc0, 0x3e, 0x93, 0x57, 0xf6, 0x3d, 0x9c, 0x3e, 0x90, 0x3d, 
	0xf4, 0x8f, 0xc6, 0x3e, 0x77, 0x4e, 0xf1, 0x3e, 0x30, 0x63, 0xe6, 0x3e, 
	0x3e, 0x88, 0x99, 0x3e, 0x75, 0x54, 0xca, 0x3e, 0x53, 0x12, 0x21, 0x3e, 
	0x54, 0x56, 0x02, 0x3f, 0x38, 0xd2, 0xa8, 0x3e, 0x96, 0xb4, 0xe0, 0x3e, 
	0x3b, 0x6f, 0xa2, 0x3e, 0x37, 0x8b, 0xa7, 0x3e, 0x68, 0xe9, 0xd3, 0x3d, 
	0x81, 0xf0, 0xb5, 0x3e, 0x30, 0x54, 0xe4, 0x3e, 0xd6, 0xa1, 0x1a, 0xbd, 
	0xb0, 0x99, 0x2a, 0x3e, 0x49, 0x03, 0x50, 0xbd, 0x08, 0x91, 0x85, 0x3e, 
	0x7a, 0xdc, 0xd5, 0x3e, 0x9c, 0xb1, 0x5e, 0xbe, 0x07, 0x70, 0x49, 0x3c, 
	0x22, 0xaa, 0xc1, 0x3e, 0x41, 0x12, 0xb8, 0x3e, 0xb5, 0x91, 0x66, 0x3e, 
	0xe0, 0x76, 0xa9, 0x3e, 0x81, 0x90, 0x5b, 0x3e, 0x5f, 0x68, 0xc0, 0xbc, 
	0xc0, 0x87, 0x76, 0x3d, 0x60, 0xb2, 0x2f, 0xbe, 0x11, 0xd2, 0x99, 0x3d, 
	0x49, 0x3e, 0xaf, 0x3e, 0x7c, 0xc9, 0x8f, 0x3e, 0xc3, 0x40, 0xcc, 0x3e, 
	0x91, 0xe1, 0x42, 0x3e, 0xc5, 0x59, 0x5f, 0x3e, 0x1c, 0xb7, 0x5e, 0xbc, 
	0xaf, 0x35, 0xad, 0x3d, 0x5e, 0x6d, 0x8f, 0xbc, 0x04, 0xd5, 0x92, 0xbc, 
	0x0c, 0xe1, 0x68, 0x3e, 0xf5, 0xd1, 0x94, 0x3e, 0x9f, 0x70, 0xf5, 0x3d, 
	0xf6, 0xb1, 0x1d, 0x3c, 0xd0, 0x0b, 0x96, 0xbd, 0x0d, 0x02, 0xbf, 0x3e, 
	0xed, 0x93, 0xed, 0x3d, 0xd6, 0xb7, 0x08, 0xbe, 0xf5, 0xad, 0xdb, 0x3e, 
	0xe4, 0xeb, 0x44, 0x3e, 0x15, 0x33, 0x7d, 0x3e, 0xa3, 0x77, 0xe8, 0xbd, 
	0x24, 0xd8, 0x01, 0xbe, 0x88, 0x17, 0xda, 0x3d, 0xed, 0xd1, 0xe4, 0xbc, 
	0xe3, 0x9e, 0xb3, 0x3e, 0x9d, 0x5f, 0x75, 0x3e, 0x76, 0xf0, 0xa4, 0xbe, 
	0x9c, 0xd3, 0xa7, 0x3b, 0x35, 0xf7, 0xda, 0x3e, 0x84, 0x13, 0xd1, 0xbd, 
	0xbe, 0xda, 0x9a, 0xbe, 0x6c, 0x8f, 0x22, 0x3d, 0x0c, 0x2f, 0x87, 0x3e, 
	0xee, 0xcb, 0x84, 0x3e, 0x05, 0x30, 0xbe, 0x3e, 0x18, 0xac, 0x36, 0x3e, 
	0xca, 0x2c, 0x2f, 0xbe, 0x59, 0xf3, 0x09, 0xbe, 0x39, 0x78, 0xaf, 0x3e, 
	0x52, 0x31, 0x5a, 0xbc, 0x42, 0xa3, 0xbf, 0x3e, 0x1c, 0xe6, 0x86, 0xbd, 
	0x73, 0x8a, 0x8a, 0x3c, 0x27, 0x07, 0xaa, 0xbe, 0xbe, 0xa7, 0xe8, 0x3e, 
	0x7c, 0xe5, 0x82, 0xbd, 0xe5, 0xca, 0xdd, 0x3d, 0x5a, 0xac, 0xa5, 0xbc, 
	0xcd, 0x3d, 0x98, 0x3e, 0xee, 0x83, 0x6d, 0x3e, 0xfa, 0x07, 0xce, 0x3e, 
	0xc6, 0x26, 0xd2, 0x3e, 0xe0, 0x0a, 0xf5, 0x3e, 0x9e, 0xbd, 0x45, 0xbe, 
	0xe6, 0xf0, 0x4a, 0x3e, 0x4c, 0x5a, 0x1b, 0x3e, 0x67, 0xff, 0x0e, 0xbe, 
	0x95, 0xe2, 0x0d, 0xbe, 0x25, 0x4d, 0x3e, 0x3e, 0xc3, 0xee, 0x0e, 0xbe, 
	0x4b, 0xfb, 0xfa, 0x3e, 0x52, 0xe6, 0x51, 0x3e, 0x63, 0xb8, 0xa6, 0xbe, 
	0xb3, 0xc0, 0xb8, 0xbd, 0xf2, 0x79, 0x54, 0x3f, 0x10, 0x34, 0x34, 0xbd, 
	0x9f, 0xd6, 0x99, 0x3d, 0x7d, 0xe7, 0xad, 0x3d, 0x52, 0x4c, 0xa0, 0x3d, 
	0xfc, 0x6f, 0xc8, 0xbd, 0x5e, 0x64, 0xb9, 0x3e, 0xe0, 0x54, 0x44, 0x3c, 
	0xe7, 0x89, 0x63, 0x3e, 0xd6, 0x70, 0x77, 0x3e, 0xc1, 0x5e, 0x29, 0x3e, 
	0xaa, 0xfc, 0x98, 0x3e, 0xe2, 0x76, 0x5d, 0x3e, 0x76, 0xce, 0x9c, 0xbe, 
	0x4c, 0xa9, 0x6b, 0xbe, 0xb2, 0x63, 0x46, 0x3e, 0xe5, 0xb3, 0xa0, 0x3f, 
	0x48, 0xb1, 0xbe, 0x3a, 0xab, 0x4c, 0xe0, 0x3d, 0xba, 0x71, 0xef, 0x3d, 
	0xf2, 0xba, 0xba, 0x3e, 0x76, 0xc6, 0x1b, 0xbc, 0xb9, 0x81, 0x2e, 0x3e, 
	0xa6, 0x2e, 0x83, 0x3e, 0x9a, 0xa8, 0x4f, 0xbc, 0x76, 0xbf, 0x19, 0xbe, 
	0x82, 0x5a, 0xde, 0x3e, 0x2c, 0xee, 0x9a, 0xbe, 0xc1, 0x74, 0xc8, 0x3e, 
	0x64, 0xb5, 0x71, 0xbe, 0x12, 0x2f, 0xc0, 0x3d, 0x09, 0xf1, 0xe8, 0x3e, 
	0x8c, 0x65, 0xb0, 0x3f, 0x79, 0x0e, 0x5f, 0xbe, 0xb2, 0xcc, 0xa5, 0x3e, 
	0xf7, 0x82, 0x35, 0x3e, 0x1c, 0xde, 0x9c, 0x3e, 0xcc, 0x3f, 0x5a, 0x3e, 
	0xd7, 0x9b, 0xa8, 0x3e, 0xd5, 0x89, 0xdc, 0x3d, 0xda, 0x3b, 0x72, 0x3e, 
	0x57, 0x1c, 0x90, 0x3d, 0x0a, 0x96, 0x82, 0xbd, 0xba, 0x04, 0x7a, 0xbe, 
	0x8b, 0xa9, 0x0b, 0x3f, 0x13, 0x3d, 0x93, 0x3e, 0x9e, 0x99, 0x4b, 0x3d, 
	0x1a, 0x1f, 0xf1, 0x3e, 0x97, 0xb5, 0x9c, 0x3e, 0xf3, 0xe4, 0x88, 0x3d, 
	0x0e, 0x4a, 0xa0, 0x3e, 0x63, 0xf2, 0xdc, 0x3e, 0x03, 0xad, 0x68, 0x3d, 
	0xa8, 0xf0, 0x2d, 0xbd, 0x00, 0x8a, 0xac, 0x3e, 0xd3, 0x26, 0xe3, 0x3e, 
	0x22, 0xde, 0x33, 0x3e, 0xeb, 0xb1, 0xa3, 0x3e, 0xc3, 0xb0, 0xf3, 0x3e, 
	0x5a, 0x98, 0x11, 0xbe, 0x0d, 0x3b, 0x3d, 0xbe, 0x09, 0x1c, 0x94, 0x3e, 
	0xa0, 0x4c, 0x93, 0x3c, 0x43, 0xc7, 0x7b, 0x3e, 0x3a, 0xe0, 0xe7, 0x3f, 
	0xc2, 0x48, 0x55, 0xbe, 0xd4, 0x65, 0x85, 0x3e, 0xa3, 0x7d, 0xab, 0x3e, 
	0x29, 0x10, 0x07, 0x3e, 0xa2, 0x3c, 0x73, 0xbe, 0x6e, 0x18, 0x46, 0x3e, 
	0xcf, 0x42, 0x82, 0x3e, 0x06, 0x17, 0x5b, 0x3e, 0x77, 0x28, 0x32, 0x3b, 
	0x60, 0x8a, 0xb6, 0x3e, 0xaf, 0x39, 0x5d, 0x3f, 0x5d, 0x53, 0xe4, 0xbf, 
	0x88, 0x3e, 0x83, 0x3d, 0xf4, 0x5d, 0xcb, 0x3e, 0xb0, 0x2c, 0xb9, 0x3e, 
	0xf4, 0xec, 0xb1, 0x3f, 0xd2, 0xf2, 0x17, 0xbd, 0x35, 0xad, 0xfd, 0xbd, 
	0x19, 0x95, 0x30, 0x3f, 0x6a, 0x1d, 0xd1, 0xbd, 0x9b, 0x9d, 0xa4, 0x3e, 
	0x80, 0x81, 0xb3, 0xbd, 0x3b, 0x6d, 0xda, 0x3e, 0xc0, 0x72, 0x79, 0x3d, 
	0x7a, 0xb1, 0x8d, 0x3d, 0xea, 0x01, 0xae, 0x3e, 0xcd, 0x9c, 0x1b, 0xbe, 
	0xb8, 0x00, 0x11, 0x3f, 0x9c, 0xfb, 0x61, 0xbe, 0xb0, 0x1b, 0x6a, 0x3e, 
	0xc4, 0x1e, 0x68, 0xbd, 0x13, 0x22, 0xb1, 0x3d, 0xdf, 0x28, 0x31, 0x3d, 
	0xd4, 0x5f, 0x1d, 0xbe, 0x9a, 0x51, 0x49, 0xbc, 0xab, 0x4c, 0xaf, 0x3e, 
	0xa4, 0xc0, 0x20, 0x3e, 0x97, 0x20, 0x29, 0xbe, 0xef, 0x6f, 0xa5, 0x3d, 
	0x1b, 0x03, 0x4c, 0x3d, 0x5d, 0xec, 0x07, 0x3e, 0x02, 0xc5, 0xef, 0x3e, 
	0x3a, 0x00, 0x85, 0xbe, 0x72, 0xb0, 0x46, 0xbd, 0xe9, 0x21, 0xa2, 0x3e, 
	0xc6, 0xfa, 0xbe, 0x3e, 0xd9, 0xe1, 0x06, 0x3e, 0x92, 0xd1, 0xfb, 0x3e, 
	0xdf, 0xa6, 0xca, 0x3e, 0x85, 0xfb, 0xcd, 0x3e, 0x41, 0xf2, 0x85, 0x3e, 
	0x99, 0x3b, 0x4c, 0x3c, 0xf3, 0x06, 0x54, 0x3e, 0xfe, 0xb5, 0xc9, 0x3d, 
	0xa5, 0x12, 0xc5, 0xbd, 0x42, 0x4a, 0x06, 0x3f, 0x12, 0x66, 0xe1, 0x3e, 
	0xa4, 0xbd, 0xaf, 0x3c, 0xb6, 0x7e, 0x1c, 0x3e, 0xaf, 0xa9, 0xdf, 0x3e, 
	0x03, 0xe7, 0x9c, 0xbe, 0x76, 0x54, 0x9d, 0x3e, 0xda, 0xb4, 0x9d, 0x3c, 
	0xaa, 0xca, 0x09, 0x3e, 0xcf, 0xb6, 0xc1, 0xbd, 0xce, 0xc0, 0x47, 0x3e, 
	0x0b, 0xab, 0x2b, 0x3e, 0xc0, 0x3e, 0x04, 0xbd, 0xbf, 0xeb, 0x9b, 0xbd, 
	0xa3, 0x79, 0xca, 0x3e, 0x4f, 0xde, 0x1b, 0x3e, 0xbf, 0xc2, 0xf4, 0x3e, 
	0xa1, 0x02, 0xfe, 0x3d, 0x4d, 0x85, 0x65, 0xbd, 0xb2, 0x50, 0x92, 0x3d, 
	0x51, 0x0a, 0x19, 0x3f, 0x50, 0x8f, 0xb2, 0xbd, 0x2b, 0xd5, 0xc5, 0x3e, 
	0x58, 0xf8, 0x4a, 0x3e, 0x64, 0xa6, 0xd3, 0x3d, 0x1a, 0x3e, 0xba, 0x3c, 
	0x43, 0x87, 0x3e, 0x3e, 0x57, 0x23, 0xe8, 0x3e, 0x03, 0xa2, 0xdd, 0x3e, 
	0x2f, 0x2d, 0x13, 0xbe, 0x83, 0x05, 0x46, 0x3d, 0xff, 0x9b, 0x87, 0x3e, 
	0xab, 0x06, 0xd8, 0xbd, 0xa1, 0xc6, 0x4c, 0xbe, 0xf1, 0x2d, 0xca, 0x3e, 
	0xbc, 0x25, 0x9b, 0x3e, 0x4e, 0x4c, 0x8a, 0x3e, 0xd7, 0xee, 0x15, 0xbe, 
	0x11, 0x7c, 0x9a, 0x3e, 0xee, 0x69, 0x03, 0x3f, 0xb9, 0xe3, 0xa0, 0x3d, 
	0xb4, 0x72, 0xf0, 0x3d, 0x37, 0x59, 0xa6, 0x3c, 0x24, 0x0a, 0x8a, 0x3e, 
	0x06, 0xaa, 0x0a, 0x3f, 0x70, 0x6a, 0x96, 0xbe, 0x94, 0x15, 0xc7, 0x3e, 
	0x02, 0x89, 0x6d, 0x3e, 0xd6, 0xf8, 0x10, 0x3e, 0x01, 0xe9, 0x1a, 0x3d, 
	0x48, 0x23, 0xb7, 0x3d, 0xd4, 0xd2, 0x5f, 0x3d, 0x62, 0x55, 0x3d, 0x3e, 
	0x45, 0x3c, 0x11, 0xbe, 0x87, 0xe1, 0xbb, 0x3e, 0x4e, 0xb1, 0x42, 0xbc, 
	0xee, 0x2a, 0x91, 0x3c, 0xd9, 0xb4, 0x0f, 0x3e, 0xd4, 0xa9, 0x4e, 0x3d, 
	0x1c, 0x46, 0xbf, 0x3e, 0x67, 0x92, 0x07, 0xbc, 0xf5, 0xf6, 0xca, 0x3d, 
	0xcd, 0x96, 0xbd, 0xbc, 0x0d, 0xe8, 0x0d, 0x3f, 0x58, 0x0f, 0xc1, 0x3e, 
	0xe4, 0x69, 0x43, 0xbe, 0x03, 0x88, 0x3e, 0x3d, 0x33, 0xff, 0x55, 0xbe, 
	0xcc, 0x77, 0x0e, 0x3f, 0x24, 0x88, 0x35, 0xbe, 0xbe, 0xc2, 0x9c, 0xbd, 
	0x14, 0xa7, 0x89, 0xbc, 0x76, 0xa3, 0xba, 0x3f, 0x5b, 0x5b, 0x89, 0x3d, 
	0xd2, 0x9b, 0xcc, 0x3d, 0xc7, 0x93, 0x85, 0x3e, 0x2c, 0x7e, 0x7d, 0x3e, 
	0xe7, 0x21, 0x8f, 0xbe, 0x8e, 0x3e, 0xc9, 0x3e, 0x1a, 0x45, 0xb7, 0x3e, 
	0x40, 0xb4, 0xab, 0x3e, 0xdd, 0x6b, 0x04, 0xbe, 0xf1, 0xb6, 0x04, 0x3f, 
	0xb5, 0x0c, 0xd1, 0xbd, 0x21, 0xfa, 0x32, 0x3e, 0xa0, 0xe1, 0x5b, 0x3c, 
	0xb2, 0x40, 0xd5, 0x3e, 0xc2, 0xbd, 0x0b, 0x3f, 0xe5, 0x0b, 0x5d, 0x3e, 
	0x02, 0x7b, 0xc2, 0x3e, 0x48, 0x43, 0x2d, 0x3e, 0x92, 0xb0, 0xc8, 0x3e, 
	0x5b, 0x17, 0xd5, 0x3e, 0x45, 0x3e, 0x41, 0x3e, 0xe4, 0xc3, 0x55, 0x3e, 
	0x66, 0xe3, 0x08, 0xbe, 0x5c, 0xbb, 0xd1, 0x3e, 0x11, 0x06, 0x13, 0x3e, 
	0x4b, 0x01, 0x65, 0xbe, 0xd5, 0x59, 0xa5, 0x3e, 0x92, 0x48, 0x54, 0x3e, 
	0xf4, 0x7c, 0xa6, 0x3d, 0x42, 0x7f, 0xc6, 0x3c, 0xcf, 0xea, 0x8e, 0x3e, 
	0x0a, 0xed, 0x57, 0x3d, 0x4b, 0xa7, 0x52, 0x3e, 0x6b, 0x59, 0x1b, 0x3d, 
	0x01, 0xbe, 0xac, 0x3e, 0xbd, 0x2e, 0x13, 0x3e, 0x66, 0xa9, 0xaf, 0x3e, 
	0x98, 0x61, 0x6a, 0x3e, 0x55, 0xda, 0xba, 0x3d, 0x05, 0xa7, 0x61, 0xbb, 
	0x58, 0x77, 0x98, 0x3e, 0xc5, 0x8c, 0xcd, 0x3e, 0x55, 0x2f, 0x8f, 0xbc, 
	0x13, 0x8a, 0x3f, 0xbd, 0x50, 0xeb, 0x8f, 0xbd, 0xb2, 0x34, 0x7f, 0x3e, 
	0xd0, 0xe8, 0x20, 0xbe, 0x16, 0x24, 0xb4, 0x3f, 0x0d, 0x43, 0x00, 0xbe, 
	0x08, 0x68, 0x5f, 0x3b, 0xc3, 0xf8, 0x05, 0xbe, 0xcc, 0xc8, 0x68, 0xbd, 
	0x28, 0x3b, 0x47, 0xbe, 0x10, 0x71, 0x89, 0x3d, 0x67, 0xbc, 0x0b, 0xbe, 
	0x16, 0x78, 0xd8, 0x3e, 0x17, 0xf6, 0x68, 0xbe, 0x78, 0x86, 0x68, 0x3e, 
	0xc5, 0x92, 0xc5, 0x3d, 0x5a, 0x1f, 0xfb, 0x3e, 0x34, 0x0b, 0x07, 0xbe, 
	0x2d, 0x1b, 0x81, 0xbe, 0xb8, 0x05, 0x0b, 0x3f, 0xa2, 0x52, 0x05, 0x3f, 
	0x24, 0x0e, 0xa8, 0x3e, 0x3d, 0xe0, 0xe9, 0x3e, 0x50, 0x8e, 0x04, 0x3e, 
	0xd8, 0x26, 0xfe, 0x3d, 0x93, 0xa1, 0x79, 0xbd, 0x73, 0x64, 0x6d, 0x3e, 
	0x07, 0x85, 0x32, 0x3d, 0xbd, 0x27, 0xe8, 0x3e, 0xf4, 0x34, 0x4b, 0xbe, 
	0x5a, 0xcd, 0x1a, 0x3e, 0x1c, 0x1e, 0x90, 0x3d, 0x7f, 0x47, 0xa3, 0x3d, 
	0x70, 0x94, 0xa6, 0xbe, 0xe7, 0xd7, 0x39, 0xbd, 0x0c, 0x5a, 0xcf, 0xbd, 
	0x2e, 0xaf, 0x06, 0x3f, 0x5c, 0x94, 0x2d, 0x3d, 0xec, 0x0c, 0xd6, 0xbc, 
	0x8f, 0xf5, 0x19, 0x3e, 0x57, 0x77, 0x94, 0x3e, 0x5d, 0x4d, 0xbf, 0x3b, 
	0xa2, 0xff, 0x2b, 0xbe, 0xb3, 0x28, 0x1c, 0xbd, 0x2a, 0x7e, 0x16, 0x3e, 
	0xfc, 0x91, 0x08, 0x3d, 0x07, 0x5f, 0x45, 0x3e, 0xca, 0xc0, 0xb6, 0x3e, 
	0x95, 0x07, 0xd9, 0x3e, 0xd0, 0x0e, 0x0f, 0xbd, 0x9d, 0x21, 0x04, 0xbe, 
	0x73, 0x49, 0x08, 0x3f, 0xd3, 0x6d, 0xd5, 0x3e, 0x95, 0x8f, 0xce, 0x3d, 
	0x63, 0xf5, 0x0c, 0x3c, 0xc6, 0x37, 0x8c, 0x3c, 0x25, 0x69, 0x97, 0xbc, 
	0xcc, 0xb4, 0x2e, 0x3d, 0x29, 0x7c, 0x65, 0x3e, 0x7e, 0x23, 0x00, 0x3f, 
	0x9a, 0xfa, 0x98, 0x3e, 0xcc, 0xa7, 0x0b, 0xbe, 0x5a, 0x5f, 0x99, 0x3a, 
	0x73, 0x92, 0x96, 0x3b, 0x0d, 0xe7, 0xb7, 0x3e, 0xe8, 0xf3, 0xa2, 0xbe, 
	0xcb, 0xfa, 0x19, 0x3e, 0xff, 0xa2, 0x9f, 0x3d, 0xbd, 0x9a, 0xc2, 0x3f, 
	0xea, 0xae, 0x85, 0xbe, 0x72, 0xfe, 0x63, 0x3e, 0x9a, 0xf0, 0x0c, 0x3e, 
	0xb6, 0xbc, 0x37, 0x3f, 0x36, 0x62, 0x72, 0x3e, 0xb3, 0x0e, 0x9b, 0xbe, 
	0x4c, 0xe9, 0xc6, 0xbc, 0x9b, 0x02, 0x07, 0x3e, 0xb2, 0x1f, 0x95, 0x3e, 
	0x56, 0x35, 0x16, 0x3d, 0xa9, 0x8c, 0x98, 0xbe, 0x1f, 0x43, 0xfd, 0x3e, 
	0x0e, 0xec, 0x3f, 0xbe, 0xf8, 0x41, 0x4c, 0x3e, 0x56, 0x7d, 0x8b, 0x3e, 
	0xaa, 0x62, 0x45, 0x3f, 0x3f, 0xc4, 0x76, 0xbe, 0x40, 0xd5, 0xae, 0x3e, 
	0x84, 0x7b, 0x5e, 0x3e, 0x89, 0x43, 0xff, 0x3e, 0x60, 0x76, 0x2a, 0x3e, 
	0xbf, 0xab, 0xa9, 0x3e, 0x68, 0x49, 0x74, 0x3e, 0x30, 0xea, 0x01, 0x3f, 
	0x66, 0xe6, 0x8c, 0x3e, 0x70, 0x86, 0x74, 0x3e, 0xa0, 0x7a, 0x8e, 0x3e, 
	0xdb, 0x7a, 0xfc, 0xbc, 0x1b, 0x32, 0x9e, 0xbe, 0x98, 0x32, 0x55, 0xbd, 
	0x22, 0xd3, 0xee, 0xbd, 0x82, 0x1c, 0x77, 0x3e, 0xbe, 0xfc, 0xc1, 0x3c, 
	0x8c, 0xe3, 0x2d, 0x3e, 0x66, 0x59, 0x43, 0x3e, 0x42, 0x24, 0xea, 0x3d, 
	0xdf, 0x33, 0x84, 0xbe, 0xab, 0xac, 0x3b, 0xbd, 0xcb, 0x51, 0x3a, 0x3e, 
	0x2d, 0x4c, 0xd0, 0x3d, 0xd7, 0x5f, 0xcb, 0x3e, 0xbc, 0xa8, 0xd0, 0x3e, 
	0x34, 0x39, 0x58, 0x3e, 0x4b, 0x11, 0x1f, 0x3f, 0x03, 0x15, 0x90, 0x3e, 
	0xfb, 0x0c, 0x60, 0x3e, 0x09, 0xb2, 0xb2, 0x3d, 0xdc, 0x51, 0xd6, 0x3e, 
	0xfb, 0x41, 0x85, 0xbd, 0xdf, 0x2c, 0x0a, 0x3f, 0x81, 0xe7, 0xe8, 0xbd, 
	0x12, 0x05, 0x9e, 0x3e, 0x90, 0x3d, 0x7c, 0xbe, 0x58, 0x38, 0x0c, 0x3f, 
	0x3d, 0x4c, 0x47, 0x3e, 0x46, 0x1e, 0xa3, 0x3e, 0x10, 0xaf, 0xec, 0x3c, 
	0xa3, 0x63, 0xf1, 0x3d, 0xf9, 0x77, 0x4d, 0x3e, 0x49, 0x7d, 0x93, 0x3e, 
	0x7a, 0x71, 0x71, 0x3e, 0x36, 0x09, 0xb8, 0x3e, 0xbe, 0xe9, 0x05, 0x3f, 
	0xd3, 0x54, 0xfd, 0x3d, 0x94, 0x26, 0xd3, 0x3e, 0x65, 0xef, 0xfb, 0x3e, 
	0xe7, 0xde, 0xbc, 0x3d, 0x7f, 0xac, 0x54, 0x3e, 0x30, 0x26, 0xb6, 0xbd, 
	0xaa, 0xa3, 0xe6, 0x3c, 0x7a, 0x98, 0xaf, 0xbc, 0xef, 0x92, 0xba, 0x3d, 
	0xf3, 0xf8, 0xda, 0x3e, 0xbc, 0xde, 0xf1, 0xbe, 0xca, 0xb2, 0xcd, 0xbe, 
	0xba, 0xfa, 0x95, 0xbe, 0x80, 0xad, 0x67, 0x3b, 0xf6, 0xaa, 0xbc, 0xbe, 
	0xee, 0x1a, 0x9d, 0xbf, 0x3f, 0xf0, 0xbf, 0xbe, 0x74, 0xb6, 0x58, 0x3e, 
	0x55, 0x81, 0x31, 0xbf, 0x52, 0x15, 0x5f, 0xbf, 0xb4, 0xa7, 0x6f, 0xbf, 
	0x60, 0x53, 0xac, 0x3d, 0x8e, 0x48, 0xb0, 0xbf, 0xa5, 0xb8, 0xbc, 0xbf, 
	0x6a, 0x7a, 0x4e, 0xbf, 0x00, 0x50, 0xbb, 0x3e, 0x6a, 0xf0, 0xff, 0xff, 
	0x10, 0x00, 0x00, 0x00, 0x07, 0x00, 0x00, 0x00, 0x14, 0x00, 0x00, 0x00, 
	0x30, 0x00, 0x00, 0x00, 0x02, 0x00, 0x00, 0x00, 0x20, 0x00, 0x00, 0x00, 
	0x10, 0x00, 0x00, 0x00, 0x18, 0x00, 0x00, 0x00, 0x6d, 0x6f, 0x64, 0x65, 
	0x6c, 0x5f, 0x31, 0x35, 0x2f, 0x64, 0x65, 0x6e, 0x73, 0x65, 0x5f, 0x31, 
	0x39, 0x2f, 0x4d, 0x61, 0x74, 0x4d, 0x75, 0x6c, 0x00, 0x00, 0x00, 0x00, 
	0x68, 0xf0, 0xff, 0xff, 0x56, 0xf1, 0xff, 0xff, 0x04, 0x00, 0x00, 0x00, 
	0x80, 0x0c, 0x00, 0x00, 0x1f, 0xaf, 0xdd, 0x3e, 0x5d, 0x0a, 0x99, 0x3e, 
	0xf3, 0x94, 0xc5, 0xbd, 0x53, 0xc6, 0xb6, 0x3e, 0x7b, 0x7b, 0xbe, 0xbe, 
	0x38, 0x0b, 0xbe, 0x3d, 0x9e, 0xa5, 0x8d, 0x3e, 0xd4, 0x29, 0x3c, 0xbd, 
	0xc6, 0xd1, 0x0a, 0x3e, 0x34, 0xcc, 0x28, 0xbe, 0x96, 0xa5, 0x16, 0x3b, 
	0xa0, 0x7d, 0x83, 0x3e, 0xd4, 0xe4, 0x42, 0xbd, 0x92, 0x83, 0xf0, 0xbd, 
	0x0d, 0xca, 0xd4, 0xbc, 0x4a, 0x35, 0x3a, 0x3e, 0x08, 0x64, 0x74, 0x3e, 
	0x5f, 0x06, 0x65, 0x3d, 0x21, 0xf2, 0x9d, 0x3e, 0x18, 0x18, 0x82, 0xbe, 
	0x51, 0xce, 0xa4, 0xbd, 0x69, 0x9d, 0x85, 0xbd, 0x11, 0xa5, 0x26, 0x3e, 
	0xa8, 0x56, 0x15, 0xbd, 0x60, 0xb5, 0xaf, 0x3d, 0x29, 0x2c, 0x90, 0x3c, 
	0x71, 0x46, 0x5d, 0x3e, 0x2c, 0x1a, 0x35, 0x3d, 0x50, 0x8b, 0x63, 0xbe, 
	0x2f, 0xae, 0x25, 0xbe, 0x77, 0x72, 0x91, 0xbe, 0x94, 0x1a, 0x43, 0x3d, 
	0x6a, 0xaa, 0x9e, 0xbe, 0x74, 0x42, 0x9b, 0x3b, 0xbb, 0x91, 0xfd, 0xbe, 
	0xcc, 0x2c, 0xd0, 0xbd, 0xc1, 0x2e, 0x84, 0xbd, 0xe3, 0x39, 0x84, 0x3d, 
	0xa0, 0x73, 0x06, 0x3e, 0x1a, 0x5a, 0xe8, 0xbe, 0x17, 0xca, 0x6c, 0x3d, 
	0x8d, 0x5b, 0x96, 0x3d, 0x44, 0xf9, 0x2c, 0xbe, 0xdc, 0x4f, 0x84, 0x3e, 
	0x18, 0x40, 0xa1, 0xbe, 0x7f, 0xc8, 0x07, 0xbe, 0x65, 0xf6, 0x8e, 0xbd, 
	0x35, 0xf6, 0xb6, 0xbe, 0xf6, 0x93, 0x5e, 0x3c, 0x08, 0x2a, 0x23, 0xbe, 
	0x2d, 0xe3, 0xd5, 0x3e, 0x9c, 0x92, 0x33, 0x3d, 0x2a, 0xbb, 0x65, 0x3e, 
	0x15, 0x96, 0x8d, 0xbd, 0xeb, 0x7a, 0x5d, 0x3d, 0x31, 0xe1, 0x67, 0x3e, 
	0xc3, 0xd3, 0x9f, 0x3e, 0x22, 0xfc, 0x00, 0x3e, 0xf3, 0x82, 0xf4, 0x3e, 
	0xd9, 0xb5, 0x93, 0xbe, 0xfe, 0x28, 0xb6, 0x3d, 0xf9, 0x5d, 0x4c, 0x3e, 
	0xb0, 0xee, 0x71, 0xbe, 0x63, 0x45, 0xb3, 0xbc, 0x10, 0xaf, 0x9c, 0x3d, 
	0x62, 0x60, 0x69, 0x3e, 0x59, 0x7a, 0x9c, 0xbd, 0xa5, 0x9e, 0x18, 0xbe, 
	0xc4, 0x53, 0xa4, 0x3e, 0x7f, 0xbe, 0x3a, 0xbe, 0x63, 0x4c, 0x13, 0x3c, 
	0xc3, 0x1f, 0xd1, 0x3d, 0x0f, 0xf3, 0xb6, 0xbe, 0x03, 0x2d, 0x25, 0x3e, 
	0x02, 0xb8, 0x06, 0xbe, 0xce, 0x6b, 0x07, 0xbe, 0xff, 0x9b, 0x81, 0x3e, 
	0x97, 0xb8, 0xcc, 0xbe, 0xc8, 0x44, 0x82, 0x3e, 0xea, 0x19, 0xd7, 0xbe, 
	0x17, 0xfe, 0x40, 0x3d, 0x35, 0xbc, 0xa0, 0x3d, 0x28, 0x71, 0xd4, 0xbe, 
	0x26, 0x2b, 0xb9, 0x3e, 0x33, 0x44, 0x31, 0xbd, 0x7a, 0x64, 0x14, 0x3e, 
	0x8b, 0xe7, 0x96, 0xbe, 0x31, 0x36, 0xe3, 0xbe, 0xf3, 0x49, 0xec, 0x3d, 
	0x06, 0xb2, 0xcd, 0xbe, 0x79, 0xe7, 0x5f, 0xbe, 0xde, 0x20, 0x99, 0xbe, 
	0x78, 0x5e, 0xc4, 0xbd, 0xbe, 0xed, 0x37, 0x3e, 0xe0, 0x2f, 0xae, 0xbe, 
	0xd2, 0xe8, 0x2a, 0xbe, 0x3b, 0x07, 0x38, 0xbe, 0xa3, 0x97, 0x33, 0xbe, 
	0xeb, 0xc0, 0xcb, 0x3d, 0x14, 0x7b, 0x99, 0xbe, 0x61, 0x5f, 0x31, 0x3e, 
	0x8c, 0x53, 0xc9, 0x3e, 0xf3, 0xa9, 0x05, 0xbd, 0xff, 0x4f, 0x98, 0x3e, 
	0x59, 0x5e, 0x9d, 0x3c, 0x6c, 0xcd, 0xda, 0x3d, 0xdc, 0x2a, 0xb6, 0x3e, 
	0x9e, 0x94, 0xf0, 0xbd, 0xfa, 0x80, 0x14, 0x3e, 0x60, 0x22, 0xdf, 0xbe, 
	0xba, 0xe5, 0xb1, 0x3e, 0x78, 0xc4, 0x6e, 0x3e, 0x1a, 0xff, 0x92, 0xbe, 
	0xc3, 0xeb, 0xb7, 0x3e, 0xc5, 0x84, 0xda, 0xbe, 0x13, 0x4d, 0x4f, 0x3e, 
	0xd6, 0x71, 0xcb, 0x3d, 0xe3, 0x24, 0x85, 0xbe, 0xe6, 0xfe, 0xf3, 0x3e, 
	0x3c, 0xbf, 0x79, 0xbe, 0x93, 0xf3, 0x9d, 0x3d, 0xb2, 0x3c, 0x1e, 0xbc, 
	0x3f, 0x5c, 0xa3, 0xbe, 0xb4, 0xa6, 0x28, 0x3d, 0x83, 0x7f, 0x06, 0xbf, 
	0x48, 0x7a, 0x04, 0xbe, 0x42, 0xf0, 0xb1, 0x3d, 0x74, 0xe3, 0x33, 0xbe, 
	0xb7, 0x91, 0x3f, 0xbd, 0xba, 0xb8, 0x12, 0xbf, 0xb3, 0x36, 0x1d, 0xbe, 
	0x54, 0x87, 0xcf, 0x3d, 0x04, 0x8d, 0x8c, 0xbe, 0x2d, 0xfc, 0xbf, 0x3e, 
	0xb8, 0x90, 0xb2, 0xbe, 0xb6, 0x56, 0xbf, 0xbd, 0x78, 0x71, 0xa0, 0xbd, 
	0x83, 0x08, 0xea, 0xbe, 0x13, 0x7c, 0xf1, 0x3e, 0x71, 0x0a, 0x0f, 0xbe, 
	0xc4, 0x0f, 0x86, 0xbe, 0x38, 0xfd, 0x13, 0x3e, 0x51, 0x98, 0x9a, 0xbe, 
	0x63, 0x74, 0x51, 0x3e, 0xb4, 0xe1, 0x88, 0xbe, 0xc6, 0x89, 0x62, 0xbd, 
	0xfd, 0x4c, 0x13, 0x3d, 0xf8, 0x6f, 0xed, 0xbd, 0xac, 0x2e, 0x82, 0x3e, 
	0x15, 0xb1, 0xb2, 0xbe, 0xb2, 0x95, 0x31, 0x3e, 0x29, 0x9c, 0x83, 0xbe, 
	0x7e, 0x93, 0xd8, 0xbd, 0x6f, 0xcf, 0x28, 0xbe, 0x18, 0xbe, 0x8b, 0xbd, 
	0x5a, 0x49, 0x88, 0x3e, 0x52, 0x99, 0x5d, 0xbe, 0x80, 0xca, 0xe4, 0x3b, 
	0x08, 0x5d, 0x75, 0x3d, 0xe6, 0x01, 0xec, 0xbd, 0xd9, 0xe2, 0x97, 0xbe, 
	0x20, 0x84, 0x5c, 0x3e, 0x8b, 0x3a, 0x90, 0xbe, 0xa0, 0x80, 0x7d, 0xbd, 
	0x38, 0x21, 0x99, 0x3d, 0x4e, 0xc1, 0xa1, 0xbd, 0x4c, 0xe0, 0x5e, 0x3e, 
	0x11, 0x05, 0x93, 0xbe, 0xca, 0xb8, 0x85, 0xbe, 0x67, 0x7b, 0x00, 0xbe, 
	0xfc, 0xf0, 0x8f, 0x3d, 0x46, 0xb2, 0x97, 0xbe, 0xd8, 0xbb, 0xdf, 0x3d, 
	0x0d, 0xbf, 0x2f, 0xbe, 0xec, 0xcc, 0x9e, 0x3d, 0xa0, 0x32, 0x2b, 0x3d, 
	0xbc, 0x4c, 0xeb, 0x3d, 0x92, 0xcf, 0x8e, 0x3e, 0x28, 0x3a, 0x67, 0xbe, 
	0xa4, 0x04, 0xc2, 0x3d, 0x68, 0x50, 0x6a, 0xbd, 0xac, 0x82, 0x10, 0x3e, 
	0x60, 0xf3, 0x5e, 0x3e, 0x38, 0x6b, 0x4e, 0xbe, 0x6e, 0xb2, 0xa7, 0xbd, 
	0x50, 0xac, 0x98, 0xbe, 0xdb, 0x6e, 0x28, 0xbe, 0x48, 0x3c, 0x61, 0x3e, 
	0xe8, 0x46, 0x2b, 0xbd, 0x41, 0xfa, 0x35, 0xbe, 0xe2, 0x83, 0x8e, 0xbe, 
	0x29, 0x02, 0x58, 0xbe, 0x80, 0xec, 0x8d, 0x3e, 0x96, 0x47, 0x6d, 0xbe, 
	0x40, 0x62, 0x73, 0x3e, 0x80, 0xb7, 0x7d, 0xbd, 0xbe, 0x92, 0x0f, 0xbe, 
	0x6c, 0x76, 0xcd, 0x3d, 0xb0, 0xf2, 0xb4, 0xbc, 0x6c, 0x84, 0x88, 0x3e, 
	0x90, 0x98, 0xf7, 0x3d, 0xa5, 0x27, 0xe9, 0x3e, 0x14, 0x36, 0x41, 0xbe, 
	0x45, 0x51, 0x94, 0x3e, 0x1c, 0x75, 0x5a, 0x3d, 0x60, 0x09, 0xd7, 0x3e, 
	0xcb, 0xf7, 0x09, 0x3d, 0xf0, 0x5e, 0x40, 0xbc, 0x40, 0x32, 0x37, 0x3d, 
	0x5e, 0x97, 0x29, 0xbe, 0x17, 0x6e, 0xc9, 0x3d, 0x92, 0x75, 0x62, 0x3e, 
	0x31, 0x87, 0x08, 0xbe, 0x37, 0x11, 0xc4, 0x3e, 0x6d, 0xd8, 0x51, 0xbe, 
	0x96, 0xbe, 0x2b, 0xbe, 0x18, 0xdc, 0xe4, 0xbd, 0xb4, 0x49, 0x7a, 0xbe, 
	0xbe, 0xca, 0x54, 0x3e, 0x12, 0x40, 0x0e, 0xbe, 0x5d, 0xd8, 0xe7, 0x3d, 
	0x10, 0xff, 0x0f, 0x3e, 0x95, 0xec, 0x96, 0xbe, 0xdb, 0x61, 0x0c, 0x3e, 
	0xdb, 0x94, 0x95, 0xbe, 0x7a, 0x4a, 0x87, 0x3d, 0xeb, 0x94, 0x35, 0xbe, 
	0xdf, 0xd2, 0x71, 0xbe, 0xb6, 0x10, 0xac, 0x3e, 0x26, 0x76, 0xcb, 0xbd, 
	0x26, 0xb8, 0xac, 0x3b, 0xbe, 0x18, 0x8e, 0xbc, 0xc3, 0xb2, 0x94, 0x3d, 
	0xe0, 0x3c, 0x18, 0xbe, 0x35, 0x82, 0x2e, 0xbe, 0x38, 0xe9, 0x38, 0xbe, 
	0x8b, 0xed, 0xd7, 0xba, 0x27, 0x3f, 0x1f, 0xbe, 0x0a, 0x1c, 0x5e, 0x3e, 
	0xcb, 0x1c, 0x57, 0xbe, 0xd5, 0x37, 0x17, 0xbe, 0xc1, 0x0d, 0xe8, 0xbd, 
	0x92, 0xcf, 0x88, 0xbd, 0x84, 0xb2, 0xf0, 0xbc, 0x6a, 0x8a, 0xe0, 0xbd, 
	0x22, 0x3f, 0xac, 0xbe, 0x28, 0x5b, 0x9a, 0xbd, 0x91, 0x34, 0xc4, 0xbe, 
	0x62, 0x0d, 0xfc, 0x3d, 0xaa, 0x4f, 0x78, 0xbe, 0xf7, 0x69, 0x82, 0x3e, 
	0x14, 0xf3, 0x18, 0x3e, 0x07, 0x93, 0x66, 0xbd, 0x3e, 0x8e, 0xc4, 0x3e, 
	0x3c, 0xa5, 0x19, 0x3d, 0x48, 0xa8, 0x2b, 0x3e, 0xbb, 0xc4, 0x04, 0x3f, 
	0x69, 0x33, 0x85, 0xbe, 0xf8, 0x7d, 0x05, 0xbd, 0xd5, 0x6a, 0x94, 0xbc, 
	0x3c, 0x08, 0xe0, 0x3e, 0x64, 0x0f, 0x5e, 0x3e, 0x3f, 0xc0, 0x95, 0xbe, 
	0x45, 0x26, 0x5e, 0x3e, 0x06, 0xa6, 0x8c, 0xbe, 0x59, 0xc2, 0xb8, 0xbd, 
	0x55, 0x0b, 0x3a, 0x3d, 0x58, 0x01, 0x29, 0xbe, 0x13, 0x7e, 0x8f, 0x3e, 
	0xf3, 0x32, 0x28, 0xbe, 0xdb, 0xee, 0x58, 0x3d, 0xbc, 0x84, 0xfc, 0x3d, 
	0x97, 0x99, 0x30, 0xbe, 0x86, 0xfa, 0x9c, 0x3c, 0x99, 0x7f, 0xa8, 0xbe, 
	0xe2, 0xad, 0xe4, 0xbc, 0x83, 0xdc, 0x84, 0x3e, 0x08, 0x38, 0xc7, 0xbe, 
	0x4a, 0x4f, 0xa0, 0x3e, 0xc2, 0xcf, 0x23, 0xbe, 0x5d, 0x83, 0x0f, 0xbe, 
	0x60, 0x6c, 0xa1, 0x3e, 0x06, 0x6f, 0x74, 0xbe, 0x1d, 0x64, 0x76, 0x3e, 
	0x35, 0xf1, 0xc7, 0xbe, 0x46, 0xfb, 0x00, 0xbe, 0x8a, 0x54, 0xa1, 0xbd, 
	0xc2, 0x7a, 0xd0, 0xbe, 0x0c, 0xcf, 0xea, 0x3d, 0x67, 0x23, 0x95, 0xbe, 
	0x1a, 0x3e, 0x7e, 0x3d, 0x26, 0x20, 0x54, 0x3e, 0x2d, 0x17, 0x20, 0xbe, 
	0xa9, 0xa3, 0x23, 0xbe, 0x95, 0x10, 0xf7, 0xbe, 0x49, 0x6a, 0x00, 0x3e, 
	0x9e, 0x30, 0x1c, 0xbe, 0xd9, 0xd1, 0xec, 0xbe, 0x28, 0x24, 0x6d, 0xbd, 
	0xb3, 0xe7, 0x1c, 0xbf, 0xd9, 0x00, 0x4a, 0xbd, 0x51, 0x96, 0x97, 0x3e, 
	0x56, 0xe4, 0x6b, 0x3b, 0xe6, 0x14, 0xe9, 0xbe, 0xf3, 0xc1, 0x21, 0x3d, 
	0xd5, 0x1e, 0xe7, 0xbc, 0x92, 0x37, 0x49, 0x3b, 0x4a, 0xee, 0x1c, 0xbe, 
	0x3e, 0x61, 0x64, 0xbe, 0x8f, 0xe1, 0x0e, 0xbe, 0x9e, 0x08, 0x8e, 0x3e, 
	0x2e, 0x18, 0x27, 0x3e, 0x1d, 0x1b, 0xcc, 0x3c, 0x4a, 0x98, 0xd4, 0xbd, 
	0xea, 0x76, 0x79, 0xbe, 0xc8, 0xbe, 0x25, 0xbd, 0x5d, 0xb7, 0x36, 0x3e, 
	0x5e, 0xeb, 0xa7, 0x3d, 0x26, 0xb9, 0x35, 0xbe, 0x78, 0x3d, 0xc9, 0x3c, 
	0xd8, 0x3a, 0x93, 0x3d, 0x23, 0xa4, 0x10, 0xbe, 0x2c, 0x30, 0x73, 0x3d, 
	0x8a, 0x18, 0x04, 0xbd, 0xef, 0x99, 0xcc, 0xbd, 0xad, 0xbc, 0x9e, 0xbd, 
	0x33, 0x18, 0xfa, 0xbd, 0x60, 0x08, 0x8e, 0x3d, 0x98, 0x3f, 0xc6, 0x3e, 
	0x5b, 0xce, 0x7f, 0xbd, 0xe2, 0xd1, 0xc4, 0xbd, 0x8c, 0xb8, 0x91, 0xbc, 
	0xa8, 0xc6, 0x14, 0xbd, 0x0e, 0x29, 0xec, 0x3e, 0xc9, 0x6a, 0xf4, 0xbc, 
	0x65, 0x1d, 0xa5, 0x3d, 0x0c, 0x25, 0x65, 0x3e, 0x77, 0xf8, 0xfb, 0xbd, 
	0xb9, 0x88, 0xb9, 0xbe, 0x5a, 0xb2, 0xe3, 0x3d, 0x60, 0x43, 0x81, 0xbe, 
	0xfb, 0x68, 0x15, 0xbe, 0x87, 0x1f, 0xa1, 0xbd, 0x1b, 0xdf, 0x8f, 0xbd, 
	0x18, 0xed, 0xc0, 0x3d, 0xeb, 0xaf, 0x6b, 0xbe, 0xb2, 0x7d, 0x8d, 0x3d, 
	0x1c, 0x02, 0xa0, 0x3c, 0x48, 0x4e, 0xf1, 0x3e, 0x52, 0x0a, 0x02, 0xbd, 
	0x58, 0x03, 0xa6, 0x3d, 0xd4, 0x82, 0x42, 0x3e, 0xa4, 0xce, 0x41, 0x3e, 
	0x5f, 0xd1, 0xff, 0x3c, 0x84, 0x22, 0x31, 0x3d, 0x39, 0xa1, 0xb8, 0x3e, 
	0x07, 0x6e, 0x0e, 0xbe, 0x90, 0x7b, 0x29, 0x3e, 0xe3, 0xca, 0xe7, 0x3d, 
	0x95, 0xc6, 0xd4, 0x3d, 0xdc, 0x6a, 0x80, 0x3d, 0xde, 0xee, 0x60, 0xbe, 
	0xc7, 0xe0, 0x86, 0x3d, 0xce, 0x05, 0xab, 0x3e, 0x2a, 0x02, 0x1c, 0x3e, 
	0x4b, 0x9f, 0x5a, 0x3e, 0x19, 0x5a, 0x25, 0x3e, 0xd2, 0x8e, 0x56, 0x3e, 
	0x13, 0x4c, 0x7b, 0x3d, 0xd8, 0x0e, 0x81, 0xbe, 0xe2, 0xbd, 0xfd, 0xbd, 
	0x27, 0xa7, 0x84, 0xbd, 0x35, 0x4c, 0x49, 0x3d, 0xb1, 0xdb, 0x36, 0x3e, 
	0x06, 0xbf, 0x99, 0x3c, 0x0a, 0x47, 0x6c, 0x3e, 0xc3, 0xb4, 0x67, 0xbe, 
	0xc2, 0xe0, 0xff, 0xbd, 0x74, 0x0a, 0xcb, 0x3d, 0xfe, 0x9c, 0x63, 0x3e, 
	0x8d, 0xba, 0xad, 0xbd, 0x74, 0xa0, 0x8e, 0x3e, 0x9a, 0xa5, 0xa5, 0xbe, 
	0x28, 0xbe, 0x74, 0x3e, 0xb8, 0xbd, 0xe8, 0x3d, 0xc5, 0x0c, 0x45, 0x3e, 
	0x2d, 0x04, 0xe7, 0x3d, 0x14, 0x73, 0x3a, 0x3e, 0x3c, 0x90, 0x6e, 0x3e, 
	0x9c, 0x56, 0xa3, 0xbe, 0x2d, 0x94, 0x26, 0x3c, 0x23, 0xb9, 0x8f, 0x3d, 
	0x55, 0x01, 0x84, 0x3d, 0x4a, 0x67, 0x9f, 0x3c, 0xbe, 0xa4, 0xdf, 0xbd, 
	0xb8, 0x10, 0x3b, 0xbe, 0x80, 0xd9, 0x41, 0x3e, 0x15, 0x25, 0x9e, 0xbe, 
	0x38, 0x76, 0x4a, 0x3e, 0x1d, 0x0c, 0xc4, 0x3c, 0xdc, 0xa4, 0x40, 0x3d, 
	0x74, 0x71, 0x98, 0x3e, 0x7c, 0x72, 0xb3, 0xbd, 0xdb, 0xd2, 0xbf, 0x3e, 
	0x8a, 0x39, 0x58, 0xbe, 0x29, 0x57, 0xee, 0x3d, 0x7f, 0x4f, 0xba, 0x3e, 
	0x08, 0x78, 0x94, 0x3d, 0xc3, 0x5f, 0x16, 0x3e, 0xf0, 0x78, 0x4c, 0xbd, 
	0x9a, 0xbc, 0x5a, 0x3e, 0xcf, 0x5b, 0x9f, 0x3e, 0xae, 0xe4, 0x14, 0x3e, 
	0x50, 0x46, 0x18, 0x3e, 0x50, 0xb6, 0x1a, 0x3c, 0x07, 0x18, 0x77, 0x3c, 
	0xdd, 0x0a, 0xd6, 0x3e, 0x61, 0xd5, 0xd6, 0xbe, 0xb3, 0x1f, 0xf5, 0x3c, 
	0x81, 0x3e, 0x45, 0x3b, 0x27, 0x63, 0x23, 0xbe, 0x1e, 0xc4, 0x25, 0x3e, 
	0xfc, 0x46, 0x01, 0xbd, 0x57, 0xa3, 0x6e, 0x3e, 0xc1, 0x26, 0xf7, 0xbe, 
	0xaf, 0x18, 0x13, 0x3e, 0x53, 0xc1, 0x43, 0xbe, 0x3e, 0xb5, 0xc5, 0xbd, 
	0x9a, 0x3b, 0x81, 0xbc, 0x66, 0x4a, 0x07, 0xbe, 0x18, 0x5c, 0x43, 0xbe, 
	0x85, 0x36, 0x84, 0xbb, 0x92, 0x96, 0xde, 0xbe, 0xbb, 0x3a, 0x14, 0xbe, 
	0xd3, 0xf3, 0xd2, 0xbe, 0x99, 0x40, 0x28, 0xbe, 0xae, 0x0b, 0x57, 0x3e, 
	0x29, 0x39, 0x21, 0xbe, 0x75, 0xd1, 0xe2, 0x3e, 0xd1, 0x95, 0x78, 0xbe, 
	0xd4, 0x62, 0x4f, 0xbd, 0xc3, 0x2a, 0x22, 0x3d, 0x3c, 0xcc, 0xb2, 0xbe, 
	0x9f, 0x71, 0xef, 0xbd, 0xd7, 0x50, 0x14, 0xbf, 0x9c, 0xad, 0x6f, 0x3d, 
	0x40, 0x8e, 0x9c, 0xbd, 0x9a, 0x2d, 0xa7, 0xbe, 0x81, 0x16, 0x8a, 0x3e, 
	0x77, 0x7f, 0x12, 0xbf, 0xb7, 0xb1, 0xae, 0x3e, 0x9a, 0x18, 0x1d, 0x3e, 
	0x5c, 0x03, 0x4d, 0xbe, 0x2d, 0x16, 0x1d, 0x3e, 0x08, 0x72, 0x44, 0xbe, 
	0xb3, 0xee, 0xea, 0x3e, 0x07, 0x1a, 0xce, 0xbb, 0xd9, 0x33, 0x5a, 0xbe, 
	0xca, 0xfe, 0x98, 0x3e, 0x5a, 0x44, 0xa7, 0xbe, 0x6b, 0x77, 0x17, 0xbd, 
	0xd3, 0x86, 0x7f, 0x3e, 0x30, 0x52, 0x4d, 0xbc, 0x23, 0x84, 0x30, 0x3e, 
	0x03, 0xb0, 0x82, 0x3d, 0x1a, 0xcd, 0xb1, 0x3e, 0x43, 0x7b, 0xc4, 0xbc, 
	0x1b, 0x39, 0xc6, 0x3b, 0xf5, 0x42, 0x40, 0xbe, 0x13, 0x43, 0x1a, 0x3d, 
	0x65, 0xef, 0xb6, 0x3d, 0xad, 0x62, 0x54, 0x3e, 0x9f, 0xb5, 0xb8, 0xbe, 
	0x19, 0x9b, 0xb2, 0x3e, 0x12, 0x8f, 0xc9, 0xbe, 0x87, 0xe5, 0xd4, 0xbc, 
	0x9d, 0xe6, 0x36, 0x3e, 0x40, 0x18, 0x88, 0xbe, 0x5b, 0xd4, 0x57, 0x3e, 
	0x72, 0x35, 0x5d, 0xbe, 0x95, 0x02, 0xe5, 0xbc, 0xfc, 0x22, 0x41, 0x3e, 
	0xa6, 0x54, 0x35, 0x3d, 0xd5, 0xdc, 0xb8, 0xbd, 0xd2, 0xb4, 0xd4, 0xbe, 
	0x84, 0xb4, 0xaa, 0xbe, 0xe9, 0xe3, 0x39, 0x3e, 0x71, 0x3b, 0x0c, 0x3d, 
	0x46, 0xf4, 0x23, 0xbe, 0xc5, 0x2a, 0x83, 0xbe, 0xc4, 0xad, 0x75, 0xbe, 
	0xca, 0x27, 0x84, 0x3b, 0x1c, 0x89, 0xce, 0xbe, 0x6d, 0x94, 0x97, 0x3e, 
	0xfd, 0xe7, 0x2e, 0xbe, 0x35, 0x2a, 0xb8, 0x3d, 0x12, 0x5b, 0x1b, 0x3d, 
	0xdf, 0xc2, 0xcb, 0xbe, 0x46, 0xfd, 0xd1, 0xbd, 0x9c, 0xaa, 0xcb, 0xbe, 
	0x1d, 0x70, 0x7a, 0x3e, 0x4b, 0x07, 0x91, 0x3e, 0xd8, 0x75, 0xb6, 0x3d, 
	0xcb, 0x63, 0x23, 0x3e, 0x4c, 0x63, 0x7e, 0xbd, 0x87, 0x7e, 0x60, 0x3c, 
	0x27, 0xea, 0xa7, 0x3d, 0x24, 0x4b, 0x89, 0xbe, 0x11, 0xd7, 0xfa, 0xbc, 
	0xda, 0x19, 0x88, 0x3c, 0xb4, 0x19, 0xc4, 0x3e, 0xe9, 0x3a, 0xdb, 0x3c, 
	0x86, 0x8f, 0xb5, 0x3d, 0x6e, 0x56, 0x5b, 0x3e, 0xa3, 0x00, 0x0d, 0xbe, 
	0x6b, 0x22, 0x08, 0x3e, 0x54, 0x0e, 0x32, 0x3e, 0xce, 0x8e, 0xce, 0xbd, 
	0x21, 0xae, 0xcf, 0x3d, 0x81, 0xe1, 0xc0, 0xbe, 0x8a, 0xe6, 0xa3, 0xbd, 
	0x27, 0x11, 0xb7, 0x3e, 0xb7, 0x38, 0xd4, 0xbe, 0x4f, 0x93, 0xa5, 0x3d, 
	0x9b, 0x55, 0x4c, 0xbc, 0x1a, 0x94, 0x42, 0x3e, 0x56, 0x15, 0x45, 0x3e, 
	0x0e, 0x08, 0x09, 0xbe, 0x75, 0x28, 0x1a, 0x3d, 0x92, 0x66, 0xb4, 0xbe, 
	0x59, 0xb6, 0x23, 0x3e, 0x7b, 0xdf, 0x8a, 0x3e, 0x40, 0x4d, 0xcf, 0xbe, 
	0x02, 0xfe, 0x6f, 0x3e, 0x90, 0x86, 0x05, 0xbe, 0xcc, 0x44, 0x13, 0xbe, 
	0x2a, 0x53, 0x49, 0x3d, 0xa8, 0x52, 0x05, 0xbe, 0x90, 0x04, 0x80, 0x3e, 
	0x61, 0x85, 0x01, 0xbf, 0xcc, 0xe4, 0xd5, 0x3d, 0x3d, 0x18, 0xbe, 0xbd, 
	0x23, 0x1c, 0xd2, 0x3c, 0x5e, 0x29, 0x0f, 0x3e, 0xf5, 0xd7, 0xc8, 0xbe, 
	0xe5, 0xe2, 0x6b, 0xbe, 0xab, 0xf4, 0x9d, 0xbe, 0x64, 0x41, 0xeb, 0xbe, 
	0x94, 0xc4, 0x4a, 0xbd, 0x85, 0x6d, 0x0b, 0xbf, 0x13, 0xf4, 0x5e, 0xbe, 
	0xdb, 0xc3, 0x6e, 0x3c, 0x1f, 0x46, 0x9e, 0xbd, 0xd4, 0x7f, 0xbd, 0x3d, 
	0x8b, 0x87, 0x31, 0x3c, 0xa3, 0xa7, 0x1c, 0x3e, 0x11, 0x3e, 0x81, 0xbe, 
	0xc1, 0x0f, 0xf7, 0x3d, 0x3f, 0x60, 0x31, 0xbe, 0xc8, 0xa9, 0x8b, 0x3e, 
	0x83, 0x5a, 0x5a, 0x3e, 0x2d, 0xb1, 0x2f, 0xbc, 0x9c, 0x74, 0x13, 0x3c, 
	0x2c, 0xcc, 0x16, 0x3e, 0x1c, 0x39, 0x73, 0x3e, 0xa2, 0xf8, 0x14, 0x3e, 
	0x81, 0x69, 0xfa, 0xbd, 0xf5, 0x4c, 0x42, 0xbe, 0x07, 0x20, 0x6e, 0xbe, 
	0x65, 0xd7, 0x5e, 0x3e, 0xd7, 0xa5, 0x52, 0x3e, 0x08, 0x07, 0x71, 0xbe, 
	0xca, 0x8d, 0xaf, 0xbc, 0x1d, 0x74, 0x06, 0xbe, 0x6f, 0x50, 0x70, 0x3e, 
	0xff, 0xd4, 0x53, 0xbe, 0x9d, 0xf0, 0xe0, 0x3d, 0xc7, 0x28, 0x88, 0x3d, 
	0xed, 0xb8, 0x6a, 0xbd, 0xa9, 0x50, 0x67, 0x3d, 0xc5, 0xd8, 0x3b, 0xbc, 
	0x5c, 0x25, 0x55, 0x3d, 0x2d, 0x18, 0x6c, 0x3e, 0xae, 0x0c, 0x98, 0xbd, 
	0x51, 0x86, 0x07, 0x3e, 0xf9, 0x56, 0x86, 0xbe, 0x78, 0xd2, 0x2c, 0xbe, 
	0xcc, 0x6f, 0x8d, 0xbe, 0xc7, 0xe6, 0x99, 0xbd, 0xba, 0xd8, 0x1a, 0x3e, 
	0xe0, 0xad, 0x73, 0xbe, 0x3b, 0x20, 0xa5, 0xbe, 0xa5, 0x7c, 0x28, 0x3e, 
	0x05, 0x1d, 0x4b, 0xbe, 0x95, 0x92, 0x57, 0xbe, 0x60, 0xe7, 0xff, 0xbd, 
	0x91, 0x5e, 0xe8, 0x3d, 0x5e, 0x47, 0xb4, 0xbd, 0x77, 0x8c, 0x46, 0xbe, 
	0x99, 0x2e, 0x6d, 0x3e, 0xd2, 0x18, 0x99, 0x3e, 0x4d, 0xfe, 0xc9, 0x3d, 
	0xb0, 0x02, 0xd0, 0xbd, 0x8d, 0x0f, 0x6b, 0x3d, 0xac, 0x76, 0xeb, 0xbe, 
	0xc3, 0x0a, 0x44, 0xbc, 0xa2, 0xbf, 0xcd, 0x3c, 0x93, 0xf7, 0x09, 0xbe, 
	0x30, 0x47, 0xc5, 0x3e, 0xec, 0x7e, 0xc1, 0xba, 0x4a, 0x73, 0x94, 0x3e, 
	0x7b, 0x04, 0x8c, 0x3e, 0x12, 0xf9, 0x93, 0xbe, 0x0d, 0x8f, 0xa9, 0x3e, 
	0xaf, 0xfc, 0xe4, 0xbe, 0x7d, 0x67, 0x7b, 0xbd, 0xf6, 0xe0, 0xed, 0x3e, 
	0x95, 0xef, 0x53, 0xbe, 0x8d, 0xd4, 0xde, 0x3b, 0x32, 0xb8, 0xe5, 0xbd, 
	0x4c, 0x08, 0xbe, 0x3d, 0x1a, 0xfd, 0x25, 0x3d, 0xe4, 0xde, 0x9d, 0x3c, 
	0x37, 0xe5, 0xf6, 0x3d, 0x0c, 0x10, 0xc8, 0xbe, 0x9c, 0x66, 0xad, 0x3e, 
	0x3a, 0xad, 0x3c, 0xbc, 0x33, 0xeb, 0x82, 0xbd, 0xec, 0x51, 0xa0, 0x3e, 
	0xc4, 0x5a, 0x0f, 0xbf, 0x7a, 0x69, 0x99, 0x3e, 0x8d, 0x6c, 0x35, 0xbe, 
	0xc8, 0x58, 0x60, 0xbe, 0xe8, 0xec, 0xd7, 0x3d, 0x85, 0x49, 0x0d, 0xbf, 
	0xfe, 0xb5, 0xe0, 0x3b, 0x10, 0xdb, 0x30, 0x3e, 0xe7, 0xcf, 0xec, 0xbe, 
	0x06, 0xa3, 0x14, 0x3e, 0xfc, 0x0e, 0x9a, 0xbe, 0xc5, 0x50, 0x5a, 0x3e, 
	0x80, 0x4a, 0xe2, 0xbb, 0x91, 0xa8, 0xbd, 0xbe, 0x0b, 0x00, 0x96, 0xbd, 
	0x85, 0x63, 0x91, 0xbe, 0x37, 0x23, 0x5e, 0xbe, 0x72, 0x0a, 0x89, 0x3d, 
	0x06, 0x64, 0x79, 0xbd, 0x45, 0x14, 0x5a, 0x3e, 0xcd, 0xca, 0xdb, 0xbe, 
	0xad, 0x5a, 0x48, 0x3e, 0xf3, 0xfc, 0xf5, 0x3e, 0xc4, 0xf9, 0x91, 0xbe, 
	0x96, 0x71, 0x7e, 0x3d, 0x79, 0x43, 0x63, 0xbe, 0x53, 0xd8, 0xaf, 0x3e, 
	0x9e, 0x00, 0x05, 0x3f, 0x32, 0x37, 0x76, 0xbd, 0x4d, 0xef, 0x90, 0x3e, 
	0xb1, 0xbe, 0xa4, 0xbd, 0x84, 0xf8, 0xcd, 0xbd, 0x43, 0xa4, 0x31, 0x3d, 
	0x13, 0xb6, 0xab, 0xbe, 0x3b, 0xda, 0x2e, 0xbd, 0x4f, 0xfd, 0x87, 0xbe, 
	0x56, 0xcf, 0x5f, 0x3e, 0x28, 0xcd, 0x8b, 0x3e, 0x0c, 0x59, 0xd2, 0xbe, 
	0xc0, 0xe4, 0x71, 0x3d, 0xcd, 0x65, 0xf3, 0xbe, 0x6f, 0x1f, 0x97, 0x3e, 
	0x9b, 0x50, 0xbe, 0x3e, 0x3a, 0xb6, 0xbe, 0xbd, 0x7d, 0xd2, 0x60, 0x3e, 
	0x28, 0x79, 0x01, 0xbd, 0xa8, 0xb8, 0xcd, 0xbd, 0x78, 0x48, 0x1b, 0x3e, 
	0x09, 0xf8, 0xd6, 0xbe, 0xfd, 0x86, 0x4a, 0x3e, 0xb9, 0x37, 0x97, 0xbe, 
	0xc7, 0xa7, 0x1a, 0xbe, 0xba, 0x70, 0x23, 0x3d, 0x3e, 0x9d, 0xea, 0xbe, 
	0x55, 0x6d, 0xdd, 0xbd, 0xbe, 0x33, 0xc4, 0xbd, 0x52, 0xae, 0x60, 0x3e, 
	0xa5, 0x89, 0xd7, 0xbc, 0x4e, 0xdd, 0x1f, 0xbe, 0xac, 0xee, 0x8c, 0x3e, 
	0xc7, 0x43, 0xbd, 0xbe, 0x24, 0xd6, 0x83, 0x3d, 0x4d, 0x44, 0x3f, 0xbe, 
	0xbc, 0x92, 0xee, 0xbe, 0xa0, 0xbd, 0xb0, 0x3e, 0x53, 0xc2, 0x08, 0xbf, 
	0xce, 0x18, 0xae, 0x3d, 0xb1, 0xdb, 0x5e, 0xbe, 0x33, 0xd2, 0x39, 0xbe, 
	0x4e, 0x7e, 0x6c, 0x3e, 0x7d, 0xa0, 0xa7, 0xbe, 0x34, 0xbc, 0xfd, 0x3e, 
	0x16, 0xd7, 0x09, 0x3f, 0xf6, 0xb0, 0x39, 0xbe, 0xbc, 0xae, 0xc7, 0x3e, 
	0xcc, 0xd1, 0x91, 0x3d, 0x99, 0x08, 0xe6, 0x3e, 0xb6, 0x1d, 0xf6, 0x3d, 
	0xfb, 0x83, 0x16, 0xbe, 0xc2, 0x53, 0xdc, 0xbd, 0xfc, 0x88, 0x3c, 0xbe, 
	0x12, 0x4f, 0x50, 0x3c, 0x32, 0x95, 0x6e, 0x3e, 0xda, 0xbe, 0x86, 0xbe, 
	0x60, 0x68, 0x2b, 0xbe, 0x1d, 0xa4, 0x13, 0xbe, 0xc7, 0xac, 0x66, 0x3e, 
	0xb1, 0xf3, 0x7a, 0x3a, 0x1e, 0xba, 0x33, 0xbd, 0x06, 0x14, 0x79, 0x3e, 
	0x5d, 0x08, 0xb8, 0xbe, 0x79, 0xd9, 0x53, 0x3e, 0xdc, 0xf1, 0xc6, 0x3d, 
	0xc7, 0x9b, 0x13, 0xbe, 0xb0, 0xfc, 0x6c, 0x3c, 0xa0, 0x4d, 0x99, 0xbe, 
	0x3b, 0x84, 0x4d, 0xbe, 0x04, 0x37, 0x08, 0x3e, 0xd8, 0x11, 0xed, 0xbd, 
	0x64, 0x32, 0xe6, 0xbd, 0x0c, 0xef, 0x97, 0xbd, 0x99, 0x44, 0xfc, 0x3c, 
	0x46, 0xd8, 0x53, 0x3e, 0xe7, 0x62, 0x13, 0x3e, 0x7c, 0x91, 0x08, 0x3c, 
	0xad, 0x9b, 0x1c, 0xbe, 0x8a, 0x37, 0x5b, 0x3e, 0xb4, 0x8a, 0x9c, 0xbe, 
	0x96, 0xa4, 0x99, 0xbe, 0xcc, 0x5e, 0xaf, 0x3e, 0xe2, 0x30, 0xa5, 0xbe, 
	0x1e, 0x19, 0x8a, 0xbe, 0xdb, 0x81, 0x06, 0xbe, 0x7c, 0x84, 0xc8, 0xbe, 
	0x06, 0x53, 0xa5, 0x3e, 0x5f, 0x13, 0xc1, 0xbe, 0xca, 0x33, 0xbf, 0xbe, 
	0xbc, 0xe4, 0x0c, 0xbe, 0xc2, 0x40, 0x90, 0xbe, 0xee, 0xea, 0x92, 0x3c, 
	0x4f, 0xb0, 0xb3, 0xbd, 0x2d, 0x8a, 0x7c, 0x3e, 0x1a, 0xc3, 0x2e, 0x3d, 
	0xd8, 0x1d, 0x1c, 0xbe, 0x76, 0x62, 0x77, 0xbd, 0x3b, 0x9a, 0x7c, 0xbd, 
	0xf5, 0x68, 0x5d, 0x3e, 0x42, 0xe2, 0x0f, 0x3e, 0xc7, 0x37, 0xbb, 0xbd, 
	0x15, 0x70, 0x2c, 0xbe, 0xd5, 0xf3, 0x0b, 0x3c, 0x8c, 0x54, 0x48, 0x3d, 
	0x37, 0x55, 0xcc, 0xbd, 0xa6, 0xb8, 0x59, 0x3e, 0x3c, 0x65, 0x55, 0x3e, 
	0x6e, 0xbe, 0x41, 0x3e, 0x16, 0x0b, 0x1e, 0x3e, 0xe4, 0x5c, 0xd4, 0x3e, 
	0xc4, 0xaa, 0xdb, 0x3d, 0x28, 0xdf, 0xa8, 0xbd, 0x6f, 0x7b, 0x9f, 0x3d, 
	0x8b, 0x33, 0xb2, 0x3e, 0x67, 0x11, 0x65, 0x3d, 0x8e, 0x20, 0xcc, 0xbd, 
	0x74, 0x98, 0xde, 0x3d, 0xcb, 0x2c, 0x94, 0xbe, 0x92, 0x00, 0x9b, 0x3e, 
	0x2e, 0x6c, 0x80, 0x3d, 0xc3, 0xff, 0x7d, 0xbe, 0x8f, 0xd6, 0x69, 0x3e, 
	0xdb, 0x43, 0x38, 0x3e, 0xab, 0x42, 0x69, 0xbe, 0xbf, 0x81, 0x80, 0x3e, 
	0x6c, 0x04, 0x35, 0x3d, 0x37, 0xe6, 0x83, 0x3d, 0x43, 0x86, 0xb6, 0xbd, 
	0x9f, 0x0d, 0x90, 0xbd, 0x9f, 0xda, 0x30, 0x3e, 0xec, 0xa4, 0xb9, 0xbd, 
	0x1d, 0x3c, 0x3c, 0xbe, 0x7c, 0xdd, 0x5a, 0xbe, 0x1e, 0x68, 0xab, 0x3d, 
	0x43, 0x31, 0xa2, 0x3d, 0x87, 0x1f, 0x9a, 0xbd, 0xb2, 0x7a, 0xa3, 0xbd, 
	0x91, 0x9b, 0x18, 0xbe, 0x47, 0xfc, 0x6a, 0xbc, 0x9f, 0x58, 0x83, 0x3e, 
	0x8f, 0xc5, 0xa1, 0xbd, 0xc4, 0x45, 0x03, 0xbe, 0x7f, 0xc3, 0xaf, 0xbd, 
	0x3a, 0xfd, 0xff, 0xff, 0x10, 0x00, 0x00, 0x00, 0x06, 0x00, 0x00, 0x00, 
	0x14, 0x00, 0x00, 0x00, 0x30, 0x00, 0x00, 0x00, 0x02, 0x00, 0x00, 0x00, 
	0x10, 0x00, 0x00, 0x00, 0x32, 0x00, 0x00, 0x00, 0x18, 0x00, 0x00, 0x00, 
	0x6d, 0x6f, 0x64, 0x65, 0x6c, 0x5f, 0x31, 0x35, 0x2f, 0x64, 0x65, 0x6e, 
	0x73, 0x65, 0x5f, 0x31, 0x38, 0x2f, 0x4d, 0x61, 0x74, 0x4d, 0x75, 0x6c, 
	0x00, 0x00, 0x00, 0x00, 0x38, 0xfd, 0xff, 0xff, 0x26, 0xfe, 0xff, 0xff, 
	0x04, 0x00, 0x00, 0x00, 0x04, 0x00, 0x00, 0x00, 0xec, 0xea, 0xcb, 0x3e, 
	0x8e, 0xfd, 0xff, 0xff, 0x10, 0x00, 0x00, 0x00, 0x05, 0x00, 0x00, 0x00, 
	0x10, 0x00, 0x00, 0x00, 0x3c, 0x00, 0x00, 0x00, 0x01, 0x00, 0x00, 0x00, 
	0x01, 0x00, 0x00, 0x00, 0x28, 0x00, 0x00, 0x00, 0x6d, 0x6f, 0x64, 0x65, 
	0x6c, 0x5f, 0x31, 0x35, 0x2f, 0x64, 0x65, 0x6e, 0x73, 0x65, 0x5f, 0x32, 
	0x31, 0x2f, 0x42, 0x69, 0x61, 0x73, 0x41, 0x64, 0x64, 0x2f, 0x52, 0x65, 
	0x61, 0x64, 0x56, 0x61, 0x72, 0x69, 0x61, 0x62, 0x6c, 0x65, 0x4f, 0x70, 
	0x00, 0x00, 0x00, 0x00, 0x98, 0xfd, 0xff, 0xff, 0x86, 0xfe, 0xff, 0xff, 
	0x04, 0x00, 0x00, 0x00, 0x40, 0x00, 0x00, 0x00, 0x00, 0x3c, 0x24, 0x3f, 
	0x16, 0x72, 0xd0, 0x3e, 0x83, 0x82, 0x7a, 0x3f, 0x00, 0x00, 0x00, 0x00, 
	0x1c, 0x21, 0x8c, 0xbc, 0x98, 0x0b, 0x07, 0xbd, 0x00, 0x00, 0x00, 0x00, 
	0x6d, 0x81, 0x4b, 0x3f, 0x0f, 0xe7, 0x30, 0x3f, 0xcb, 0xf2, 0x00, 0x3f, 
	0xb4, 0xd6, 0xf8, 0x3e, 0x60, 0x6f, 0xfd, 0x3e, 0x5c, 0xda, 0x58, 0x3f, 
	0x13, 0x2d, 0x2a, 0x3f, 0x4b, 0x46, 0x23, 0xbd, 0xdf, 0x1a, 0xf3, 0x3e, 
	0x2a, 0xfe, 0xff, 0xff, 0x10, 0x00, 0x00, 0x00, 0x04, 0x00, 0x00, 0x00, 
	0x10, 0x00, 0x00, 0x00, 0x3c, 0x00, 0x00, 0x00, 0x01, 0x00, 0x00, 0x00, 
	0x10, 0x00, 0x00, 0x00, 0x28, 0x00, 0x00, 0x00, 0x6d, 0x6f, 0x64, 0x65, 
	0x6c, 0x5f, 0x31, 0x35, 0x2f, 0x64, 0x65, 0x6e, 0x73, 0x65, 0x5f, 0x32, 
	0x30, 0x2f, 0x42, 0x69, 0x61, 0x73, 0x41, 0x64, 0x64, 0x2f, 0x52, 0x65, 
	0x61, 0x64, 0x56, 0x61, 0x72, 0x69, 0x61, 0x62, 0x6c, 0x65, 0x4f, 0x70, 
	0x00, 0x00, 0x00, 0x00, 0x34, 0xfe, 0xff, 0xff, 0x22, 0xff, 0xff, 0xff, 
	0x04, 0x00, 0x00, 0x00, 0x80, 0x00, 0x00, 0x00, 0xb0, 0xe1, 0xb1, 0x3f, 
	0xf9, 0xf2, 0x34, 0x3f, 0x2b, 0xdd, 0x2c, 0x3f, 0x85, 0x03, 0x40, 0x3f, 
	0x74, 0x34, 0x11, 0x3f, 0x63, 0xc8, 0x8d, 0x3f, 0xde, 0x1f, 0x37, 0x3f, 
	0x3a, 0x66, 0x8e, 0x3f, 0x9f, 0x23, 0x9e, 0x3f, 0xba, 0x0a, 0x90, 0x3f, 
	0x17, 0x11, 0x61, 0x3f, 0x3c, 0x0d, 0xa7, 0x3f, 0xd8, 0xa1, 0x50, 0x3f, 
	0xd3, 0xf5, 0x73, 0x3f, 0xef, 0x50, 0x03, 0x3f, 0xcf, 0x1a, 0x3c, 0x3f, 
	0x8c, 0x23, 0x59, 0x3f, 0x00, 0xe1, 0x32, 0x3f, 0x71, 0x66, 0x33, 0x3f, 
	0x0a, 0xbe, 0x99, 0x3f, 0xb2, 0x8b, 0x01, 0x3f, 0xb3, 0x1b, 0x4f, 0x3f, 
	0x63, 0xc2, 0xa0, 0x3f, 0x92, 0xa6, 0x34, 0x3f, 0x78, 0xb5, 0x8e, 0x3f, 
	0x69, 0xbe, 0x5c, 0x3f, 0xbc, 0x80, 0x9f, 0x3f, 0x76, 0x67, 0x8e, 0x3f, 
	0x7b, 0xa9, 0x32, 0x3f, 0x5e, 0xc7, 0xee, 0x3e, 0x82, 0x03, 0x3f, 0x3f, 
	0x10, 0xd6, 0xb7, 0x3f, 0x06, 0xff, 0xff, 0xff, 0x10, 0x00, 0x00, 0x00, 
	0x03, 0x00, 0x00, 0x00, 0x10, 0x00, 0x00, 0x00, 0x3c, 0x00, 0x00, 0x00, 
	0x01, 0x00, 0x00, 0x00, 0x20, 0x00, 0x00, 0x00, 0x28, 0x00, 0x00, 0x00, 
	0x6d, 0x6f, 0x64, 0x65, 0x6c, 0x5f, 0x31, 0x35, 0x2f, 0x64, 0x65, 0x6e, 
	0x73, 0x65, 0x5f, 0x31, 0x39, 0x2f, 0x42, 0x69, 0x61, 0x73, 0x41, 0x64, 
	0x64, 0x2f, 0x52, 0x65, 0x61, 0x64, 0x56, 0x61, 0x72, 0x69, 0x61, 0x62, 
	0x6c, 0x65, 0x4f, 0x70, 0x00, 0x00, 0x00, 0x00, 0x5c, 0xff, 0xff, 0xff, 
	0x00, 0x00, 0x06, 0x00, 0x08, 0x00, 0x04, 0x00, 0x06, 0x00, 0x00, 0x00, 
	0x04, 0x00, 0x00, 0x00, 0x40, 0x00, 0x00, 0x00, 0x0b, 0x39, 0xeb, 0x3e, 
	0x44, 0xdd, 0xcb, 0x3e, 0x36, 0x87, 0x06, 0x3f, 0x00, 0x00, 0x00, 0x00, 
	0xfb, 0x20, 0xcd, 0x3e, 0x77, 0xbf, 0x05, 0x3f, 0xcc, 0xc2, 0x8a, 0x3e, 
	0xb4, 0x88, 0x75, 0x3e, 0xa2, 0x4e, 0xe7, 0x3e, 0x42, 0x26, 0xe0, 0x3e, 
	0x38, 0x12, 0xfc, 0x3e, 0x95, 0xc9, 0x0b, 0xbd, 0x83, 0x40, 0xe8, 0x3e, 
	0x48, 0xa4, 0xee, 0x3e, 0xda, 0x63, 0xdb, 0x3e, 0x4b, 0xa7, 0xa2, 0x3e, 
	0xaa, 0xff, 0xff, 0xff, 0x10, 0x00, 0x00, 0x00, 0x02, 0x00, 0x00, 0x00, 
	0x10, 0x00, 0x00, 0x00, 0x40, 0x00, 0x00, 0x00, 0x01, 0x00, 0x00, 0x00, 
	0x10, 0x00, 0x00, 0x00, 0x28, 0x00, 0x00, 0x00, 0x6d, 0x6f, 0x64, 0x65, 
	0x6c, 0x5f, 0x31, 0x35, 0x2f, 0x64, 0x65, 0x6e, 0x73, 0x65, 0x5f, 0x31, 
	0x38, 0x2f, 0x42, 0x69, 0x61, 0x73, 0x41, 0x64, 0x64, 0x2f, 0x52, 0x65, 
	0x61, 0x64, 0x56, 0x61, 0x72, 0x69, 0x61, 0x62, 0x6c, 0x65, 0x4f, 0x70, 
	0x00, 0x00, 0x00, 0x00, 0x04, 0x00, 0x06, 0x00, 0x04, 0x00, 0x00, 0x00, 
	0x00, 0x00, 0x0e, 0x00, 0x14, 0x00, 0x04, 0x00, 0x00, 0x00, 0x08, 0x00, 
	0x0c, 0x00, 0x10, 0x00, 0x0e, 0x00, 0x00, 0x00, 0x10, 0x00, 0x00, 0x00, 
	0x01, 0x00, 0x00, 0x00, 0x14, 0x00, 0x00, 0x00, 0x20, 0x00, 0x00, 0x00, 
	0x02, 0x00, 0x00, 0x00, 0x01, 0x00, 0x00, 0x00, 0x32, 0x00, 0x00, 0x00, 
	0x08, 0x00, 0x00, 0x00, 0x69, 0x6e, 0x70, 0x75, 0x74, 0x5f, 0x31, 0x32, 
	0x00, 0x00, 0x00, 0x00, 0xfc, 0xff, 0xff, 0xff, 0x04, 0x00, 0x04, 0x00, 
	0x04, 0x00, 0x00, 0x00
};
const int pred1_16_seq10_len = 9376;