
// if having troubles with min/max, uncomment the following
// #undef min    
// #undef max
#ifdef __has_attribute
#define HAVE_ATTRIBUTE(x) __has_attribute(x)
#else
#define HAVE_ATTRIBUTE(x) 0
#endif
#if HAVE_ATTRIBUTE(aligned) || (defined(__GNUC__) && !defined(__clang__))
#define DATA_ALIGN_ATTRIBUTE __attribute__((aligned(4)))
#else
#define DATA_ALIGN_ATTRIBUTE
#endif
const unsigned char pred3_16_seq10[] DATA_ALIGN_ATTRIBUTE = {
	0x1c, 0x00, 0x00, 0x00, 0x54, 0x46, 0x4c, 0x33, 0x00, 0x00, 0x12, 0x00, 
	0x1c, 0x00, 0x04, 0x00, 0x08, 0x00, 0x0c, 0x00, 0x10, 0x00, 0x14, 0x00, 
	0x00, 0x00, 0x18, 0x00, 0x12, 0x00, 0x00, 0x00, 0x03, 0x00, 0x00, 0x00, 
	0x14, 0x00, 0x00, 0x00, 0x18, 0x00, 0x00, 0x00, 0xac, 0x00, 0x00, 0x00, 
	0x18, 0x00, 0x00, 0x00, 0x54, 0x00, 0x00, 0x00, 0x01, 0x00, 0x00, 0x00, 
	0x30, 0x03, 0x00, 0x00, 0x01, 0x00, 0x00, 0x00, 0xb8, 0x00, 0x00, 0x00, 
	0x0f, 0x00, 0x00, 0x00, 0x50, 0x24, 0x00, 0x00, 0x4c, 0x24, 0x00, 0x00, 
	0x60, 0x23, 0x00, 0x00, 0x78, 0x22, 0x00, 0x00, 0xd8, 0x21, 0x00, 0x00, 
	0x74, 0x21, 0x00, 0x00, 0xa0, 0x14, 0x00, 0x00, 0x4c, 0x0c, 0x00, 0x00, 
	0xf8, 0x03, 0x00, 0x00, 0x64, 0x03, 0x00, 0x00, 0x28, 0x24, 0x00, 0x00, 
	0x24, 0x24, 0x00, 0x00, 0x20, 0x24, 0x00, 0x00, 0x1c, 0x24, 0x00, 0x00, 
	0x38, 0x00, 0x00, 0x00, 0x01, 0x00, 0x00, 0x00, 0x0c, 0x00, 0x00, 0x00, 
	0x08, 0x00, 0x0c, 0x00, 0x04, 0x00, 0x08, 0x00, 0x08, 0x00, 0x00, 0x00, 
	0x08, 0x00, 0x00, 0x00, 0x0e, 0x00, 0x00, 0x00, 0x13, 0x00, 0x00, 0x00, 
	0x6d, 0x69, 0x6e, 0x5f, 0x72, 0x75, 0x6e, 0x74, 0x69, 0x6d, 0x65, 0x5f, 
	0x76, 0x65, 0x72, 0x73, 0x69, 0x6f, 0x6e, 0x00, 0x0e, 0xdd, 0xff, 0xff, 
	0x04, 0x00, 0x00, 0x00, 0x10, 0x00, 0x00, 0x00, 0x31, 0x2e, 0x35, 0x2e, 
	0x30, 0x00, 0x00, 0x00, 0x00, 0x00, 0x00, 0x00, 0x00, 0x00, 0x00, 0x00, 
	0x0f, 0x00, 0x00, 0x00, 0x4d, 0x4c, 0x49, 0x52, 0x20, 0x43, 0x6f, 0x6e, 
	0x76, 0x65, 0x72, 0x74, 0x65, 0x64, 0x2e, 0x00, 0x00, 0x00, 0x0e, 0x00, 
	0x18, 0x00, 0x04, 0x00, 0x08, 0x00, 0x0c, 0x00, 0x10, 0x00, 0x14, 0x00, 
	0x0e, 0x00, 0x00, 0x00, 0x14, 0x00, 0x00, 0x00, 0x48, 0x00, 0x00, 0x00, 
	0x4c, 0x00, 0x00, 0x00, 0x50, 0x00, 0x00, 0x00, 0x60, 0x00, 0x00, 0x00, 
	0x0d, 0x00, 0x00, 0x00, 0x4c, 0x23, 0x00, 0x00, 0xe4, 0x22, 0x00, 0x00, 
	0x3c, 0x22, 0x00, 0x00, 0x5c, 0x21, 0x00, 0x00, 0xbc, 0x20, 0x00, 0x00, 
	0x64, 0x20, 0x00, 0x00, 0x90, 0x13, 0x00, 0x00, 0x3c, 0x0b, 0x00, 0x00, 
	0xe8, 0x02, 0x00, 0x00, 0x3c, 0x02, 0x00, 0x00, 0x78, 0x01, 0x00, 0x00, 
	0xd4, 0x00, 0x00, 0x00, 0x68, 0x00, 0x00, 0x00, 0x01, 0x00, 0x00, 0x00, 
	0x00, 0x00, 0x00, 0x00, 0x01, 0x00, 0x00, 0x00, 0x0c, 0x00, 0x00, 0x00, 
	0x04, 0x00, 0x00, 0x00, 0xc4, 0x01, 0x00, 0x00, 0x20, 0x01, 0x00, 0x00, 
	0x7c, 0x00, 0x00, 0x00, 0x10, 0x00, 0x00, 0x00, 0x04, 0x00, 0x00, 0x00, 
	0x6d, 0x61, 0x69, 0x6e, 0x00, 0x00, 0x00, 0x00, 0x06, 0xff, 0xff, 0xff, 
	0x00, 0x00, 0x00, 0x08, 0x1c, 0x00, 0x00, 0x00, 0x10, 0x00, 0x00, 0x00, 
	0x04, 0x00, 0x00, 0x00, 0x56, 0xfe, 0xff, 0xff, 0x00, 0x00, 0x00, 0x01, 
	0x01, 0x00, 0x00, 0x00, 0x0c, 0x00, 0x00, 0x00, 0x03, 0x00, 0x00, 0x00, 
	0x0b, 0x00, 0x00, 0x00, 0x08, 0x00, 0x00, 0x00, 0x04, 0x00, 0x00, 0x00, 
	0x5a, 0xdd, 0xff, 0xff, 0x10, 0x00, 0x00, 0x00, 0x0d, 0x00, 0x00, 0x00, 
	0x14, 0x00, 0x00, 0x00, 0x20, 0x00, 0x00, 0x00, 0x02, 0x00, 0x00, 0x00, 
	0x01, 0x00, 0x00, 0x00, 0x01, 0x00, 0x00, 0x00, 0x08, 0x00, 0x00, 0x00, 
	0x49, 0x64, 0x65, 0x6e, 0x74, 0x69, 0x74, 0x79, 0x00, 0x00, 0x00, 0x00, 
	0x48, 0xdd, 0xff, 0xff, 0x6e, 0xff, 0xff, 0xff, 0x00, 0x00, 0x00, 0x08, 
	0x1c, 0x00, 0x00, 0x00, 0x10, 0x00, 0x00, 0x00, 0x04, 0x00, 0x00, 0x00, 
	0xbe, 0xfe, 0xff, 0xff, 0x00, 0x00, 0x00, 0x01, 0x01, 0x00, 0x00, 0x00, 
	0x0b, 0x00, 0x00, 0x00, 0x03, 0x00, 0x00, 0x00, 0x0a, 0x00, 0x00, 0x00, 
	0x07, 0x00, 0x00, 0x00, 0x03, 0x00, 0x00, 0x00, 0xc2, 0xdd, 0xff, 0xff, 
	0x10, 0x00, 0x00, 0x00, 0x0c, 0x00, 0x00, 0x00, 0x14, 0x00, 0x00, 0x00, 
	0x48, 0x00, 0x00, 0x00, 0x02, 0x00, 0x00, 0x00, 0x01, 0x00, 0x00, 0x00, 
	0x10, 0x00, 0x00, 0x00, 0x30, 0x00, 0x00, 0x00, 0x6d, 0x6f, 0x64, 0x65, 
	0x6c, 0x5f, 0x32, 0x31, 0x2f, 0x64, 0x65, 0x6e, 0x73, 0x65, 0x5f, 0x32, 
	0x38, 0x2f, 0x52, 0x65, 0x6c, 0x75, 0x3b, 0x6d, 0x6f, 0x64, 0x65, 0x6c, 
	0x5f, 0x32, 0x31, 0x2f, 0x64, 0x65, 0x6e, 0x73, 0x65, 0x5f, 0x32, 0x38, 
	0x2f, 0x42, 0x69, 0x61, 0x73, 0x41, 0x64, 0x64, 0x00, 0x00, 0x00, 0x00, 
	0x24, 0xde, 0xff, 0xff, 0x00, 0x00, 0x0e, 0x00, 0x14, 0x00, 0x00, 0x00, 
	0x08, 0x00, 0x0c, 0x00, 0x07, 0x00, 0x10, 0x00, 0x0e, 0x00, 0x00, 0x00, 
	0x00, 0x00, 0x00, 0x08, 0x1c, 0x00, 0x00, 0x00, 0x10, 0x00, 0x00, 0x00, 
	0x04, 0x00, 0x00, 0x00, 0x5e, 0xff, 0xff, 0xff, 0x00, 0x00, 0x00, 0x01, 
	0x01, 0x00, 0x00, 0x00, 0x0a, 0x00, 0x00, 0x00, 0x03, 0x00, 0x00, 0x00, 
	0x09, 0x00, 0x00, 0x00, 0x06, 0x00, 0x00, 0x00, 0x02, 0x00, 0x00, 0x00, 
	0x62, 0xde, 0xff, 0xff, 0x10, 0x00, 0x00, 0x00, 0x0b, 0x00, 0x00, 0x00, 
	0x14, 0x00, 0x00, 0x00, 0x48, 0x00, 0x00, 0x00, 0x02, 0x00, 0x00, 0x00, 
	0x01, 0x00, 0x00, 0x00, 0x20, 0x00, 0x00, 0x00, 0x30, 0x00, 0x00, 0x00, 
	0x6d, 0x6f, 0x64, 0x65, 0x6c, 0x5f, 0x32, 0x31, 0x2f, 0x64, 0x65, 0x6e, 
	0x73, 0x65, 0x5f, 0x32, 0x37, 0x2f, 0x52, 0x65, 0x6c, 0x75, 0x3b, 0x6d, 
	0x6f, 0x64, 0x65, 0x6c, 0x5f, 0x32, 0x31, 0x2f, 0x64, 0x65, 0x6e, 0x73, 
	0x65, 0x5f, 0x32, 0x37, 0x2f, 0x42, 0x69, 0x61, 0x73, 0x41, 0x64, 0x64, 
	0x00, 0x00, 0x00, 0x00, 0xc4, 0xde, 0xff, 0xff, 0x00, 0x00, 0x0e, 0x00, 
	0x16, 0x00, 0x00, 0x00, 0x08, 0x00, 0x0c, 0x00, 0x07, 0x00, 0x10, 0x00, 
	0x0e, 0x00, 0x00, 0x00, 0x00, 0x00, 0x00, 0x08, 0x24, 0x00, 0x00, 0x00, 
	0x18, 0x00, 0x00, 0x00, 0x0c, 0x00, 0x00, 0x00, 0x00, 0x00, 0x06, 0x00, 
	0x08, 0x00, 0x07, 0x00, 0x06, 0x00, 0x00, 0x00, 0x00, 0x00, 0x00, 0x01, 
	0x01, 0x00, 0x00, 0x00, 0x09, 0x00, 0x00, 0x00, 0x03, 0x00, 0x00, 0x00, 
	0x00, 0x00, 0x00, 0x00, 0x05, 0x00, 0x00, 0x00, 0x01, 0x00, 0x00, 0x00, 
	0x00, 0x00, 0x0a, 0x00, 0x0c, 0x00, 0x07, 0x00, 0x00, 0x00, 0x08, 0x00, 
	0x0a, 0x00, 0x00, 0x00, 0x00, 0x00, 0x00, 0x09, 0x01, 0x00, 0x00, 0x00, 
	0x22, 0xdf, 0xff, 0xff, 0x10, 0x00, 0x00, 0x00, 0x0a, 0x00, 0x00, 0x00, 
	0x14, 0x00, 0x00, 0x00, 0x48, 0x00, 0x00, 0x00, 0x02, 0x00, 0x00, 0x00, 
	0x01, 0x00, 0x00, 0x00, 0x10, 0x00, 0x00, 0x00, 0x30, 0x00, 0x00, 0x00, 
	0x6d, 0x6f, 0x64, 0x65, 0x6c, 0x5f, 0x32, 0x31, 0x2f, 0x64, 0x65, 0x6e, 
	0x73, 0x65, 0x5f, 0x32, 0x36, 0x2f, 0x52, 0x65, 0x6c, 0x75, 0x3b, 0x6d, 
	0x6f, 0x64, 0x65, 0x6c, 0x5f, 0x32, 0x31, 0x2f, 0x64, 0x65, 0x6e, 0x73, 
	0x65, 0x5f, 0x32, 0x36, 0x2f, 0x42, 0x69, 0x61, 0x73, 0x41, 0x64, 0x64, 
	0x00, 0x00, 0x00, 0x00, 0x38, 0xdf, 0xff, 0xff, 0x26, 0xe0, 0xff, 0xff, 
	0x04, 0x00, 0x00, 0x00, 0x40, 0x00, 0x00, 0x00, 0x44, 0xb8, 0xaf, 0xbe, 
	0x8b, 0xef, 0x11, 0xbd, 0x8d, 0x5b, 0xdb, 0xbd, 0x5a, 0xb0, 0xa8, 0xbe, 
	0xd2, 0xd0, 0xd9, 0x3e, 0x4e, 0x90, 0x06, 0x3f, 0xe0, 0x41, 0xa5, 0x3e, 
	0x58, 0x08, 0x25, 0xbe, 0xb3, 0xb5, 0xbf, 0xbe, 0xc6, 0x89, 0xcb, 0xbe, 
	0x5a, 0x56, 0xc7, 0xbe, 0x9b, 0xfa, 0x10, 0x3f, 0xdf, 0xf1, 0x13, 0x3f, 
	0x40, 0x79, 0x03, 0x3f, 0xb8, 0x89, 0xbc, 0x3e, 0xba, 0xd2, 0xa2, 0x3e, 
	0xca, 0xdf, 0xff, 0xff, 0x10, 0x00, 0x00, 0x00, 0x09, 0x00, 0x00, 0x00, 
	0x14, 0x00, 0x00, 0x00, 0x30, 0x00, 0x00, 0x00, 0x02, 0x00, 0x00, 0x00, 
	0x01, 0x00, 0x00, 0x00, 0x10, 0x00, 0x00, 0x00, 0x18, 0x00, 0x00, 0x00, 
	0x6d, 0x6f, 0x64, 0x65, 0x6c, 0x5f, 0x32, 0x31, 0x2f, 0x64, 0x65, 0x6e, 
	0x73, 0x65, 0x5f, 0x32, 0x39, 0x2f, 0x4d, 0x61, 0x74, 0x4d, 0x75, 0x6c, 
	0x00, 0x00, 0x00, 0x00, 0xc8, 0xdf, 0xff, 0xff, 0xb6, 0xe0, 0xff, 0xff, 
	0x04, 0x00, 0x00, 0x00, 0x00, 0x08, 0x00, 0x00, 0x56, 0x8a, 0x9f, 0x3e, 
	0x49, 0xed, 0x66, 0xbe, 0x9e, 0x0f, 0x63, 0x3e, 0xae, 0x02, 0x6b, 0xbe, 
	0x56, 0x1d, 0x57, 0xbe, 0x16, 0x30, 0xad, 0x3d, 0x2e, 0x25, 0x43, 0x3d, 
	0xc0, 0xd7, 0x32, 0x3c, 0x13, 0x8b, 0x55, 0xbd, 0x85, 0xa3, 0x14, 0xbb, 
	0x4d, 0xbb, 0x4d, 0xbe, 0x35, 0x87, 0x24, 0x3e, 0x34, 0x09, 0x64, 0xbe, 
	0x9b, 0xb3, 0x45, 0xbe, 0x60, 0x2d, 0x74, 0xbd, 0xab, 0xc9, 0x88, 0xbe, 
	0x3e, 0xe6, 0x25, 0x3e, 0xdb, 0xca, 0x8a, 0xbe, 0x43, 0xb1, 0xcd, 0xbd, 
	0x85, 0x7f, 0x68, 0xbe, 0xcd, 0x6d, 0x20, 0x3e, 0xdc, 0xf8, 0xaf, 0xbe, 
	0x18, 0x88, 0x85, 0xbe, 0x61, 0x9c, 0xa0, 0xbe, 0x3e, 0xed, 0x2b, 0xbe, 
	0x18, 0xce, 0x6b, 0xbe, 0xc7, 0x9d, 0x8a, 0xbe, 0xab, 0x76, 0x09, 0xbc, 
	0x3c, 0x5b, 0x45, 0xbd, 0xfa, 0x24, 0x48, 0x3e, 0xee, 0xca, 0x01, 0xbe, 
	0x53, 0xbb, 0x94, 0xbe, 0xd8, 0x64, 0x5b, 0x3e, 0xd4, 0xb8, 0xfe, 0xbd, 
	0x56, 0x61, 0x75, 0x3e, 0xda, 0x49, 0x50, 0xbd, 0x01, 0xd8, 0x37, 0xbd, 
	0x2a, 0x80, 0x49, 0x3e, 0x40, 0x5c, 0xf4, 0xbd, 0x8a, 0x19, 0xa9, 0xbe, 
	0x29, 0x76, 0x9b, 0x3e, 0x0c, 0x9f, 0x14, 0xbe, 0xfc, 0x0d, 0x1a, 0x3d, 
	0x56, 0x1a, 0x41, 0x3d, 0x39, 0x9f, 0x42, 0x3d, 0x44, 0x3d, 0xbf, 0xbe, 
	0x1f, 0x2a, 0x5a, 0xbe, 0x6e, 0x56, 0x7a, 0x3e, 0xd1, 0x74, 0x6b, 0xbe, 
	0x87, 0x34, 0xab, 0xbe, 0x91, 0x97, 0xc2, 0xbe, 0x3d, 0xc2, 0xa1, 0xbe, 
	0x9b, 0xd5, 0x06, 0xbd, 0xe8, 0x75, 0x64, 0x3e, 0x96, 0xc1, 0x6c, 0xbc, 
	0xbf, 0x9c, 0x98, 0xbe, 0xfa, 0xb1, 0xa9, 0x3d, 0xd4, 0x10, 0x8b, 0xbe, 
	0x80, 0xa2, 0xc7, 0x3d, 0x4d, 0x8e, 0x41, 0xbe, 0x2d, 0x1f, 0x71, 0xbe, 
	0xcc, 0x0d, 0x0c, 0x3d, 0x5c, 0xef, 0x65, 0xbe, 0xdd, 0x45, 0x75, 0xbd, 
	0xba, 0x28, 0x0a, 0x3e, 0x10, 0x5f, 0x6c, 0xbe, 0x4e, 0xe1, 0x83, 0xbd, 
	0x59, 0x49, 0x9f, 0x3e, 0xd8, 0xd6, 0x06, 0xbd, 0x1a, 0x84, 0x5f, 0x3e, 
	0xc2, 0xe8, 0xf1, 0x3d, 0xbe, 0xd8, 0xb8, 0xbe, 0x32, 0xaf, 0x02, 0xbd, 
	0x3e, 0xcb, 0x31, 0x3e, 0xd9, 0x68, 0xb9, 0xbe, 0x5b, 0x43, 0xd1, 0xbd, 
	0xed, 0x31, 0x83, 0x3d, 0x1e, 0x63, 0x79, 0x3e, 0x50, 0x22, 0x3c, 0xbe, 
	0x87, 0x25, 0x54, 0xbe, 0xe1, 0xdb, 0x9f, 0x3e, 0x99, 0xaf, 0x78, 0x3e, 
	0x17, 0x42, 0x9b, 0x3e, 0x16, 0x05, 0x10, 0x3e, 0xac, 0xbf, 0xb9, 0xbc, 
	0x57, 0x46, 0xa1, 0xbe, 0x23, 0x21, 0x96, 0x3e, 0x27, 0x2d, 0xc4, 0xbe, 
	0xba, 0x33, 0x4f, 0xbe, 0x08, 0xb2, 0x9f, 0xbe, 0x15, 0xab, 0x1d, 0xbe, 
	0xda, 0xed, 0xab, 0xbe, 0xbf, 0xce, 0xd9, 0xbd, 0x83, 0x67, 0x5b, 0xbe, 
	0xb0, 0x0e, 0xab, 0x3d, 0x5e, 0x28, 0x9a, 0xbe, 0x32, 0x35, 0x24, 0xbe, 
	0x11, 0xa3, 0xef, 0xbd, 0xab, 0x49, 0xf7, 0x3d, 0xef, 0xab, 0x48, 0xbe, 
	0x0b, 0xda, 0x43, 0x3e, 0x8f, 0x51, 0x36, 0x3e, 0xfb, 0xd5, 0x1d, 0x3c, 
	0x41, 0x20, 0xbf, 0xbd, 0x87, 0x98, 0x1a, 0x3e, 0x79, 0x7d, 0x8d, 0x3e, 
	0x32, 0xab, 0xd1, 0x3c, 0xd0, 0x94, 0x84, 0xbe, 0x93, 0x61, 0x8b, 0xbe, 
	0x55, 0x6e, 0x85, 0x3e, 0xec, 0x41, 0x49, 0x3e, 0x86, 0xfb, 0xf4, 0x3c, 
	0x5d, 0x98, 0x34, 0x3d, 0x75, 0x54, 0x75, 0x3e, 0xf8, 0xd4, 0xa2, 0xbe, 
	0x37, 0x8c, 0x81, 0xbe, 0x91, 0xe7, 0xbe, 0x3d, 0xe9, 0x47, 0xde, 0xbd, 
	0x2c, 0xea, 0x8f, 0x3e, 0x21, 0x72, 0xf9, 0xbd, 0xb8, 0xc3, 0x15, 0x3e, 
	0x9f, 0x8f, 0x1c, 0x3d, 0x19, 0x29, 0x3e, 0xbe, 0x08, 0xaf, 0x33, 0xbe, 
	0x67, 0x4c, 0x2a, 0xbe, 0x6f, 0x92, 0x64, 0xbd, 0x55, 0x9f, 0x7c, 0xbe, 
	0x91, 0xd3, 0xc0, 0xbe, 0xf3, 0x7f, 0x19, 0x3e, 0xe0, 0x7c, 0x29, 0x3e, 
	0xdd, 0x64, 0x55, 0x3e, 0x75, 0xf8, 0x02, 0x3f, 0x40, 0xfe, 0x18, 0x3f, 
	0x5a, 0xda, 0xeb, 0x3e, 0xc4, 0x8b, 0xfc, 0x3d, 0xa3, 0xdf, 0x2f, 0x3f, 
	0xd0, 0x16, 0x4c, 0x3e, 0x90, 0xf5, 0xb0, 0x3d, 0x9b, 0x4d, 0x84, 0x3d, 
	0xac, 0x99, 0x5b, 0x3d, 0x3b, 0xe9, 0xfa, 0x3e, 0x12, 0x25, 0xbd, 0x3e, 
	0x1a, 0x0f, 0x50, 0xbd, 0x1c, 0xf8, 0x0a, 0x3f, 0x98, 0x50, 0x14, 0x3f, 
	0xb6, 0x61, 0xc4, 0x3e, 0x2c, 0x78, 0x2d, 0x3e, 0x1e, 0xf8, 0x3d, 0x3d, 
	0x89, 0x3b, 0x26, 0x3e, 0xb2, 0x4d, 0x78, 0x3e, 0x6d, 0x86, 0x0e, 0x3f, 
	0x2f, 0x34, 0x10, 0x3e, 0x26, 0xe2, 0x0f, 0x3f, 0xdf, 0xdb, 0x08, 0x3f, 
	0x0f, 0x08, 0x07, 0x3f, 0xd3, 0x23, 0xfd, 0x3d, 0x94, 0x48, 0xdf, 0x3c, 
	0x42, 0x40, 0xdf, 0x3e, 0x7f, 0xdf, 0x18, 0x3e, 0x9e, 0xaa, 0x07, 0x3e, 
	0x48, 0x05, 0xfc, 0x3d, 0xec, 0x12, 0xa9, 0xbd, 0xed, 0x10, 0xe5, 0x3c, 
	0xa7, 0x63, 0xfc, 0x3e, 0x24, 0xe2, 0xe5, 0x3e, 0x99, 0x24, 0xae, 0x3e, 
	0x14, 0xdc, 0x26, 0x3f, 0x84, 0xb7, 0x4d, 0x3f, 0x2e, 0x6c, 0x64, 0x3c, 
	0xb5, 0xcf, 0x9e, 0x3d, 0xb1, 0x4e, 0xd5, 0x3e, 0xbf, 0x63, 0x84, 0x3e, 
	0xd4, 0xd7, 0xbc, 0x3c, 0x2c, 0xba, 0xcb, 0x3e, 0x5b, 0x07, 0x7e, 0xbc, 
	0xf6, 0xae, 0x42, 0x3e, 0xb2, 0x92, 0x32, 0x3e, 0x28, 0x88, 0x89, 0x3e, 
	0x0f, 0x4a, 0x08, 0x3f, 0x55, 0x4c, 0x88, 0x3e, 0xd2, 0x04, 0x4c, 0xbd, 
	0x8c, 0xb3, 0x9f, 0x3e, 0x16, 0xfc, 0xc5, 0x3e, 0x08, 0x68, 0x8c, 0x3e, 
	0xff, 0xa3, 0xec, 0x3e, 0xd5, 0xb1, 0x08, 0x3f, 0xc5, 0xf5, 0x16, 0x3f, 
	0x83, 0xb8, 0xd2, 0x3e, 0xf9, 0xde, 0xbf, 0xbe, 0x62, 0x95, 0x74, 0x3e, 
	0x27, 0x7f, 0xa0, 0xbd, 0xb1, 0x12, 0x9e, 0x3d, 0x2e, 0xaf, 0x7d, 0x3d, 
	0xae, 0x16, 0x15, 0x3f, 0x1b, 0x67, 0xdd, 0x3e, 0xa9, 0xce, 0x57, 0x3f, 
	0x0b, 0x95, 0x05, 0x3f, 0x4d, 0x6b, 0xd9, 0x3e, 0xb8, 0xb1, 0xab, 0x3e, 
	0x51, 0x3f, 0xef, 0x3e, 0x11, 0xd7, 0xee, 0x3e, 0xa1, 0x68, 0xab, 0x3e, 
	0x8d, 0xec, 0x06, 0x3f, 0xe0, 0x0c, 0xa4, 0x3e, 0xb0, 0xf4, 0x97, 0x3e, 
	0x98, 0xd5, 0xd4, 0xbd, 0x19, 0x98, 0x2a, 0x3e, 0x60, 0x35, 0xdc, 0x3e, 
	0x7b, 0xb9, 0x8c, 0x3e, 0x8e, 0xd0, 0xde, 0x3e, 0x3f, 0x8f, 0xe2, 0xbd, 
	0x23, 0xd7, 0x11, 0x3f, 0x14, 0xab, 0xab, 0x3e, 0x0d, 0xc1, 0x88, 0xbc, 
	0x52, 0x8c, 0x0d, 0x3f, 0x5d, 0x00, 0xd7, 0x3e, 0x85, 0x8e, 0xc3, 0x3d, 
	0xc6, 0x9c, 0x0a, 0x3e, 0xc8, 0x86, 0x0d, 0x3f, 0x34, 0x3c, 0x9b, 0x3e, 
	0xcc, 0x80, 0x94, 0xbe, 0x96, 0x9a, 0xba, 0x3e, 0x03, 0xf8, 0x87, 0x3e, 
	0x84, 0xba, 0x0d, 0x3f, 0x39, 0x00, 0x64, 0x3d, 0xaf, 0xa8, 0x71, 0xbe, 
	0x45, 0xc6, 0xbf, 0xbd, 0xea, 0x55, 0x5c, 0x3e, 0x7f, 0xcc, 0x42, 0x3e, 
	0xe5, 0xd9, 0x85, 0xbe, 0x01, 0xe6, 0x2a, 0x3e, 0xf1, 0x51, 0xe7, 0x3d, 
	0xf0, 0xdb, 0xe3, 0x3d, 0x4c, 0x0c, 0xfd, 0xbd, 0x0d, 0x09, 0xb5, 0xbe, 
	0x3c, 0x29, 0x64, 0x3e, 0xd3, 0xb9, 0x21, 0xbe, 0x6f, 0x67, 0x8e, 0x3e, 
	0x86, 0x85, 0x91, 0xbd, 0x7f, 0xdf, 0x0b, 0xbe, 0xcc, 0x34, 0x5b, 0x3e, 
	0x53, 0x4d, 0x64, 0xbd, 0xd8, 0x74, 0xa9, 0x3c, 0x9b, 0x1d, 0x03, 0xbd, 
	0x63, 0xb7, 0xb7, 0xbe, 0x4d, 0x16, 0x7d, 0xbe, 0x1f, 0x14, 0x00, 0xbe, 
	0x46, 0xad, 0x01, 0x3e, 0xbb, 0xbf, 0xed, 0xbd, 0x89, 0x52, 0x67, 0x3e, 
	0x22, 0x63, 0x96, 0xbe, 0x25, 0x5f, 0xbf, 0xbe, 0x05, 0x8b, 0x14, 0xbe, 
	0x35, 0x68, 0x08, 0x3e, 0x87, 0x3b, 0x22, 0xbe, 0x0a, 0x48, 0x1f, 0x3e, 
	0xa5, 0x94, 0x9a, 0x3e, 0x5e, 0xf2, 0x6e, 0x3e, 0x75, 0xaa, 0x15, 0x3d, 
	0x49, 0x7a, 0x86, 0xbe, 0x25, 0x4d, 0x99, 0xbe, 0x1d, 0x8f, 0x45, 0xbe, 
	0xd9, 0xd1, 0xa4, 0xbd, 0xc1, 0x01, 0x8f, 0xbd, 0x09, 0x29, 0x7c, 0xbd, 
	0x42, 0x9d, 0x71, 0x3e, 0x57, 0xdd, 0x86, 0xbe, 0xca, 0xea, 0x4f, 0xbd, 
	0xa6, 0x3b, 0xc2, 0xbe, 0xc6, 0x29, 0x7f, 0xbe, 0x33, 0x5b, 0x01, 0x3e, 
	0xd9, 0x0e, 0x1f, 0x3e, 0xac, 0x4a, 0x11, 0xbe, 0xe8, 0x9c, 0xcc, 0xbe, 
	0x50, 0x8f, 0xa6, 0x3e, 0xe7, 0x8c, 0x85, 0x3d, 0x98, 0x31, 0x41, 0xbe, 
	0xc6, 0xce, 0x9e, 0x3e, 0x11, 0x5c, 0x8b, 0x3e, 0x44, 0x48, 0x7f, 0xbe, 
	0x8c, 0x7f, 0x73, 0x3d, 0xa2, 0x47, 0x3b, 0x3d, 0xf0, 0xef, 0x01, 0x3f, 
	0x4d, 0xdf, 0x7c, 0xbe, 0xdb, 0x0c, 0x86, 0xbd, 0x49, 0x7b, 0x27, 0xbe, 
	0x48, 0xff, 0x85, 0x3e, 0xed, 0xa6, 0xbc, 0xbe, 0x7c, 0xcb, 0x52, 0xbe, 
	0xf0, 0xf7, 0x57, 0x3e, 0x24, 0xbd, 0xf7, 0x3d, 0x37, 0xa4, 0x38, 0x3e, 
	0x0c, 0x14, 0x92, 0xbe, 0xea, 0x2b, 0x24, 0xbe, 0x4b, 0x58, 0x8d, 0x3d, 
	0x55, 0xad, 0xd3, 0xbd, 0x39, 0x9d, 0xf1, 0x3d, 0x2c, 0xc1, 0xab, 0xbe, 
	0x43, 0x57, 0x8b, 0x3d, 0xf3, 0x90, 0xfd, 0xbd, 0x29, 0x3c, 0x47, 0xbe, 
	0x13, 0x03, 0xb5, 0xbd, 0xfb, 0xef, 0xbd, 0xbd, 0xce, 0x47, 0x1c, 0x3e, 
	0x88, 0xf5, 0xe1, 0xbe, 0xd3, 0x60, 0xad, 0xbe, 0x21, 0x74, 0xc2, 0x3c, 
	0x65, 0xb2, 0xb5, 0xbd, 0x6d, 0x90, 0x82, 0x3e, 0x8d, 0x57, 0x11, 0x3e, 
	0x32, 0x32, 0x02, 0xbd, 0x83, 0xff, 0x71, 0x3e, 0xe0, 0x42, 0xc5, 0x3d, 
	0x6e, 0xf1, 0x1a, 0x3e, 0x54, 0xb9, 0x3a, 0xbd, 0x33, 0x69, 0xeb, 0x3d, 
	0x49, 0xc9, 0x94, 0xbe, 0xce, 0x9a, 0xaf, 0x3c, 0xe1, 0x79, 0x92, 0xbe, 
	0xd6, 0x0d, 0xdd, 0xbe, 0xc5, 0xd9, 0xad, 0xbe, 0xe8, 0x75, 0xae, 0xbd, 
	0x9e, 0xb4, 0xb6, 0xbe, 0xb5, 0x59, 0x2f, 0xbe, 0x40, 0xa7, 0x85, 0x3e, 
	0x1a, 0x50, 0x46, 0x3e, 0x29, 0x9d, 0x80, 0x3e, 0x3c, 0x62, 0x04, 0x3e, 
	0x2b, 0x4c, 0x83, 0xbe, 0x69, 0xf4, 0x44, 0xbe, 0xaf, 0x90, 0x0f, 0xbe, 
	0x79, 0x37, 0x6f, 0xbd, 0x47, 0xbd, 0x60, 0x3e, 0xc3, 0xcd, 0xc8, 0xbe, 
	0x02, 0x54, 0x9a, 0xbc, 0x0a, 0x78, 0x6f, 0xbc, 0x32, 0x72, 0xa1, 0x3d, 
	0x16, 0x86, 0x43, 0xbe, 0x92, 0x67, 0x8c, 0x3e, 0xed, 0xe1, 0x72, 0x3d, 
	0xdb, 0xb6, 0xbf, 0xbe, 0x59, 0x7d, 0x73, 0xbe, 0x6e, 0xaa, 0x6e, 0x3e, 
	0xf3, 0xa4, 0x82, 0x3d, 0xe5, 0xb1, 0x79, 0xbe, 0xed, 0xbc, 0xbf, 0xbe, 
	0x0e, 0xa7, 0x39, 0x3e, 0xd4, 0x09, 0x1a, 0xbe, 0x2d, 0x07, 0xb2, 0xbe, 
	0xd8, 0x17, 0x8a, 0xbe, 0x6e, 0xa2, 0x94, 0x3e, 0xce, 0xc6, 0x8e, 0x3e, 
	0xf4, 0x2e, 0xaa, 0xbd, 0x54, 0x30, 0xb8, 0x3e, 0x18, 0xbc, 0xf1, 0x3e, 
	0x4a, 0x33, 0x16, 0x3f, 0xf8, 0x84, 0xf0, 0x3e, 0xa6, 0xe2, 0x65, 0x3e, 
	0x3d, 0x9b, 0x2a, 0x3c, 0x33, 0x80, 0x77, 0x3f, 0x00, 0x99, 0x03, 0x3f, 
	0x93, 0xd7, 0x04, 0x3f, 0xa3, 0x5c, 0xee, 0x3e, 0x04, 0x0c, 0x0f, 0x3e, 
	0x04, 0x7a, 0xb4, 0x3e, 0x20, 0x01, 0xa1, 0x3d, 0x34, 0x01, 0xd8, 0xbd, 
	0xc7, 0x90, 0x91, 0x3e, 0x95, 0x4b, 0xb9, 0x3d, 0x35, 0x01, 0x0a, 0x3f, 
	0x29, 0x40, 0x8d, 0x3e, 0xef, 0xe9, 0x08, 0x3f, 0x63, 0xf2, 0x5a, 0x3d, 
	0xce, 0x56, 0x32, 0x3e, 0x70, 0xe8, 0x39, 0x3f, 0x0b, 0x6b, 0xcb, 0x3e, 
	0x30, 0x0c, 0x0a, 0x3d, 0x47, 0x92, 0x8f, 0xbd, 0x3a, 0x70, 0x87, 0x3f, 
	0xca, 0xab, 0xfb, 0x3d, 0x97, 0xee, 0xb7, 0xbe, 0xa8, 0x8b, 0x02, 0x3e, 
	0x5a, 0xc3, 0x13, 0x3f, 0x6b, 0xba, 0xb7, 0x3e, 0x18, 0x33, 0x0e, 0x3f, 
	0x04, 0xd3, 0x0f, 0x3f, 0x25, 0x29, 0x47, 0x3e, 0xf0, 0xff, 0x11, 0x3f, 
	0xf4, 0x89, 0xdf, 0x3e, 0x7f, 0xaf, 0x94, 0x3d, 0xd9, 0xb0, 0x7e, 0x3e, 
	0x09, 0x88, 0x71, 0x3f, 0x40, 0xd4, 0x68, 0x3e, 0x30, 0x54, 0x7b, 0x3e, 
	0xd3, 0x36, 0xc4, 0xbd, 0xa8, 0x6a, 0x05, 0x3f, 0x2b, 0xc8, 0xaa, 0x3e, 
	0xf5, 0x60, 0x08, 0x3f, 0xcd, 0x6e, 0x40, 0xbd, 0xab, 0x49, 0xa7, 0x3d, 
	0x08, 0x82, 0xad, 0x3d, 0x72, 0x50, 0xde, 0x3e, 0x5f, 0xf1, 0x93, 0xbd, 
	0xd8, 0x65, 0xc4, 0xbc, 0x26, 0xa9, 0xd1, 0x3c, 0x99, 0x37, 0x72, 0x3e, 
	0xa8, 0x5e, 0x80, 0x3e, 0x97, 0x12, 0x6b, 0x3e, 0x98, 0x3a, 0xa7, 0x3e, 
	0x2d, 0x1a, 0xca, 0x3e, 0x6f, 0xf5, 0x8a, 0x3f, 0x19, 0x58, 0xa7, 0x3e, 
	0x81, 0x37, 0xb4, 0xbe, 0x67, 0x6b, 0xb7, 0x3d, 0x4a, 0x10, 0x77, 0x3d, 
	0xb3, 0x69, 0xd0, 0x3d, 0x1c, 0x96, 0xd6, 0x3e, 0x15, 0x24, 0x12, 0x3f, 
	0xe5, 0xc6, 0x0c, 0x3f, 0xc8, 0x33, 0x66, 0x3f, 0xa4, 0xe3, 0x5c, 0x3e, 
	0xf8, 0x87, 0x2a, 0x3e, 0xe6, 0xae, 0xea, 0x3e, 0x53, 0x55, 0xc7, 0x3e, 
	0xf2, 0x68, 0xac, 0xbd, 0xfb, 0xbe, 0x44, 0x3e, 0xdd, 0x73, 0x02, 0x3f, 
	0x75, 0xe7, 0x98, 0x3e, 0x6a, 0xb2, 0x98, 0x3e, 0x12, 0x62, 0x05, 0x3e, 
	0x88, 0xbd, 0x21, 0xbd, 0x18, 0xb5, 0xaf, 0x3e, 0xb5, 0xa7, 0x00, 0x3f, 
	0xc8, 0x12, 0xd4, 0x3d, 0x30, 0x83, 0x39, 0x3e, 0x54, 0xec, 0xe7, 0x3e, 
	0x54, 0x30, 0xb5, 0x3e, 0x7b, 0xf7, 0x91, 0x3e, 0xb3, 0x95, 0x01, 0x3f, 
	0xbb, 0x96, 0xeb, 0x3e, 0x61, 0x09, 0x63, 0x3c, 0x76, 0x1d, 0xe4, 0x3e, 
	0x3e, 0x9c, 0x3f, 0x3f, 0xf4, 0x3c, 0x08, 0x3f, 0x92, 0x99, 0x7b, 0x3d, 
	0x17, 0x79, 0xa1, 0x3e, 0x3d, 0x98, 0x04, 0x3d, 0xf2, 0xfe, 0xce, 0x3e, 
	0x7a, 0x98, 0x25, 0xbd, 0x3d, 0x4f, 0x21, 0x3e, 0x3f, 0xbf, 0xf8, 0x3e, 
	0xb1, 0x7c, 0x34, 0x3f, 0xd0, 0xec, 0x73, 0x3d, 0xa8, 0x8b, 0xf9, 0x3e, 
	0xff, 0x78, 0x8f, 0x3e, 0x7e, 0xf2, 0x83, 0x3f, 0x15, 0xe8, 0x90, 0x3e, 
	0xeb, 0x2c, 0x12, 0x3f, 0xc0, 0x15, 0x07, 0xbd, 0xaa, 0x14, 0x3a, 0x3e, 
	0xf4, 0x60, 0x91, 0xbd, 0x3c, 0xd9, 0xe2, 0x3e, 0x3e, 0xbd, 0xeb, 0x3c, 
	0x99, 0xe7, 0xa5, 0x3e, 0x83, 0x1b, 0x1d, 0x3f, 0x48, 0x43, 0x24, 0xbd, 
	0x13, 0x7b, 0x0f, 0x3f, 0x8e, 0x7b, 0xda, 0x3e, 0x23, 0x9d, 0x7e, 0xbb, 
	0x87, 0x06, 0xb8, 0x3e, 0x1e, 0x1e, 0x37, 0x3f, 0x87, 0xa8, 0xd9, 0x3e, 
	0x04, 0xa8, 0x50, 0x3e, 0x10, 0x22, 0x96, 0x3d, 0xff, 0x00, 0x99, 0x3f, 
	0x34, 0xbf, 0xe3, 0x3e, 0xbd, 0x57, 0x87, 0x3d, 0x62, 0x01, 0xc7, 0x3e, 
	0x7a, 0xd2, 0x6c, 0x3e, 0x25, 0x0a, 0xaf, 0xbc, 0x68, 0xc9, 0x8f, 0x3c, 
	0x9c, 0x10, 0x12, 0x3f, 0x99, 0x50, 0x55, 0x3e, 0x67, 0x09, 0x68, 0x3f, 
	0x0d, 0x91, 0x18, 0x3f, 0x81, 0x52, 0x07, 0x3f, 0xde, 0x47, 0xf2, 0x3e, 
	0xc7, 0x1f, 0x38, 0x3f, 0xdf, 0x01, 0xcf, 0xbb, 0x00, 0x43, 0x6c, 0x3d, 
	0x8e, 0x75, 0xd0, 0xbd, 0xab, 0x01, 0x69, 0x3e, 0x8e, 0x26, 0x43, 0x3e, 
	0x56, 0x1e, 0xb0, 0x3e, 0x22, 0x3b, 0x83, 0xbd, 0x83, 0x66, 0xdb, 0x3e, 
	0xf7, 0xa3, 0xf6, 0x3e, 0x9f, 0xff, 0x91, 0xbb, 0x47, 0xb1, 0x46, 0xbd, 
	0x15, 0x61, 0xd9, 0xbc, 0xb4, 0x9d, 0xb7, 0x3e, 0x14, 0x9e, 0x1f, 0x3f, 
	0xbd, 0x3b, 0xcf, 0x3e, 0x59, 0x18, 0x4a, 0x3e, 0x52, 0xaf, 0x1d, 0x3f, 
	0x2e, 0x92, 0xf9, 0x3e, 0xcd, 0x3b, 0x97, 0x3f, 0x34, 0xc1, 0x3f, 0x3f, 
	0x05, 0x37, 0x59, 0xbe, 0xfe, 0x60, 0x17, 0x3f, 0x7d, 0xc9, 0xdf, 0x3e, 
	0x8f, 0xf0, 0x0b, 0x3e, 0x1a, 0xe8, 0xff, 0xff, 0x10, 0x00, 0x00, 0x00, 
	0x08, 0x00, 0x00, 0x00, 0x14, 0x00, 0x00, 0x00, 0x30, 0x00, 0x00, 0x00, 
	0x02, 0x00, 0x00, 0x00, 0x10, 0x00, 0x00, 0x00, 0x20, 0x00, 0x00, 0x00, 
	0x18, 0x00, 0x00, 0x00, 0x6d, 0x6f, 0x64, 0x65, 0x6c, 0x5f, 0x32, 0x31, 
	0x2f, 0x64, 0x65, 0x6e, 0x73, 0x65, 0x5f, 0x32, 0x38, 0x2f, 0x4d, 0x61, 
	0x74, 0x4d, 0x75, 0x6c, 0x00, 0x00, 0x00, 0x00, 0x18, 0xe8, 0xff, 0xff, 
	0x06, 0xe9, 0xff, 0xff, 0x04, 0x00, 0x00, 0x00, 0x00, 0x08, 0x00, 0x00, 
	0xa0, 0x0c, 0xff, 0xbe, 0xa6, 0x33, 0x2b, 0x3d, 0x48, 0x7b, 0x7a, 0x3d, 
	0x98, 0x62, 0x78, 0xbe, 0x9c, 0x95, 0x07, 0xbe, 0xef, 0xde, 0x93, 0x3c, 
	0xb6, 0x87, 0x9a, 0xbe, 0x62, 0x7e, 0xaa, 0x3e, 0x75, 0x66, 0xea, 0x3e, 
	0xbf, 0xf7, 0xc7, 0x3e, 0xc7, 0x00, 0x39, 0xbf, 0x23, 0x1a, 0x0a, 0xbf, 
	0x04, 0xb6, 0xcf, 0x3e, 0x14, 0x1b, 0xde, 0x3d, 0x83, 0x1d, 0x04, 0xbe, 
	0x2a, 0x56, 0x33, 0xbd, 0x72, 0xb4, 0x46, 0xbf, 0xb5, 0xfd, 0x17, 0xbe, 
	0xdf, 0x8f, 0x14, 0xbe, 0x1e, 0x90, 0x11, 0xbf, 0xa0, 0x24, 0x75, 0x3e, 
	0xb5, 0x04, 0xe1, 0x3d, 0x33, 0xda, 0x2f, 0xbd, 0x46, 0xa9, 0xbe, 0x3d, 
	0x05, 0x47, 0x04, 0x3e, 0x05, 0x6d, 0x81, 0x3e, 0x6a, 0x3e, 0xc8, 0xbe, 
	0xdb, 0x90, 0xff, 0xbe, 0xe4, 0x13, 0x41, 0x3e, 0xd8, 0x03, 0xb5, 0xbd, 
	0x85, 0x02, 0x97, 0x3e, 0x9f, 0xab, 0x89, 0x3e, 0xdb, 0xc4, 0x73, 0xbe, 
	0x0a, 0x94, 0xd9, 0x3e, 0x67, 0xd5, 0x8f, 0x3e, 0xa8, 0x54, 0xe4, 0xbe, 
	0x58, 0x6d, 0xab, 0xbd, 0x52, 0x40, 0xf0, 0xbd, 0x25, 0x6f, 0x31, 0x3d, 
	0x3c, 0xbc, 0xdf, 0x3e, 0x31, 0x57, 0x59, 0xbe, 0xcc, 0xb8, 0x98, 0x3d, 
	0xfd, 0xeb, 0x01, 0xbf, 0xbc, 0xf1, 0xf7, 0xbe, 0x07, 0x5e, 0x91, 0x3e, 
	0x52, 0xa9, 0x7a, 0xbe, 0xec, 0x62, 0x8c, 0xbd, 0x75, 0x12, 0xb5, 0x3c, 
	0x93, 0x83, 0x72, 0xbe, 0x12, 0x2d, 0x63, 0xbb, 0xec, 0xc4, 0x8a, 0xbe, 
	0x0b, 0xa7, 0x09, 0xbf, 0x22, 0x2b, 0x88, 0x3e, 0xab, 0xdc, 0x78, 0x3e, 
	0x4b, 0x4e, 0x25, 0xbd, 0x37, 0x99, 0xd2, 0xbe, 0x38, 0xed, 0x66, 0x3d, 
	0x03, 0x18, 0x53, 0xbe, 0xf4, 0xf7, 0xe6, 0xbe, 0xdf, 0x6c, 0xa3, 0xbe, 
	0xe4, 0x42, 0x29, 0x3f, 0x40, 0xfe, 0xf3, 0xbb, 0x02, 0xbe, 0x96, 0xbe, 
	0xa9, 0xee, 0x99, 0x3a, 0x25, 0x84, 0x70, 0xbe, 0x9a, 0xe1, 0x56, 0x3d, 
	0x0c, 0xac, 0xe4, 0xbd, 0x35, 0xb9, 0x11, 0xbf, 0xb7, 0x1a, 0x1d, 0xbd, 
	0xc2, 0x45, 0x14, 0x3e, 0xcd, 0x90, 0x17, 0xbd, 0xd0, 0x16, 0x4d, 0x3e, 
	0xee, 0xc7, 0x66, 0x3e, 0xe1, 0x21, 0x29, 0x3c, 0xf4, 0xdb, 0x1a, 0xbf, 
	0x9a, 0xbe, 0x05, 0xbf, 0xb8, 0xb8, 0xd7, 0x3e, 0x35, 0xfb, 0x94, 0x3e, 
	0xbe, 0xe9, 0x71, 0x3e, 0xe1, 0x50, 0x65, 0xbe, 0x3d, 0x88, 0xb3, 0xbe, 
	0x7b, 0x01, 0x53, 0x3e, 0xcc, 0x75, 0x0c, 0x3e, 0x50, 0xdb, 0x09, 0xbf, 
	0xf7, 0xa4, 0xe4, 0x3e, 0x66, 0x03, 0x88, 0xbe, 0xae, 0xc2, 0x82, 0xbe, 
	0x50, 0x7b, 0x08, 0x3e, 0x82, 0x5b, 0x3d, 0xbe, 0x4b, 0x99, 0xe9, 0xbb, 
	0x1f, 0xf3, 0x0b, 0xbf, 0x9d, 0x76, 0x47, 0xbf, 0xcf, 0x5f, 0xad, 0x3e, 
	0xb7, 0xfc, 0x80, 0x3e, 0xf9, 0x46, 0x10, 0xbe, 0x79, 0x1b, 0xb9, 0x3d, 
	0x2a, 0xc7, 0x0b, 0xbf, 0x4d, 0x88, 0x0c, 0x3e, 0xe2, 0x0d, 0x48, 0x3e, 
	0xf1, 0xa2, 0x09, 0xbf, 0x07, 0xd7, 0x88, 0x3e, 0xff, 0x13, 0x3e, 0xbe, 
	0xa4, 0x6f, 0xed, 0x3d, 0xfc, 0xc7, 0x0b, 0x3e, 0x08, 0x30, 0xc3, 0xbd, 
	0x8a, 0xf5, 0xa4, 0x3e, 0xd5, 0x6d, 0x0c, 0xbf, 0x9a, 0xbb, 0x14, 0xbf, 
	0x96, 0x3e, 0x08, 0x3e, 0x64, 0xc6, 0x78, 0xbe, 0x84, 0x29, 0x6c, 0xbe, 
	0x83, 0x64, 0x03, 0xbd, 0x9e, 0x4b, 0x7f, 0xbe, 0x64, 0xab, 0xad, 0x3e, 
	0xab, 0x4d, 0x81, 0xbe, 0x0c, 0x07, 0x26, 0xbf, 0x52, 0xdc, 0xfa, 0xbe, 
	0x99, 0x15, 0x0c, 0xbe, 0xb3, 0x2d, 0xcb, 0xbb, 0xe1, 0xfc, 0xc4, 0xbd, 
	0xcf, 0x34, 0xda, 0xbc, 0xe5, 0x5e, 0xac, 0xbe, 0x4d, 0xa4, 0x29, 0xbf, 
	0x24, 0xa9, 0xb9, 0xbd, 0x44, 0x28, 0x32, 0xbc, 0x2e, 0xc1, 0xe2, 0xbd, 
	0x48, 0x99, 0x7c, 0xbd, 0xcf, 0x6b, 0x39, 0x3f, 0x64, 0x5f, 0x00, 0xbf, 
	0x12, 0xc2, 0x06, 0x3d, 0x28, 0xcb, 0xba, 0x3d, 0xc4, 0x2e, 0x3e, 0xbf, 
	0x44, 0x25, 0xad, 0x3e, 0x2c, 0x8c, 0xed, 0x3d, 0x0a, 0x45, 0x89, 0xbe, 
	0x54, 0xc6, 0xef, 0xbc, 0xcb, 0x33, 0x67, 0x3e, 0x0e, 0xe0, 0xbf, 0xbd, 
	0x56, 0x77, 0x36, 0xbf, 0x95, 0x5f, 0x8b, 0xbe, 0x6e, 0xa5, 0xcc, 0x3e, 
	0x9a, 0x27, 0x49, 0xbe, 0x5c, 0x89, 0xdd, 0x3d, 0x78, 0xa8, 0x5c, 0x3e, 
	0xb1, 0xc8, 0x63, 0xbe, 0x15, 0x52, 0x88, 0x3e, 0xd0, 0x7b, 0x63, 0x3d, 
	0xb4, 0xf6, 0x13, 0xbe, 0x03, 0x1e, 0x28, 0x3c, 0x38, 0x2f, 0x3d, 0xbd, 
	0x27, 0x62, 0x4e, 0x3e, 0x10, 0xe3, 0x94, 0xbc, 0x01, 0xc5, 0xa8, 0x3e, 
	0x41, 0x53, 0xcd, 0x3e, 0xd6, 0x5e, 0xe4, 0xbe, 0x9b, 0xb1, 0x14, 0xbf, 
	0x94, 0x5c, 0xf8, 0x3e, 0x87, 0xb7, 0x93, 0xbe, 0xfa, 0xfe, 0x64, 0x3e, 
	0xdc, 0xb9, 0xe6, 0xbd, 0x24, 0x51, 0xef, 0xbe, 0x22, 0x52, 0xec, 0x3e, 
	0x93, 0xba, 0x94, 0xbe, 0xe5, 0x20, 0xfc, 0xbe, 0x2c, 0x73, 0x05, 0x3e, 
	0x1c, 0x16, 0x62, 0x3d, 0x87, 0x6b, 0x58, 0x3e, 0x45, 0xe4, 0x97, 0x3e, 
	0x51, 0x5a, 0x71, 0x3d, 0xff, 0x7e, 0xf2, 0x3e, 0x70, 0x20, 0x83, 0x3d, 
	0x3e, 0xab, 0xeb, 0xbe, 0xcc, 0xc1, 0xa7, 0x3e, 0x73, 0xd3, 0xb2, 0x3e, 
	0xc0, 0x97, 0x16, 0xbe, 0x56, 0xeb, 0xb5, 0x3d, 0x49, 0xe8, 0x1c, 0xbd, 
	0x5f, 0xc1, 0x3d, 0x3e, 0xf5, 0x94, 0x95, 0xbe, 0x21, 0x14, 0x28, 0xbe, 
	0xb9, 0x81, 0x68, 0x3e, 0xb2, 0xc3, 0x92, 0xbd, 0xbb, 0xfd, 0x45, 0x3c, 
	0xad, 0x4f, 0x8c, 0x3d, 0x0b, 0x6d, 0xf7, 0x3e, 0x3a, 0xd2, 0xed, 0x3d, 
	0x6a, 0x25, 0xac, 0xbe, 0x9d, 0x3f, 0x8d, 0xbe, 0x5f, 0xcc, 0xfc, 0x3d, 
	0x3a, 0x2e, 0xf9, 0xbd, 0xec, 0x84, 0x80, 0x3d, 0xa4, 0x70, 0xa8, 0x3d, 
	0x0a, 0xe6, 0xe1, 0xbe, 0x58, 0x0c, 0xba, 0x3e, 0xb0, 0xde, 0x47, 0xbd, 
	0xdf, 0xee, 0xe7, 0xbe, 0x02, 0x60, 0xe1, 0x3e, 0xf5, 0x07, 0x88, 0x3c, 
	0x30, 0xdc, 0x44, 0xbc, 0xa5, 0x3d, 0x05, 0x3f, 0xcd, 0xf3, 0xd2, 0x3e, 
	0x3d, 0x54, 0x00, 0x3f, 0x32, 0xa6, 0xb5, 0xbe, 0x3f, 0x22, 0x9e, 0xbe, 
	0x47, 0x84, 0x7e, 0x3c, 0xc6, 0x34, 0x30, 0x3e, 0xc4, 0x05, 0xdb, 0x3d, 
	0x4b, 0x97, 0xb9, 0x3e, 0xfe, 0x98, 0xc7, 0x3d, 0x1d, 0xe2, 0xda, 0x3e, 
	0xf4, 0x5e, 0x24, 0xbe, 0x09, 0x72, 0xc5, 0xbe, 0xe2, 0xfb, 0x8f, 0x3e, 
	0xde, 0x87, 0x2a, 0xbe, 0x34, 0xa2, 0x66, 0xbe, 0x1b, 0x42, 0x01, 0xbe, 
	0xac, 0xfc, 0xed, 0x3e, 0x4d, 0xde, 0xcc, 0x3e, 0x82, 0xbe, 0xd4, 0xbe, 
	0x5b, 0xb9, 0xaf, 0xbe, 0x1f, 0xd4, 0x9b, 0xbd, 0xb5, 0x51, 0xa3, 0x3e, 
	0xeb, 0xcd, 0x64, 0xbe, 0xeb, 0xd8, 0xf3, 0x3e, 0x34, 0x20, 0xa3, 0x3d, 
	0x95, 0x20, 0x13, 0xbd, 0xb2, 0x54, 0xa7, 0xbe, 0x17, 0x9f, 0x46, 0xbe, 
	0x29, 0xbc, 0x34, 0xbe, 0x7e, 0x4a, 0x00, 0x3e, 0x02, 0xbd, 0x34, 0x3e, 
	0x97, 0x2d, 0xc6, 0xbd, 0x0b, 0x0b, 0xb2, 0xbd, 0x7d, 0x77, 0x88, 0xbe, 
	0xc8, 0x8e, 0xbf, 0xbe, 0x25, 0x27, 0x95, 0xbe, 0x17, 0x42, 0xfd, 0xbd, 
	0x04, 0x9c, 0xb1, 0xbe, 0x90, 0x77, 0x0c, 0x3e, 0xa6, 0x82, 0x12, 0x3e, 
	0x8b, 0x5c, 0xbd, 0xbe, 0x0e, 0x8c, 0x08, 0x3f, 0x0d, 0x71, 0xa0, 0x3e, 
	0x77, 0xe0, 0x10, 0xbf, 0x85, 0xef, 0xeb, 0x3e, 0x54, 0xbb, 0xea, 0x3d, 
	0xc6, 0x1e, 0x47, 0xbe, 0xff, 0xd6, 0x81, 0xbd, 0xe1, 0xd3, 0xd2, 0x3e, 
	0xf0, 0xe7, 0x14, 0x3d, 0x89, 0x10, 0x6a, 0xbe, 0x14, 0xea, 0x17, 0xbe, 
	0xeb, 0xe1, 0x01, 0x3f, 0x96, 0xb8, 0x55, 0x3e, 0x98, 0x1b, 0x07, 0x3d, 
	0x2c, 0x3f, 0xbd, 0xbb, 0x9f, 0x97, 0x40, 0xbf, 0xaf, 0xb4, 0xea, 0xbc, 
	0x3f, 0x72, 0x93, 0x3e, 0xd5, 0x16, 0xb4, 0xbe, 0x52, 0x91, 0xbc, 0x3e, 
	0xf1, 0xde, 0x9b, 0x3e, 0xc1, 0xcf, 0x3b, 0x3e, 0x96, 0xf0, 0x9f, 0x3e, 
	0xbe, 0x47, 0xdf, 0xbd, 0x69, 0x02, 0xa0, 0x3e, 0x91, 0x73, 0x31, 0xbf, 
	0xc2, 0x29, 0x3c, 0xbf, 0x9d, 0x4f, 0xe1, 0x3e, 0x25, 0x1c, 0x99, 0xbe, 
	0x90, 0xd6, 0x03, 0x3e, 0x0f, 0x7b, 0x06, 0x3e, 0x15, 0x4b, 0x15, 0xbf, 
	0xd6, 0x10, 0x58, 0x3e, 0x9f, 0x90, 0x18, 0xbe, 0x87, 0x08, 0x1a, 0xbf, 
	0x26, 0x04, 0xbb, 0x3e, 0xb1, 0x22, 0x49, 0xbd, 0x03, 0x5e, 0x3b, 0xbc, 
	0xb6, 0x76, 0xb7, 0xbd, 0xd8, 0xfe, 0x2b, 0x3e, 0xa6, 0x4b, 0x26, 0x3e, 
	0x0c, 0x71, 0x25, 0xbf, 0xc7, 0x47, 0xe1, 0xbd, 0x8c, 0xba, 0xaf, 0xbd, 
	0xb0, 0x17, 0xdc, 0xbc, 0xc3, 0x2b, 0x94, 0x3e, 0x85, 0x0b, 0xce, 0x3e, 
	0x2e, 0x60, 0x31, 0xbf, 0x42, 0x1f, 0xb6, 0x3c, 0xc0, 0x62, 0x6c, 0xbe, 
	0x90, 0x11, 0xf7, 0xbe, 0x54, 0x7f, 0xd0, 0x3e, 0x27, 0xf6, 0x56, 0xbe, 
	0xe6, 0x05, 0x4b, 0xbd, 0xca, 0x7a, 0x9a, 0x3e, 0xaa, 0x27, 0xa6, 0x3d, 
	0x4a, 0x08, 0x31, 0x3e, 0x53, 0x1a, 0xe2, 0xbe, 0x80, 0x50, 0xf8, 0xbe, 
	0xb8, 0x62, 0x9a, 0x3e, 0x80, 0x34, 0x93, 0xbd, 0xbf, 0xf4, 0x2d, 0xbe, 
	0x47, 0xac, 0xc9, 0x3e, 0x8b, 0xbf, 0xbc, 0xbe, 0xb9, 0x01, 0x70, 0x3e, 
	0x0c, 0x30, 0x09, 0xbe, 0xd0, 0x82, 0x14, 0xbf, 0x4e, 0xcf, 0xc7, 0x3e, 
	0x26, 0x65, 0xf3, 0xbd, 0x62, 0x56, 0x9b, 0xbd, 0x25, 0x3c, 0x03, 0x3e, 
	0xa0, 0x12, 0x12, 0xbe, 0x55, 0xc1, 0xec, 0x3e, 0x17, 0x6a, 0xb6, 0xbe, 
	0x10, 0x0d, 0x16, 0xbf, 0xa8, 0x1b, 0x92, 0x3e, 0xde, 0xad, 0x50, 0x3e, 
	0x00, 0x4e, 0x56, 0xbc, 0x83, 0xeb, 0xd6, 0x3e, 0x25, 0x6a, 0x65, 0xbe, 
	0x50, 0xcc, 0xb2, 0xbd, 0x1e, 0x2b, 0xb2, 0xbe, 0x52, 0x66, 0x5d, 0xbe, 
	0xa5, 0x46, 0x0f, 0x3e, 0xb3, 0x3c, 0x74, 0x3e, 0xcd, 0x2d, 0x99, 0xbe, 
	0x2a, 0xfd, 0xc0, 0x3e, 0x7c, 0x8c, 0x39, 0x3e, 0x5d, 0x66, 0x67, 0x3e, 
	0x7d, 0xf9, 0x8b, 0xbd, 0xda, 0x4b, 0xeb, 0xbd, 0x0b, 0x35, 0xed, 0x3e, 
	0x9d, 0xef, 0x2a, 0xbe, 0x38, 0xab, 0xea, 0xbd, 0x88, 0xe6, 0x29, 0x3e, 
	0x81, 0x5e, 0x36, 0xbf, 0x01, 0xa2, 0x46, 0x3e, 0x52, 0x08, 0x3a, 0x3e, 
	0xf6, 0x3d, 0x13, 0xbf, 0x98, 0x76, 0xb5, 0x3e, 0x6d, 0x25, 0xa7, 0xbe, 
	0xdf, 0x2d, 0x8f, 0xbe, 0x92, 0x8b, 0x59, 0x3e, 0xad, 0x42, 0x9e, 0x3d, 
	0xf8, 0x65, 0xd1, 0xbd, 0xbb, 0x47, 0x38, 0xbf, 0x42, 0xbd, 0xc0, 0xbe, 
	0xcb, 0x02, 0x85, 0xbc, 0xe8, 0x46, 0x04, 0x3d, 0x68, 0x21, 0x2f, 0xbd, 
	0x39, 0x21, 0xa1, 0x3e, 0xd9, 0xbc, 0x37, 0xbf, 0x35, 0x16, 0x79, 0x3e, 
	0xd4, 0x63, 0x97, 0xbe, 0xc4, 0x9e, 0x2d, 0xbf, 0x0f, 0x8f, 0x8d, 0x3e, 
	0x71, 0x9a, 0x9d, 0xbe, 0x30, 0xc1, 0x88, 0x3e, 0x32, 0xc8, 0x94, 0x3d, 
	0xa4, 0x31, 0x06, 0xbe, 0x56, 0xfe, 0x6b, 0x3e, 0x95, 0x19, 0x22, 0xbf, 
	0xe1, 0xaf, 0x90, 0xbe, 0x31, 0x0c, 0x71, 0x3c, 0xc0, 0x61, 0x4b, 0xbe, 
	0x5e, 0xdb, 0x55, 0x3e, 0x0c, 0xfa, 0x29, 0xbe, 0x4c, 0xbe, 0x9f, 0x39, 
	0x29, 0xae, 0xbd, 0x3e, 0x83, 0xee, 0x57, 0xbe, 0x9d, 0x53, 0x7c, 0xbe, 
	0x44, 0xc5, 0xe3, 0x3d, 0xac, 0x46, 0x32, 0xbe, 0xc7, 0xe5, 0x2d, 0xbe, 
	0xd4, 0xe0, 0xd2, 0x3e, 0xab, 0x0f, 0x39, 0xbb, 0xee, 0xb1, 0xd8, 0x3e, 
	0x73, 0x1d, 0x99, 0xbe, 0xa6, 0x05, 0x76, 0xbe, 0xb8, 0x6b, 0xa6, 0x3e, 
	0xe0, 0x66, 0x98, 0xbd, 0xe8, 0xa9, 0xdb, 0xbd, 0x55, 0xea, 0xd3, 0x3e, 
	0x5d, 0xa7, 0x3c, 0xbf, 0x17, 0x55, 0x75, 0x3d, 0xf1, 0xc5, 0x75, 0xbe, 
	0xf2, 0xdc, 0x26, 0xbf, 0x1f, 0x53, 0x86, 0x3e, 0xd7, 0x33, 0x29, 0x3e, 
	0x6d, 0x14, 0x68, 0x3d, 0x42, 0x2b, 0x80, 0xbe, 0xc8, 0xa0, 0x76, 0x3e, 
	0x48, 0x8a, 0xd8, 0x3e, 0xb3, 0xeb, 0xa0, 0xbe, 0xe4, 0xbd, 0x0b, 0xbe, 
	0xf6, 0x43, 0x4a, 0xbe, 0xbd, 0xe7, 0x9e, 0x3e, 0x78, 0xc4, 0x22, 0xbd, 
	0xbd, 0xbf, 0x0a, 0x3e, 0x1e, 0xf7, 0xd4, 0xbe, 0x33, 0x08, 0xda, 0xbd, 
	0x45, 0x65, 0xad, 0x3e, 0x40, 0x30, 0x2b, 0x3d, 0x04, 0x94, 0xf7, 0x3e, 
	0x22, 0x77, 0x80, 0xbe, 0x5c, 0x0f, 0x9c, 0xbe, 0x7a, 0xe7, 0x0b, 0x3e, 
	0x4b, 0x50, 0x9a, 0x3e, 0x52, 0x42, 0xe0, 0x3d, 0xea, 0x68, 0x92, 0x3d, 
	0x40, 0x39, 0x11, 0xbf, 0xad, 0x66, 0x71, 0x3e, 0x18, 0x2b, 0xc0, 0x3d, 
	0x9c, 0x53, 0x8d, 0xbd, 0x4b, 0x4c, 0xe6, 0x3e, 0x3a, 0xee, 0x97, 0x3e, 
	0x63, 0xa4, 0x32, 0x3e, 0xdf, 0xea, 0xa8, 0x3e, 0x49, 0x6c, 0x88, 0x3e, 
	0x22, 0xf7, 0x12, 0xbd, 0x9c, 0xa1, 0x88, 0x3d, 0xdc, 0x57, 0x72, 0xbe, 
	0xd8, 0x8a, 0x03, 0x3e, 0xed, 0xe7, 0xb1, 0x3e, 0x6e, 0x50, 0x46, 0xbf, 
	0x66, 0xc8, 0xbc, 0x3e, 0x96, 0x9b, 0x81, 0x3e, 0x7b, 0x6d, 0xd1, 0xbe, 
	0xcc, 0x18, 0xa1, 0xbe, 0x7e, 0x76, 0x1e, 0x3e, 0x1e, 0xfd, 0xe7, 0x3e, 
	0xfd, 0x26, 0x3c, 0xbf, 0x99, 0x5a, 0xa2, 0x3e, 0xb2, 0x66, 0x15, 0x3e, 
	0x30, 0x54, 0x1c, 0xbf, 0x77, 0x6c, 0xad, 0xbc, 0xb6, 0x54, 0x58, 0x3e, 
	0x2a, 0x6d, 0x83, 0xbe, 0x8a, 0x15, 0xba, 0x3b, 0x17, 0xd7, 0xe7, 0x3d, 
	0xfd, 0x4f, 0x9b, 0xbd, 0xd1, 0xb5, 0xc5, 0xbe, 0x7d, 0xd2, 0xff, 0xbe, 
	0xb2, 0xf5, 0xa1, 0x3e, 0x7a, 0xb9, 0x64, 0x3e, 0x7b, 0x1d, 0x99, 0x3e, 
	0x26, 0x1f, 0x04, 0xbe, 0x7d, 0x24, 0x0b, 0x3f, 0x54, 0x95, 0x57, 0xbc, 
	0x44, 0x41, 0x72, 0xbe, 0xa9, 0x10, 0xc0, 0x3e, 0xd9, 0xb4, 0xbb, 0x3d, 
	0x9a, 0x38, 0x9b, 0x3d, 0x68, 0x3d, 0x68, 0x3e, 0xb6, 0xce, 0xe4, 0x3d, 
	0x61, 0x6e, 0x85, 0x3d, 0x23, 0x55, 0x8f, 0x3d, 0x32, 0x94, 0xf2, 0x3e, 
	0x68, 0x56, 0xc8, 0x3e, 0x9b, 0x66, 0x31, 0xbe, 0x5f, 0xb0, 0x8f, 0x3e, 
	0xf0, 0x4a, 0xfc, 0x3c, 0x78, 0xd8, 0x4a, 0x3e, 0x93, 0xad, 0xf7, 0xbe, 
	0x19, 0xf7, 0xfd, 0x3d, 0x00, 0xa1, 0x28, 0xbe, 0xf5, 0x77, 0xa2, 0xbe, 
	0x50, 0x5f, 0x06, 0x3f, 0x01, 0x89, 0x6c, 0xbe, 0x88, 0x92, 0xca, 0x3b, 
	0xad, 0x21, 0xad, 0x3d, 0x14, 0x9c, 0x9d, 0x3d, 0xb4, 0x6e, 0xf6, 0x3e, 
	0xab, 0x2a, 0x69, 0xbe, 0x45, 0xf2, 0x2f, 0xbf, 0x5b, 0x5c, 0x19, 0xbd, 
	0xee, 0x23, 0x7d, 0xbe, 0x49, 0x84, 0x8f, 0xbe, 0xd9, 0x5f, 0xea, 0x3e, 
	0xaa, 0x49, 0xf9, 0xbe, 0x91, 0xcf, 0x98, 0x3e, 0x9e, 0x83, 0x01, 0xbe, 
	0x5a, 0x68, 0x13, 0xbf, 0xe6, 0xe7, 0x57, 0xbd, 0x78, 0xb9, 0xc7, 0x3d, 
	0x1f, 0x88, 0xb1, 0xbe, 0xc2, 0xc2, 0x17, 0x3d, 0xba, 0xe8, 0xc2, 0x3e, 
	0x7f, 0x00, 0x7b, 0x3e, 0x54, 0xc1, 0xe1, 0xbe, 0xb6, 0xfb, 0x39, 0xbf, 
	0x0c, 0xf9, 0x79, 0x3e, 0xac, 0x99, 0x8d, 0xbe, 0x78, 0xae, 0x2f, 0xbd, 
	0x07, 0x44, 0xd6, 0x3e, 0xe7, 0x40, 0x88, 0xbe, 0x2a, 0x4e, 0xb2, 0x3e, 
	0x80, 0x10, 0xc0, 0x3c, 0x9f, 0xd6, 0x1a, 0xbf, 0x55, 0x00, 0xf9, 0x3d, 
	0x87, 0xe9, 0x85, 0x3e, 0xc8, 0x13, 0x7e, 0x3e, 0x12, 0x80, 0x15, 0x3e, 
	0x1c, 0x26, 0x1f, 0xbe, 0xfe, 0x29, 0xc5, 0x3e, 0x12, 0xdc, 0x19, 0xbe, 
	0xf4, 0xfb, 0x1d, 0xbb, 0xcc, 0xdb, 0x4c, 0x3e, 0x81, 0xd6, 0x87, 0x3e, 
	0x69, 0xdc, 0xaa, 0xbe, 0xb6, 0x5f, 0x19, 0xbe, 0x6a, 0xf0, 0xff, 0xff, 
	0x10, 0x00, 0x00, 0x00, 0x07, 0x00, 0x00, 0x00, 0x14, 0x00, 0x00, 0x00, 
	0x30, 0x00, 0x00, 0x00, 0x02, 0x00, 0x00, 0x00, 0x20, 0x00, 0x00, 0x00, 
	0x10, 0x00, 0x00, 0x00, 0x18, 0x00, 0x00, 0x00, 0x6d, 0x6f, 0x64, 0x65, 
	0x6c, 0x5f, 0x32, 0x31, 0x2f, 0x64, 0x65, 0x6e, 0x73, 0x65, 0x5f, 0x32, 
	0x37, 0x2f, 0x4d, 0x61, 0x74, 0x4d, 0x75, 0x6c, 0x00, 0x00, 0x00, 0x00, 
	0x68, 0xf0, 0xff, 0xff, 0x56, 0xf1, 0xff, 0xff, 0x04, 0x00, 0x00, 0x00, 
	0x80, 0x0c, 0x00, 0x00, 0x55, 0xcb, 0x04, 0xbd, 0xfc, 0x62, 0x87, 0xbd, 
	0xb3, 0x1b, 0x58, 0xbe, 0xa2, 0xdb, 0x1e, 0x3e, 0xfe, 0x07, 0xc4, 0x3d, 
	0x9e, 0x45, 0xff, 0x3d, 0x6a, 0x29, 0xa7, 0xbd, 0xd1, 0x50, 0x9d, 0xbe, 
	0xfc, 0xd7, 0x02, 0x3f, 0xca, 0x44, 0xbf, 0x3e, 0x41, 0xf3, 0x07, 0x3e, 
	0x6f, 0x68, 0x57, 0xbe, 0x4d, 0xf2, 0x74, 0xbe, 0xeb, 0x65, 0x0f, 0x3f, 
	0xbc, 0x43, 0xfe, 0xbc, 0xcb, 0x52, 0x7a, 0xbc, 0x66, 0x7b, 0x8b, 0x3b, 
	0x2d, 0x3e, 0x83, 0xbe, 0xbb, 0x33, 0x22, 0x3e, 0x16, 0x0a, 0x75, 0x3e, 
	0x14, 0xcb, 0x4f, 0x3e, 0x3a, 0xf4, 0x39, 0x3d, 0xb5, 0x5c, 0xd1, 0xbe, 
	0x71, 0xd7, 0x06, 0x3f, 0xdb, 0x1d, 0xe0, 0x3e, 0x71, 0xdd, 0x7e, 0x3e, 
	0x5c, 0x90, 0x07, 0x3e, 0x0b, 0xb0, 0xd6, 0xbd, 0x85, 0x7b, 0x08, 0x3f, 
	0x10, 0x6d, 0xbc, 0x3e, 0x49, 0x2a, 0x86, 0x3e, 0x92, 0xf9, 0x5d, 0x3d, 
	0x5a, 0x24, 0x8a, 0xbe, 0x79, 0x4b, 0xa4, 0x3e, 0xe1, 0x9c, 0x90, 0x3e, 
	0x4a, 0x1a, 0xe4, 0x3e, 0x64, 0x14, 0x14, 0xbe, 0xe8, 0x12, 0xb1, 0xbe, 
	0xfb, 0xc8, 0x96, 0x3d, 0xe8, 0x66, 0xf5, 0x3c, 0xde, 0x50, 0x58, 0x3e, 
	0x3d, 0x14, 0x9b, 0xbe, 0xd4, 0xe2, 0x8b, 0xbe, 0x4e, 0x00, 0xa2, 0x3e, 
	0x7d, 0xbc, 0xe5, 0x3e, 0x94, 0x1e, 0x0c, 0x3f, 0x95, 0x42, 0x8e, 0xbd, 
	0x18, 0xd9, 0xeb, 0xbe, 0xc2, 0xf8, 0xf5, 0x3e, 0xe8, 0xdc, 0x41, 0x3e, 
	0xd5, 0xc1, 0x2e, 0x3c, 0x95, 0x0f, 0x81, 0x3d, 0x67, 0xbc, 0xe8, 0x3e, 
	0x03, 0xed, 0xaf, 0xbd, 0x35, 0xb3, 0xbe, 0x3c, 0x3e, 0x7d, 0x38, 0xbe, 
	0x91, 0xf3, 0x97, 0x3e, 0x4b, 0x2d, 0x24, 0x3e, 0x38, 0xb1, 0xd3, 0xbd, 
	0x09, 0x2b, 0x28, 0xbe, 0xdd, 0x22, 0xaa, 0xbe, 0x6f, 0x56, 0x49, 0x3d, 
	0x7b, 0x7d, 0xe3, 0x3e, 0x64, 0x05, 0x94, 0xbd, 0xaf, 0x23, 0x3c, 0x3e, 
	0x87, 0x14, 0x98, 0xbe, 0x6a, 0x77, 0x4d, 0x3d, 0x9c, 0xfb, 0x52, 0x3e, 
	0x53, 0x9d, 0x5b, 0xbe, 0x25, 0x11, 0x12, 0xbe, 0xd7, 0x18, 0xca, 0xbe, 
	0x57, 0x57, 0x01, 0x3f, 0x48, 0x4d, 0x4d, 0x3e, 0x85, 0x1b, 0xc0, 0xbe, 
	0x84, 0xbf, 0xba, 0xbd, 0x33, 0xb4, 0xce, 0xbd, 0xdd, 0x33, 0x37, 0x3e, 
	0x54, 0xe7, 0xd5, 0x3d, 0x98, 0xfd, 0x53, 0xbe, 0xdb, 0x14, 0x09, 0xbe, 
	0x89, 0xff, 0x93, 0xbd, 0xd0, 0xb9, 0x23, 0x3e, 0x18, 0x87, 0xca, 0x3e, 
	0xde, 0xf4, 0xa1, 0xbe, 0xe2, 0x71, 0x47, 0x3d, 0x25, 0x43, 0xab, 0xbe, 
	0x71, 0x5f, 0x8c, 0x3e, 0x5d, 0x18, 0x0a, 0x3e, 0x51, 0x9b, 0x31, 0x3e, 
	0x73, 0x93, 0x85, 0x3e, 0x6c, 0x6d, 0x5f, 0x3d, 0xbe, 0x0b, 0x79, 0x3e, 
	0x49, 0xb6, 0x06, 0x3f, 0xbc, 0x37, 0x18, 0xbd, 0xab, 0x88, 0x36, 0xbe, 
	0x40, 0x12, 0x8c, 0xbc, 0xfb, 0x7e, 0x03, 0x3f, 0x7f, 0x93, 0x90, 0x3e, 
	0x40, 0x97, 0xe4, 0xbd, 0xc0, 0x53, 0xee, 0xbc, 0xfe, 0x49, 0x84, 0xbe, 
	0x0c, 0x23, 0xe2, 0xbd, 0x33, 0x9b, 0x8d, 0xbe, 0x56, 0x8b, 0x3f, 0xbe, 
	0x54, 0x7d, 0xc4, 0x3d, 0xb8, 0xa4, 0x6c, 0x3e, 0x86, 0x4e, 0x6d, 0xbe, 
	0x3a, 0x99, 0x99, 0xbd, 0x2c, 0xa7, 0x40, 0xbe, 0x4c, 0xee, 0x1d, 0x3e, 
	0x94, 0x68, 0x73, 0xbe, 0x05, 0xbb, 0x55, 0xbe, 0xf0, 0x77, 0x0a, 0x3e, 
	0xec, 0x3f, 0x84, 0x3d, 0x60, 0x99, 0xc1, 0xbc, 0x28, 0xc1, 0x78, 0x3d, 
	0x00, 0xa9, 0x48, 0x3b, 0x60, 0xfb, 0xa4, 0x3d, 0x5c, 0x4e, 0x90, 0xbe, 
	0x90, 0x45, 0xa5, 0x3c, 0x20, 0x39, 0x0a, 0xbc, 0x7a, 0x70, 0x8b, 0x3e, 
	0xf0, 0x88, 0x84, 0x3e, 0xee, 0x71, 0x88, 0x3e, 0xe8, 0x75, 0x45, 0x3e, 
	0x8e, 0x3e, 0x32, 0x3e, 0xc0, 0x64, 0xe7, 0xbb, 0x4a, 0x48, 0xc7, 0xbd, 
	0x3a, 0x0c, 0x96, 0xbe, 0xd8, 0xa4, 0x70, 0x3e, 0x0a, 0xf4, 0x4a, 0xbe, 
	0x08, 0x54, 0xc1, 0xbd, 0x9f, 0xd0, 0x03, 0xbe, 0x00, 0x60, 0x53, 0x3c, 
	0xbc, 0xc0, 0x4e, 0xbe, 0x90, 0x91, 0x12, 0xbe, 0xd6, 0x0f, 0xe6, 0xbd, 
	0x10, 0x0f, 0xa2, 0x3d, 0x70, 0xe8, 0xcd, 0xbd, 0x08, 0x76, 0x7a, 0x3e, 
	0x00, 0xc6, 0x4c, 0x3e, 0x30, 0x9d, 0x0a, 0xbd, 0xa2, 0xc2, 0x84, 0x3e, 
	0xb8, 0x10, 0x1e, 0x3d, 0xcd, 0x50, 0x0c, 0xbe, 0xd4, 0xd8, 0x91, 0xbe, 
	0x80, 0xf9, 0x49, 0xbd, 0xd0, 0x24, 0x1e, 0xbe, 0xe0, 0x46, 0x7e, 0xbd, 
	0x5c, 0x7e, 0x6b, 0xbd, 0x1d, 0x92, 0xd2, 0x3e, 0x2e, 0x0a, 0xc4, 0xbe, 
	0x86, 0x40, 0x98, 0xbe, 0x39, 0xd6, 0xef, 0x3e, 0x21, 0x25, 0x0a, 0x3f, 
	0x2b, 0xe7, 0x32, 0xbc, 0x24, 0x6b, 0xf1, 0x3c, 0xbd, 0x7c, 0xd2, 0xbe, 
	0x97, 0x93, 0xe1, 0x3e, 0x8e, 0xaa, 0x20, 0x3d, 0xb0, 0x01, 0xff, 0x3d, 
	0x00, 0x77, 0xd2, 0xbe, 0x1c, 0xa1, 0x15, 0xbe, 0x21, 0x1a, 0xa5, 0x3e, 
	0x2d, 0x51, 0x90, 0x3e, 0x9b, 0x2c, 0x02, 0x3f, 0x75, 0x80, 0xd7, 0x3d, 
	0x54, 0x52, 0xc9, 0xbd, 0xec, 0x04, 0x71, 0x3e, 0x6e, 0xf8, 0x7d, 0x3d, 
	0x73, 0xc2, 0xd5, 0x3e, 0xd8, 0xf9, 0xcd, 0xbd, 0x27, 0xb5, 0x2d, 0xbd, 
	0x3e, 0x38, 0x09, 0x3f, 0x71, 0x15, 0x9b, 0x3e, 0x4f, 0xb4, 0xe3, 0x3e, 
	0xee, 0x12, 0x1e, 0xbe, 0x70, 0x44, 0xb6, 0xbd, 0x8e, 0x92, 0xf2, 0x3e, 
	0x69, 0x01, 0x1a, 0xbc, 0xd0, 0x16, 0xd8, 0x3e, 0xb3, 0xd4, 0xb5, 0xbe, 
	0x42, 0xaa, 0xd2, 0xbe, 0x01, 0xd8, 0xfa, 0x3c, 0xa6, 0xec, 0xed, 0x3c, 
	0xb7, 0x39, 0x2d, 0x3d, 0x4c, 0x1e, 0x7b, 0xbe, 0x7e, 0xb8, 0x8f, 0xbd, 
	0x72, 0xfb, 0x0e, 0x3f, 0x38, 0x71, 0x95, 0x3e, 0x3b, 0x8d, 0x94, 0x3c, 
	0x37, 0x41, 0x3c, 0xbe, 0x89, 0xf2, 0x77, 0xbe, 0x74, 0xe4, 0xaf, 0x3d, 
	0x8b, 0x26, 0x59, 0x3d, 0x17, 0xb9, 0xc1, 0x3e, 0xb3, 0xbd, 0xca, 0xbd, 
	0x55, 0x03, 0x00, 0xbf, 0x49, 0x97, 0x0b, 0x3f, 0x45, 0x8a, 0x7b, 0x3e, 
	0xc1, 0x55, 0x26, 0x3e, 0x10, 0xb8, 0x6e, 0x3e, 0x18, 0x27, 0xe2, 0x3e, 
	0xd1, 0x4a, 0x98, 0xbe, 0x61, 0x5d, 0x2c, 0xbe, 0xa5, 0x78, 0xcb, 0x3d, 
	0x2d, 0xf7, 0xbf, 0x3e, 0x75, 0xad, 0x30, 0x3e, 0x69, 0x19, 0x44, 0xbe, 
	0xa5, 0x8e, 0xe3, 0xbc, 0x47, 0xa9, 0x8f, 0x3d, 0xf1, 0x2c, 0xe8, 0x3d, 
	0x27, 0x60, 0xf8, 0x3e, 0xec, 0x14, 0xb6, 0xbe, 0x6c, 0xb4, 0x41, 0xbc, 
	0x3a, 0xdb, 0xb7, 0x3d, 0x01, 0x73, 0xf6, 0x3e, 0x87, 0x1b, 0xf1, 0xbc, 
	0x43, 0x3f, 0x23, 0xbd, 0xb7, 0xe2, 0x20, 0xbe, 0xda, 0xec, 0x99, 0xbe, 
	0x7e, 0x85, 0xf3, 0x3e, 0x1c, 0x7c, 0x0c, 0x3e, 0xb2, 0x6e, 0xfd, 0x3d, 
	0x13, 0xd7, 0x98, 0xbe, 0xf8, 0xbb, 0x57, 0x3d, 0x4c, 0x35, 0x90, 0xbc, 
	0xe7, 0x6d, 0x04, 0xbc, 0xe3, 0xb1, 0x09, 0xbe, 0x06, 0x90, 0xc3, 0xbd, 
	0x39, 0x30, 0x57, 0xbe, 0xb5, 0xc8, 0x99, 0x3c, 0x4a, 0x7e, 0xa5, 0x3e, 
	0x2a, 0x04, 0x1c, 0xbe, 0x47, 0x6c, 0x3f, 0x3e, 0x4a, 0xf9, 0x22, 0x3e, 
	0xd5, 0x57, 0x90, 0x3e, 0x21, 0xcb, 0xb5, 0x3d, 0xcc, 0x07, 0x97, 0xbc, 
	0x58, 0x10, 0x3e, 0x3e, 0x5e, 0x38, 0x08, 0xbe, 0xf2, 0x7f, 0xee, 0x3e, 
	0xa5, 0x4e, 0x7c, 0x3e, 0x48, 0xb1, 0x16, 0xbd, 0x22, 0x0e, 0x55, 0x3e, 
	0x41, 0x92, 0xad, 0xbe, 0xe1, 0x71, 0xf1, 0x3d, 0x30, 0xb5, 0x27, 0x3e, 
	0x60, 0x59, 0x9c, 0x3d, 0x43, 0xdb, 0x27, 0x3e, 0xeb, 0xcc, 0x83, 0xbd, 
	0xab, 0xce, 0x71, 0x3d, 0x26, 0xc7, 0x23, 0x3e, 0xc9, 0x56, 0x40, 0x3e, 
	0x34, 0xfd, 0x5c, 0xbe, 0xac, 0xd2, 0x86, 0x3d, 0x90, 0xd4, 0x2e, 0x3d, 
	0x1d, 0xd9, 0xda, 0xbd, 0xc4, 0xff, 0x1b, 0xbe, 0xf8, 0x30, 0xd8, 0x3c, 
	0xd8, 0x62, 0x47, 0xbc, 0xcd, 0x75, 0x5c, 0xbe, 0x83, 0x6d, 0x75, 0xbe, 
	0xe0, 0x22, 0x88, 0xbe, 0xf8, 0xdb, 0x4d, 0xbe, 0x9b, 0x8c, 0xf7, 0x3d, 
	0xd5, 0x07, 0x81, 0x3d, 0x06, 0xcc, 0x2f, 0xbe, 0x08, 0xfc, 0x70, 0xbd, 
	0x38, 0x29, 0x8b, 0x3e, 0x0d, 0x1f, 0x58, 0xbd, 0xe4, 0x94, 0xe9, 0xbd, 
	0x44, 0x64, 0x1e, 0xbe, 0x22, 0xba, 0x8c, 0xbe, 0xda, 0xa8, 0x15, 0x3e, 
	0x3b, 0xeb, 0x0e, 0xbe, 0xb7, 0x03, 0x35, 0xbd, 0xea, 0x31, 0x74, 0xbe, 
	0x49, 0x81, 0x57, 0xbe, 0xb9, 0x1e, 0x6c, 0x3b, 0x11, 0x11, 0x6c, 0xbe, 
	0xfd, 0x10, 0x45, 0x3e, 0xea, 0x4f, 0x0e, 0x3e, 0xaa, 0x69, 0xd2, 0x3d, 
	0x95, 0xc9, 0x79, 0xbe, 0x4c, 0x82, 0x27, 0x3e, 0x8e, 0x8b, 0x5f, 0x3e, 
	0xba, 0xab, 0x54, 0xbe, 0xff, 0x80, 0x3c, 0xbe, 0x6c, 0xc5, 0x65, 0xbe, 
	0x8b, 0xc5, 0x89, 0x3e, 0x63, 0x12, 0x87, 0x3e, 0x8e, 0x15, 0x8b, 0x3e, 
	0x19, 0x64, 0x00, 0xbe, 0xf7, 0x8b, 0xfc, 0xbd, 0xba, 0xdf, 0xfe, 0xbd, 
	0xc1, 0xbd, 0x82, 0xbe, 0xdb, 0x7a, 0xb8, 0x3b, 0xa0, 0x21, 0x83, 0xbe, 
	0x2e, 0x51, 0xb6, 0xbd, 0x9b, 0xe9, 0x1a, 0xbe, 0x89, 0xfc, 0x08, 0x3e, 
	0xd7, 0xba, 0x19, 0xbc, 0x9c, 0x0d, 0xf1, 0xbd, 0xc0, 0xeb, 0xca, 0xbb, 
	0x2a, 0x6e, 0x35, 0xbe, 0xd0, 0x74, 0x7f, 0x3e, 0xde, 0xcd, 0xe4, 0x3d, 
	0x2b, 0x56, 0x78, 0xbe, 0x2b, 0xa2, 0x62, 0xbe, 0xd0, 0x4c, 0x67, 0xbe, 
	0x94, 0x94, 0x5a, 0xbd, 0xa3, 0x7b, 0x9f, 0xbd, 0x3c, 0x83, 0x60, 0x3d, 
	0xb7, 0x3e, 0x1e, 0xbe, 0xfa, 0x8a, 0x9a, 0xbe, 0x74, 0x8a, 0x26, 0xbe, 
	0xa7, 0x0b, 0x5c, 0xbe, 0x09, 0xdf, 0xc0, 0x3c, 0x60, 0xae, 0x76, 0xbe, 
	0x84, 0x00, 0xba, 0x3d, 0x2f, 0x83, 0x64, 0x3d, 0xf0, 0xac, 0x42, 0x3e, 
	0x8c, 0x91, 0x6c, 0x3d, 0x5d, 0xd8, 0x2d, 0x3e, 0xb0, 0x6a, 0xd9, 0x3c, 
	0x93, 0x06, 0xb9, 0x3d, 0x65, 0xf3, 0x1f, 0xbd, 0x93, 0xf4, 0xb8, 0xbc, 
	0x9d, 0x5e, 0x76, 0xbd, 0x5e, 0x31, 0x03, 0x3e, 0xec, 0xca, 0xa4, 0x3d, 
	0x8a, 0x12, 0x12, 0xbe, 0x7f, 0xbf, 0x9c, 0xbe, 0x7a, 0xd1, 0x88, 0x3e, 
	0x4f, 0xf1, 0xf3, 0x3d, 0xca, 0xbd, 0x13, 0x3d, 0x0e, 0x30, 0x77, 0xbe, 
	0x74, 0xee, 0x9e, 0xbe, 0xfc, 0xfe, 0xa9, 0xbd, 0xb3, 0x9a, 0x37, 0x3e, 
	0x7c, 0x78, 0x7c, 0x3d, 0x65, 0x10, 0x18, 0xbc, 0xbb, 0xe0, 0x90, 0x3e, 
	0x28, 0x00, 0x63, 0x3e, 0xe3, 0xd9, 0x49, 0xbe, 0x97, 0x5d, 0x85, 0x3e, 
	0xc6, 0xeb, 0x50, 0xbe, 0x93, 0xde, 0x6f, 0x3d, 0xb8, 0xe5, 0x3d, 0xbe, 
	0x45, 0xaa, 0x5d, 0xbe, 0x1c, 0xe8, 0xa8, 0x3e, 0x21, 0x0c, 0xad, 0xbc, 
	0x18, 0xf5, 0x95, 0xbe, 0x31, 0x55, 0x97, 0x3e, 0xc0, 0xec, 0xa8, 0x3d, 
	0xa1, 0xcf, 0x9c, 0x3e, 0x42, 0x7c, 0x1b, 0x3e, 0x94, 0x30, 0x2e, 0xbd, 
	0xfb, 0x8b, 0xf9, 0x3d, 0xa6, 0xef, 0x3c, 0xbe, 0xa4, 0x4f, 0x01, 0x3f, 
	0xca, 0x85, 0x04, 0x3e, 0xc1, 0x2e, 0x64, 0x3e, 0xe5, 0x3d, 0xa9, 0xbd, 
	0xd5, 0x63, 0xa4, 0xbc, 0xeb, 0x8c, 0x13, 0x3f, 0x37, 0xf1, 0x0c, 0x3f, 
	0xd8, 0xc8, 0x85, 0x3e, 0x05, 0x6d, 0xc8, 0xbd, 0xb3, 0x94, 0x20, 0x3d, 
	0xc7, 0x5c, 0x80, 0x3e, 0xa1, 0xad, 0x06, 0x3f, 0xe9, 0xe8, 0x5d, 0x3e, 
	0xe1, 0x0d, 0xbb, 0xbc, 0x85, 0xa0, 0x24, 0x3d, 0xc9, 0xdc, 0xa1, 0x3e, 
	0xd8, 0xde, 0x3b, 0x3e, 0x1d, 0x58, 0x21, 0x3e, 0xef, 0xf9, 0x5d, 0x3e, 
	0x5d, 0x88, 0xae, 0xbe, 0x38, 0x81, 0xfa, 0x3e, 0x40, 0x8a, 0x64, 0x3e, 
	0x1c, 0xeb, 0xb5, 0xbc, 0x2a, 0x19, 0x63, 0x3e, 0x5f, 0xbd, 0x0a, 0xbe, 
	0x42, 0xf9, 0xef, 0x3e, 0xc5, 0x78, 0x25, 0x3e, 0xa6, 0x82, 0x75, 0x3e, 
	0x9e, 0x40, 0x5c, 0x3e, 0x64, 0x3b, 0xf0, 0x3c, 0x3b, 0x19, 0xef, 0x3e, 
	0x42, 0x36, 0xf7, 0x3e, 0x37, 0x38, 0x0a, 0x3e, 0xa5, 0x44, 0xa6, 0xbd, 
	0x37, 0x28, 0x06, 0xbe, 0xf9, 0xa7, 0x9c, 0x3e, 0x6c, 0x3f, 0xec, 0x3e, 
	0xf8, 0x17, 0x11, 0x3e, 0x39, 0x18, 0x43, 0x3c, 0x6e, 0x70, 0x5f, 0xbd, 
	0x9e, 0xd2, 0x9c, 0x3e, 0x8c, 0xf2, 0xb7, 0x3e, 0x9f, 0xdd, 0x40, 0x3d, 
	0x06, 0x4e, 0x24, 0xbd, 0xbb, 0xe4, 0xfe, 0x3d, 0x61, 0x07, 0x5b, 0x3e, 
	0xfa, 0x59, 0xa9, 0x3e, 0xdd, 0x5a, 0x60, 0x3e, 0x97, 0x27, 0x23, 0xbe, 
	0x84, 0x17, 0xb3, 0xbc, 0x95, 0xe8, 0x2b, 0x3e, 0x4f, 0xc1, 0xcb, 0x3e, 
	0x33, 0x5e, 0xe2, 0x3d, 0x0c, 0xbe, 0x15, 0xbe, 0x07, 0x0b, 0x04, 0x3e, 
	0x82, 0xe2, 0x91, 0x3e, 0xd0, 0x7d, 0x24, 0xbd, 0x72, 0xcc, 0x4b, 0xbe, 
	0xd6, 0x07, 0x14, 0xbe, 0x9d, 0x92, 0x41, 0x3e, 0x23, 0xeb, 0x52, 0xbd, 
	0x36, 0x77, 0xf4, 0x3e, 0xa3, 0x2e, 0x05, 0xbe, 0x9e, 0x37, 0xc9, 0x3b, 
	0xc1, 0xf2, 0x80, 0x3d, 0x36, 0x6b, 0xf4, 0x3e, 0x41, 0xa2, 0x4a, 0x3e, 
	0x56, 0x0b, 0x36, 0x3e, 0xbd, 0xce, 0x98, 0x3d, 0x32, 0xc7, 0x0f, 0xbe, 
	0xc1, 0xf0, 0x42, 0x3e, 0x4b, 0x43, 0xcc, 0x3e, 0x05, 0xf2, 0x8c, 0x3d, 
	0x39, 0xf7, 0x1c, 0x3e, 0x04, 0xd3, 0x3d, 0xbc, 0x7e, 0x4b, 0xa7, 0x3e, 
	0x3b, 0xe0, 0xcb, 0x3e, 0x7b, 0x4f, 0x4c, 0xbe, 0xbe, 0x4f, 0x8d, 0xbd, 
	0x23, 0x58, 0x76, 0xbd, 0x46, 0x56, 0x5d, 0x3e, 0x8c, 0x48, 0xf0, 0xbb, 
	0x1b, 0xdf, 0xff, 0x3b, 0x37, 0x0e, 0x63, 0x3e, 0xde, 0x69, 0x8a, 0x3d, 
	0xbf, 0x89, 0xdd, 0x3e, 0xef, 0xa0, 0xc5, 0x3e, 0xb5, 0x05, 0x6a, 0xbd, 
	0xbc, 0xd9, 0xbc, 0x3c, 0x6d, 0x7b, 0xcf, 0xbd, 0x6b, 0x55, 0x0d, 0x3e, 
	0xb1, 0x88, 0x13, 0x3f, 0xba, 0xee, 0x30, 0xbe, 0x22, 0xa7, 0x0c, 0xbe, 
	0x52, 0x94, 0x78, 0x3d, 0xe8, 0x0e, 0xef, 0x3e, 0x2b, 0xdc, 0xcc, 0x3e, 
	0x6e, 0x7c, 0xa3, 0x3e, 0x1a, 0xf2, 0x61, 0x3e, 0x75, 0x19, 0x16, 0xbd, 
	0xfe, 0x9b, 0x84, 0x3e, 0x9d, 0xf6, 0x11, 0x3f, 0xc3, 0x13, 0xa0, 0xbd, 
	0xbb, 0xc1, 0x24, 0xbe, 0xbd, 0x75, 0x14, 0x3d, 0xd3, 0x02, 0x58, 0x3e, 
	0xb9, 0x94, 0x13, 0x3e, 0x04, 0x96, 0x59, 0x3e, 0xcb, 0x67, 0x2f, 0xbe, 
	0xce, 0x61, 0x32, 0xbd, 0xd9, 0x7c, 0xb9, 0x3e, 0x08, 0xcf, 0xd1, 0x3d, 
	0xda, 0x35, 0x26, 0x3a, 0xa7, 0xf3, 0x18, 0xbe, 0xaa, 0x5c, 0xcd, 0xbb, 
	0x0d, 0xfb, 0x03, 0x3e, 0xac, 0x33, 0xb5, 0x3e, 0xcb, 0x0c, 0xbc, 0x3d, 
	0xbf, 0x10, 0xae, 0x3e, 0xd1, 0xce, 0x82, 0x3e, 0xa2, 0x20, 0xed, 0x3e, 
	0x22, 0x3d, 0x75, 0x3d, 0x36, 0x2b, 0x52, 0xbe, 0x5b, 0xad, 0xe5, 0xbd, 
	0x84, 0x0b, 0x84, 0xbe, 0xf2, 0xea, 0xed, 0x3e, 0x99, 0x0f, 0x0e, 0x3f, 
	0xa4, 0xdd, 0x80, 0x3c, 0x3e, 0xc3, 0x12, 0x3e, 0x49, 0x85, 0x0f, 0xbd, 
	0x15, 0xa7, 0xde, 0x3d, 0x6b, 0xe7, 0x17, 0x3f, 0x39, 0x60, 0x6e, 0xbe, 
	0x38, 0x14, 0x5d, 0x3e, 0x53, 0x1c, 0x90, 0xbe, 0xa2, 0xa3, 0x85, 0x3e, 
	0x12, 0x92, 0x40, 0x3e, 0x91, 0xda, 0x50, 0xbe, 0x87, 0x29, 0x22, 0xbd, 
	0x56, 0x72, 0x12, 0xbb, 0x8c, 0xeb, 0xf4, 0xbd, 0xff, 0x8b, 0x60, 0xbe, 
	0xe8, 0xd7, 0xa4, 0x3e, 0x15, 0x6c, 0x40, 0x3e, 0x53, 0xb6, 0xda, 0x3d, 
	0xe5, 0x4d, 0x37, 0xbc, 0xae, 0xf6, 0x2f, 0x3c, 0xbf, 0xb1, 0xea, 0x3e, 
	0x9f, 0xc3, 0xcd, 0x3e, 0x5f, 0x43, 0x43, 0x3e, 0x1c, 0x70, 0x7a, 0xbe, 
	0x70, 0x73, 0x82, 0xbd, 0x56, 0xfd, 0x69, 0x3e, 0xa7, 0xda, 0xca, 0x3e, 
	0xc9, 0x4e, 0x45, 0x3e, 0x7e, 0x70, 0x99, 0x3d, 0xfe, 0xad, 0xa3, 0xbe, 
	0x18, 0x28, 0x27, 0x3e, 0xb0, 0x17, 0x8c, 0x3e, 0x6d, 0xc8, 0xf1, 0x3d, 
	0xe2, 0xf8, 0x41, 0xbd, 0xb8, 0xe6, 0xdf, 0xbd, 0x13, 0x7f, 0x16, 0x3f, 
	0x56, 0xfa, 0x07, 0x3f, 0x27, 0x5e, 0x83, 0x3e, 0x36, 0xfa, 0xd2, 0xbe, 
	0x46, 0xde, 0xed, 0xbe, 0xa4, 0x70, 0x93, 0x3e, 0x79, 0x05, 0x9f, 0x3e, 
	0xc5, 0xaa, 0xcc, 0x3d, 0xc2, 0x7d, 0x94, 0xbe, 0x4c, 0x0e, 0xda, 0xbc, 
	0xce, 0x7a, 0x19, 0x3e, 0x1f, 0x33, 0x94, 0x3e, 0x24, 0x88, 0x84, 0x3e, 
	0x2a, 0x08, 0x7a, 0xbe, 0xd3, 0xd2, 0x9d, 0xbe, 0xa2, 0xd2, 0xc4, 0x3e, 
	0xac, 0x5c, 0x17, 0x3c, 0xcc, 0xbe, 0xe0, 0x3e, 0xd0, 0x02, 0x20, 0xbe, 
	0xc6, 0x19, 0xfe, 0xbe, 0xdd, 0xe2, 0x19, 0x3f, 0xb8, 0xc8, 0xaf, 0x3d, 
	0x86, 0x17, 0x0f, 0x3f, 0x0d, 0x0b, 0x4e, 0xbe, 0x2c, 0xee, 0x7e, 0xbe, 
	0x5f, 0x7e, 0x1b, 0x3f, 0x0a, 0x21, 0xbc, 0x3e, 0xcf, 0x80, 0x04, 0x3d, 
	0x5f, 0x4b, 0x8a, 0xbe, 0xd9, 0xb2, 0x9f, 0xbe, 0x95, 0xdf, 0x05, 0x3f, 
	0x6f, 0xc4, 0x84, 0x3d, 0x94, 0x23, 0x05, 0x3f, 0x67, 0x60, 0x2f, 0xbd, 
	0xc5, 0x3c, 0x0c, 0xbe, 0x4d, 0x4c, 0xce, 0x3d, 0xd7, 0x8a, 0xe5, 0x3e, 
	0xef, 0x0b, 0xa9, 0x3d, 0x95, 0x1a, 0xa9, 0xbe, 0xe3, 0xe4, 0x6a, 0xbe, 
	0x07, 0xc0, 0x21, 0x3d, 0x13, 0x0d, 0x67, 0x3e, 0x78, 0x84, 0xbb, 0x3e, 
	0x09, 0xf2, 0x86, 0xbe, 0x12, 0x87, 0x89, 0x3d, 0x8e, 0xfc, 0x9c, 0x3e, 
	0x33, 0x1e, 0x11, 0x3e, 0x68, 0x04, 0xc7, 0x3e, 0xd8, 0x13, 0x63, 0xbe, 
	0x7c, 0x16, 0x15, 0xbc, 0x36, 0x5a, 0xeb, 0x3e, 0xac, 0xb1, 0x69, 0x3e, 
	0x2c, 0xa7, 0xbf, 0x3e, 0x20, 0xee, 0x3e, 0x3d, 0xdf, 0x81, 0x5a, 0xbe, 
	0x1f, 0x70, 0x8b, 0x3e, 0x1b, 0x13, 0x53, 0x3c, 0xfa, 0x3c, 0x16, 0x3e, 
	0xdb, 0xbe, 0x51, 0xbe, 0x1a, 0xf3, 0xa7, 0xbe, 0x2f, 0x84, 0x2f, 0x3e, 
	0xcf, 0x50, 0xb4, 0x3e, 0xa6, 0x73, 0x06, 0x3f, 0x31, 0x0a, 0x26, 0xbe, 
	0x17, 0x24, 0x9e, 0xbe, 0x91, 0xf2, 0xaa, 0x3e, 0xf1, 0x4b, 0x85, 0x3e, 
	0x0f, 0x9f, 0x69, 0x3e, 0xcb, 0xfa, 0xa3, 0x3b, 0x50, 0x34, 0x9c, 0xbe, 
	0xf1, 0xbc, 0x46, 0xbd, 0x60, 0xf7, 0x61, 0x3d, 0xaf, 0x47, 0xde, 0x3e, 
	0xc3, 0x98, 0xed, 0xbe, 0x06, 0xbf, 0xc6, 0xbe, 0xaa, 0xd1, 0x83, 0x3e, 
	0x67, 0x0a, 0x6d, 0x3d, 0xb7, 0x02, 0x2c, 0x3e, 0x72, 0xf6, 0xaa, 0x3e, 
	0x47, 0x57, 0x96, 0x3d, 0xaa, 0x66, 0xf9, 0x3c, 0x13, 0x2d, 0x0d, 0xbe, 
	0x55, 0x05, 0x2f, 0x3e, 0xc8, 0xb3, 0xd7, 0x3d, 0x13, 0x7e, 0x90, 0x3e, 
	0xfa, 0xa6, 0x80, 0xbc, 0x94, 0x54, 0x80, 0xbe, 0x39, 0x90, 0x71, 0x3d, 
	0x44, 0xf2, 0x8f, 0xbc, 0xf0, 0xb3, 0xc9, 0x3d, 0xab, 0xa1, 0x68, 0xbd, 
	0xdc, 0x3f, 0x67, 0x3c, 0x5a, 0xd9, 0x28, 0xbe, 0x08, 0xf9, 0xb0, 0x3e, 
	0x29, 0xcd, 0xe0, 0x3e, 0x68, 0x40, 0x33, 0x3e, 0x45, 0x73, 0x07, 0x3e, 
	0x0c, 0xae, 0xd4, 0xbe, 0x48, 0x3d, 0xfe, 0x3e, 0xfb, 0x77, 0xdc, 0x3e, 
	0x77, 0xc4, 0xe0, 0x3d, 0x5d, 0x5f, 0xb9, 0xbe, 0x41, 0x01, 0xc3, 0xbe, 
	0xee, 0x0f, 0x9b, 0x3e, 0x12, 0xe9, 0x26, 0x3e, 0xa9, 0x93, 0x91, 0xbe, 
	0x1d, 0xed, 0x7e, 0xbe, 0x89, 0xcb, 0x85, 0xbe, 0xac, 0x2e, 0xa6, 0x3e, 
	0x56, 0xaa, 0xe0, 0x3e, 0xb5, 0xff, 0x57, 0xbe, 0xf5, 0x32, 0xe2, 0xbd, 
	0x4c, 0xe3, 0x2c, 0x3c, 0x8e, 0x20, 0x2a, 0x3e, 0x1a, 0xc8, 0xfb, 0x3e, 
	0x26, 0xd3, 0xcb, 0xbe, 0x70, 0x7e, 0x81, 0xbe, 0x65, 0x82, 0x9a, 0xbe, 
	0x74, 0xc5, 0xd6, 0x3e, 0xcf, 0xb8, 0xc2, 0x3d, 0xc8, 0x35, 0x59, 0xbe, 
	0x74, 0xc2, 0xfc, 0x3d, 0xc6, 0x32, 0x3d, 0x3d, 0xf7, 0x25, 0xa5, 0x3e, 
	0xb3, 0x56, 0x39, 0x3d, 0xcb, 0x43, 0x58, 0xbe, 0xa5, 0x5c, 0xe4, 0x3d, 
	0x97, 0xd6, 0x26, 0xbe, 0x20, 0x2c, 0x40, 0xbc, 0x6a, 0x9a, 0x48, 0xbe, 
	0x78, 0xc9, 0x8d, 0x3e, 0x0a, 0x81, 0x94, 0xbe, 0x00, 0x9c, 0xfd, 0x39, 
	0xd8, 0x53, 0xa6, 0xbd, 0x9e, 0xd7, 0x8d, 0xbd, 0xf8, 0x5e, 0x67, 0x3e, 
	0x96, 0xe2, 0x2b, 0xbe, 0x6e, 0x60, 0x99, 0xbe, 0x10, 0xaf, 0xd4, 0xbc, 
	0x6c, 0xc6, 0x84, 0x3d, 0x26, 0xf2, 0x6d, 0xbe, 0x90, 0x29, 0x8c, 0x3e, 
	0x80, 0xdf, 0xa7, 0x3b, 0xb0, 0xb8, 0x68, 0xbd, 0x8a, 0xd8, 0x99, 0x3e, 
	0x96, 0xf1, 0xef, 0xbd, 0x69, 0xa4, 0x32, 0xbe, 0x40, 0xf6, 0xcb, 0xbc, 
	0x12, 0xe2, 0x27, 0x3e, 0x4c, 0x8e, 0xa9, 0x3d, 0xac, 0xeb, 0xf6, 0x3d, 
	0xe0, 0xe7, 0xd8, 0x3d, 0x10, 0x01, 0x97, 0xbc, 0x84, 0xf2, 0x8d, 0x3e, 
	0xea, 0x3e, 0xcf, 0xbd, 0x2e, 0xbc, 0x0f, 0xbe, 0x50, 0x86, 0xf1, 0x3c, 
	0xa3, 0xcb, 0x24, 0xbe, 0x29, 0x27, 0x36, 0xbe, 0x34, 0x5e, 0xe3, 0x3d, 
	0x92, 0x40, 0x8a, 0xbd, 0x14, 0x85, 0x99, 0x3e, 0xfc, 0x29, 0x93, 0xbe, 
	0x5b, 0x0c, 0x15, 0xbe, 0x20, 0xe9, 0x53, 0xbd, 0x9f, 0x41, 0x1b, 0xbe, 
	0x7c, 0xad, 0x37, 0x3e, 0xea, 0xb8, 0x62, 0xbe, 0x90, 0xe7, 0x7b, 0x3d, 
	0x93, 0x9b, 0x91, 0xbe, 0x40, 0x05, 0x62, 0xbc, 0xff, 0x83, 0x60, 0xbe, 
	0x90, 0xc3, 0x51, 0x3d, 0xaa, 0x61, 0x46, 0xbe, 0xae, 0x9e, 0xc4, 0xbd, 
	0x9a, 0x7e, 0x87, 0xbe, 0x4c, 0x4f, 0x78, 0x3e, 0x1e, 0x8d, 0x60, 0xbe, 
	0x73, 0x63, 0x68, 0xbe, 0x1c, 0x96, 0xa3, 0x3d, 0xb2, 0x57, 0xd9, 0xbd, 
	0x5b, 0xe7, 0x66, 0xbe, 0x56, 0xdb, 0x5e, 0xbe, 0x52, 0x4a, 0xaa, 0xbd, 
	0xe8, 0x0c, 0xf5, 0x3d, 0x74, 0xcc, 0x85, 0x3e, 0x80, 0x12, 0xde, 0x3b, 
	0xc0, 0x2d, 0xd9, 0x3d, 0x8e, 0x2d, 0x4d, 0xbe, 0xde, 0x20, 0x5b, 0xbe, 
	0x1c, 0x9c, 0xb5, 0x3d, 0x20, 0x1c, 0x95, 0x3d, 0x10, 0xb9, 0x6c, 0xbd, 
	0x46, 0x9c, 0x2a, 0x3e, 0x2c, 0x8d, 0x87, 0x3d, 0x62, 0x15, 0x6c, 0xbe, 
	0x20, 0x0f, 0x69, 0x3c, 0xc4, 0x4e, 0xd0, 0xbd, 0xf8, 0x58, 0xbf, 0x3d, 
	0xb8, 0xf3, 0x82, 0xbe, 0x5a, 0x49, 0x3a, 0xbe, 0x90, 0xa3, 0xdb, 0x3d, 
	0x48, 0xa2, 0x60, 0xbd, 0x60, 0x89, 0x86, 0xbd, 0x81, 0xb4, 0x28, 0xbe, 
	0xe0, 0xad, 0x0c, 0x3d, 0xac, 0x3c, 0x76, 0xbd, 0xfd, 0x3f, 0x90, 0xbe, 
	0x90, 0xe4, 0x48, 0xbe, 0xe4, 0x8b, 0x99, 0x3e, 0xf6, 0x5e, 0x06, 0x3e, 
	0x48, 0x35, 0xe9, 0x3d, 0xec, 0x99, 0x06, 0x3e, 0x90, 0x04, 0x5d, 0x3d, 
	0x45, 0x73, 0x5a, 0xbe, 0x80, 0x17, 0x22, 0xbc, 0xd2, 0x85, 0xcc, 0xbd, 
	0x73, 0xcd, 0x93, 0xbe, 0x50, 0x6b, 0x95, 0xbe, 0x98, 0x11, 0xe2, 0xbd, 
	0x18, 0xcc, 0x72, 0x3e, 0x62, 0x6b, 0xa5, 0xbd, 0x4a, 0xd8, 0x02, 0xbe, 
	0x1a, 0x3b, 0x38, 0xbe, 0x88, 0xa2, 0x18, 0x3e, 0xe8, 0x4d, 0x6d, 0x3e, 
	0x90, 0xe2, 0xa1, 0x3c, 0x24, 0x9f, 0x59, 0xbe, 0xd0, 0xfa, 0xe9, 0x3e, 
	0x24, 0x7e, 0xb6, 0xbd, 0x83, 0xc2, 0xc1, 0xbd, 0xce, 0xb5, 0xe8, 0x3d, 
	0x9f, 0x1d, 0x8f, 0xbb, 0xee, 0x1e, 0x97, 0x3d, 0xd8, 0x6f, 0x13, 0x3e, 
	0x5f, 0x6e, 0xa8, 0xbe, 0x48, 0xd8, 0x80, 0xbe, 0xa6, 0xd4, 0x0b, 0x3e, 
	0xae, 0xd4, 0xaa, 0x3e, 0xca, 0x01, 0xc8, 0x3d, 0xeb, 0x3f, 0x38, 0xbe, 
	0x6e, 0xde, 0x7f, 0x3e, 0x65, 0x7c, 0x80, 0xbd, 0xb2, 0xcb, 0x5a, 0x3e, 
	0x10, 0x82, 0xc8, 0x3e, 0x0d, 0x8a, 0x95, 0xbe, 0x68, 0x10, 0x46, 0x3e, 
	0x71, 0x03, 0xaa, 0xbe, 0x1d, 0x09, 0xb7, 0x3e, 0x54, 0x94, 0x98, 0x3e, 
	0x5d, 0xc4, 0xa2, 0xbd, 0xbf, 0x93, 0x12, 0x3e, 0x05, 0x44, 0xf7, 0x3d, 
	0x21, 0x95, 0xbe, 0x3e, 0x9a, 0x53, 0xb8, 0x3e, 0x10, 0x75, 0x68, 0xbc, 
	0x91, 0x7a, 0x22, 0xbe, 0x5d, 0x17, 0x7a, 0xbd, 0xb5, 0x6c, 0xad, 0x3d, 
	0x4c, 0x97, 0xcc, 0x3e, 0xc0, 0xaf, 0x1b, 0x3e, 0xc4, 0x49, 0x06, 0xbe, 
	0x7f, 0x69, 0x2c, 0x3e, 0xe5, 0x68, 0xdb, 0x3d, 0x85, 0xfc, 0x6c, 0x3d, 
	0x9a, 0x0a, 0x18, 0xbd, 0x2e, 0xfa, 0x7f, 0xbe, 0x6b, 0x9a, 0x01, 0x3e, 
	0xa9, 0x81, 0xf1, 0x3e, 0x8a, 0x62, 0x39, 0x3b, 0x1f, 0xf2, 0x32, 0xbe, 
	0xf1, 0xdb, 0x79, 0x3e, 0x91, 0x35, 0xc4, 0x3d, 0x9c, 0xfb, 0x4a, 0x3d, 
	0x89, 0xd7, 0xac, 0x3e, 0x6e, 0xdb, 0x0c, 0x3e, 0x13, 0xeb, 0xd4, 0xbd, 
	0x3a, 0xfd, 0xff, 0xff, 0x10, 0x00, 0x00, 0x00, 0x06, 0x00, 0x00, 0x00, 
	0x14, 0x00, 0x00, 0x00, 0x30, 0x00, 0x00, 0x00, 0x02, 0x00, 0x00, 0x00, 
	0x10, 0x00, 0x00, 0x00, 0x32, 0x00, 0x00, 0x00, 0x18, 0x00, 0x00, 0x00, 
	0x6d, 0x6f, 0x64, 0x65, 0x6c, 0x5f, 0x32, 0x31, 0x2f, 0x64, 0x65, 0x6e, 
	0x73, 0x65, 0x5f, 0x32, 0x36, 0x2f, 0x4d, 0x61, 0x74, 0x4d, 0x75, 0x6c, 
	0x00, 0x00, 0x00, 0x00, 0x38, 0xfd, 0xff, 0xff, 0x26, 0xfe, 0xff, 0xff, 
	0x04, 0x00, 0x00, 0x00, 0x04, 0x00, 0x00, 0x00, 0x3f, 0x66, 0x28, 0x3e, 
	0x8e, 0xfd, 0xff, 0xff, 0x10, 0x00, 0x00, 0x00, 0x05, 0x00, 0x00, 0x00, 
	0x10, 0x00, 0x00, 0x00, 0x3c, 0x00, 0x00, 0x00, 0x01, 0x00, 0x00, 0x00, 
	0x01, 0x00, 0x00, 0x00, 0x28, 0x00, 0x00, 0x00, 0x6d, 0x6f, 0x64, 0x65, 
	0x6c, 0x5f, 0x32, 0x31, 0x2f, 0x64, 0x65, 0x6e, 0x73, 0x65, 0x5f, 0x32, 
	0x39, 0x2f, 0x42, 0x69, 0x61, 0x73, 0x41, 0x64, 0x64, 0x2f, 0x52, 0x65, 
	0x61, 0x64, 0x56, 0x61, 0x72, 0x69, 0x61, 0x62, 0x6c, 0x65, 0x4f, 0x70, 
	0x00, 0x00, 0x00, 0x00, 0x98, 0xfd, 0xff, 0xff, 0x86, 0xfe, 0xff, 0xff, 
	0x04, 0x00, 0x00, 0x00, 0x40, 0x00, 0x00, 0x00, 0x4d, 0x40, 0x29, 0xbc, 
	0xcc, 0x06, 0x05, 0xbd, 0xa8, 0xc4, 0x34, 0xbd, 0x4a, 0xd1, 0x09, 0xbd, 
	0xe4, 0x01, 0x5b, 0x3e, 0x64, 0xe1, 0x79, 0x3e, 0xef, 0x13, 0x8a, 0x3e, 
	0xfd, 0x38, 0x5e, 0xbd, 0xf4, 0x37, 0xe1, 0xbc, 0xf8, 0x3c, 0x39, 0xbd, 
	0x04, 0x80, 0x4b, 0xbd, 0x85, 0xdf, 0x4f, 0x3e, 0xf2, 0x3a, 0x58, 0x3e, 
	0xf4, 0x4b, 0x4e, 0x3e, 0x6d, 0x98, 0x99, 0x3e, 0x46, 0xc3, 0x9c, 0x3e, 
	0x2a, 0xfe, 0xff, 0xff, 0x10, 0x00, 0x00, 0x00, 0x04, 0x00, 0x00, 0x00, 
	0x10, 0x00, 0x00, 0x00, 0x3c, 0x00, 0x00, 0x00, 0x01, 0x00, 0x00, 0x00, 
	0x10, 0x00, 0x00, 0x00, 0x28, 0x00, 0x00, 0x00, 0x6d, 0x6f, 0x64, 0x65, 
	0x6c, 0x5f, 0x32, 0x31, 0x2f, 0x64, 0x65, 0x6e, 0x73, 0x65, 0x5f, 0x32, 
	0x38, 0x2f, 0x42, 0x69, 0x61, 0x73, 0x41, 0x64, 0x64, 0x2f, 0x52, 0x65, 
	0x61, 0x64, 0x56, 0x61, 0x72, 0x69, 0x61, 0x62, 0x6c, 0x65, 0x4f, 0x70, 
	0x00, 0x00, 0x00, 0x00, 0x34, 0xfe, 0xff, 0xff, 0x22, 0xff, 0xff, 0xff, 
	0x04, 0x00, 0x00, 0x00, 0x80, 0x00, 0x00, 0x00, 0xdf, 0xf1, 0xa0, 0x3e, 
	0x8c, 0xdf, 0x91, 0x3e, 0x93, 0xd4, 0xa5, 0x3e, 0x0a, 0xcb, 0xe8, 0x3e, 
	0xad, 0xdf, 0x83, 0x3e, 0xb9, 0x12, 0xa4, 0x3e, 0xef, 0x81, 0x83, 0x3e, 
	0xf6, 0xa1, 0x0e, 0x3f, 0x3b, 0x27, 0x8f, 0x3e, 0xc7, 0x40, 0xa7, 0x3e, 
	0xa0, 0xfc, 0xa4, 0x3e, 0x45, 0xd4, 0x99, 0x3e, 0xd0, 0xba, 0x8a, 0x3e, 
	0xbc, 0xde, 0xa0, 0x3e, 0x78, 0x3a, 0x60, 0xbd, 0x2e, 0xc0, 0x91, 0x3e, 
	0xe9, 0x44, 0xa3, 0x3e, 0x1a, 0xb9, 0x94, 0x3e, 0x65, 0x76, 0x40, 0x3e, 
	0xa3, 0x8c, 0xa8, 0x3e, 0x6f, 0x28, 0x96, 0x3e, 0x25, 0x41, 0x8c, 0x3e, 
	0x8c, 0x8b, 0xd4, 0x3e, 0x29, 0x54, 0x9f, 0x3e, 0x9d, 0xcd, 0x85, 0x3e, 
	0xc2, 0x88, 0x96, 0x3e, 0xa8, 0xbc, 0x26, 0x3f, 0x87, 0xc0, 0xdf, 0x3e, 
	0xe7, 0x8e, 0x7e, 0xbe, 0x3e, 0x59, 0xa9, 0x3e, 0x98, 0x4c, 0xa3, 0x3e, 
	0x0f, 0xf8, 0xe0, 0x3e, 0x06, 0xff, 0xff, 0xff, 0x10, 0x00, 0x00, 0x00, 
	0x03, 0x00, 0x00, 0x00, 0x10, 0x00, 0x00, 0x00, 0x3c, 0x00, 0x00, 0x00, 
	0x01, 0x00, 0x00, 0x00, 0x20, 0x00, 0x00, 0x00, 0x28, 0x00, 0x00, 0x00, 
	0x6d, 0x6f, 0x64, 0x65, 0x6c, 0x5f, 0x32, 0x31, 0x2f, 0x64, 0x65, 0x6e, 
	0x73, 0x65, 0x5f, 0x32, 0x37, 0x2f, 0x42, 0x69, 0x61, 0x73, 0x41, 0x64, 
	0x64, 0x2f, 0x52, 0x65, 0x61, 0x64, 0x56, 0x61, 0x72, 0x69, 0x61, 0x62, 
	0x6c, 0x65, 0x4f, 0x70, 0x00, 0x00, 0x00, 0x00, 0x5c, 0xff, 0xff, 0xff, 
	0x00, 0x00, 0x06, 0x00, 0x08, 0x00, 0x04, 0x00, 0x06, 0x00, 0x00, 0x00, 
	0x04, 0x00, 0x00, 0x00, 0x40, 0x00, 0x00, 0x00, 0x28, 0x1a, 0xac, 0x3d, 
	0xe3, 0x76, 0xc4, 0x3d, 0x00, 0x00, 0x00, 0x00, 0x43, 0x7f, 0xdb, 0x3d, 
	0x9e, 0xae, 0xb6, 0x3d, 0x0e, 0xbb, 0xf6, 0xbb, 0x76, 0xda, 0x74, 0xbc, 
	0x51, 0xde, 0x10, 0x3e, 0xa7, 0xb8, 0xcb, 0x3d, 0x52, 0x7d, 0x3e, 0x3e, 
	0x8b, 0x88, 0x01, 0x3e, 0x9b, 0xae, 0xbc, 0x3d, 0xeb, 0xb6, 0xc2, 0x3d, 
	0x00, 0x00, 0x00, 0x00, 0x00, 0x00, 0x00, 0x00, 0x4c, 0x6e, 0xc6, 0x3d, 
	0xaa, 0xff, 0xff, 0xff, 0x10, 0x00, 0x00, 0x00, 0x02, 0x00, 0x00, 0x00, 
	0x10, 0x00, 0x00, 0x00, 0x40, 0x00, 0x00, 0x00, 0x01, 0x00, 0x00, 0x00, 
	0x10, 0x00, 0x00, 0x00, 0x28, 0x00, 0x00, 0x00, 0x6d, 0x6f, 0x64, 0x65, 
	0x6c, 0x5f, 0x32, 0x31, 0x2f, 0x64, 0x65, 0x6e, 0x73, 0x65, 0x5f, 0x32, 
	0x36, 0x2f, 0x42, 0x69, 0x61, 0x73, 0x41, 0x64, 0x64, 0x2f, 0x52, 0x65, 
	0x61, 0x64, 0x56, 0x61, 0x72, 0x69, 0x61, 0x62, 0x6c, 0x65, 0x4f, 0x70, 
	0x00, 0x00, 0x00, 0x00, 0x04, 0x00, 0x06, 0x00, 0x04, 0x00, 0x00, 0x00, 
	0x00, 0x00, 0x0e, 0x00, 0x14, 0x00, 0x04, 0x00, 0x00, 0x00, 0x08, 0x00, 
	0x0c, 0x00, 0x10, 0x00, 0x0e, 0x00, 0x00, 0x00, 0x10, 0x00, 0x00, 0x00, 
	0x01, 0x00, 0x00, 0x00, 0x14, 0x00, 0x00, 0x00, 0x20, 0x00, 0x00, 0x00, 
	0x02, 0x00, 0x00, 0x00, 0x01, 0x00, 0x00, 0x00, 0x32, 0x00, 0x00, 0x00, 
	0x08, 0x00, 0x00, 0x00, 0x69, 0x6e, 0x70, 0x75, 0x74, 0x5f, 0x31, 0x36, 
	0x00, 0x00, 0x00, 0x00, 0xfc, 0xff, 0xff, 0xff, 0x04, 0x00, 0x04, 0x00, 
	0x04, 0x00, 0x00, 0x00
};
const int pred3_16_seq10_len = 9376;