
// if having troubles with min/max, uncomment the following
// #undef min    
// #undef max
#ifdef __has_attribute
#define HAVE_ATTRIBUTE(x) __has_attribute(x)
#else
#define HAVE_ATTRIBUTE(x) 0
#endif
#if HAVE_ATTRIBUTE(aligned) || (defined(__GNUC__) && !defined(__clang__))
#define DATA_ALIGN_ATTRIBUTE __attribute__((aligned(4)))
#else
#define DATA_ALIGN_ATTRIBUTE
#endif
const unsigned char pred2_16_seq10[] DATA_ALIGN_ATTRIBUTE = {
	0x1c, 0x00, 0x00, 0x00, 0x54, 0x46, 0x4c, 0x33, 0x00, 0x00, 0x12, 0x00, 
	0x1c, 0x00, 0x04, 0x00, 0x08, 0x00, 0x0c, 0x00, 0x10, 0x00, 0x14, 0x00, 
	0x00, 0x00, 0x18, 0x00, 0x12, 0x00, 0x00, 0x00, 0x03, 0x00, 0x00, 0x00, 
	0x14, 0x00, 0x00, 0x00, 0x18, 0x00, 0x00, 0x00, 0xac, 0x00, 0x00, 0x00, 
	0x18, 0x00, 0x00, 0x00, 0x54, 0x00, 0x00, 0x00, 0x01, 0x00, 0x00, 0x00, 
	0x30, 0x03, 0x00, 0x00, 0x01, 0x00, 0x00, 0x00, 0xb8, 0x00, 0x00, 0x00, 
	0x0f, 0x00, 0x00, 0x00, 0xd0, 0x21, 0x00, 0x00, 0xcc, 0x21, 0x00, 0x00, 
	0xe0, 0x20, 0x00, 0x00, 0xf8, 0x1f, 0x00, 0x00, 0x58, 0x1f, 0x00, 0x00, 
	0xf4, 0x1e, 0x00, 0x00, 0xa0, 0x14, 0x00, 0x00, 0x4c, 0x0c, 0x00, 0x00, 
	0xf8, 0x03, 0x00, 0x00, 0x64, 0x03, 0x00, 0x00, 0xa8, 0x21, 0x00, 0x00, 
	0xa4, 0x21, 0x00, 0x00, 0xa0, 0x21, 0x00, 0x00, 0x9c, 0x21, 0x00, 0x00, 
	0x38, 0x00, 0x00, 0x00, 0x01, 0x00, 0x00, 0x00, 0x0c, 0x00, 0x00, 0x00, 
	0x08, 0x00, 0x0c, 0x00, 0x04, 0x00, 0x08, 0x00, 0x08, 0x00, 0x00, 0x00, 
	0x08, 0x00, 0x00, 0x00, 0x0e, 0x00, 0x00, 0x00, 0x13, 0x00, 0x00, 0x00, 
	0x6d, 0x69, 0x6e, 0x5f, 0x72, 0x75, 0x6e, 0x74, 0x69, 0x6d, 0x65, 0x5f, 
	0x76, 0x65, 0x72, 0x73, 0x69, 0x6f, 0x6e, 0x00, 0x8e, 0xdf, 0xff, 0xff, 
	0x04, 0x00, 0x00, 0x00, 0x10, 0x00, 0x00, 0x00, 0x31, 0x2e, 0x35, 0x2e, 
	0x30, 0x00, 0x00, 0x00, 0x00, 0x00, 0x00, 0x00, 0x00, 0x00, 0x00, 0x00, 
	0x0f, 0x00, 0x00, 0x00, 0x4d, 0x4c, 0x49, 0x52, 0x20, 0x43, 0x6f, 0x6e, 
	0x76, 0x65, 0x72, 0x74, 0x65, 0x64, 0x2e, 0x00, 0x00, 0x00, 0x0e, 0x00, 
	0x18, 0x00, 0x04, 0x00, 0x08, 0x00, 0x0c, 0x00, 0x10, 0x00, 0x14, 0x00, 
	0x0e, 0x00, 0x00, 0x00, 0x14, 0x00, 0x00, 0x00, 0x48, 0x00, 0x00, 0x00, 
	0x4c, 0x00, 0x00, 0x00, 0x50, 0x00, 0x00, 0x00, 0x60, 0x00, 0x00, 0x00, 
	0x0d, 0x00, 0x00, 0x00, 0xcc, 0x20, 0x00, 0x00, 0x64, 0x20, 0x00, 0x00, 
	0xbc, 0x1f, 0x00, 0x00, 0xdc, 0x1e, 0x00, 0x00, 0x3c, 0x1e, 0x00, 0x00, 
	0xe4, 0x1d, 0x00, 0x00, 0x90, 0x13, 0x00, 0x00, 0x3c, 0x0b, 0x00, 0x00, 
	0xe8, 0x02, 0x00, 0x00, 0x3c, 0x02, 0x00, 0x00, 0x78, 0x01, 0x00, 0x00, 
	0xd4, 0x00, 0x00, 0x00, 0x68, 0x00, 0x00, 0x00, 0x01, 0x00, 0x00, 0x00, 
	0x00, 0x00, 0x00, 0x00, 0x01, 0x00, 0x00, 0x00, 0x0c, 0x00, 0x00, 0x00, 
	0x04, 0x00, 0x00, 0x00, 0xc4, 0x01, 0x00, 0x00, 0x20, 0x01, 0x00, 0x00, 
	0x7c, 0x00, 0x00, 0x00, 0x10, 0x00, 0x00, 0x00, 0x04, 0x00, 0x00, 0x00, 
	0x6d, 0x61, 0x69, 0x6e, 0x00, 0x00, 0x00, 0x00, 0x06, 0xff, 0xff, 0xff, 
	0x00, 0x00, 0x00, 0x08, 0x1c, 0x00, 0x00, 0x00, 0x10, 0x00, 0x00, 0x00, 
	0x04, 0x00, 0x00, 0x00, 0x56, 0xfe, 0xff, 0xff, 0x00, 0x00, 0x00, 0x01, 
	0x01, 0x00, 0x00, 0x00, 0x0c, 0x00, 0x00, 0x00, 0x03, 0x00, 0x00, 0x00, 
	0x0b, 0x00, 0x00, 0x00, 0x08, 0x00, 0x00, 0x00, 0x04, 0x00, 0x00, 0x00, 
	0xda, 0xdf, 0xff, 0xff, 0x10, 0x00, 0x00, 0x00, 0x0d, 0x00, 0x00, 0x00, 
	0x14, 0x00, 0x00, 0x00, 0x20, 0x00, 0x00, 0x00, 0x02, 0x00, 0x00, 0x00, 
	0x01, 0x00, 0x00, 0x00, 0x01, 0x00, 0x00, 0x00, 0x08, 0x00, 0x00, 0x00, 
	0x49, 0x64, 0x65, 0x6e, 0x74, 0x69, 0x74, 0x79, 0x00, 0x00, 0x00, 0x00, 
	0xc8, 0xdf, 0xff, 0xff, 0x6e, 0xff, 0xff, 0xff, 0x00, 0x00, 0x00, 0x08, 
	0x1c, 0x00, 0x00, 0x00, 0x10, 0x00, 0x00, 0x00, 0x04, 0x00, 0x00, 0x00, 
	0xbe, 0xfe, 0xff, 0xff, 0x00, 0x00, 0x00, 0x01, 0x01, 0x00, 0x00, 0x00, 
	0x0b, 0x00, 0x00, 0x00, 0x03, 0x00, 0x00, 0x00, 0x0a, 0x00, 0x00, 0x00, 
	0x07, 0x00, 0x00, 0x00, 0x03, 0x00, 0x00, 0x00, 0x42, 0xe0, 0xff, 0xff, 
	0x10, 0x00, 0x00, 0x00, 0x0c, 0x00, 0x00, 0x00, 0x14, 0x00, 0x00, 0x00, 
	0x48, 0x00, 0x00, 0x00, 0x02, 0x00, 0x00, 0x00, 0x01, 0x00, 0x00, 0x00, 
	0x10, 0x00, 0x00, 0x00, 0x30, 0x00, 0x00, 0x00, 0x6d, 0x6f, 0x64, 0x65, 
	0x6c, 0x5f, 0x31, 0x38, 0x2f, 0x64, 0x65, 0x6e, 0x73, 0x65, 0x5f, 0x32, 
	0x34, 0x2f, 0x52, 0x65, 0x6c, 0x75, 0x3b, 0x6d, 0x6f, 0x64, 0x65, 0x6c, 
	0x5f, 0x31, 0x38, 0x2f, 0x64, 0x65, 0x6e, 0x73, 0x65, 0x5f, 0x32, 0x34, 
	0x2f, 0x42, 0x69, 0x61, 0x73, 0x41, 0x64, 0x64, 0x00, 0x00, 0x00, 0x00, 
	0xa4, 0xe0, 0xff, 0xff, 0x00, 0x00, 0x0e, 0x00, 0x14, 0x00, 0x00, 0x00, 
	0x08, 0x00, 0x0c, 0x00, 0x07, 0x00, 0x10, 0x00, 0x0e, 0x00, 0x00, 0x00, 
	0x00, 0x00, 0x00, 0x08, 0x1c, 0x00, 0x00, 0x00, 0x10, 0x00, 0x00, 0x00, 
	0x04, 0x00, 0x00, 0x00, 0x5e, 0xff, 0xff, 0xff, 0x00, 0x00, 0x00, 0x01, 
	0x01, 0x00, 0x00, 0x00, 0x0a, 0x00, 0x00, 0x00, 0x03, 0x00, 0x00, 0x00, 
	0x09, 0x00, 0x00, 0x00, 0x06, 0x00, 0x00, 0x00, 0x02, 0x00, 0x00, 0x00, 
	0xe2, 0xe0, 0xff, 0xff, 0x10, 0x00, 0x00, 0x00, 0x0b, 0x00, 0x00, 0x00, 
	0x14, 0x00, 0x00, 0x00, 0x48, 0x00, 0x00, 0x00, 0x02, 0x00, 0x00, 0x00, 
	0x01, 0x00, 0x00, 0x00, 0x20, 0x00, 0x00, 0x00, 0x30, 0x00, 0x00, 0x00, 
	0x6d, 0x6f, 0x64, 0x65, 0x6c, 0x5f, 0x31, 0x38, 0x2f, 0x64, 0x65, 0x6e, 
	0x73, 0x65, 0x5f, 0x32, 0x33, 0x2f, 0x52, 0x65, 0x6c, 0x75, 0x3b, 0x6d, 
	0x6f, 0x64, 0x65, 0x6c, 0x5f, 0x31, 0x38, 0x2f, 0x64, 0x65, 0x6e, 0x73, 
	0x65, 0x5f, 0x32, 0x33, 0x2f, 0x42, 0x69, 0x61, 0x73, 0x41, 0x64, 0x64, 
	0x00, 0x00, 0x00, 0x00, 0x44, 0xe1, 0xff, 0xff, 0x00, 0x00, 0x0e, 0x00, 
	0x16, 0x00, 0x00, 0x00, 0x08, 0x00, 0x0c, 0x00, 0x07, 0x00, 0x10, 0x00, 
	0x0e, 0x00, 0x00, 0x00, 0x00, 0x00, 0x00, 0x08, 0x24, 0x00, 0x00, 0x00, 
	0x18, 0x00, 0x00, 0x00, 0x0c, 0x00, 0x00, 0x00, 0x00, 0x00, 0x06, 0x00, 
	0x08, 0x00, 0x07, 0x00, 0x06, 0x00, 0x00, 0x00, 0x00, 0x00, 0x00, 0x01, 
	0x01, 0x00, 0x00, 0x00, 0x09, 0x00, 0x00, 0x00, 0x03, 0x00, 0x00, 0x00, 
	0x00, 0x00, 0x00, 0x00, 0x05, 0x00, 0x00, 0x00, 0x01, 0x00, 0x00, 0x00, 
	0x00, 0x00, 0x0a, 0x00, 0x0c, 0x00, 0x07, 0x00, 0x00, 0x00, 0x08, 0x00, 
	0x0a, 0x00, 0x00, 0x00, 0x00, 0x00, 0x00, 0x09, 0x01, 0x00, 0x00, 0x00, 
	0xa2, 0xe1, 0xff, 0xff, 0x10, 0x00, 0x00, 0x00, 0x0a, 0x00, 0x00, 0x00, 
	0x14, 0x00, 0x00, 0x00, 0x48, 0x00, 0x00, 0x00, 0x02, 0x00, 0x00, 0x00, 
	0x01, 0x00, 0x00, 0x00, 0x10, 0x00, 0x00, 0x00, 0x30, 0x00, 0x00, 0x00, 
	0x6d, 0x6f, 0x64, 0x65, 0x6c, 0x5f, 0x31, 0x38, 0x2f, 0x64, 0x65, 0x6e, 
	0x73, 0x65, 0x5f, 0x32, 0x32, 0x2f, 0x52, 0x65, 0x6c, 0x75, 0x3b, 0x6d, 
	0x6f, 0x64, 0x65, 0x6c, 0x5f, 0x31, 0x38, 0x2f, 0x64, 0x65, 0x6e, 0x73, 
	0x65, 0x5f, 0x32, 0x32, 0x2f, 0x42, 0x69, 0x61, 0x73, 0x41, 0x64, 0x64, 
	0x00, 0x00, 0x00, 0x00, 0xb8, 0xe1, 0xff, 0xff, 0xa6, 0xe2, 0xff, 0xff, 
	0x04, 0x00, 0x00, 0x00, 0x40, 0x00, 0x00, 0x00, 0xf3, 0x37, 0x98, 0xbb, 
	0x7c, 0x80, 0x1a, 0xbc, 0xd5, 0xdd, 0x8a, 0xbe, 0x99, 0x9e, 0x17, 0xbf, 
	0xbd, 0x51, 0xda, 0xbe, 0xa5, 0xcd, 0xa3, 0xbe, 0xff, 0xf4, 0x5c, 0x3f, 
	0x4b, 0xf4, 0xa3, 0xbd, 0x99, 0xd9, 0x4a, 0x3f, 0x60, 0xde, 0xe2, 0x3e, 
	0x0e, 0x78, 0x81, 0xbe, 0xb0, 0xb8, 0x30, 0x3f, 0xa6, 0x5a, 0xbb, 0xbe, 
	0xec, 0xea, 0xd1, 0x3e, 0x14, 0x89, 0x14, 0xbf, 0x83, 0x17, 0x74, 0xbe, 
	0x4a, 0xe2, 0xff, 0xff, 0x10, 0x00, 0x00, 0x00, 0x09, 0x00, 0x00, 0x00, 
	0x14, 0x00, 0x00, 0x00, 0x30, 0x00, 0x00, 0x00, 0x02, 0x00, 0x00, 0x00, 
	0x01, 0x00, 0x00, 0x00, 0x10, 0x00, 0x00, 0x00, 0x18, 0x00, 0x00, 0x00, 
	0x6d, 0x6f, 0x64, 0x65, 0x6c, 0x5f, 0x31, 0x38, 0x2f, 0x64, 0x65, 0x6e, 
	0x73, 0x65, 0x5f, 0x32, 0x35, 0x2f, 0x4d, 0x61, 0x74, 0x4d, 0x75, 0x6c, 
	0x00, 0x00, 0x00, 0x00, 0x48, 0xe2, 0xff, 0xff, 0x36, 0xe3, 0xff, 0xff, 
	0x04, 0x00, 0x00, 0x00, 0x00, 0x08, 0x00, 0x00, 0x9e, 0xc2, 0xe1, 0xbc, 
	0xd2, 0x48, 0x70, 0xbe, 0x5e, 0xfa, 0xb9, 0xbe, 0x1f, 0x41, 0x2c, 0xbe, 
	0xf0, 0x80, 0x8b, 0xbb, 0xff, 0x47, 0x52, 0x3e, 0x58, 0xce, 0x8d, 0x3e, 
	0x48, 0x36, 0xd1, 0xbd, 0x3f, 0xb9, 0x85, 0x3e, 0xcc, 0xae, 0xe3, 0xbc, 
	0x6a, 0x09, 0xe3, 0xbd, 0xa8, 0x50, 0x18, 0xbe, 0x9f, 0x83, 0x2d, 0xbe, 
	0x01, 0xd1, 0x16, 0xbe, 0x6a, 0x6c, 0xd5, 0xbb, 0xf0, 0x5b, 0x61, 0xbc, 
	0x6c, 0x9d, 0x02, 0x3e, 0xe8, 0x89, 0xe8, 0xbd, 0x49, 0x29, 0x82, 0xbe, 
	0x06, 0x5f, 0x9a, 0x3e, 0x05, 0xe7, 0x51, 0x3d, 0x5d, 0x10, 0x3f, 0xbe, 
	0x35, 0xac, 0xc6, 0xbc, 0x26, 0x67, 0x47, 0x3e, 0x2d, 0xfd, 0x8e, 0xbe, 
	0x4c, 0x5d, 0x00, 0x3e, 0xb9, 0x05, 0xce, 0x3e, 0xf7, 0xeb, 0x29, 0xbe, 
	0x60, 0xfd, 0x84, 0x3e, 0x8d, 0xce, 0x3f, 0x3e, 0x87, 0x08, 0x4e, 0x3e, 
	0x9e, 0x97, 0xa2, 0xbe, 0x85, 0x2b, 0x8e, 0x3e, 0x2e, 0x0f, 0xa6, 0xbe, 
	0xf4, 0x08, 0x82, 0xbe, 0xce, 0x54, 0x9f, 0x3e, 0xb1, 0x9a, 0x63, 0x3e, 
	0xbc, 0xaf, 0xc2, 0xbd, 0x35, 0x54, 0x53, 0x3c, 0xed, 0x3b, 0x48, 0xbc, 
	0x2e, 0x3d, 0xf9, 0x3d, 0x1d, 0x3f, 0x32, 0xbe, 0xdb, 0xc8, 0xe0, 0xbd, 
	0xf0, 0xc7, 0x80, 0xbe, 0xda, 0x07, 0xb4, 0xbe, 0x3a, 0x84, 0xa3, 0x3e, 
	0x6e, 0x02, 0xe5, 0x3d, 0xd1, 0x76, 0x81, 0xbe, 0x69, 0x25, 0xa3, 0xbd, 
	0x9c, 0x6b, 0x79, 0xbe, 0x15, 0x90, 0x22, 0xbe, 0x0a, 0x25, 0x6d, 0x3d, 
	0x19, 0x1d, 0x91, 0x3e, 0x33, 0x81, 0x93, 0xbe, 0x9d, 0x92, 0xae, 0xbe, 
	0x3a, 0xb9, 0xf1, 0x3d, 0x7f, 0xd7, 0x05, 0x3e, 0xf9, 0x48, 0x3e, 0xbe, 
	0x6a, 0xfe, 0x9d, 0xbe, 0x43, 0x70, 0xea, 0x3d, 0x95, 0xc5, 0x37, 0x3d, 
	0x5e, 0x05, 0x9d, 0x3e, 0x7a, 0xa0, 0x5d, 0x3d, 0x28, 0x14, 0x93, 0xbc, 
	0xb9, 0x53, 0x8c, 0x3e, 0xaf, 0x42, 0x8e, 0xbe, 0xdc, 0x88, 0xe4, 0x3c, 
	0xdf, 0x8f, 0x9d, 0x3e, 0x12, 0x45, 0x36, 0xbe, 0x51, 0xe7, 0x83, 0xbe, 
	0x95, 0xa1, 0x2a, 0x3e, 0x03, 0x80, 0x24, 0xbe, 0xb7, 0xfd, 0x40, 0xbe, 
	0x2a, 0xd2, 0xdb, 0xbd, 0xf0, 0x9d, 0x88, 0xbe, 0xc1, 0xbc, 0x9d, 0x3d, 
	0x9a, 0x82, 0xc2, 0xbc, 0x57, 0xbc, 0x8b, 0xbd, 0x90, 0xf2, 0x2e, 0xbd, 
	0xec, 0xaf, 0xc7, 0x3d, 0x8f, 0x31, 0x18, 0x3d, 0x91, 0xf6, 0x9a, 0xbe, 
	0x37, 0x84, 0xe5, 0x3d, 0xab, 0x96, 0xa1, 0x3e, 0xfe, 0x20, 0x84, 0xbe, 
	0xa2, 0xac, 0x99, 0x3e, 0x93, 0xd0, 0x83, 0xbe, 0xf2, 0x95, 0x19, 0x3d, 
	0x8d, 0x7e, 0x8b, 0xbe, 0x51, 0x11, 0x88, 0xbe, 0x70, 0xbc, 0xff, 0x3d, 
	0x94, 0x40, 0x7b, 0xbd, 0x7a, 0xc8, 0xbb, 0xbe, 0xc5, 0x65, 0xae, 0x3d, 
	0x02, 0xf3, 0x73, 0x3e, 0x9e, 0x1d, 0x3d, 0xbe, 0x2e, 0xb6, 0xdb, 0x3d, 
	0x09, 0xbd, 0x51, 0xbc, 0xc7, 0xb0, 0x6a, 0xbe, 0x53, 0xe8, 0x4f, 0xbe, 
	0x35, 0x1d, 0x67, 0x3e, 0x30, 0xd9, 0x88, 0x3e, 0x2e, 0x84, 0xc5, 0xbe, 
	0xfb, 0xd0, 0x27, 0xbe, 0xed, 0x0d, 0x93, 0x3e, 0x71, 0xf2, 0xd5, 0x3d, 
	0x54, 0xb3, 0x4b, 0xbe, 0xe1, 0x0e, 0x99, 0xbe, 0xeb, 0x3e, 0x9b, 0xbd, 
	0x1d, 0x5e, 0xe9, 0xbe, 0x9c, 0x89, 0x0e, 0xbf, 0x73, 0x5d, 0x03, 0x3e, 
	0x2d, 0xac, 0x2c, 0xbf, 0xe4, 0xbe, 0x8b, 0xbe, 0x8a, 0x22, 0x5b, 0xbc, 
	0xc6, 0xc2, 0xba, 0x3d, 0x07, 0x86, 0xce, 0x3e, 0xf6, 0xec, 0xf5, 0x3e, 
	0xa1, 0xab, 0x0d, 0xbe, 0x27, 0xfa, 0x4f, 0xbe, 0x18, 0x27, 0x0c, 0xbe, 
	0xb2, 0x05, 0xa4, 0xbe, 0x06, 0xc7, 0x96, 0x3d, 0xdf, 0x0d, 0x39, 0xbe, 
	0x37, 0x03, 0xb1, 0xbd, 0x77, 0x75, 0x88, 0x3e, 0x8d, 0x64, 0xbe, 0x3e, 
	0xd9, 0x0e, 0xcb, 0xbc, 0x06, 0xc9, 0x43, 0xbe, 0x52, 0x86, 0x19, 0xbe, 
	0xb4, 0xd7, 0x07, 0xbe, 0x17, 0x9f, 0x6d, 0x3e, 0x64, 0x37, 0x89, 0x3e, 
	0x20, 0x75, 0x42, 0x3d, 0xfb, 0x9f, 0x45, 0xbe, 0x5f, 0x1e, 0x43, 0xbd, 
	0xf5, 0xcc, 0xa8, 0xbe, 0xba, 0x5f, 0xa5, 0x3a, 0x20, 0x4a, 0xad, 0x3d, 
	0x90, 0x5a, 0xf1, 0xbd, 0x54, 0x23, 0xc2, 0xbd, 0xd6, 0x4c, 0xea, 0xbd, 
	0x81, 0x77, 0xb7, 0xbc, 0xac, 0xd4, 0x60, 0xbe, 0x7c, 0x6d, 0xa3, 0x3e, 
	0x39, 0x64, 0x9d, 0x3e, 0xf9, 0x53, 0x51, 0xbe, 0xfa, 0x94, 0x72, 0xbe, 
	0x0c, 0xf4, 0x05, 0x3e, 0x5e, 0x1a, 0x30, 0xbe, 0x46, 0x69, 0x2a, 0x3e, 
	0x59, 0xc9, 0x0b, 0xbe, 0xbb, 0x0e, 0xb3, 0xbe, 0xbe, 0x0f, 0x87, 0x3e, 
	0xbe, 0xd8, 0xab, 0x3d, 0xd4, 0x91, 0xb9, 0xbe, 0xcc, 0x45, 0x7f, 0xbe, 
	0x57, 0xad, 0x19, 0x3e, 0xe2, 0xc8, 0xc1, 0x3d, 0x59, 0x6e, 0xfd, 0x3d, 
	0x77, 0xc9, 0x34, 0xbe, 0x78, 0xc1, 0x57, 0x3e, 0x2a, 0x49, 0x0c, 0xbe, 
	0xc0, 0xb3, 0x16, 0x3e, 0xab, 0xdd, 0x2c, 0x3e, 0x73, 0x40, 0xc9, 0xbe, 
	0x53, 0x56, 0x9e, 0x3e, 0xc5, 0x9d, 0x5f, 0x3e, 0xef, 0x1e, 0xc2, 0xbd, 
	0xfd, 0x29, 0x7d, 0xbe, 0xdb, 0x66, 0x58, 0x3d, 0xba, 0x61, 0x44, 0xbe, 
	0x62, 0x91, 0x7f, 0xbd, 0xc8, 0x9c, 0x01, 0x3e, 0x23, 0x99, 0x02, 0xbe, 
	0x4e, 0xaa, 0x01, 0xbe, 0xba, 0x21, 0xc2, 0x3d, 0xc7, 0x4d, 0x5c, 0x3e, 
	0xe0, 0xc2, 0x7c, 0xbe, 0xa0, 0x9b, 0xac, 0xbe, 0x6e, 0x92, 0x31, 0xbd, 
	0x7e, 0x83, 0x74, 0xbd, 0x09, 0x7b, 0x44, 0x3e, 0xb1, 0xc8, 0xb0, 0xbe, 
	0x4f, 0xac, 0x52, 0xbe, 0x08, 0xd8, 0x92, 0xbe, 0x18, 0xed, 0x97, 0x3e, 
	0x66, 0x14, 0xc1, 0xbe, 0x2e, 0x43, 0x6a, 0xbe, 0x5a, 0x45, 0x43, 0x3e, 
	0x9b, 0xd8, 0x81, 0xbe, 0x00, 0x97, 0x2a, 0x3e, 0x5e, 0x56, 0xc6, 0x3e, 
	0xfd, 0xcb, 0x49, 0x3f, 0x44, 0xe2, 0x26, 0xbe, 0xf5, 0xcf, 0xd2, 0x3e, 
	0x9b, 0xa6, 0xfd, 0x3e, 0xa0, 0x73, 0xa1, 0x3e, 0x3f, 0xbf, 0xf0, 0x3d, 
	0xe5, 0x63, 0xa8, 0x3c, 0xd2, 0x9c, 0xb2, 0xbe, 0xbe, 0xf3, 0x08, 0x3f, 
	0x2a, 0xa6, 0x30, 0x3e, 0x74, 0xdb, 0x13, 0xbe, 0xd8, 0xc5, 0xe2, 0x3e, 
	0x87, 0x48, 0xa0, 0xbd, 0x91, 0xc0, 0x9b, 0x3e, 0x87, 0xb9, 0xf3, 0x3d, 
	0xc9, 0x1c, 0x66, 0x3e, 0xd5, 0x15, 0x20, 0x3e, 0x61, 0x64, 0xd9, 0x3e, 
	0x72, 0xb3, 0x36, 0x3d, 0x34, 0x3d, 0x00, 0x3f, 0x42, 0x98, 0xc2, 0xbc, 
	0x7a, 0xa7, 0x89, 0x3e, 0x94, 0xb3, 0x08, 0x3f, 0xdc, 0x9c, 0x26, 0x3e, 
	0x3b, 0x04, 0x58, 0x3e, 0x02, 0x73, 0x2d, 0xbd, 0x5c, 0x1d, 0xce, 0x3e, 
	0x53, 0x5b, 0x59, 0x3e, 0x89, 0x6d, 0xfb, 0x3e, 0x8b, 0xb7, 0x94, 0xbd, 
	0x1c, 0x9a, 0x09, 0x3e, 0xb7, 0x9e, 0xc9, 0xbd, 0xb9, 0x05, 0x92, 0xbd, 
	0x29, 0xea, 0x09, 0x3d, 0xf6, 0x77, 0xe6, 0xbd, 0x2e, 0x5c, 0x9b, 0xbe, 
	0x01, 0x97, 0x5c, 0x3e, 0x69, 0x3d, 0xba, 0xbe, 0xbc, 0x31, 0x2e, 0xbd, 
	0x51, 0x84, 0x06, 0xbe, 0x8b, 0x76, 0x24, 0x3e, 0x7a, 0x87, 0xfe, 0xbd, 
	0x8f, 0x8a, 0x37, 0xbe, 0x70, 0xe0, 0xc0, 0xbe, 0xfb, 0x76, 0x86, 0x3e, 
	0x96, 0x97, 0x32, 0x3d, 0xf9, 0x18, 0xc9, 0xbd, 0x49, 0x37, 0x40, 0x3d, 
	0x4c, 0x6a, 0x88, 0xbe, 0x00, 0xaa, 0x3c, 0x3b, 0xea, 0x77, 0x7f, 0x3e, 
	0x37, 0xc0, 0x4b, 0xbe, 0xf9, 0x5b, 0x82, 0xbe, 0xd7, 0x53, 0xa6, 0x3e, 
	0xd9, 0xa6, 0x8a, 0x3e, 0xac, 0xb2, 0xb4, 0xbd, 0xee, 0xa6, 0xbb, 0xbe, 
	0xe8, 0xd4, 0x0e, 0xbe, 0x51, 0x83, 0x71, 0xbd, 0x14, 0x47, 0x99, 0xbd, 
	0x7f, 0xbf, 0xb9, 0xbe, 0x8e, 0x1c, 0x67, 0xbe, 0x32, 0xb7, 0x9d, 0x3e, 
	0xee, 0xf2, 0x74, 0x3e, 0x7d, 0x0c, 0xb1, 0x3e, 0xb7, 0x92, 0x02, 0xbe, 
	0xd0, 0xa7, 0x60, 0x3d, 0x9c, 0x76, 0x19, 0x3d, 0x4f, 0x8f, 0x31, 0x3e, 
	0xcf, 0xee, 0xba, 0xbc, 0xa6, 0xcb, 0x03, 0x3f, 0x7a, 0xf7, 0x94, 0x3d, 
	0x4f, 0xfa, 0x10, 0x3c, 0x4c, 0xe1, 0x55, 0x3e, 0xe1, 0x48, 0xc8, 0x3d, 
	0x7f, 0x2c, 0x62, 0x3e, 0xea, 0xaa, 0xc8, 0x3d, 0x20, 0x63, 0x14, 0x3e, 
	0x4c, 0x79, 0xb2, 0x3e, 0x5d, 0xd9, 0x95, 0x3e, 0xd2, 0x1f, 0x94, 0x3e, 
	0x6d, 0xc9, 0xb8, 0x3e, 0x14, 0x39, 0x3b, 0xbe, 0x67, 0xc8, 0xe6, 0x3e, 
	0x71, 0x02, 0xf2, 0x3d, 0x8e, 0x2a, 0xfc, 0x3d, 0x22, 0x04, 0x18, 0x3f, 
	0x3e, 0xc7, 0xc0, 0x3e, 0x72, 0x74, 0x91, 0x3e, 0x0c, 0xa0, 0xe5, 0x3e, 
	0x58, 0x6e, 0x30, 0x3e, 0x38, 0x6e, 0xf6, 0x3e, 0xd8, 0x92, 0x3a, 0xbd, 
	0x62, 0xbc, 0xc6, 0x3e, 0xf2, 0xd0, 0x96, 0x3d, 0x75, 0xd1, 0x05, 0x3d, 
	0x1d, 0x79, 0x99, 0x3e, 0x7b, 0x40, 0x5f, 0x3e, 0x2b, 0xca, 0x52, 0x3e, 
	0xc1, 0xa8, 0x9b, 0x3d, 0x9d, 0x35, 0xef, 0x3e, 0x08, 0x72, 0x98, 0xbd, 
	0x4e, 0xaf, 0x59, 0x3e, 0x03, 0x12, 0x5b, 0xbe, 0x52, 0x0f, 0x99, 0x3e, 
	0x10, 0xe8, 0xd5, 0x3e, 0x82, 0x5a, 0x1f, 0xbe, 0x19, 0xa3, 0xca, 0x3e, 
	0xc8, 0xc2, 0xa2, 0x3e, 0x4b, 0x18, 0x6a, 0x3e, 0x23, 0x33, 0xbd, 0x3e, 
	0xab, 0x6d, 0xea, 0x3e, 0x44, 0x51, 0xba, 0x3e, 0x36, 0xd1, 0xd7, 0x3e, 
	0x23, 0x9e, 0xc5, 0xbd, 0xca, 0xc0, 0xbc, 0x3d, 0xf6, 0xb1, 0xc7, 0x3e, 
	0x8c, 0x6c, 0x03, 0x3f, 0xba, 0xa1, 0x78, 0x3e, 0xbc, 0x53, 0x84, 0x3e, 
	0x68, 0x4a, 0xfd, 0x3e, 0xdf, 0xf3, 0x96, 0x3d, 0xac, 0xa3, 0xeb, 0xbd, 
	0xbc, 0x72, 0x0d, 0x3f, 0xf8, 0x77, 0xa1, 0x3e, 0xd8, 0xcc, 0xb7, 0xbd, 
	0x4f, 0xf2, 0x00, 0x3f, 0xef, 0x6f, 0x77, 0xbe, 0xd3, 0x64, 0xf3, 0x3d, 
	0x46, 0xca, 0xb6, 0xbd, 0xb0, 0xde, 0x9b, 0xbe, 0x8d, 0x1a, 0x81, 0xbe, 
	0x58, 0x28, 0xb9, 0x3d, 0xf3, 0x71, 0xe9, 0xbe, 0xfc, 0xf6, 0xa0, 0xbe, 
	0x0f, 0x6e, 0xed, 0x3e, 0xf7, 0xbe, 0x94, 0xbc, 0x6b, 0x45, 0x56, 0xbb, 
	0xd7, 0xc5, 0x34, 0xbe, 0x9c, 0x76, 0x9c, 0x3d, 0x73, 0x92, 0xd4, 0xbe, 
	0x5c, 0xd6, 0xd0, 0xbe, 0x8d, 0x81, 0xba, 0x3e, 0xf7, 0x94, 0x11, 0xbf, 
	0x3b, 0x18, 0xb8, 0xbe, 0x88, 0xc2, 0xe4, 0xbe, 0x50, 0xfb, 0x9b, 0xbe, 
	0x7f, 0x6a, 0x06, 0xbd, 0xdd, 0x4c, 0x1d, 0x3d, 0x8f, 0x69, 0x90, 0xbd, 
	0xe3, 0x51, 0x4e, 0x3e, 0xc4, 0x0f, 0xc9, 0x3e, 0xf5, 0x29, 0x8a, 0x3e, 
	0x75, 0x7f, 0xa3, 0xbd, 0xd7, 0x2c, 0x51, 0xbe, 0xe0, 0xd1, 0x57, 0x3d, 
	0xbc, 0x2d, 0x6b, 0xbe, 0xf2, 0xdd, 0x53, 0xbd, 0x33, 0x0e, 0x9c, 0xbe, 
	0xe5, 0xc4, 0xb3, 0x3e, 0x1e, 0xf7, 0x4a, 0x3f, 0x4c, 0xe4, 0x06, 0x3f, 
	0xd7, 0x6c, 0xfa, 0x3e, 0x09, 0x69, 0xf1, 0x3e, 0x2f, 0xc1, 0x25, 0x3b, 
	0xb3, 0x8b, 0x8b, 0x3a, 0x48, 0xd4, 0x79, 0x3e, 0xde, 0x00, 0xdb, 0xbe, 
	0xe9, 0x84, 0x85, 0x3d, 0xde, 0x39, 0x0b, 0x3f, 0xf6, 0x49, 0x26, 0xbe, 
	0x83, 0x18, 0x37, 0x3d, 0x85, 0x2d, 0xcc, 0xbc, 0x3a, 0x06, 0x46, 0x3f, 
	0x4a, 0xe5, 0x79, 0x3e, 0x17, 0x34, 0x15, 0x3e, 0xe6, 0x24, 0x0c, 0x3e, 
	0x0b, 0x90, 0xad, 0x3e, 0x66, 0xb7, 0x41, 0x3d, 0xcc, 0x2f, 0x84, 0x3e, 
	0x40, 0xac, 0xc5, 0x3e, 0xfb, 0x1b, 0xf5, 0x3e, 0xe6, 0x3e, 0x14, 0x3f, 
	0xdf, 0x76, 0x75, 0x3e, 0x3b, 0xee, 0x03, 0x3f, 0x1b, 0xfb, 0xfb, 0x3e, 
	0x3d, 0xb0, 0x0a, 0x3f, 0x38, 0xff, 0x43, 0x3d, 0x91, 0x0b, 0x15, 0x3f, 
	0x3e, 0x16, 0x11, 0x3d, 0x57, 0xde, 0xc6, 0x3d, 0x22, 0xc7, 0x48, 0xbd, 
	0xa3, 0xba, 0x3f, 0x3e, 0x87, 0xb2, 0xe0, 0xbc, 0x17, 0x44, 0xaa, 0xbe, 
	0x4c, 0x76, 0x06, 0x3e, 0xf8, 0xa3, 0x5c, 0x3e, 0x99, 0xf4, 0xa9, 0xbe, 
	0x04, 0x1f, 0x5d, 0x3d, 0xf7, 0x3f, 0x7b, 0xbe, 0x28, 0x28, 0x95, 0xb8, 
	0xac, 0x4e, 0x2f, 0xbe, 0x5f, 0xb6, 0x8b, 0x3e, 0xdf, 0x55, 0x71, 0x3e, 
	0xc6, 0x26, 0x1c, 0xbe, 0x9c, 0xc8, 0x9a, 0xbe, 0xa9, 0x72, 0xc0, 0xbe, 
	0xc0, 0x78, 0x08, 0x3e, 0x58, 0xed, 0x6c, 0xbe, 0x39, 0xf9, 0x67, 0xbd, 
	0x47, 0xdc, 0x5f, 0x3e, 0x3e, 0xaf, 0xb5, 0x3c, 0x68, 0xda, 0x13, 0x3e, 
	0xbf, 0xf9, 0x9b, 0x3c, 0x86, 0xd0, 0x6d, 0x3e, 0xfe, 0x0b, 0x0e, 0x3e, 
	0x5f, 0x4d, 0x4d, 0x3e, 0x7b, 0xaa, 0x93, 0x3d, 0x0b, 0x10, 0xc9, 0x3d, 
	0x31, 0xa5, 0x1d, 0xbe, 0x1f, 0x60, 0x06, 0xbe, 0x14, 0xef, 0x36, 0xbe, 
	0x0b, 0x59, 0x23, 0xbe, 0x6d, 0x2d, 0xd9, 0x3e, 0xfb, 0xc1, 0xa6, 0x3e, 
	0xe7, 0x9b, 0xe0, 0x3e, 0x84, 0x22, 0xa9, 0xbb, 0x77, 0x30, 0xef, 0x3e, 
	0xc3, 0xcc, 0xf8, 0x3d, 0xfa, 0x65, 0x98, 0xbd, 0xc7, 0x35, 0x00, 0x3f, 
	0xa2, 0x75, 0x89, 0xbd, 0xd3, 0x8f, 0xdb, 0x3e, 0x9e, 0xda, 0xe1, 0x3e, 
	0x3d, 0xe0, 0x36, 0xbe, 0x94, 0x00, 0x03, 0x3f, 0x68, 0xd9, 0x14, 0x3f, 
	0xdc, 0xc5, 0x1e, 0x3e, 0x50, 0x70, 0x03, 0x3f, 0x47, 0x4d, 0x5f, 0x3d, 
	0x51, 0x96, 0xaa, 0x3e, 0x54, 0x58, 0x14, 0x3f, 0xe5, 0x44, 0x2b, 0xbe, 
	0x4f, 0xe2, 0x09, 0x3e, 0x4a, 0x14, 0xf9, 0x3d, 0xe3, 0x06, 0x69, 0x3e, 
	0x65, 0x13, 0x12, 0x3f, 0x3b, 0xfe, 0xed, 0x3e, 0x1b, 0x99, 0x0b, 0x3e, 
	0xb6, 0xe4, 0x9c, 0x3b, 0x32, 0x84, 0x8d, 0x3b, 0xd6, 0xad, 0xe5, 0x3e, 
	0xcd, 0x1b, 0x03, 0x3f, 0xc3, 0x13, 0xf6, 0x3e, 0xb0, 0xe7, 0x01, 0x3f, 
	0x0c, 0x83, 0x86, 0xbe, 0x91, 0x63, 0xba, 0xbe, 0x5c, 0x5b, 0xd1, 0x3d, 
	0xec, 0x97, 0xc0, 0xbe, 0x93, 0x0f, 0x6a, 0xbd, 0x80, 0x1d, 0x3e, 0x3e, 
	0x6f, 0xee, 0xa9, 0xbe, 0xca, 0xe1, 0xa1, 0xbb, 0x8e, 0xa0, 0x03, 0x3e, 
	0xa5, 0x1a, 0x5a, 0xbe, 0x38, 0x3d, 0x1b, 0xbe, 0x18, 0xdc, 0xb5, 0xbe, 
	0x6f, 0x29, 0x6c, 0xbe, 0x82, 0x33, 0x29, 0xbe, 0x16, 0x36, 0x94, 0xbd, 
	0x00, 0x37, 0x74, 0xbe, 0x9e, 0x2f, 0x1c, 0x3e, 0x68, 0xff, 0xae, 0xbe, 
	0xfb, 0xe6, 0x88, 0x3b, 0x59, 0x69, 0x82, 0x3e, 0xd5, 0x4c, 0x3c, 0x3e, 
	0x31, 0x21, 0x94, 0x3e, 0xae, 0xeb, 0x7c, 0x3e, 0x92, 0xc9, 0x1e, 0xbe, 
	0x4f, 0x25, 0x64, 0x3e, 0xcb, 0x18, 0xad, 0x3d, 0x24, 0xd5, 0x3a, 0xbd, 
	0xad, 0x4c, 0x85, 0x3d, 0xe6, 0x43, 0x05, 0x3d, 0x24, 0x83, 0x57, 0x3d, 
	0x81, 0x03, 0x6c, 0x3e, 0xc2, 0xc2, 0xe9, 0x3d, 0x8e, 0x5a, 0x7c, 0x3d, 
	0x14, 0xc3, 0x80, 0xbe, 0xa6, 0x73, 0x66, 0xbe, 0xa2, 0x7c, 0x6a, 0x3d, 
	0x9c, 0x83, 0xc9, 0xbd, 0xf7, 0x8e, 0x90, 0xbe, 0xe4, 0x97, 0xb5, 0x3d, 
	0x68, 0x72, 0x2b, 0x3e, 0x83, 0x85, 0x19, 0xbe, 0xf5, 0x1d, 0xad, 0xbe, 
	0xbc, 0x67, 0x91, 0xbe, 0xc4, 0x65, 0x55, 0xbe, 0x90, 0xbe, 0x50, 0xbe, 
	0xfb, 0xd6, 0x42, 0x3e, 0xc9, 0xdc, 0x28, 0x3e, 0xd0, 0xad, 0x22, 0x3e, 
	0x71, 0x20, 0x91, 0x3e, 0xe6, 0x9b, 0x82, 0x3c, 0xb7, 0x6b, 0x61, 0xbd, 
	0x8c, 0xfd, 0x93, 0xbe, 0x74, 0x0f, 0xbd, 0xbe, 0xe0, 0x79, 0x2a, 0x3e, 
	0xa6, 0x50, 0x89, 0xbe, 0xdc, 0x00, 0x28, 0x3e, 0x7b, 0xc7, 0x47, 0x3d, 
	0xa9, 0x63, 0x4c, 0x3e, 0x1f, 0xec, 0x99, 0xbc, 0x35, 0x95, 0xb0, 0xbe, 
	0x66, 0x8a, 0x35, 0xbe, 0x61, 0x57, 0x56, 0x3e, 0x0b, 0xd8, 0x2b, 0xbe, 
	0x60, 0x8a, 0x58, 0xbe, 0x9a, 0xea, 0xff, 0xff, 0x10, 0x00, 0x00, 0x00, 
	0x08, 0x00, 0x00, 0x00, 0x14, 0x00, 0x00, 0x00, 0x30, 0x00, 0x00, 0x00, 
	0x02, 0x00, 0x00, 0x00, 0x10, 0x00, 0x00, 0x00, 0x20, 0x00, 0x00, 0x00, 
	0x18, 0x00, 0x00, 0x00, 0x6d, 0x6f, 0x64, 0x65, 0x6c, 0x5f, 0x31, 0x38, 
	0x2f, 0x64, 0x65, 0x6e, 0x73, 0x65, 0x5f, 0x32, 0x34, 0x2f, 0x4d, 0x61, 
	0x74, 0x4d, 0x75, 0x6c, 0x00, 0x00, 0x00, 0x00, 0x98, 0xea, 0xff, 0xff, 
	0x86, 0xeb, 0xff, 0xff, 0x04, 0x00, 0x00, 0x00, 0x00, 0x08, 0x00, 0x00, 
	0x87, 0x68, 0xc2, 0xbe, 0xde, 0xa0, 0xe6, 0x3d, 0xd3, 0xd2, 0xe1, 0x3d, 
	0x27, 0xa7, 0x54, 0x3d, 0x51, 0x35, 0xd3, 0x3e, 0xc0, 0x6b, 0xeb, 0x3c, 
	0xf5, 0xa2, 0x45, 0x3e, 0x76, 0xd4, 0x4a, 0x3e, 0x23, 0x98, 0x77, 0x3e, 
	0xc6, 0x40, 0x0c, 0x3f, 0x6c, 0xab, 0x32, 0xbf, 0x02, 0xc7, 0x9b, 0xbe, 
	0x65, 0xad, 0x58, 0xbd, 0x94, 0x0c, 0x1b, 0x3e, 0x51, 0x28, 0x3d, 0x3e, 
	0x5a, 0x67, 0x80, 0x3e, 0xd0, 0xae, 0x6f, 0x3e, 0x39, 0x4d, 0x04, 0x3e, 
	0xc7, 0x70, 0x70, 0xbe, 0xd3, 0x8f, 0x1d, 0x3e, 0xdb, 0x2d, 0x31, 0xbd, 
	0x30, 0x0d, 0x01, 0x3d, 0x70, 0x83, 0x08, 0x3f, 0x20, 0xc6, 0x61, 0x3d, 
	0x24, 0x05, 0xdd, 0x3d, 0x16, 0x37, 0xda, 0x3e, 0x2d, 0x61, 0x14, 0xbf, 
	0x79, 0xc6, 0x96, 0xbe, 0x6a, 0xb0, 0xf7, 0x3d, 0xb8, 0xbd, 0xb5, 0x3e, 
	0xf2, 0x1b, 0x04, 0x3e, 0xd3, 0x3e, 0x71, 0x3e, 0xb2, 0x51, 0x11, 0x3e, 
	0xb6, 0x14, 0xa4, 0x3e, 0x48, 0x61, 0xa1, 0x3e, 0x02, 0xd1, 0x5f, 0xbe, 
	0x6e, 0x25, 0xe1, 0xbe, 0xe0, 0x92, 0x3a, 0xbe, 0x32, 0x2c, 0xb3, 0x3e, 
	0xbb, 0x15, 0x33, 0xbe, 0xea, 0xee, 0x6d, 0x3e, 0x8f, 0x0c, 0x05, 0xbe, 
	0x16, 0xa2, 0x5c, 0xbe, 0x5a, 0xbd, 0x06, 0xbe, 0xa9, 0xcc, 0x63, 0xbe, 
	0x0f, 0x25, 0x1c, 0xbe, 0xd8, 0x52, 0x99, 0x3d, 0xd2, 0xdb, 0x87, 0xbe, 
	0x83, 0x78, 0x2b, 0x3e, 0x70, 0x51, 0xa1, 0x3c, 0x4e, 0xb8, 0x92, 0x3d, 
	0x2e, 0x2f, 0xa1, 0x3e, 0xf0, 0xfd, 0x68, 0x3d, 0xce, 0x1b, 0xda, 0xbd, 
	0xdb, 0xcd, 0x3b, 0x3e, 0xc5, 0x32, 0x15, 0xbe, 0x70, 0x8d, 0xe8, 0xbd, 
	0x36, 0x98, 0x0a, 0x3f, 0x90, 0x35, 0x28, 0xbf, 0xd4, 0xf4, 0xa5, 0x3d, 
	0x8a, 0x32, 0x0e, 0xbd, 0x59, 0x4c, 0x42, 0x3e, 0x76, 0xfa, 0xdd, 0x3d, 
	0x48, 0x4b, 0xeb, 0x3e, 0x94, 0x98, 0xc2, 0xbd, 0x72, 0xd7, 0x8a, 0x3e, 
	0x90, 0xac, 0xdf, 0xbc, 0x5b, 0x16, 0x27, 0x3e, 0x9e, 0xbd, 0xad, 0xba, 
	0x48, 0xc1, 0xa9, 0xbd, 0x56, 0x69, 0x7c, 0xbd, 0x60, 0x68, 0x12, 0x3d, 
	0x7e, 0xb3, 0x6c, 0x3d, 0x2a, 0x89, 0x80, 0x3e, 0x2d, 0x39, 0xc6, 0xbe, 
	0xc2, 0xb5, 0x89, 0xbe, 0x15, 0x96, 0xdc, 0x3d, 0x69, 0x03, 0xf4, 0x3e, 
	0x9b, 0x30, 0x16, 0x3e, 0x34, 0x53, 0xc0, 0x3d, 0xbb, 0x2a, 0x01, 0x3e, 
	0x36, 0x5a, 0x2d, 0x3e, 0x1a, 0x8a, 0x9c, 0x3d, 0xf3, 0x68, 0x8d, 0x3e, 
	0xb9, 0x7e, 0xd8, 0x3d, 0xa0, 0xf6, 0x5e, 0xbd, 0xda, 0x13, 0xa6, 0x3e, 
	0x50, 0x9a, 0x87, 0xbe, 0x55, 0xa1, 0x39, 0x3e, 0x81, 0x9f, 0xce, 0x3e, 
	0xee, 0x4c, 0x0e, 0xbe, 0x40, 0xd7, 0x7e, 0x3d, 0xeb, 0xdf, 0xce, 0x3e, 
	0x3e, 0x58, 0x19, 0x3e, 0x12, 0x04, 0x43, 0x3e, 0x56, 0x88, 0xf4, 0xbd, 
	0x0a, 0xde, 0x12, 0xbe, 0x4e, 0x21, 0x07, 0xbe, 0x27, 0xdb, 0x9a, 0xbe, 
	0x2f, 0x9e, 0xb4, 0xbe, 0x31, 0x4f, 0x4e, 0xbe, 0xe8, 0xa3, 0xdc, 0xbd, 
	0x30, 0x18, 0x54, 0x3e, 0x00, 0x83, 0xb3, 0xbe, 0x12, 0x00, 0x2a, 0x3e, 
	0x84, 0x7c, 0x0c, 0x3e, 0xb6, 0xd7, 0x4e, 0xbd, 0x35, 0x55, 0x52, 0xbe, 
	0x80, 0x31, 0xc0, 0xbe, 0xb4, 0xb2, 0x3d, 0x3e, 0x95, 0x7b, 0x58, 0xbe, 
	0x6a, 0xb8, 0x11, 0xbe, 0x24, 0xa9, 0xb1, 0x3d, 0xdb, 0x18, 0x74, 0x3d, 
	0x6d, 0xa5, 0x23, 0xbe, 0xcd, 0xbe, 0x06, 0x3f, 0xdf, 0x02, 0xf0, 0x3e, 
	0xe6, 0xdf, 0x4c, 0x3e, 0xa0, 0xb3, 0x4a, 0x3e, 0x02, 0xb7, 0x17, 0x3e, 
	0xec, 0x88, 0xc5, 0x3e, 0x88, 0x1c, 0x28, 0x3f, 0x03, 0x72, 0x28, 0xbf, 
	0xc9, 0x97, 0x9d, 0x3e, 0x85, 0xc0, 0xf3, 0x3e, 0x9f, 0x7e, 0xca, 0x3d, 
	0x84, 0x30, 0x36, 0x3d, 0x1e, 0x7a, 0x45, 0xbd, 0x6d, 0xdd, 0x41, 0x3e, 
	0xb7, 0x9c, 0x48, 0x3e, 0xce, 0xa3, 0x3c, 0x3e, 0xd6, 0x53, 0x94, 0x3d, 
	0xfd, 0x80, 0x14, 0xbe, 0x24, 0x81, 0x51, 0xbe, 0xd3, 0x94, 0x74, 0x3e, 
	0x5c, 0xb7, 0xdf, 0x3d, 0x6b, 0xb8, 0x4b, 0x3e, 0xfa, 0xc8, 0x82, 0xbe, 
	0x98, 0xf0, 0x5a, 0x3f, 0xd8, 0xac, 0x81, 0x3d, 0x27, 0x86, 0xc0, 0xbd, 
	0xf6, 0x33, 0x6a, 0x3d, 0x1c, 0x87, 0x15, 0xbd, 0x98, 0xf0, 0x85, 0x3d, 
	0x3f, 0x7e, 0x96, 0x3e, 0x2e, 0x27, 0x91, 0xbd, 0x3e, 0xd8, 0x7c, 0x3e, 
	0xe5, 0x43, 0xbb, 0x3e, 0xfa, 0x40, 0x8f, 0x3e, 0x50, 0x13, 0xf7, 0x3d, 
	0xb5, 0x32, 0x23, 0xbe, 0xc2, 0x19, 0x42, 0x3e, 0x45, 0x84, 0xa0, 0x3e, 
	0x66, 0xd8, 0x06, 0x3f, 0xc4, 0x30, 0x83, 0xbe, 0x0b, 0x69, 0x96, 0x3e, 
	0xbd, 0x4f, 0x45, 0xbe, 0xe0, 0x30, 0x31, 0x3d, 0x30, 0x9b, 0x2d, 0x3e, 
	0x7f, 0xbe, 0xae, 0x3e, 0x90, 0xae, 0xa4, 0x3c, 0x20, 0xfb, 0xcb, 0x3e, 
	0x18, 0xc7, 0xec, 0xbd, 0x10, 0x4f, 0x59, 0x3e, 0xe0, 0x62, 0xec, 0x3e, 
	0x80, 0x3a, 0x01, 0x3e, 0xd2, 0x43, 0x0d, 0xbe, 0xe4, 0x22, 0x82, 0xbd, 
	0x46, 0x47, 0x1e, 0x3e, 0x24, 0x99, 0xf9, 0x3e, 0xd1, 0x85, 0x06, 0xbf, 
	0xd8, 0xf2, 0x67, 0x3d, 0x68, 0x34, 0x72, 0x3e, 0xb9, 0x3c, 0xcf, 0x3c, 
	0xac, 0xfd, 0x8c, 0x3e, 0x4c, 0x74, 0x37, 0xbd, 0x08, 0x3e, 0x91, 0xbe, 
	0x96, 0x9f, 0x1a, 0xbe, 0xed, 0x63, 0x8c, 0xbd, 0xb4, 0x3f, 0xf0, 0xbd, 
	0xcd, 0xd4, 0x18, 0xbe, 0x45, 0x2c, 0x6a, 0xbe, 0xa1, 0x80, 0xae, 0xbe, 
	0x5a, 0x56, 0x41, 0x3e, 0xe2, 0x10, 0x8d, 0xbe, 0x2d, 0xe3, 0x5c, 0x3e, 
	0xb7, 0x7f, 0x00, 0xbe, 0x1b, 0xba, 0xa1, 0xbe, 0xb9, 0x7c, 0x83, 0x3d, 
	0x6e, 0xfa, 0x63, 0x3d, 0x30, 0x59, 0xc1, 0xbe, 0x7b, 0x76, 0x50, 0xbe, 
	0x5e, 0xca, 0xa0, 0x3e, 0xda, 0xc5, 0xa4, 0x3e, 0xa6, 0xf1, 0xdf, 0x3e, 
	0x85, 0xca, 0x80, 0x3e, 0xd3, 0xe1, 0xe5, 0x3e, 0xc5, 0xdd, 0x88, 0xbe, 
	0x5b, 0x64, 0xaf, 0x3d, 0x80, 0xd5, 0x82, 0xbb, 0xb0, 0x73, 0xe3, 0x3e, 
	0xd8, 0x15, 0x31, 0x3e, 0xd9, 0x13, 0x0d, 0xbf, 0x6e, 0xe7, 0xfb, 0xbd, 
	0x19, 0x53, 0x5c, 0xbd, 0x1a, 0xa8, 0xd7, 0x3d, 0xdb, 0x66, 0x04, 0x3f, 
	0xcd, 0x36, 0xe8, 0x3e, 0xa7, 0xc8, 0xa3, 0x3e, 0xe1, 0xd3, 0x2e, 0xbe, 
	0xff, 0x36, 0x76, 0xbd, 0xf3, 0x7f, 0x6a, 0x3e, 0x28, 0xc9, 0xce, 0xbe, 
	0x80, 0x72, 0x90, 0x3d, 0x10, 0x2a, 0x34, 0xbe, 0x88, 0x9f, 0x11, 0x3e, 
	0xeb, 0x89, 0xbd, 0x3e, 0x24, 0x7c, 0xa3, 0x3d, 0xd1, 0x34, 0x23, 0xbf, 
	0xc1, 0x12, 0x8c, 0x3e, 0x85, 0xf4, 0xc5, 0x3e, 0x13, 0xb9, 0x02, 0x3e, 
	0x63, 0x79, 0x3a, 0x3e, 0x51, 0x11, 0x00, 0xbc, 0x1d, 0x36, 0xb3, 0xbe, 
	0xe9, 0xa0, 0x36, 0xbe, 0x7a, 0x68, 0x6d, 0x3e, 0x6f, 0xf5, 0x3a, 0x3d, 
	0x17, 0x1b, 0x9d, 0x3e, 0xde, 0x5b, 0x15, 0x3e, 0x36, 0x7b, 0x92, 0xbe, 
	0x20, 0x8a, 0x39, 0x3d, 0xc2, 0xf3, 0xbd, 0x3e, 0xe3, 0xc3, 0x96, 0xbd, 
	0xad, 0x26, 0x62, 0xbd, 0xca, 0x70, 0xea, 0xbd, 0x58, 0xc0, 0xb4, 0xbc, 
	0xf9, 0x95, 0xd9, 0x3e, 0x2f, 0x08, 0x9e, 0xbe, 0x10, 0xcd, 0x0a, 0xbf, 
	0x67, 0x1a, 0xde, 0x3c, 0x19, 0x5a, 0x9f, 0x3e, 0x0b, 0xb8, 0x0b, 0x3d, 
	0x70, 0x3e, 0xee, 0x3e, 0x57, 0xdd, 0x97, 0x3e, 0x2c, 0xd7, 0xad, 0xbd, 
	0x42, 0x03, 0x52, 0x3e, 0x91, 0x87, 0xa2, 0x3e, 0x41, 0x55, 0x09, 0x3f, 
	0x6a, 0x15, 0x8f, 0x3e, 0xdf, 0x8d, 0x13, 0xbf, 0xf7, 0x76, 0x9d, 0xbe, 
	0xd9, 0x9c, 0x0c, 0x3f, 0x0f, 0x2a, 0x10, 0x3f, 0x03, 0x94, 0xf7, 0x3e, 
	0x46, 0xad, 0x59, 0x3e, 0x56, 0xf8, 0xd4, 0x3d, 0x5d, 0x57, 0xa7, 0x3d, 
	0x1b, 0x04, 0x8a, 0x3e, 0x63, 0x48, 0x52, 0x3e, 0xe1, 0x8d, 0xe7, 0xbe, 
	0x1c, 0x47, 0xfc, 0xbd, 0xae, 0xac, 0x8f, 0xbd, 0x2e, 0xea, 0x94, 0xbe, 
	0xe8, 0x64, 0x45, 0xbe, 0x63, 0xa2, 0xc2, 0x3e, 0x9d, 0xe8, 0x20, 0x3f, 
	0x04, 0x9a, 0xa2, 0xbe, 0x45, 0x1d, 0x39, 0x3c, 0xbf, 0xa8, 0x8e, 0x3d, 
	0x5f, 0xa6, 0xd9, 0xbe, 0xcf, 0x1b, 0x28, 0x3e, 0x67, 0x9d, 0x08, 0xbe, 
	0xf6, 0xd1, 0x4b, 0xbe, 0x0b, 0x58, 0xe2, 0x3d, 0x46, 0x65, 0xb7, 0xbe, 
	0x90, 0x41, 0xae, 0xbe, 0xfd, 0xcc, 0xa7, 0x3e, 0x29, 0x34, 0x80, 0x3d, 
	0x10, 0x23, 0x8c, 0xbd, 0x5e, 0x1f, 0x8a, 0x3d, 0xc6, 0xf0, 0x0e, 0x3e, 
	0xd6, 0x26, 0x84, 0x3e, 0x3e, 0xc6, 0x4d, 0x3e, 0xe7, 0x63, 0xd0, 0x3e, 
	0x06, 0xf2, 0x9c, 0xbd, 0x64, 0x02, 0xa5, 0xbd, 0x1d, 0x0a, 0x1e, 0x3e, 
	0x21, 0xbe, 0x46, 0x3d, 0xf7, 0x6b, 0x84, 0x3c, 0xa6, 0xdf, 0x44, 0xbe, 
	0x07, 0xb6, 0xeb, 0xbe, 0x0a, 0x2c, 0x06, 0x3f, 0x30, 0x03, 0x52, 0x3d, 
	0x36, 0x4a, 0x8e, 0x3e, 0x05, 0x4d, 0x26, 0xbe, 0xb5, 0xf8, 0xd4, 0xbc, 
	0x3e, 0xa9, 0xf1, 0x3d, 0x0e, 0x5b, 0xe8, 0xbe, 0x63, 0x1a, 0x8a, 0x3e, 
	0x08, 0x41, 0xbf, 0xbc, 0x2c, 0x5e, 0xe5, 0x3d, 0x3a, 0x41, 0xdf, 0x3d, 
	0x65, 0xda, 0x71, 0x3e, 0x3d, 0xea, 0x87, 0xbe, 0x03, 0x4a, 0x9e, 0x3d, 
	0xa5, 0x6e, 0x98, 0xbe, 0x31, 0x4a, 0xc4, 0x3c, 0x5e, 0x15, 0x2e, 0xbe, 
	0x7c, 0x59, 0xa5, 0xbd, 0x74, 0xfe, 0x20, 0x3d, 0x24, 0xfa, 0xa6, 0xbe, 
	0x1f, 0x96, 0x80, 0xbe, 0x22, 0x6a, 0x43, 0x3e, 0xd0, 0x03, 0x32, 0xbd, 
	0xcb, 0x62, 0xb4, 0x3e, 0x3d, 0x94, 0x7b, 0xbe, 0xcd, 0x76, 0x90, 0xbe, 
	0xb8, 0x4c, 0x8e, 0xbb, 0x44, 0xf2, 0xc0, 0xbe, 0x35, 0x10, 0x5a, 0xbd, 
	0x93, 0x72, 0x8c, 0x3e, 0x7c, 0x15, 0xa4, 0x3d, 0xf0, 0x46, 0xba, 0xbd, 
	0xd0, 0xd0, 0x23, 0x3e, 0xde, 0x73, 0x8f, 0xbe, 0x5d, 0xd4, 0x9d, 0x3e, 
	0x20, 0x73, 0x14, 0x3c, 0x60, 0x37, 0xa5, 0xbd, 0x95, 0x61, 0x2b, 0xbc, 
	0x45, 0x5a, 0xb9, 0xbe, 0x29, 0x0c, 0x81, 0x3e, 0x8e, 0x75, 0x9b, 0x3e, 
	0xe3, 0x28, 0x37, 0xbb, 0xdb, 0x5e, 0x96, 0xbc, 0xae, 0xe4, 0xd2, 0x3e, 
	0x03, 0x54, 0x22, 0xbe, 0x8e, 0x3d, 0xc9, 0xbc, 0x57, 0xda, 0x81, 0x3d, 
	0x60, 0x7a, 0xbb, 0x3e, 0xf8, 0x41, 0x72, 0x3d, 0x00, 0x48, 0x6f, 0x39, 
	0x3f, 0xff, 0x27, 0x3e, 0x92, 0x85, 0x71, 0x3e, 0x86, 0x54, 0xa0, 0x3d, 
	0x10, 0x68, 0x8d, 0xbd, 0x45, 0x41, 0x8a, 0xbd, 0xb8, 0xb2, 0x52, 0x3d, 
	0x40, 0xd2, 0x9c, 0x3e, 0xbf, 0x74, 0x0f, 0x3e, 0x81, 0x02, 0xc0, 0x3e, 
	0x30, 0x78, 0x6b, 0x3e, 0xc7, 0xca, 0x1e, 0xbe, 0x1e, 0x02, 0xd4, 0x3e, 
	0x23, 0xc9, 0xc8, 0x3e, 0xb0, 0x34, 0xd3, 0x3e, 0xb8, 0x5c, 0xef, 0x3e, 
	0x53, 0x24, 0x64, 0xbe, 0x3d, 0x51, 0xf1, 0x3d, 0x28, 0xb2, 0x2f, 0xbe, 
	0xd7, 0xcf, 0xd2, 0xbd, 0xea, 0x1f, 0x09, 0x3f, 0x30, 0xc6, 0xbf, 0xbe, 
	0x94, 0x63, 0xea, 0x3d, 0xc7, 0x33, 0xc3, 0xbc, 0xee, 0x31, 0x06, 0x3f, 
	0x4c, 0xa3, 0x96, 0x3e, 0x0c, 0xbd, 0x6b, 0xbd, 0xd5, 0x03, 0xa1, 0x3e, 
	0x59, 0xcc, 0x33, 0xbe, 0x7a, 0xcb, 0x3b, 0x3d, 0xe6, 0x90, 0x72, 0x3e, 
	0x1e, 0x1f, 0x98, 0xbe, 0xa6, 0x8d, 0x24, 0x3e, 0x25, 0xcc, 0x04, 0x3e, 
	0x78, 0x00, 0x87, 0x3d, 0x35, 0x80, 0xa0, 0x3d, 0x88, 0x02, 0x6e, 0x3e, 
	0xbb, 0x92, 0x45, 0x3d, 0x82, 0x84, 0x1c, 0x3e, 0xad, 0x38, 0x13, 0xbe, 
	0xa5, 0x3e, 0x13, 0xbe, 0xfa, 0x7b, 0x05, 0x3f, 0x16, 0x5f, 0xd8, 0xbe, 
	0x26, 0x9c, 0x01, 0xbd, 0xe5, 0x5c, 0x19, 0x3c, 0x3f, 0xd1, 0x64, 0x3e, 
	0xc6, 0xbe, 0xa4, 0x3d, 0xb8, 0x33, 0xba, 0x3e, 0x46, 0xa6, 0x18, 0x3e, 
	0x95, 0xef, 0xd1, 0x3e, 0x6c, 0xe5, 0x11, 0xbe, 0xca, 0x9d, 0x1d, 0xbd, 
	0x8a, 0x4a, 0x17, 0x3e, 0x0f, 0x0c, 0xd3, 0xbe, 0x8e, 0xa0, 0x3d, 0x3e, 
	0x6e, 0x59, 0x21, 0x3e, 0x5e, 0xf8, 0x97, 0x3e, 0xb5, 0x50, 0x53, 0x3e, 
	0x0f, 0x0f, 0xe8, 0x3e, 0x4c, 0xf3, 0xe4, 0x3d, 0xae, 0xda, 0x64, 0x3e, 
	0x87, 0xf1, 0x78, 0xbe, 0xa8, 0x10, 0x00, 0x3e, 0x4c, 0xaf, 0xcb, 0x3d, 
	0x56, 0xc6, 0x14, 0x3e, 0x86, 0xbc, 0xb3, 0x3e, 0x18, 0x57, 0xb4, 0xbd, 
	0x71, 0x54, 0xdd, 0x3e, 0xe3, 0x90, 0x66, 0x3e, 0x13, 0xe9, 0xbc, 0xbe, 
	0xc2, 0x0b, 0x84, 0xbe, 0x27, 0x69, 0xcc, 0x3d, 0x4c, 0x66, 0x19, 0x3e, 
	0x7e, 0x81, 0x2b, 0xbc, 0xa7, 0xe8, 0x26, 0x3e, 0x67, 0x0c, 0x69, 0x3e, 
	0x94, 0x54, 0xb2, 0x3d, 0xc0, 0x22, 0x02, 0xbe, 0x0a, 0x17, 0x27, 0x3e, 
	0x7e, 0x8e, 0xbd, 0x3d, 0xce, 0xec, 0xa8, 0xbe, 0xc1, 0x40, 0xdc, 0x3e, 
	0xdd, 0x49, 0x08, 0xbe, 0xd2, 0x3a, 0x3b, 0x3d, 0x5e, 0x15, 0x9a, 0x3e, 
	0xb6, 0x9f, 0xc3, 0xbe, 0x10, 0x2f, 0xf1, 0x3d, 0x9c, 0xf9, 0x77, 0x3d, 
	0xac, 0x36, 0xb4, 0x3c, 0x14, 0xf9, 0xf0, 0x3e, 0x06, 0x38, 0x88, 0x3e, 
	0x1e, 0x00, 0x1b, 0x3c, 0x70, 0xd9, 0x44, 0xbe, 0x2f, 0x5d, 0xc6, 0x3e, 
	0x99, 0xb2, 0x9f, 0x3e, 0x3d, 0x36, 0xf5, 0xbd, 0x75, 0x3c, 0x9e, 0xbe, 
	0xa1, 0x3d, 0x91, 0x3e, 0xa0, 0xa0, 0xab, 0xbc, 0x78, 0xac, 0x3c, 0xbe, 
	0x70, 0xaa, 0xa1, 0xbd, 0x6f, 0x2c, 0xd0, 0xbe, 0x5c, 0xf2, 0x35, 0xbe, 
	0x2a, 0xf4, 0x36, 0xbd, 0xdf, 0x78, 0x12, 0x3e, 0x36, 0x2b, 0x9c, 0x3e, 
	0x35, 0x94, 0xd6, 0x3e, 0x72, 0xef, 0x9e, 0xbe, 0x9f, 0xb7, 0x69, 0x3e, 
	0xbf, 0x4e, 0xde, 0x3e, 0xc8, 0x20, 0xb7, 0x3e, 0x10, 0x66, 0xd0, 0x3e, 
	0x77, 0xfd, 0xab, 0x3e, 0x3c, 0x5b, 0xea, 0x3e, 0x84, 0x17, 0xc0, 0xbd, 
	0x5b, 0x98, 0xaa, 0x3e, 0x7a, 0x7e, 0xbe, 0x3d, 0x1d, 0xc7, 0x0c, 0xbf, 
	0xd1, 0x28, 0x84, 0xbe, 0x1b, 0xd2, 0xa5, 0x3e, 0xfa, 0x76, 0xd8, 0x3e, 
	0xa8, 0x8e, 0xdb, 0x3d, 0x2b, 0x60, 0x09, 0x3f, 0xf0, 0x55, 0x78, 0xbd, 
	0xae, 0x12, 0x6e, 0x3e, 0x07, 0x40, 0xa5, 0x3e, 0x20, 0x06, 0xd3, 0x3e, 
	0x2c, 0x46, 0x38, 0xbe, 0x18, 0x5d, 0x00, 0xbd, 0x02, 0xae, 0x11, 0xbe, 
	0xb7, 0xca, 0x8d, 0x3e, 0xce, 0xe1, 0x7b, 0x3e, 0x6a, 0xda, 0x88, 0x3e, 
	0x27, 0x04, 0x36, 0xbf, 0xf0, 0x75, 0x2a, 0x3d, 0xdd, 0xb8, 0x2e, 0xbe, 
	0xe6, 0x1c, 0xd0, 0x3e, 0x0b, 0x04, 0x3d, 0xbe, 0x3c, 0xdd, 0xe3, 0x3e, 
	0x5d, 0x83, 0x0f, 0x3d, 0x51, 0x37, 0xb5, 0x3e, 0xd2, 0x55, 0xf6, 0x3e, 
	0xe7, 0xd3, 0xb0, 0x3e, 0xe1, 0xa0, 0x4e, 0x3e, 0xcc, 0xa3, 0xf7, 0x3d, 
	0x24, 0x6c, 0xf5, 0xbd, 0x9d, 0xa9, 0x10, 0xbe, 0x25, 0x5e, 0xbe, 0x3e, 
	0x11, 0xdb, 0xa8, 0x3c, 0x46, 0xbb, 0x2e, 0xbe, 0xf8, 0xdd, 0x47, 0x3d, 
	0x55, 0xc2, 0x0e, 0xbe, 0x15, 0xd5, 0xda, 0x3c, 0xd3, 0xf4, 0xf9, 0x3e, 
	0x5f, 0x38, 0x0d, 0x3e, 0x72, 0xdc, 0x8d, 0x3d, 0x43, 0x08, 0x29, 0xbe, 
	0xc1, 0xab, 0x54, 0xbd, 0x72, 0xe7, 0xf8, 0xbb, 0x22, 0x86, 0xb6, 0x3c, 
	0xa0, 0x31, 0x8a, 0xbe, 0xd0, 0x14, 0xb5, 0x3e, 0x16, 0x2a, 0x0c, 0x3e, 
	0x99, 0x00, 0x05, 0x3f, 0x3f, 0x2e, 0x29, 0x3d, 0x74, 0x1a, 0xa8, 0xbe, 
	0x44, 0x27, 0xd6, 0xbd, 0xe8, 0x0c, 0x72, 0x3e, 0x8b, 0x09, 0xd6, 0x3e, 
	0x6f, 0x12, 0x03, 0x3e, 0x49, 0x48, 0x65, 0x3d, 0xea, 0xf2, 0xff, 0xff, 
	0x10, 0x00, 0x00, 0x00, 0x07, 0x00, 0x00, 0x00, 0x14, 0x00, 0x00, 0x00, 
	0x30, 0x00, 0x00, 0x00, 0x02, 0x00, 0x00, 0x00, 0x20, 0x00, 0x00, 0x00, 
	0x10, 0x00, 0x00, 0x00, 0x18, 0x00, 0x00, 0x00, 0x6d, 0x6f, 0x64, 0x65, 
	0x6c, 0x5f, 0x31, 0x38, 0x2f, 0x64, 0x65, 0x6e, 0x73, 0x65, 0x5f, 0x32, 
	0x33, 0x2f, 0x4d, 0x61, 0x74, 0x4d, 0x75, 0x6c, 0x00, 0x00, 0x00, 0x00, 
	0xe8, 0xf2, 0xff, 0xff, 0xd6, 0xf3, 0xff, 0xff, 0x04, 0x00, 0x00, 0x00, 
	0x00, 0x0a, 0x00, 0x00, 0xa7, 0xae, 0x3b, 0x3e, 0xfd, 0x40, 0xca, 0xbd, 
	0xe0, 0xb0, 0x00, 0x3e, 0x9d, 0xa3, 0x83, 0xbe, 0x15, 0x03, 0x29, 0xbe, 
	0x0c, 0xaf, 0x4f, 0xbe, 0xec, 0x99, 0x52, 0x3e, 0x3b, 0x4c, 0x87, 0x3e, 
	0xfa, 0x94, 0x0f, 0x3e, 0xe7, 0xe1, 0x7c, 0x3c, 0xa3, 0xc6, 0x39, 0xbd, 
	0x0d, 0x51, 0x18, 0x3e, 0xa1, 0xf0, 0xc5, 0xbc, 0x1e, 0x2c, 0xa3, 0x3d, 
	0xda, 0x85, 0x71, 0xbd, 0xf1, 0xc8, 0xb9, 0xbd, 0xbb, 0x31, 0x6e, 0x3e, 
	0x87, 0x14, 0x7b, 0x3d, 0x84, 0x10, 0xd4, 0xbd, 0xd9, 0x3a, 0x88, 0x3c, 
	0x6e, 0x8a, 0x04, 0xbd, 0xcc, 0xa3, 0x32, 0xbe, 0x93, 0x40, 0x62, 0x3e, 
	0xa8, 0x80, 0x87, 0xbd, 0x3e, 0x16, 0x08, 0xbc, 0x2c, 0xfe, 0xf8, 0xbd, 
	0x01, 0x50, 0x2a, 0x3e, 0xa8, 0x23, 0x31, 0x3e, 0xcf, 0x54, 0xc9, 0x3d, 
	0x45, 0x8d, 0xca, 0xbd, 0xf4, 0xf8, 0x7c, 0x3e, 0xb0, 0x76, 0x97, 0x3d, 
	0x63, 0xc8, 0xc2, 0xbe, 0x09, 0xa0, 0x80, 0xbe, 0xf7, 0xb7, 0xc5, 0xbd, 
	0x78, 0xe8, 0xa4, 0xbe, 0xf7, 0xe7, 0x43, 0xbe, 0x64, 0x3f, 0xb2, 0xbd, 
	0x8d, 0x93, 0xc4, 0xbe, 0x3e, 0x2e, 0x0a, 0xbd, 0xdc, 0xac, 0x3a, 0x3e, 
	0x5f, 0xc5, 0x0e, 0x3e, 0xc6, 0x56, 0xb8, 0xbd, 0x6c, 0x47, 0xd4, 0x3e, 
	0x2e, 0xcd, 0x24, 0x3e, 0xea, 0x64, 0xbc, 0x3d, 0x42, 0x99, 0x54, 0xbe, 
	0x5e, 0x50, 0x5d, 0xbc, 0xf3, 0x0f, 0xac, 0xbd, 0xe4, 0xe6, 0xb1, 0x3e, 
	0xba, 0x6c, 0x64, 0xbd, 0xa0, 0x1c, 0xb5, 0x3e, 0x1a, 0x59, 0x9f, 0x3e, 
	0x82, 0x18, 0x75, 0x3e, 0xb0, 0xd2, 0x03, 0x3e, 0x64, 0x73, 0x7b, 0x3e, 
	0x5a, 0xa0, 0xc1, 0xbd, 0x9d, 0x37, 0xad, 0x3e, 0x91, 0xae, 0xef, 0x3d, 
	0xbb, 0xb0, 0xae, 0x3e, 0x57, 0xed, 0x71, 0x3e, 0xef, 0xc2, 0x1a, 0xbd, 
	0x0e, 0xbb, 0x07, 0xbe, 0xc8, 0x1b, 0x02, 0x3e, 0xad, 0xa1, 0x8a, 0xbe, 
	0x69, 0x88, 0xb7, 0x3e, 0x23, 0xc7, 0x95, 0xbe, 0xd1, 0xaa, 0xa1, 0x3e, 
	0x9d, 0x2e, 0x42, 0x3e, 0x57, 0x0b, 0x0d, 0x3e, 0x0b, 0x34, 0x93, 0xbe, 
	0x35, 0x48, 0xe2, 0x3e, 0x8a, 0xad, 0x32, 0xbe, 0xc8, 0x4f, 0xf1, 0x3e, 
	0xb1, 0xaf, 0x5b, 0x3e, 0x10, 0x6e, 0x18, 0xbd, 0xdc, 0xa1, 0x57, 0x3e, 
	0x07, 0x9f, 0x81, 0xbd, 0x3c, 0xd7, 0x58, 0xbd, 0x7b, 0x98, 0xb1, 0x3e, 
	0x69, 0x45, 0x3c, 0xbd, 0x90, 0x47, 0x01, 0x3f, 0x0f, 0x1e, 0x99, 0x3e, 
	0x03, 0xd3, 0x02, 0x3f, 0xc2, 0x2c, 0xca, 0xbd, 0x0d, 0xef, 0x85, 0x3e, 
	0x4e, 0xfa, 0x67, 0xbd, 0xf5, 0xe2, 0x05, 0x3e, 0x4b, 0x1c, 0x8f, 0x3d, 
	0x3a, 0x36, 0x65, 0x3e, 0x11, 0xc1, 0xec, 0xbd, 0x25, 0x6a, 0x43, 0xbd, 
	0xc0, 0x98, 0x70, 0x3e, 0xee, 0x18, 0xbc, 0x3e, 0xb8, 0x19, 0x00, 0xbe, 
	0xa3, 0x0e, 0xf2, 0x3b, 0x32, 0x5a, 0x4e, 0x3e, 0x26, 0x18, 0x6c, 0x3d, 
	0x6d, 0x81, 0x8d, 0x3e, 0xa5, 0x15, 0xb7, 0x3d, 0x2d, 0x6c, 0xe3, 0x3d, 
	0xe3, 0xbd, 0x9d, 0x3d, 0x67, 0x53, 0xd2, 0x3d, 0x85, 0xd9, 0xcb, 0x3e, 
	0x30, 0xf6, 0xe0, 0x3d, 0x29, 0xdc, 0xb9, 0x3e, 0x80, 0xd4, 0x50, 0x3e, 
	0xb6, 0x7f, 0x1c, 0x3e, 0xc5, 0x4f, 0xc0, 0x3d, 0x94, 0x08, 0xa3, 0xbd, 
	0xe6, 0xe1, 0xdc, 0xbc, 0x83, 0x33, 0x04, 0x3f, 0xb6, 0xd8, 0x93, 0x3e, 
	0xe4, 0x25, 0x0d, 0x3f, 0x6f, 0x05, 0x2c, 0x3e, 0xe8, 0xc8, 0x68, 0x3e, 
	0x45, 0x4e, 0x8d, 0x3e, 0x0e, 0x0a, 0x84, 0x3e, 0x4d, 0x16, 0x92, 0xbd, 
	0x8d, 0xe8, 0x35, 0x3e, 0xb0, 0x39, 0x2b, 0xbe, 0x43, 0x28, 0x6e, 0xbc, 
	0x66, 0x62, 0x7a, 0xbe, 0x65, 0x9a, 0x5f, 0x3e, 0x96, 0x61, 0x90, 0x3c, 
	0x9f, 0xb2, 0x76, 0x3d, 0x2a, 0x96, 0x66, 0xbe, 0xb0, 0x30, 0xfa, 0x3e, 
	0x28, 0x7e, 0x3a, 0x3b, 0x40, 0xfd, 0x59, 0x3e, 0x72, 0xf5, 0x41, 0x3e, 
	0x7b, 0xdd, 0xc0, 0xbb, 0x0f, 0x43, 0xc0, 0xbe, 0x16, 0x0d, 0xb6, 0x3e, 
	0x18, 0xf3, 0x32, 0xbe, 0x1a, 0xdf, 0x9c, 0x3e, 0x37, 0xe0, 0x41, 0xbd, 
	0xb6, 0x8e, 0xd5, 0x3e, 0x09, 0xd9, 0xeb, 0xbd, 0xe7, 0x73, 0x4a, 0x3e, 
	0xf7, 0x4c, 0x16, 0xbe, 0x41, 0x51, 0xe4, 0xbd, 0x84, 0xcb, 0xf3, 0xbd, 
	0x60, 0xd5, 0x97, 0x3e, 0x5d, 0x55, 0x8a, 0xbe, 0xd7, 0x2f, 0x3c, 0x3e, 
	0x24, 0x8d, 0x04, 0x3e, 0x27, 0xdd, 0xfb, 0x3e, 0x18, 0xbe, 0x6e, 0x3e, 
	0x3c, 0xd9, 0x8e, 0x3e, 0x80, 0x19, 0xd5, 0xbe, 0x51, 0xb3, 0x93, 0x3e, 
	0xb3, 0x5a, 0xc7, 0xbc, 0x59, 0x43, 0xa8, 0x3d, 0x7d, 0x89, 0x26, 0x3e, 
	0xca, 0x9d, 0x0a, 0x3f, 0x71, 0xd7, 0x67, 0x3e, 0xf2, 0x8e, 0x40, 0x3d, 
	0xb1, 0xe1, 0xa6, 0xbe, 0xe9, 0x5c, 0x31, 0x3d, 0xa9, 0x73, 0xa1, 0xbe, 
	0x4f, 0x08, 0x98, 0xbd, 0xee, 0x08, 0x01, 0xbe, 0x30, 0x4b, 0xd0, 0x3e, 
	0x20, 0x34, 0xc5, 0x3d, 0x80, 0x08, 0xa2, 0xbd, 0xdb, 0xd4, 0x14, 0x3e, 
	0xbd, 0x0e, 0xf2, 0x3e, 0x4d, 0x1e, 0x0e, 0xbe, 0x03, 0x6b, 0x81, 0x3d, 
	0x80, 0xe6, 0x67, 0x3e, 0x57, 0x74, 0xe1, 0x3d, 0x37, 0x30, 0xfc, 0x3d, 
	0xb4, 0x2b, 0x20, 0x3d, 0x6e, 0x61, 0x61, 0x3c, 0x25, 0x13, 0xb7, 0x3e, 
	0x3e, 0x08, 0xa2, 0xbe, 0xb2, 0xdf, 0xd1, 0x3e, 0x08, 0x69, 0x04, 0xbe, 
	0xcd, 0x14, 0xd7, 0x3e, 0x4c, 0xf6, 0x08, 0x3e, 0xf4, 0x58, 0xff, 0x3d, 
	0x8d, 0x76, 0xdb, 0x3d, 0xc4, 0x58, 0xcd, 0x3e, 0x26, 0xd8, 0x31, 0x3e, 
	0xa8, 0x46, 0x78, 0x3e, 0xf1, 0x75, 0x79, 0xbe, 0xeb, 0x91, 0x6d, 0x3e, 
	0xa7, 0x9a, 0x8f, 0xbe, 0x56, 0x7b, 0xc1, 0xbd, 0x43, 0x3a, 0x9b, 0xbe, 
	0xff, 0x15, 0x4d, 0x3b, 0x13, 0xb8, 0x06, 0xbb, 0x16, 0xc9, 0x70, 0xbd, 
	0xc7, 0x1b, 0xb5, 0xbe, 0xf3, 0x70, 0x02, 0x3f, 0x2c, 0x50, 0x81, 0x3d, 
	0xb4, 0x71, 0xc1, 0x3e, 0xc9, 0x60, 0x94, 0xbe, 0x54, 0xa0, 0x04, 0x3f, 
	0x20, 0xfe, 0x73, 0xbe, 0xaa, 0xd7, 0x33, 0xbe, 0xb5, 0x48, 0x62, 0xbe, 
	0xdc, 0xac, 0x13, 0x3e, 0x96, 0x30, 0x8f, 0xbe, 0xa9, 0x9a, 0x8d, 0xbe, 
	0x61, 0x37, 0x9a, 0xbe, 0xf0, 0xb2, 0x67, 0xbe, 0x49, 0xc1, 0x0e, 0xbe, 
	0x3e, 0x8e, 0x9e, 0xbd, 0x00, 0xe1, 0x5d, 0xbc, 0xc4, 0x66, 0x2e, 0xbe, 
	0xfa, 0xa0, 0x25, 0x3e, 0x54, 0xa6, 0x37, 0x3e, 0xf0, 0xb4, 0x11, 0x3e, 
	0x0d, 0x86, 0x15, 0xbe, 0x61, 0x25, 0x4b, 0xbe, 0x44, 0x60, 0x71, 0x3e, 
	0x50, 0xc8, 0x17, 0xbe, 0x10, 0x26, 0x99, 0xbe, 0xf2, 0x37, 0x25, 0xbe, 
	0x53, 0x56, 0x9e, 0xbe, 0xb8, 0x28, 0xc3, 0x3d, 0x78, 0x27, 0x79, 0x3d, 
	0xbc, 0x39, 0x95, 0xbd, 0xf4, 0xfc, 0x4c, 0x3e, 0x98, 0xce, 0x9e, 0x3e, 
	0xa4, 0xea, 0x61, 0x3e, 0x35, 0xdd, 0x33, 0xbe, 0xb5, 0x4e, 0xa6, 0xbe, 
	0x98, 0x7b, 0x6c, 0xbd, 0x58, 0x02, 0x3e, 0x3e, 0x0c, 0xb1, 0x42, 0x3e, 
	0x34, 0xa3, 0xf8, 0x3d, 0xac, 0xda, 0xc9, 0x3d, 0x84, 0x66, 0xad, 0x3d, 
	0x40, 0xba, 0x04, 0x3d, 0x20, 0xe6, 0x9f, 0x3e, 0x42, 0x23, 0x93, 0xbe, 
	0xe0, 0xb5, 0x61, 0x3e, 0xba, 0xdc, 0xb0, 0xbd, 0xb9, 0xd6, 0x5e, 0x3d, 
	0xd3, 0xe4, 0x52, 0xbc, 0x8c, 0xa5, 0x42, 0x3d, 0x52, 0xdc, 0x69, 0xbd, 
	0x9f, 0x66, 0x0e, 0x3f, 0xe4, 0xd0, 0x42, 0xbe, 0xd7, 0x28, 0xa5, 0x3e, 
	0x59, 0x45, 0x42, 0xbd, 0x0d, 0x4d, 0x83, 0x3e, 0xc1, 0x4a, 0x25, 0x3e, 
	0xd1, 0xed, 0x37, 0x3b, 0xe7, 0x5a, 0x8c, 0xbe, 0x78, 0x47, 0xb1, 0xbc, 
	0xb6, 0x81, 0x31, 0x3e, 0x54, 0x34, 0x0a, 0x3f, 0x87, 0x49, 0xac, 0xbe, 
	0x9e, 0x93, 0xce, 0x3e, 0xd3, 0x75, 0x27, 0x3e, 0xdb, 0x79, 0xae, 0x3d, 
	0x99, 0xce, 0xa9, 0x3d, 0x3d, 0x87, 0xa5, 0x3d, 0x5b, 0x4f, 0x43, 0x3c, 
	0x1e, 0x3b, 0xda, 0x3c, 0xc5, 0x63, 0x67, 0xbc, 0x94, 0x41, 0x0b, 0x3e, 
	0x9d, 0x37, 0x8c, 0xbe, 0x01, 0x99, 0x8e, 0x3e, 0x13, 0xea, 0xeb, 0x3d, 
	0x9d, 0x97, 0xd6, 0xbc, 0x68, 0x89, 0x1a, 0xbd, 0x31, 0x23, 0x9a, 0x3d, 
	0xda, 0xa6, 0x3c, 0x3d, 0xf8, 0x67, 0xb6, 0x3d, 0xad, 0x99, 0xd9, 0xbe, 
	0xa2, 0xe1, 0xa3, 0x3e, 0x3d, 0x80, 0xb1, 0xbe, 0x98, 0xd5, 0x0d, 0x3f, 
	0x3c, 0xed, 0x14, 0xbe, 0x81, 0x50, 0x9c, 0x3e, 0x70, 0x59, 0xa9, 0xbc, 
	0x6d, 0x79, 0x2e, 0xbe, 0xc0, 0x34, 0x0b, 0x3c, 0x4a, 0xfb, 0xa5, 0x3e, 
	0x80, 0x37, 0xe6, 0x3c, 0xb0, 0x24, 0x2c, 0x3e, 0x80, 0x1a, 0x68, 0x3d, 
	0x43, 0x0a, 0xa5, 0xbe, 0x72, 0x2b, 0xa3, 0xbe, 0x7c, 0x82, 0x3c, 0x3e, 
	0x8f, 0x5e, 0x6a, 0xbe, 0x91, 0x19, 0x04, 0xbe, 0x4f, 0x96, 0x84, 0xbe, 
	0x8c, 0x92, 0x5b, 0xbe, 0xb0, 0xc5, 0xbd, 0xbc, 0xe0, 0x67, 0x43, 0xbd, 
	0x44, 0xf0, 0xd7, 0xbd, 0x98, 0x82, 0x5a, 0x3e, 0x98, 0x3b, 0x95, 0xbe, 
	0xfc, 0x5b, 0x8c, 0x3e, 0xac, 0x6c, 0xd6, 0xbd, 0x42, 0x22, 0xa4, 0x3e, 
	0xd0, 0xbb, 0x29, 0xbd, 0x48, 0x47, 0x88, 0xbe, 0x20, 0xe6, 0x55, 0xbc, 
	0xda, 0x4b, 0x1d, 0x3e, 0x00, 0x45, 0x84, 0x3c, 0x94, 0x3e, 0xd4, 0x3d, 
	0x84, 0x90, 0x8f, 0x3e, 0x20, 0x06, 0xae, 0xbd, 0x04, 0x3f, 0xc3, 0xbd, 
	0x78, 0x9a, 0x28, 0xbd, 0x4a, 0x1d, 0xfd, 0xbd, 0x5a, 0x0d, 0xd0, 0xbd, 
	0x18, 0x12, 0xcb, 0x3d, 0xcc, 0x62, 0x82, 0xbe, 0x4c, 0xa6, 0x85, 0xbe, 
	0x16, 0x94, 0x1f, 0xbe, 0x44, 0xea, 0x52, 0x3e, 0xc0, 0x88, 0x86, 0xbd, 
	0xd8, 0x51, 0x8f, 0xbd, 0x34, 0xbd, 0xae, 0x3c, 0xdd, 0x5c, 0xc7, 0x3d, 
	0x62, 0x0d, 0xbf, 0x3b, 0xac, 0x89, 0x1a, 0xbd, 0xf1, 0x2a, 0xd3, 0x3e, 
	0xe6, 0x70, 0x94, 0xbe, 0xd5, 0xd5, 0x1e, 0x3e, 0xec, 0x39, 0x2b, 0xbd, 
	0xb9, 0x3b, 0xff, 0x3e, 0x86, 0x18, 0x07, 0xbe, 0x31, 0x42, 0xff, 0x3d, 
	0xbd, 0xc2, 0xaa, 0x3d, 0x23, 0xc6, 0xba, 0x3e, 0xd1, 0xf1, 0x88, 0xbe, 
	0x9b, 0x7d, 0x71, 0x3e, 0xdc, 0x8a, 0xd3, 0xbe, 0x64, 0x24, 0x16, 0x3e, 
	0x1f, 0x10, 0x99, 0xbc, 0x0d, 0x21, 0x0a, 0x3f, 0x7a, 0x2e, 0xce, 0xbe, 
	0xc5, 0xa1, 0x88, 0x3e, 0xcd, 0x42, 0x2a, 0x3d, 0x1c, 0x8f, 0x95, 0xbc, 
	0x25, 0xba, 0x27, 0x3e, 0x30, 0x84, 0xc1, 0x3e, 0x8e, 0x89, 0xf7, 0x3d, 
	0xdc, 0x74, 0xe1, 0x3e, 0xc6, 0x63, 0xaf, 0xbe, 0x6e, 0xe4, 0xe4, 0x3e, 
	0xd9, 0xef, 0x95, 0xbe, 0xe5, 0x13, 0x3f, 0x3e, 0x2a, 0x28, 0xa2, 0x3d, 
	0x3a, 0xcf, 0x22, 0xbd, 0x4e, 0x3d, 0xd9, 0xbe, 0x79, 0xd8, 0x0c, 0x3f, 
	0x70, 0xbf, 0xde, 0xbe, 0x93, 0x14, 0x92, 0x3e, 0xc1, 0xd6, 0x4f, 0xbd, 
	0xe1, 0x7c, 0xb7, 0x3e, 0x7b, 0xee, 0x09, 0x3e, 0xcb, 0x3f, 0x18, 0x3e, 
	0x0f, 0x62, 0x85, 0xbe, 0x57, 0xf0, 0xfe, 0x3e, 0x6d, 0xcc, 0x05, 0x3d, 
	0x18, 0xc3, 0xba, 0x3e, 0xb9, 0x58, 0x8b, 0xbd, 0x15, 0x3b, 0xc1, 0x3e, 
	0x1d, 0x11, 0xe4, 0xbe, 0xbf, 0x2a, 0x4d, 0xbd, 0x4d, 0x36, 0xc3, 0xbe, 
	0x55, 0x82, 0xab, 0x3e, 0x29, 0x26, 0xcf, 0xbe, 0xc5, 0xa8, 0xa4, 0x3d, 
	0x45, 0xdb, 0x40, 0xbe, 0x2e, 0x96, 0xb5, 0x3d, 0xc6, 0x05, 0x01, 0x3c, 
	0x1f, 0x76, 0xfe, 0x3e, 0x26, 0x90, 0x7e, 0x3d, 0x97, 0x2f, 0xdc, 0x3e, 
	0x8c, 0x54, 0x25, 0xbe, 0x14, 0x2b, 0xbf, 0x3d, 0x94, 0x94, 0xea, 0xbe, 
	0x26, 0x9d, 0x91, 0xbd, 0x52, 0xd9, 0x54, 0x3d, 0xd2, 0x75, 0xb8, 0x3e, 
	0xc5, 0xaa, 0xda, 0x3c, 0x44, 0xce, 0x6a, 0x3e, 0x44, 0xfa, 0xea, 0xbe, 
	0x22, 0x16, 0x6e, 0x3e, 0xe2, 0xc9, 0x05, 0xbf, 0x59, 0x38, 0x85, 0x3e, 
	0x44, 0xd2, 0x03, 0xbd, 0x88, 0xf9, 0x01, 0x3f, 0x99, 0xbb, 0xd5, 0xbe, 
	0x4c, 0xf0, 0x8e, 0x3d, 0xfd, 0x23, 0xeb, 0xbe, 0x7a, 0x1a, 0xd9, 0x3e, 
	0x00, 0x1b, 0xba, 0xbe, 0xd9, 0x11, 0xce, 0x3e, 0x1a, 0xce, 0xe0, 0x3e, 
	0x04, 0x97, 0xf5, 0xbe, 0x97, 0x34, 0xf3, 0x3d, 0xe3, 0xe8, 0xfc, 0xbe, 
	0xae, 0xb3, 0x46, 0x3e, 0xab, 0x0f, 0x7a, 0xbd, 0x29, 0x34, 0x81, 0x3e, 
	0xbf, 0x29, 0x21, 0xbe, 0xcc, 0xc9, 0x69, 0xbd, 0x47, 0xd9, 0xd5, 0xbe, 
	0xa7, 0xd1, 0xfb, 0x3e, 0x8d, 0xdb, 0xc3, 0xbe, 0x93, 0x0b, 0xc6, 0x3e, 
	0x0b, 0x65, 0xab, 0xbe, 0xd2, 0xc0, 0x93, 0x3e, 0x64, 0x5a, 0x8f, 0xbe, 
	0xb1, 0x81, 0x04, 0x3f, 0x64, 0xea, 0xe1, 0xbe, 0xff, 0x88, 0x13, 0x3f, 
	0xd8, 0x83, 0x73, 0xbe, 0x46, 0x48, 0x63, 0x3e, 0xf0, 0x25, 0x09, 0xbf, 
	0x0b, 0x71, 0x8a, 0x3e, 0xb9, 0x72, 0x53, 0x3d, 0xef, 0x1c, 0x10, 0x3f, 
	0x6d, 0x68, 0x12, 0xbe, 0xc6, 0x24, 0xd4, 0x3e, 0xf5, 0x75, 0x5b, 0xbd, 
	0x9c, 0x69, 0x0e, 0x3f, 0x20, 0x8c, 0xa9, 0xbe, 0xed, 0x7c, 0x1b, 0x3f, 
	0x16, 0xdb, 0xdf, 0x3c, 0x96, 0x5c, 0x07, 0x3c, 0x79, 0xd8, 0x2e, 0x3c, 
	0x6d, 0xf2, 0xb6, 0x3d, 0xd3, 0xc3, 0x16, 0xbf, 0xf5, 0x23, 0xf3, 0x3e, 
	0xd4, 0xe1, 0xe7, 0xbe, 0xb8, 0x2c, 0x9b, 0x3e, 0x1d, 0x4a, 0x12, 0xbf, 
	0x40, 0x0e, 0x01, 0x3d, 0x00, 0xb2, 0x81, 0xbb, 0xc8, 0x9e, 0x3e, 0x3d, 
	0x2f, 0xac, 0x3e, 0xbe, 0xfb, 0x00, 0x0e, 0xbe, 0x69, 0xb8, 0x43, 0xbe, 
	0x10, 0xda, 0x32, 0x3e, 0x5c, 0x00, 0x46, 0xbe, 0x74, 0x33, 0xa6, 0xbd, 
	0x3a, 0xa3, 0x81, 0x3e, 0xe8, 0x29, 0x11, 0x3d, 0x06, 0x2d, 0x21, 0x3e, 
	0xd2, 0x93, 0x1b, 0xbe, 0xd8, 0x20, 0x65, 0xbe, 0xd0, 0x22, 0x7c, 0xbd, 
	0xa6, 0x72, 0x07, 0x3e, 0xa0, 0xf3, 0x69, 0xbe, 0xaf, 0xb1, 0x0d, 0xbe, 
	0x60, 0x42, 0x03, 0x3c, 0x00, 0x56, 0x21, 0xbb, 0xbf, 0x6b, 0x50, 0xbe, 
	0xb4, 0x73, 0x6f, 0xbe, 0x2e, 0x3a, 0x04, 0x3e, 0xd8, 0x4d, 0x45, 0xbe, 
	0x08, 0x1b, 0x84, 0xbe, 0xc8, 0xf1, 0x9b, 0xbe, 0x2f, 0x82, 0x9b, 0xbe, 
	0xa8, 0x6d, 0x26, 0x3e, 0x36, 0x6d, 0x8e, 0x3e, 0x97, 0x6c, 0x12, 0xbe, 
	0x10, 0x33, 0x7b, 0x3e, 0xf5, 0x8e, 0x8d, 0xbe, 0xd5, 0xb2, 0x17, 0xbe, 
	0x30, 0x14, 0x93, 0x3e, 0x86, 0x5a, 0x97, 0x3e, 0x50, 0x43, 0x0d, 0x3e, 
	0x9e, 0xf7, 0x00, 0xbe, 0x64, 0xfe, 0xb1, 0xbd, 0x68, 0x1f, 0x81, 0x3e, 
	0x18, 0xe4, 0xbe, 0x3d, 0xfc, 0x52, 0x35, 0x3e, 0x4c, 0xf8, 0x98, 0x3e, 
	0xc0, 0x21, 0x47, 0x3d, 0x71, 0x2b, 0x85, 0x3d, 0x73, 0x4b, 0x34, 0x3e, 
	0x66, 0xe8, 0xef, 0x3e, 0x38, 0x63, 0x27, 0x3e, 0xf8, 0x61, 0x9d, 0x3e, 
	0x71, 0xac, 0x02, 0xbe, 0xb1, 0x1f, 0x7c, 0x3e, 0x2e, 0x80, 0x1f, 0xbe, 
	0xc2, 0x36, 0xe4, 0x3e, 0xff, 0x63, 0x80, 0xbe, 0xd6, 0x0f, 0xb1, 0x3e, 
	0x24, 0xa6, 0x22, 0x3e, 0x8f, 0x7d, 0x90, 0x3e, 0xa2, 0x84, 0xb2, 0xbe, 
	0xd6, 0x2e, 0x0a, 0x3f, 0xdd, 0x21, 0x17, 0x3e, 0x5f, 0x54, 0xf6, 0x3e, 
	0xc1, 0x5f, 0x99, 0xbe, 0xef, 0x44, 0xe0, 0x3e, 0x25, 0xac, 0x35, 0x3d, 
	0x18, 0x0c, 0xf1, 0x3e, 0xbb, 0x6b, 0x37, 0xbe, 0x5a, 0xd5, 0x90, 0x3e, 
	0x64, 0xb5, 0xa0, 0xbe, 0xc6, 0x35, 0xf6, 0x3c, 0x57, 0x23, 0x4f, 0x3e, 
	0x5e, 0x40, 0x85, 0x3e, 0xd2, 0x7d, 0x4d, 0xbe, 0x23, 0x2f, 0x2d, 0x3e, 
	0x59, 0x7a, 0x8e, 0x3b, 0xb2, 0x5e, 0xc6, 0xbc, 0xfd, 0x89, 0x94, 0x3d, 
	0xaf, 0x2a, 0x96, 0x3c, 0x87, 0x8e, 0xce, 0xbe, 0xc6, 0xc4, 0x30, 0x3e, 
	0x90, 0x59, 0x9c, 0xbe, 0x02, 0x2a, 0x83, 0x3e, 0x36, 0x02, 0x7a, 0xbd, 
	0x28, 0x6b, 0x41, 0x3e, 0xd4, 0xd2, 0xd0, 0xbd, 0x8a, 0x03, 0xfe, 0x3e, 
	0x3a, 0x1b, 0xc1, 0xbe, 0xdf, 0xa9, 0xee, 0x3c, 0x98, 0xb6, 0xe9, 0x3d, 
	0x90, 0xdd, 0xaf, 0x3e, 0x82, 0x6e, 0xc5, 0xbe, 0xf1, 0xc8, 0x67, 0xbd, 
	0xb4, 0x04, 0x05, 0xbe, 0xc9, 0x2d, 0xb2, 0x3d, 0x99, 0x83, 0x9a, 0xbe, 
	0x56, 0x92, 0xe6, 0x3e, 0x98, 0x36, 0x9e, 0xbd, 0xc7, 0x92, 0x11, 0x3f, 
	0x2f, 0x91, 0xd0, 0xbe, 0x5a, 0x1e, 0xf7, 0x3e, 0xd8, 0xc5, 0x3e, 0xbd, 
	0x9b, 0x18, 0x1c, 0xbd, 0xa8, 0xde, 0xdd, 0xbe, 0xd2, 0x47, 0xd3, 0x3d, 
	0xde, 0x2b, 0xd4, 0xbd, 0x8a, 0xb3, 0xe2, 0x3d, 0x68, 0xec, 0x7d, 0xbe, 
	0x6c, 0x53, 0x0d, 0x3f, 0x1a, 0x44, 0x5a, 0x3d, 0xba, 0x53, 0xcf, 0x3e, 
	0xae, 0x84, 0xed, 0xbe, 0x1b, 0x99, 0x15, 0x3f, 0x56, 0x65, 0x92, 0xbe, 
	0x20, 0xc3, 0x5f, 0x3e, 0x0a, 0x9f, 0x4d, 0xbe, 0xeb, 0x80, 0x1f, 0x3e, 
	0xc9, 0x65, 0xdc, 0xbe, 0x5c, 0xf2, 0xcd, 0x3e, 0x0b, 0x2c, 0x36, 0xbe, 
	0x31, 0x4e, 0x31, 0x3c, 0x1d, 0x91, 0x6d, 0xbd, 0xc6, 0x26, 0x1b, 0x3f, 
	0x7e, 0x74, 0x36, 0x3d, 0xae, 0x5b, 0x06, 0x3f, 0xd6, 0xf2, 0x4c, 0xbe, 
	0x12, 0x05, 0x0a, 0x3e, 0x09, 0xf5, 0xc8, 0xbd, 0xe9, 0x2e, 0x8a, 0x3e, 
	0x99, 0x49, 0x73, 0xbe, 0x96, 0xb1, 0xc0, 0x3e, 0x8a, 0xb8, 0x21, 0x3e, 
	0xcb, 0xd7, 0x22, 0xbd, 0x48, 0x3c, 0xe0, 0x3d, 0x87, 0x56, 0x7a, 0x3e, 
	0x57, 0x30, 0xc5, 0xbd, 0x96, 0xb7, 0x5b, 0xbd, 0xa9, 0x24, 0x0b, 0x3e, 
	0x51, 0x4a, 0x19, 0x3e, 0x36, 0x5a, 0x74, 0xbe, 0x00, 0xb9, 0xe5, 0x3e, 
	0xf2, 0x65, 0xa4, 0xbe, 0xf1, 0xd6, 0x1a, 0x3e, 0x61, 0x12, 0x8d, 0xbe, 
	0xc5, 0x8c, 0x7e, 0xbd, 0xab, 0x75, 0x9a, 0xbe, 0x95, 0x15, 0x12, 0x3f, 
	0x21, 0x04, 0xc6, 0xbd, 0xfc, 0xdc, 0xf4, 0x3e, 0xee, 0xd0, 0xde, 0x3c, 
	0x23, 0x03, 0x04, 0x3f, 0xac, 0xdc, 0x70, 0x3e, 0x44, 0x8d, 0x7c, 0x3d, 
	0x3c, 0xdf, 0x24, 0xbe, 0xb0, 0x72, 0x9c, 0x3e, 0xfa, 0xe0, 0xf1, 0xbc, 
	0x25, 0x33, 0xa7, 0x3e, 0xbf, 0x47, 0x99, 0xbe, 0x9f, 0x7c, 0x7e, 0x3e, 
	0xd3, 0x5d, 0x98, 0x3b, 0xef, 0xe3, 0xb9, 0x3d, 0x3c, 0x0f, 0x99, 0xbe, 
	0x79, 0x3d, 0x39, 0x3e, 0xa3, 0xa8, 0x0d, 0xbd, 0xb8, 0x72, 0x9b, 0xbd, 
	0x68, 0xdd, 0xbf, 0xbe, 0x9a, 0x3e, 0xdd, 0x3e, 0x24, 0x7a, 0x52, 0xbe, 
	0xea, 0x9d, 0x8d, 0x3e, 0xee, 0x85, 0xf5, 0xbc, 0x1f, 0xb3, 0xe1, 0x3e, 
	0x70, 0x3f, 0xb5, 0xbe, 0xd6, 0x24, 0xac, 0x3e, 0xa5, 0x16, 0x74, 0x3e, 
	0x11, 0xbd, 0x75, 0x3e, 0xab, 0x69, 0x9b, 0xbe, 0xbb, 0x5e, 0xf2, 0xbc, 
	0x3d, 0xe1, 0x2e, 0x3e, 0xd8, 0x47, 0xef, 0x3e, 0xe9, 0x78, 0x33, 0x3e, 
	0xef, 0xdd, 0xab, 0x3e, 0xa4, 0xe5, 0x99, 0x3c, 0x1d, 0x6c, 0xfb, 0x3b, 
	0xfc, 0x43, 0x1b, 0x3e, 0x54, 0x8f, 0xdd, 0x3d, 0x5e, 0x23, 0x8c, 0xbe, 
	0xbe, 0x77, 0x1a, 0x3e, 0xc4, 0xc2, 0xe7, 0xbd, 0xc9, 0xa7, 0x47, 0x3d, 
	0xac, 0x0b, 0x1a, 0x3c, 0x40, 0xb2, 0xfe, 0x3e, 0x7e, 0x42, 0x73, 0xbc, 
	0xfe, 0x78, 0x34, 0x3e, 0xd5, 0x22, 0xa3, 0xbe, 0x8a, 0x58, 0xd6, 0x3e, 
	0x4f, 0xee, 0x98, 0xbd, 0xe5, 0xcc, 0xb7, 0x3e, 0xe0, 0x40, 0xb7, 0xbe, 
	0x92, 0xca, 0xa3, 0x3e, 0x8f, 0x7b, 0xc9, 0xbe, 0x10, 0xd0, 0xf7, 0x3e, 
	0x9f, 0x05, 0x8c, 0xbe, 0x9e, 0x18, 0x29, 0x3e, 0x3a, 0xfd, 0xff, 0xff, 
	0x10, 0x00, 0x00, 0x00, 0x06, 0x00, 0x00, 0x00, 0x14, 0x00, 0x00, 0x00, 
	0x30, 0x00, 0x00, 0x00, 0x02, 0x00, 0x00, 0x00, 0x10, 0x00, 0x00, 0x00, 
	0x28, 0x00, 0x00, 0x00, 0x18, 0x00, 0x00, 0x00, 0x6d, 0x6f, 0x64, 0x65, 
	0x6c, 0x5f, 0x31, 0x38, 0x2f, 0x64, 0x65, 0x6e, 0x73, 0x65, 0x5f, 0x32, 
	0x32, 0x2f, 0x4d, 0x61, 0x74, 0x4d, 0x75, 0x6c, 0x00, 0x00, 0x00, 0x00, 
	0x38, 0xfd, 0xff, 0xff, 0x26, 0xfe, 0xff, 0xff, 0x04, 0x00, 0x00, 0x00, 
	0x04, 0x00, 0x00, 0x00, 0x40, 0x74, 0x0d, 0x3e, 0x8e, 0xfd, 0xff, 0xff, 
	0x10, 0x00, 0x00, 0x00, 0x05, 0x00, 0x00, 0x00, 0x10, 0x00, 0x00, 0x00, 
	0x3c, 0x00, 0x00, 0x00, 0x01, 0x00, 0x00, 0x00, 0x01, 0x00, 0x00, 0x00, 
	0x28, 0x00, 0x00, 0x00, 0x6d, 0x6f, 0x64, 0x65, 0x6c, 0x5f, 0x31, 0x38, 
	0x2f, 0x64, 0x65, 0x6e, 0x73, 0x65, 0x5f, 0x32, 0x35, 0x2f, 0x42, 0x69, 
	0x61, 0x73, 0x41, 0x64, 0x64, 0x2f, 0x52, 0x65, 0x61, 0x64, 0x56, 0x61, 
	0x72, 0x69, 0x61, 0x62, 0x6c, 0x65, 0x4f, 0x70, 0x00, 0x00, 0x00, 0x00, 
	0x98, 0xfd, 0xff, 0xff, 0x86, 0xfe, 0xff, 0xff, 0x04, 0x00, 0x00, 0x00, 
	0x40, 0x00, 0x00, 0x00, 0x83, 0xc0, 0x52, 0xbd, 0x13, 0x7c, 0xcb, 0xbc, 
	0x58, 0x65, 0x8e, 0xbc, 0x5f, 0x6c, 0x00, 0x3d, 0x67, 0x71, 0xc5, 0xbc, 
	0x78, 0x3d, 0x01, 0xbd, 0xb7, 0x6b, 0x3f, 0x3e, 0x44, 0x85, 0xcd, 0xbc, 
	0xad, 0x3b, 0x1c, 0x3e, 0x93, 0x2f, 0x24, 0x3e, 0x21, 0x5d, 0x85, 0xbd, 
	0xf3, 0x2f, 0x47, 0x3e, 0xdd, 0x04, 0x62, 0xbd, 0x29, 0x77, 0x26, 0x3e, 
	0x39, 0x84, 0x84, 0xba, 0x7d, 0x9a, 0x49, 0xbd, 0x2a, 0xfe, 0xff, 0xff, 
	0x10, 0x00, 0x00, 0x00, 0x04, 0x00, 0x00, 0x00, 0x10, 0x00, 0x00, 0x00, 
	0x3c, 0x00, 0x00, 0x00, 0x01, 0x00, 0x00, 0x00, 0x10, 0x00, 0x00, 0x00, 
	0x28, 0x00, 0x00, 0x00, 0x6d, 0x6f, 0x64, 0x65, 0x6c, 0x5f, 0x31, 0x38, 
	0x2f, 0x64, 0x65, 0x6e, 0x73, 0x65, 0x5f, 0x32, 0x34, 0x2f, 0x42, 0x69, 
	0x61, 0x73, 0x41, 0x64, 0x64, 0x2f, 0x52, 0x65, 0x61, 0x64, 0x56, 0x61, 
	0x72, 0x69, 0x61, 0x62, 0x6c, 0x65, 0x4f, 0x70, 0x00, 0x00, 0x00, 0x00, 
	0x34, 0xfe, 0xff, 0xff, 0x22, 0xff, 0xff, 0xff, 0x04, 0x00, 0x00, 0x00, 
	0x80, 0x00, 0x00, 0x00, 0x4c, 0x3a, 0x37, 0x3e, 0xd6, 0x65, 0xac, 0x3e, 
	0xee, 0x27, 0x26, 0x3d, 0x5a, 0x06, 0x35, 0x3e, 0xe3, 0x95, 0x21, 0x3e, 
	0x60, 0x42, 0x38, 0x3e, 0x03, 0x83, 0xa7, 0xbd, 0xd8, 0xc6, 0x3e, 0x3e, 
	0x5a, 0xfb, 0xa0, 0xbd, 0x74, 0xfc, 0x45, 0x3e, 0x89, 0x4b, 0x66, 0x3e, 
	0x25, 0x40, 0x96, 0xbd, 0x9c, 0xe0, 0x4a, 0x3e, 0xb1, 0x85, 0x80, 0x3d, 
	0x0c, 0xbd, 0x0d, 0xbc, 0xdd, 0x1d, 0x41, 0x3e, 0x31, 0x50, 0x43, 0x3b, 
	0x2c, 0xa6, 0xd7, 0x3d, 0x46, 0xb0, 0x2e, 0x3e, 0x38, 0x20, 0xc7, 0xbd, 
	0x88, 0x54, 0x66, 0x3e, 0x65, 0x0c, 0xec, 0x3d, 0x28, 0x95, 0x40, 0x3e, 
	0x83, 0x54, 0x2f, 0x3e, 0x15, 0xd5, 0x49, 0x3e, 0x89, 0x26, 0x49, 0x3e, 
	0x95, 0x8a, 0x24, 0x3e, 0x14, 0xee, 0x01, 0x3e, 0xe6, 0x07, 0x3b, 0x3e, 
	0x46, 0x6a, 0x17, 0x3e, 0x4c, 0x7b, 0x31, 0x3e, 0x35, 0x38, 0x42, 0x3e, 
	0x06, 0xff, 0xff, 0xff, 0x10, 0x00, 0x00, 0x00, 0x03, 0x00, 0x00, 0x00, 
	0x10, 0x00, 0x00, 0x00, 0x3c, 0x00, 0x00, 0x00, 0x01, 0x00, 0x00, 0x00, 
	0x20, 0x00, 0x00, 0x00, 0x28, 0x00, 0x00, 0x00, 0x6d, 0x6f, 0x64, 0x65, 
	0x6c, 0x5f, 0x31, 0x38, 0x2f, 0x64, 0x65, 0x6e, 0x73, 0x65, 0x5f, 0x32, 
	0x33, 0x2f, 0x42, 0x69, 0x61, 0x73, 0x41, 0x64, 0x64, 0x2f, 0x52, 0x65, 
	0x61, 0x64, 0x56, 0x61, 0x72, 0x69, 0x61, 0x62, 0x6c, 0x65, 0x4f, 0x70, 
	0x00, 0x00, 0x00, 0x00, 0x5c, 0xff, 0xff, 0xff, 0x00, 0x00, 0x06, 0x00, 
	0x08, 0x00, 0x04, 0x00, 0x06, 0x00, 0x00, 0x00, 0x04, 0x00, 0x00, 0x00, 
	0x40, 0x00, 0x00, 0x00, 0x2d, 0xee, 0x3f, 0xbd, 0x8b, 0x8c, 0x01, 0x3e, 
	0xba, 0xbb, 0x05, 0x3e, 0xf9, 0x29, 0xa7, 0x3d, 0xef, 0x59, 0xe2, 0x3d, 
	0x00, 0x00, 0x00, 0x00, 0xf1, 0x02, 0xe3, 0x3d, 0x00, 0x00, 0x00, 0x00, 
	0x1d, 0x66, 0xd7, 0x3d, 0xfd, 0xa6, 0x34, 0x3d, 0xa0, 0x03, 0xc8, 0x3d, 
	0x00, 0x00, 0x00, 0x00, 0x22, 0x6e, 0xf9, 0x3d, 0x66, 0x67, 0xb2, 0x3d, 
	0x44, 0x32, 0xe5, 0x3d, 0x2e, 0x3b, 0xda, 0x3d, 0xaa, 0xff, 0xff, 0xff, 
	0x10, 0x00, 0x00, 0x00, 0x02, 0x00, 0x00, 0x00, 0x10, 0x00, 0x00, 0x00, 
	0x40, 0x00, 0x00, 0x00, 0x01, 0x00, 0x00, 0x00, 0x10, 0x00, 0x00, 0x00, 
	0x28, 0x00, 0x00, 0x00, 0x6d, 0x6f, 0x64, 0x65, 0x6c, 0x5f, 0x31, 0x38, 
	0x2f, 0x64, 0x65, 0x6e, 0x73, 0x65, 0x5f, 0x32, 0x32, 0x2f, 0x42, 0x69, 
	0x61, 0x73, 0x41, 0x64, 0x64, 0x2f, 0x52, 0x65, 0x61, 0x64, 0x56, 0x61, 
	0x72, 0x69, 0x61, 0x62, 0x6c, 0x65, 0x4f, 0x70, 0x00, 0x00, 0x00, 0x00, 
	0x04, 0x00, 0x06, 0x00, 0x04, 0x00, 0x00, 0x00, 0x00, 0x00, 0x0e, 0x00, 
	0x14, 0x00, 0x04, 0x00, 0x00, 0x00, 0x08, 0x00, 0x0c, 0x00, 0x10, 0x00, 
	0x0e, 0x00, 0x00, 0x00, 0x10, 0x00, 0x00, 0x00, 0x01, 0x00, 0x00, 0x00, 
	0x14, 0x00, 0x00, 0x00, 0x20, 0x00, 0x00, 0x00, 0x02, 0x00, 0x00, 0x00, 
	0x01, 0x00, 0x00, 0x00, 0x28, 0x00, 0x00, 0x00, 0x08, 0x00, 0x00, 0x00, 
	0x69, 0x6e, 0x70, 0x75, 0x74, 0x5f, 0x31, 0x34, 0x00, 0x00, 0x00, 0x00, 
	0xfc, 0xff, 0xff, 0xff, 0x04, 0x00, 0x04, 0x00, 0x04, 0x00, 0x00, 0x00
};
const int pred2_16_seq10_len = 8736;