
// if having troubles with min/max, uncomment the following
// #undef min    
// #undef max
#ifdef __has_attribute
#define HAVE_ATTRIBUTE(x) __has_attribute(x)
#else
#define HAVE_ATTRIBUTE(x) 0
#endif
#if HAVE_ATTRIBUTE(aligned) || (defined(__GNUC__) && !defined(__clang__))
#define DATA_ALIGN_ATTRIBUTE __attribute__((aligned(4)))
#else
#define DATA_ALIGN_ATTRIBUTE
#endif
const unsigned char enc2_16_seq10[] DATA_ALIGN_ATTRIBUTE = {
	0x1c, 0x00, 0x00, 0x00, 0x54, 0x46, 0x4c, 0x33, 0x00, 0x00, 0x12, 0x00, 
	0x1c, 0x00, 0x04, 0x00, 0x08, 0x00, 0x0c, 0x00, 0x10, 0x00, 0x14, 0x00, 
	0x00, 0x00, 0x18, 0x00, 0x12, 0x00, 0x00, 0x00, 0x03, 0x00, 0x00, 0x00, 
	0x14, 0x00, 0x00, 0x00, 0x18, 0x00, 0x00, 0x00, 0x94, 0x00, 0x00, 0x00, 
	0x18, 0x00, 0x00, 0x00, 0x3c, 0x00, 0x00, 0x00, 0x01, 0x00, 0x00, 0x00, 
	0xd4, 0x01, 0x00, 0x00, 0x01, 0x00, 0x00, 0x00, 0xa0, 0x00, 0x00, 0x00, 
	0x09, 0x00, 0x00, 0x00, 0x9c, 0x20, 0x00, 0x00, 0x98, 0x20, 0x00, 0x00, 
	0x6c, 0x1f, 0x00, 0x00, 0xc4, 0x1e, 0x00, 0x00, 0x70, 0x0a, 0x00, 0x00, 
	0x1c, 0x02, 0x00, 0x00, 0x84, 0x20, 0x00, 0x00, 0x80, 0x20, 0x00, 0x00, 
	0x38, 0x00, 0x00, 0x00, 0x01, 0x00, 0x00, 0x00, 0x0c, 0x00, 0x00, 0x00, 
	0x08, 0x00, 0x0c, 0x00, 0x04, 0x00, 0x08, 0x00, 0x08, 0x00, 0x00, 0x00, 
	0x08, 0x00, 0x00, 0x00, 0x08, 0x00, 0x00, 0x00, 0x13, 0x00, 0x00, 0x00, 
	0x6d, 0x69, 0x6e, 0x5f, 0x72, 0x75, 0x6e, 0x74, 0x69, 0x6d, 0x65, 0x5f, 
	0x76, 0x65, 0x72, 0x73, 0x69, 0x6f, 0x6e, 0x00, 0xea, 0xe0, 0xff, 0xff, 
	0x04, 0x00, 0x00, 0x00, 0x10, 0x00, 0x00, 0x00, 0x31, 0x2e, 0x35, 0x2e, 
	0x30, 0x00, 0x00, 0x00, 0x00, 0x00, 0x00, 0x00, 0x00, 0x00, 0x00, 0x00, 
	0x0f, 0x00, 0x00, 0x00, 0x4d, 0x4c, 0x49, 0x52, 0x20, 0x43, 0x6f, 0x6e, 
	0x76, 0x65, 0x72, 0x74, 0x65, 0x64, 0x2e, 0x00, 0x00, 0x00, 0x0e, 0x00, 
	0x18, 0x00, 0x04, 0x00, 0x08, 0x00, 0x0c, 0x00, 0x10, 0x00, 0x14, 0x00, 
	0x0e, 0x00, 0x00, 0x00, 0x14, 0x00, 0x00, 0x00, 0x30, 0x00, 0x00, 0x00, 
	0x34, 0x00, 0x00, 0x00, 0x38, 0x00, 0x00, 0x00, 0x40, 0x00, 0x00, 0x00, 
	0x07, 0x00, 0x00, 0x00, 0xb0, 0x1f, 0x00, 0x00, 0x48, 0x1f, 0x00, 0x00, 
	0x60, 0x1e, 0x00, 0x00, 0xcc, 0x1d, 0x00, 0x00, 0x78, 0x09, 0x00, 0x00, 
	0x08, 0x01, 0x00, 0x00, 0x6c, 0x00, 0x00, 0x00, 0x01, 0x00, 0x00, 0x00, 
	0x00, 0x00, 0x00, 0x00, 0x01, 0x00, 0x00, 0x00, 0x06, 0x00, 0x00, 0x00, 
	0x02, 0x00, 0x00, 0x00, 0x98, 0x00, 0x00, 0x00, 0x1c, 0x00, 0x00, 0x00, 
	0x04, 0x00, 0x00, 0x00, 0x6d, 0x61, 0x69, 0x6e, 0x00, 0x00, 0x0e, 0x00, 
	0x14, 0x00, 0x00, 0x00, 0x08, 0x00, 0x0c, 0x00, 0x07, 0x00, 0x10, 0x00, 
	0x0e, 0x00, 0x00, 0x00, 0x00, 0x00, 0x00, 0x08, 0x1c, 0x00, 0x00, 0x00, 
	0x10, 0x00, 0x00, 0x00, 0x04, 0x00, 0x00, 0x00, 0x86, 0xff, 0xff, 0xff, 
	0x00, 0x00, 0x00, 0x01, 0x01, 0x00, 0x00, 0x00, 0x06, 0x00, 0x00, 0x00, 
	0x03, 0x00, 0x00, 0x00, 0x05, 0x00, 0x00, 0x00, 0x04, 0x00, 0x00, 0x00, 
	0x02, 0x00, 0x00, 0x00, 0xe2, 0xe0, 0xff, 0xff, 0x10, 0x00, 0x00, 0x00, 
	0x07, 0x00, 0x00, 0x00, 0x14, 0x00, 0x00, 0x00, 0x20, 0x00, 0x00, 0x00, 
	0x02, 0x00, 0x00, 0x00, 0x01, 0x00, 0x00, 0x00, 0x10, 0x00, 0x00, 0x00, 
	0x08, 0x00, 0x00, 0x00, 0x49, 0x64, 0x65, 0x6e, 0x74, 0x69, 0x74, 0x79, 
	0x00, 0x00, 0x00, 0x00, 0x1c, 0xe1, 0xff, 0xff, 0x00, 0x00, 0x0e, 0x00, 
	0x16, 0x00, 0x00, 0x00, 0x08, 0x00, 0x0c, 0x00, 0x07, 0x00, 0x10, 0x00, 
	0x0e, 0x00, 0x00, 0x00, 0x00, 0x00, 0x00, 0x08, 0x24, 0x00, 0x00, 0x00, 
	0x18, 0x00, 0x00, 0x00, 0x0c, 0x00, 0x00, 0x00, 0x00, 0x00, 0x06, 0x00, 
	0x08, 0x00, 0x07, 0x00, 0x06, 0x00, 0x00, 0x00, 0x00, 0x00, 0x00, 0x01, 
	0x01, 0x00, 0x00, 0x00, 0x05, 0x00, 0x00, 0x00, 0x03, 0x00, 0x00, 0x00, 
	0x00, 0x00, 0x00, 0x00, 0x03, 0x00, 0x00, 0x00, 0x01, 0x00, 0x00, 0x00, 
	0x00, 0x00, 0x0a, 0x00, 0x0c, 0x00, 0x07, 0x00, 0x00, 0x00, 0x08, 0x00, 
	0x0a, 0x00, 0x00, 0x00, 0x00, 0x00, 0x00, 0x09, 0x01, 0x00, 0x00, 0x00, 
	0x7a, 0xe1, 0xff, 0xff, 0x10, 0x00, 0x00, 0x00, 0x06, 0x00, 0x00, 0x00, 
	0x14, 0x00, 0x00, 0x00, 0x4c, 0x00, 0x00, 0x00, 0x02, 0x00, 0x00, 0x00, 
	0x01, 0x00, 0x00, 0x00, 0x20, 0x00, 0x00, 0x00, 0x34, 0x00, 0x00, 0x00, 
	0x6d, 0x6f, 0x64, 0x65, 0x6c, 0x5f, 0x31, 0x34, 0x36, 0x2f, 0x64, 0x65, 
	0x6e, 0x73, 0x65, 0x5f, 0x31, 0x34, 0x31, 0x2f, 0x52, 0x65, 0x6c, 0x75, 
	0x3b, 0x6d, 0x6f, 0x64, 0x65, 0x6c, 0x5f, 0x31, 0x34, 0x36, 0x2f, 0x64, 
	0x65, 0x6e, 0x73, 0x65, 0x5f, 0x31, 0x34, 0x31, 0x2f, 0x42, 0x69, 0x61, 
	0x73, 0x41, 0x64, 0x64, 0x00, 0x00, 0x00, 0x00, 0x94, 0xe1, 0xff, 0xff, 
	0xc2, 0xe2, 0xff, 0xff, 0x04, 0x00, 0x00, 0x00, 0x00, 0x08, 0x00, 0x00, 
	0x09, 0x87, 0x3b, 0x3d, 0xe8, 0x3b, 0x1c, 0x3e, 0x7e, 0x52, 0x55, 0x3e, 
	0x00, 0xb8, 0x5a, 0x3d, 0xf2, 0x76, 0x7e, 0xbe, 0x77, 0xe1, 0x40, 0x3e, 
	0xa5, 0x83, 0x88, 0x3e, 0xf8, 0xc9, 0xa9, 0xbd, 0xed, 0x54, 0x7f, 0x3e, 
	0x3c, 0xf9, 0xd1, 0x3d, 0x9a, 0xcb, 0xd1, 0x3b, 0xfa, 0x6c, 0x19, 0xbe, 
	0x9a, 0xab, 0xd4, 0x3d, 0xcb, 0xf0, 0x8b, 0x3e, 0xc1, 0x1f, 0x24, 0x3e, 
	0x59, 0x14, 0x8d, 0x3e, 0x8b, 0x8f, 0x9e, 0xbe, 0x51, 0xce, 0x8b, 0x3e, 
	0x37, 0x44, 0xdb, 0xbd, 0x12, 0xd4, 0x9a, 0xbd, 0xfa, 0x26, 0xed, 0x3d, 
	0x4c, 0xaf, 0xa7, 0xbe, 0xe7, 0xc9, 0x93, 0x3e, 0xe9, 0xf0, 0xbc, 0x3d, 
	0x98, 0xa3, 0xd2, 0x3e, 0xcb, 0x23, 0x50, 0xbe, 0x11, 0xcc, 0xe0, 0x3d, 
	0x4f, 0xc7, 0x02, 0x3e, 0x56, 0x31, 0x0c, 0x3e, 0x64, 0x7d, 0xd9, 0xbd, 
	0xe5, 0x8d, 0xf9, 0x3d, 0x55, 0xf4, 0x2c, 0x3e, 0xe8, 0xa1, 0x02, 0xbe, 
	0xa8, 0xd3, 0xb9, 0xbe, 0x7e, 0xf2, 0xf0, 0x3d, 0x9b, 0x43, 0xaf, 0xbe, 
	0xa3, 0x27, 0xc4, 0xbe, 0x44, 0x04, 0x9f, 0xbd, 0xfd, 0xac, 0x38, 0x3d, 
	0xac, 0xfc, 0xc9, 0xbe, 0xc9, 0xfd, 0x44, 0xbe, 0x10, 0x15, 0xa9, 0x3d, 
	0x75, 0x94, 0x02, 0x3c, 0x87, 0xab, 0xf0, 0x3d, 0xcb, 0x51, 0x3c, 0x3e, 
	0x71, 0xa0, 0x76, 0xbc, 0xc4, 0x45, 0x1e, 0x3e, 0xcd, 0x26, 0x67, 0xbd, 
	0xba, 0xd3, 0xe4, 0xbd, 0x4d, 0x86, 0x14, 0xbe, 0xf8, 0x2e, 0xa0, 0x3d, 
	0xa8, 0x25, 0xad, 0x3d, 0x61, 0xfe, 0x3a, 0xbe, 0x9a, 0xc8, 0x97, 0x3e, 
	0x69, 0x35, 0x14, 0x3e, 0xbd, 0x75, 0xad, 0xbe, 0xa1, 0x9c, 0xe2, 0x3d, 
	0x31, 0x17, 0xdc, 0xbe, 0x40, 0xb0, 0x5b, 0xbe, 0x0f, 0x3a, 0x64, 0xbe, 
	0x10, 0xfd, 0x87, 0xbb, 0x83, 0xdd, 0x40, 0xbe, 0x74, 0x98, 0x9c, 0xbd, 
	0xbf, 0x10, 0xce, 0x3c, 0xac, 0x54, 0xef, 0x3d, 0x17, 0x45, 0xdd, 0x3d, 
	0x33, 0x53, 0x38, 0x3c, 0x0d, 0xc2, 0xea, 0xbe, 0xf8, 0x98, 0x4a, 0x3d, 
	0x66, 0x5d, 0x6d, 0x3e, 0x21, 0x70, 0xc7, 0xbc, 0xc3, 0x7c, 0x64, 0xbe, 
	0x3b, 0xf6, 0x19, 0xbf, 0x5f, 0x4c, 0x6b, 0xbe, 0x49, 0xd6, 0x8e, 0x3e, 
	0xdc, 0xeb, 0x3b, 0xbd, 0x50, 0x05, 0x54, 0xbe, 0x9a, 0x79, 0x33, 0xbe, 
	0x6a, 0xd1, 0xa5, 0x3e, 0x40, 0x3a, 0x1f, 0x3e, 0x5c, 0x27, 0x13, 0x3e, 
	0xd9, 0x49, 0x89, 0xbe, 0x5f, 0xd9, 0x67, 0x3e, 0xcc, 0xdb, 0xad, 0xbe, 
	0x8f, 0xe1, 0x58, 0xbe, 0x2c, 0xd6, 0x0d, 0xbc, 0x78, 0xfc, 0x82, 0x3d, 
	0xa3, 0x70, 0xa9, 0x3e, 0x1e, 0xe9, 0x81, 0x3e, 0x0d, 0x33, 0x5a, 0x3e, 
	0xb2, 0x8e, 0x84, 0x3e, 0x39, 0x2c, 0x52, 0xbe, 0x2a, 0x09, 0xb9, 0xbe, 
	0x51, 0x00, 0x29, 0xbe, 0xcd, 0x85, 0x75, 0x3e, 0xdd, 0x7b, 0x66, 0xbf, 
	0x18, 0x7e, 0x8b, 0x3e, 0xcb, 0x78, 0xb2, 0x3d, 0x7a, 0x8a, 0x03, 0x3f, 
	0x32, 0x87, 0x27, 0xbe, 0xb5, 0x66, 0xfd, 0x3e, 0x3e, 0x05, 0xa4, 0x3d, 
	0x08, 0x04, 0x94, 0x3e, 0x84, 0x79, 0xf7, 0x3e, 0x6c, 0xe4, 0x67, 0xbe, 
	0xa4, 0x70, 0x9a, 0xbd, 0x98, 0xb9, 0xaa, 0xbe, 0x39, 0x31, 0x61, 0xbe, 
	0xf2, 0x51, 0xe7, 0x3e, 0xf6, 0x3b, 0xaf, 0x3e, 0x03, 0x65, 0xb5, 0x3e, 
	0x71, 0xe4, 0x9e, 0x3e, 0x13, 0x9f, 0xa2, 0x3e, 0xb0, 0x55, 0x5e, 0x3d, 
	0x0e, 0x6d, 0x7e, 0x3e, 0xd4, 0x35, 0x1c, 0xbe, 0x24, 0x89, 0x54, 0xbe, 
	0x9e, 0x5b, 0xda, 0x3d, 0x29, 0xa3, 0xea, 0xba, 0x39, 0xb2, 0x02, 0x3f, 
	0x81, 0x2a, 0xde, 0x3e, 0xff, 0x01, 0xf6, 0x3b, 0xa5, 0x46, 0x93, 0x3e, 
	0x4a, 0xb6, 0x20, 0x3e, 0x5f, 0xf0, 0x60, 0x3d, 0xc6, 0x0f, 0x89, 0xbe, 
	0xad, 0xbe, 0xec, 0x3e, 0x3d, 0x76, 0x69, 0x3d, 0xe6, 0xf7, 0x91, 0x3d, 
	0xf6, 0x9c, 0xf1, 0xbe, 0x2b, 0x18, 0x89, 0x3b, 0x61, 0xcd, 0x21, 0xbf, 
	0x14, 0x79, 0xce, 0xbb, 0x49, 0xd2, 0x90, 0xbe, 0x19, 0xbd, 0x56, 0xbe, 
	0xe7, 0xd0, 0xee, 0xbc, 0x98, 0x20, 0x5a, 0x3f, 0xe0, 0xe6, 0x69, 0x3c, 
	0x1e, 0x3a, 0xd8, 0xbd, 0xc7, 0xc0, 0x94, 0x3e, 0x56, 0x4d, 0x07, 0xbe, 
	0xff, 0x82, 0xdf, 0x3d, 0x35, 0x71, 0xeb, 0xbd, 0x4f, 0x38, 0x9e, 0x3d, 
	0x07, 0x97, 0x9b, 0x3e, 0xc8, 0xff, 0xa4, 0xbd, 0x35, 0x96, 0x7f, 0xbe, 
	0xd8, 0x7f, 0xa8, 0x3c, 0x57, 0x01, 0x9f, 0xbe, 0xdc, 0xda, 0x18, 0x3e, 
	0x04, 0xed, 0x4a, 0xbe, 0xbc, 0x0c, 0xa6, 0xbe, 0x50, 0x4e, 0xa6, 0xbe, 
	0x28, 0x4c, 0xcd, 0xbe, 0x07, 0xa8, 0x8d, 0xbe, 0x51, 0xbc, 0x5f, 0x3d, 
	0xc5, 0x97, 0xda, 0xbe, 0x3b, 0x66, 0x7c, 0x3e, 0x94, 0x49, 0x8b, 0x3d, 
	0xca, 0xb5, 0x72, 0x3e, 0xe6, 0xfa, 0x01, 0x3f, 0xd2, 0x25, 0x05, 0x3f, 
	0xbb, 0x50, 0xce, 0xbd, 0xd6, 0x57, 0x16, 0xbd, 0xae, 0xff, 0xbe, 0x3e, 
	0x11, 0xbe, 0x27, 0xbe, 0x88, 0x9b, 0xc6, 0x3e, 0xa2, 0x06, 0xe4, 0x3e, 
	0x3c, 0x9d, 0x1b, 0xbf, 0x7e, 0x07, 0x71, 0x3e, 0xda, 0xb1, 0xa6, 0x3e, 
	0x62, 0xf1, 0x11, 0x3e, 0x19, 0x9a, 0x25, 0x3e, 0x3a, 0x73, 0x42, 0xbe, 
	0x6d, 0x25, 0x88, 0xbd, 0xf1, 0x69, 0x14, 0xbd, 0xf0, 0x93, 0xa8, 0xbc, 
	0x61, 0x00, 0xa3, 0x3e, 0x52, 0x32, 0x94, 0x3e, 0x93, 0x22, 0xa7, 0x3e, 
	0xd6, 0x42, 0x31, 0x3e, 0x6f, 0x8a, 0x13, 0xbd, 0xcc, 0xe6, 0x31, 0x3e, 
	0x75, 0x6d, 0x9a, 0x3d, 0x9d, 0xe6, 0x80, 0x3e, 0x60, 0xd4, 0x3e, 0x3e, 
	0xeb, 0x9d, 0x82, 0x3e, 0x6b, 0x06, 0xd7, 0x3d, 0x32, 0xba, 0x49, 0xbe, 
	0x65, 0xd0, 0x6e, 0xbe, 0x1d, 0xaf, 0xf5, 0x3e, 0xe8, 0xf8, 0x0b, 0xbf, 
	0xf6, 0x62, 0x81, 0x3c, 0x32, 0xb3, 0x56, 0x3d, 0x23, 0x53, 0xad, 0x3e, 
	0x60, 0xd7, 0x38, 0xbf, 0xfd, 0xb4, 0xfc, 0xbd, 0x6f, 0x34, 0xa6, 0xbe, 
	0xe9, 0xad, 0xd2, 0x3e, 0x33, 0x45, 0x60, 0x3e, 0x23, 0xfa, 0x6e, 0xbf, 
	0xa1, 0xa9, 0xb3, 0xbe, 0xd3, 0x5b, 0x90, 0x3e, 0xdd, 0x04, 0x7f, 0xbe, 
	0xac, 0x9a, 0xb3, 0x3e, 0xe7, 0xa5, 0x02, 0xbd, 0x28, 0xc8, 0xf7, 0xbd, 
	0x7f, 0x7d, 0xd6, 0xbd, 0x70, 0xb5, 0x16, 0x3d, 0xc4, 0xdc, 0x00, 0x3e, 
	0x87, 0x6f, 0x69, 0xbe, 0x88, 0xa8, 0xa4, 0xbe, 0xb9, 0xa4, 0x8f, 0xbe, 
	0x2a, 0xef, 0xd3, 0x3d, 0x77, 0xe5, 0xd3, 0xbd, 0xef, 0x7c, 0xcc, 0x3e, 
	0xac, 0x59, 0x1c, 0xbe, 0xac, 0x2d, 0x8f, 0x3e, 0xaf, 0x08, 0x49, 0x3e, 
	0x93, 0xf9, 0xc9, 0x3e, 0x39, 0x6c, 0x54, 0xbf, 0xc2, 0xb9, 0x88, 0xbe, 
	0xfb, 0xe5, 0x7c, 0xbe, 0x49, 0xe7, 0x83, 0xbf, 0x6b, 0xe8, 0x66, 0x3c, 
	0xd6, 0xff, 0xe7, 0xbd, 0xe7, 0xfd, 0x2b, 0x3c, 0x8d, 0xa8, 0x20, 0xbe, 
	0x7b, 0xeb, 0x8b, 0xbe, 0x7f, 0x19, 0x95, 0xbe, 0xc3, 0x39, 0x13, 0x3e, 
	0xde, 0xad, 0x1a, 0x3d, 0xab, 0xf1, 0x17, 0xbe, 0x76, 0x8d, 0x68, 0x3e, 
	0xb6, 0x9a, 0xa7, 0x3e, 0x40, 0x23, 0x2b, 0xbd, 0x0d, 0xd5, 0x8f, 0xbe, 
	0x24, 0x41, 0xb1, 0xbe, 0x33, 0x60, 0xd2, 0x3c, 0x8a, 0x62, 0xaa, 0xbe, 
	0xac, 0x48, 0x91, 0xbd, 0x01, 0xa6, 0x3b, 0xbe, 0xa3, 0xe0, 0x7f, 0x3e, 
	0x56, 0x88, 0x5c, 0x3e, 0x98, 0xe3, 0xa1, 0xbe, 0x56, 0xd4, 0x86, 0x3e, 
	0x6b, 0x92, 0xd3, 0x3d, 0xdc, 0x24, 0xb2, 0xbd, 0xa9, 0xd7, 0xa4, 0xbe, 
	0x15, 0x09, 0x9c, 0x3d, 0x6a, 0xf7, 0x21, 0xbe, 0x5b, 0x33, 0x45, 0xbe, 
	0xd0, 0xcc, 0x9f, 0xbe, 0x9e, 0xd0, 0x55, 0x3e, 0x58, 0xae, 0xb5, 0xbe, 
	0x00, 0x88, 0x80, 0x3b, 0x3a, 0xdc, 0xc1, 0x3e, 0x2b, 0xcd, 0xc7, 0x3d, 
	0xa6, 0xce, 0x88, 0x3e, 0x72, 0x8c, 0xac, 0xbe, 0x0c, 0xfc, 0xa2, 0x3e, 
	0xcb, 0xd2, 0xf7, 0xbd, 0x37, 0xb1, 0xcb, 0x3e, 0x9b, 0xc2, 0xa0, 0x3e, 
	0x86, 0xdc, 0x93, 0xbe, 0x5a, 0xd4, 0x83, 0xbe, 0x47, 0x23, 0xbf, 0x3d, 
	0xaa, 0xed, 0x8e, 0xbe, 0xe9, 0xb4, 0x91, 0x3e, 0x30, 0x80, 0x04, 0x3f, 
	0xcd, 0xc3, 0xc5, 0x3e, 0x2c, 0xed, 0xed, 0x3e, 0xcc, 0xe9, 0x86, 0xbd, 
	0x42, 0x27, 0x2e, 0xbe, 0x02, 0xbc, 0x6d, 0xbe, 0x1a, 0x2a, 0xa7, 0xbe, 
	0x38, 0xaf, 0xc5, 0x3d, 0x48, 0xc8, 0x91, 0xbe, 0x5b, 0x3d, 0xb7, 0x3e, 
	0x88, 0x9f, 0xa0, 0x3d, 0x36, 0x3d, 0x66, 0x3c, 0xc9, 0x88, 0xd0, 0x3e, 
	0x23, 0xf3, 0xc6, 0x3e, 0x03, 0x64, 0x05, 0x3f, 0x88, 0xf4, 0x84, 0xbe, 
	0x1e, 0x88, 0x9b, 0x3c, 0x28, 0x12, 0xc7, 0x3e, 0x0c, 0xc0, 0x82, 0xbe, 
	0xfb, 0xcc, 0xb7, 0x3e, 0x58, 0x22, 0x50, 0xbc, 0x1a, 0x40, 0x0f, 0x3e, 
	0xf3, 0xd2, 0x33, 0xbe, 0x71, 0x74, 0x8f, 0x3e, 0x3b, 0x8f, 0xa2, 0xbd, 
	0x6b, 0x83, 0xc6, 0x3e, 0x49, 0xa7, 0xf6, 0x3d, 0xa2, 0xae, 0x90, 0x3e, 
	0x00, 0x2a, 0x3a, 0xbe, 0xe5, 0x35, 0x62, 0x3d, 0xe1, 0xbb, 0xe2, 0xbd, 
	0x3f, 0x9b, 0x8c, 0x3e, 0x1b, 0x28, 0xb8, 0x3e, 0x90, 0x28, 0x17, 0x3e, 
	0x8f, 0x75, 0xf8, 0x3e, 0xc2, 0xf0, 0x21, 0x3e, 0x00, 0xc4, 0x03, 0xba, 
	0xfd, 0x75, 0x9e, 0xbd, 0x54, 0x61, 0x3c, 0xbe, 0xbf, 0x55, 0xa7, 0x3d, 
	0x48, 0xd2, 0x80, 0x3e, 0xda, 0xd5, 0x06, 0x3e, 0x58, 0x6b, 0x99, 0xbd, 
	0x23, 0xf4, 0x3b, 0x3e, 0xda, 0x64, 0x88, 0x3e, 0x6b, 0x42, 0x39, 0x3e, 
	0x76, 0x00, 0xaf, 0x3e, 0x9d, 0x1c, 0xa2, 0xbe, 0x42, 0xa2, 0x4a, 0xbd, 
	0xde, 0x6d, 0x0f, 0xbe, 0xe8, 0x06, 0xab, 0x3e, 0x8c, 0x61, 0xa5, 0x3e, 
	0xbf, 0xb0, 0x86, 0x3e, 0xca, 0x8e, 0x8c, 0x3e, 0xaf, 0xda, 0x42, 0xbe, 
	0x4c, 0x3c, 0xcb, 0x3e, 0xe3, 0xc9, 0x89, 0xbe, 0x56, 0x22, 0x1c, 0x3e, 
	0x7d, 0x9b, 0xea, 0xbd, 0xe4, 0x7c, 0x5c, 0xbc, 0xfc, 0x40, 0xf8, 0x3d, 
	0x4d, 0x9c, 0x9c, 0x3c, 0x2b, 0x21, 0xa5, 0x3e, 0x47, 0xbd, 0x8e, 0x3e, 
	0xb4, 0x92, 0xe9, 0x3e, 0x0e, 0xda, 0x1b, 0x3e, 0xc4, 0x29, 0xa6, 0xbd, 
	0x0e, 0x27, 0x49, 0x3e, 0x6b, 0x4d, 0xa0, 0xbe, 0x95, 0xa5, 0x87, 0xbe, 
	0x4e, 0x83, 0x8f, 0x3e, 0x5c, 0x70, 0xb9, 0x3d, 0xca, 0xfa, 0x92, 0x3e, 
	0x9f, 0xd3, 0x2e, 0x3d, 0x73, 0xef, 0xde, 0x3e, 0x3f, 0x98, 0x94, 0x3e, 
	0x38, 0x13, 0x57, 0x3d, 0x32, 0x39, 0x1a, 0x3e, 0xf1, 0xf9, 0x07, 0xbe, 
	0x77, 0x05, 0x0b, 0xbf, 0xbe, 0x77, 0xd5, 0x3c, 0xa7, 0xf4, 0x0e, 0xbe, 
	0x65, 0x2d, 0x1e, 0xbf, 0x4c, 0xfa, 0xea, 0x3d, 0x70, 0x29, 0x12, 0x3f, 
	0x33, 0x8f, 0xc8, 0x3e, 0xa1, 0xe8, 0x2e, 0xbe, 0x3b, 0x0b, 0x9b, 0x3e, 
	0xad, 0x1f, 0x2d, 0xbe, 0x63, 0xa1, 0x9e, 0x3e, 0x54, 0xdd, 0x12, 0x3e, 
	0x2f, 0xda, 0x05, 0xbe, 0xc7, 0x9b, 0xb4, 0xbe, 0xdd, 0xd6, 0x29, 0x3d, 
	0x66, 0x8f, 0x12, 0x3e, 0xc8, 0x1d, 0xf8, 0x3e, 0x46, 0x53, 0x2d, 0xbd, 
	0x9a, 0xaf, 0xbf, 0x3e, 0xdd, 0xd0, 0xed, 0x3c, 0x0e, 0xda, 0x3d, 0xbe, 
	0x8d, 0x82, 0xa6, 0x3e, 0xb3, 0x56, 0x77, 0x3e, 0x6b, 0x4e, 0x36, 0xbe, 
	0x94, 0x5e, 0xf0, 0x3d, 0xba, 0xb3, 0x1d, 0xbe, 0x6a, 0x39, 0xff, 0x3e, 
	0x2e, 0x27, 0x49, 0x3e, 0x58, 0x4c, 0x95, 0x3e, 0xc6, 0x8e, 0x2b, 0x3e, 
	0x36, 0x25, 0xae, 0x3e, 0x9d, 0x31, 0x9b, 0x3e, 0x67, 0xbf, 0x69, 0x3d, 
	0xb2, 0x5c, 0x14, 0xbc, 0x24, 0x18, 0xaa, 0x3d, 0x7c, 0xd8, 0x7a, 0x3d, 
	0x86, 0x85, 0x00, 0xbd, 0x1c, 0x59, 0xca, 0xbe, 0x14, 0xa7, 0xdd, 0xbd, 
	0x28, 0xc4, 0x3d, 0x3b, 0x77, 0x21, 0xee, 0xbe, 0x4a, 0x92, 0x85, 0x3e, 
	0x4c, 0x9b, 0x53, 0xbe, 0x69, 0x90, 0x5d, 0xbd, 0x29, 0x37, 0x15, 0xbe, 
	0x52, 0x13, 0x8e, 0xbe, 0x09, 0x53, 0x7a, 0x3b, 0xeb, 0x19, 0xfa, 0xbc, 
	0x67, 0x5c, 0xe8, 0xbe, 0x80, 0x95, 0x21, 0xbe, 0x18, 0x35, 0xab, 0xbe, 
	0xb6, 0x64, 0xea, 0xbd, 0x2e, 0x70, 0x58, 0xbe, 0xa4, 0x7c, 0x0d, 0x3e, 
	0x02, 0xd3, 0xe8, 0xbd, 0x06, 0x86, 0x31, 0xbd, 0x5f, 0x6d, 0xa4, 0x3e, 
	0x9f, 0x17, 0x00, 0x3e, 0x40, 0x70, 0x01, 0xbf, 0x8b, 0x27, 0x4d, 0xbe, 
	0xa8, 0x16, 0x9d, 0xbe, 0x29, 0x2e, 0xcd, 0x3b, 0x54, 0x24, 0x0f, 0xbf, 
	0x36, 0x67, 0x67, 0xbc, 0x62, 0xda, 0xd4, 0xbc, 0xfc, 0x92, 0x37, 0x3e, 
	0xfc, 0xb4, 0x90, 0xbe, 0xa6, 0x3a, 0x68, 0x3f, 0x42, 0x74, 0x8c, 0x3d, 
	0x91, 0x5b, 0xd6, 0x3e, 0xc8, 0x2e, 0x42, 0xbe, 0x37, 0xf1, 0x19, 0xbf, 
	0xde, 0xd5, 0xdd, 0x3e, 0xa7, 0x39, 0x7a, 0x3e, 0x49, 0x98, 0xbd, 0x3e, 
	0x29, 0xf7, 0xd1, 0x3e, 0x2f, 0xc9, 0x19, 0xbf, 0x83, 0x21, 0x3b, 0xbe, 
	0x7d, 0x91, 0xf9, 0x3a, 0xef, 0x39, 0x66, 0xbe, 0x97, 0x07, 0x15, 0xbe, 
	0x8a, 0x77, 0x1b, 0xbe, 0xbf, 0xbd, 0xad, 0x3e, 0xbe, 0xb0, 0x00, 0x3d, 
	0xba, 0xd5, 0x2b, 0x3e, 0xb0, 0x22, 0xe7, 0x3d, 0x0b, 0xaf, 0xe6, 0xbd, 
	0x81, 0x08, 0x85, 0x3e, 0x22, 0x45, 0x9d, 0x3e, 0xb3, 0xc0, 0x31, 0xbd, 
	0x35, 0x71, 0xd3, 0x3e, 0x4f, 0xf8, 0xd9, 0x3e, 0xb0, 0x93, 0xa5, 0x3e, 
	0xcf, 0x4b, 0xca, 0x3e, 0xfc, 0xda, 0x19, 0xbe, 0xb6, 0xfc, 0x18, 0x3d, 
	0xae, 0x63, 0x1b, 0xbf, 0x90, 0x2b, 0xe7, 0xbd, 0xa6, 0xc8, 0x0b, 0xbe, 
	0x05, 0xdb, 0x82, 0xbf, 0xa4, 0x31, 0xd1, 0xbe, 0x09, 0x94, 0x97, 0x3c, 
	0xad, 0x13, 0x06, 0x3e, 0x00, 0xca, 0x13, 0xbf, 0xc5, 0x24, 0x36, 0x3d, 
	0x87, 0x04, 0x75, 0xbd, 0x0b, 0xf6, 0xc3, 0xbe, 0xb7, 0xb6, 0x13, 0x3e, 
	0x92, 0x3a, 0xdd, 0xbe, 0xc8, 0x7d, 0x2e, 0x3d, 0xbf, 0xf7, 0x58, 0xbe, 
	0x12, 0x2f, 0x60, 0xbe, 0x20, 0x98, 0xd4, 0x3e, 0x10, 0x5f, 0xdb, 0x3e, 
	0x99, 0x44, 0x8b, 0xbe, 0xbe, 0x70, 0x1e, 0x3e, 0xa8, 0x45, 0xdf, 0x3d, 
	0xda, 0xb0, 0x1f, 0x3e, 0xde, 0x99, 0x27, 0xbe, 0x22, 0xc9, 0x96, 0x3e, 
	0x15, 0x64, 0x9f, 0x3e, 0x79, 0xfe, 0x09, 0xbe, 0x80, 0x15, 0xe9, 0xbe, 
	0xc4, 0xc3, 0x58, 0xbd, 0x9a, 0x16, 0x01, 0xbf, 0x21, 0x6e, 0x23, 0x3e, 
	0x3a, 0x14, 0x90, 0x3a, 0x74, 0x82, 0x80, 0x3e, 0x86, 0xf0, 0x1d, 0xbf, 
	0x57, 0xdd, 0x9b, 0x3e, 0xdf, 0x67, 0x89, 0x3e, 0x12, 0xf1, 0x08, 0xbf, 
	0xad, 0x9c, 0xc2, 0xbd, 0x75, 0x4e, 0xbf, 0x3e, 0x72, 0x58, 0xec, 0x3c, 
	0x72, 0xd6, 0xc5, 0xbe, 0xfe, 0x73, 0x98, 0x3d, 0xbb, 0x88, 0x5c, 0xbe, 
	0x4a, 0xb7, 0xa7, 0x3d, 0xb0, 0x70, 0x27, 0x3e, 0x9c, 0x68, 0xb5, 0xbe, 
	0x65, 0x92, 0x7c, 0xbe, 0xce, 0x0e, 0x41, 0x3e, 0x91, 0x88, 0xdd, 0x3e, 
	0xbd, 0xd4, 0x99, 0x3e, 0x84, 0x00, 0x2f, 0xbe, 0x53, 0xde, 0x83, 0xbb, 
	0x47, 0xc0, 0xde, 0x3c, 0xac, 0x1b, 0xca, 0x3d, 0xbd, 0xf8, 0x8d, 0x3e, 
	0x7b, 0x92, 0x66, 0x3e, 0xbe, 0x22, 0x33, 0x3e, 0xf0, 0x91, 0xb8, 0xbd, 
	0x76, 0xa5, 0x4e, 0x3e, 0xb6, 0x3d, 0xbe, 0xbc, 0x46, 0x9d, 0xa2, 0x3e, 
	0x5c, 0xa6, 0x00, 0x3f, 0x69, 0x25, 0xf6, 0x3e, 0x18, 0xb4, 0x63, 0x3e, 
	0xd1, 0x25, 0x19, 0xbe, 0x1e, 0xb5, 0x46, 0xbf, 0x5a, 0x2e, 0x20, 0xbd, 
	0xed, 0xb7, 0xd6, 0xbd, 0x83, 0xf3, 0xdb, 0xbe, 0xe6, 0xe9, 0xff, 0xff, 
	0x10, 0x00, 0x00, 0x00, 0x05, 0x00, 0x00, 0x00, 0x14, 0x00, 0x00, 0x00, 
	0x30, 0x00, 0x00, 0x00, 0x02, 0x00, 0x00, 0x00, 0x10, 0x00, 0x00, 0x00, 
	0x20, 0x00, 0x00, 0x00, 0x1a, 0x00, 0x00, 0x00, 0x6d, 0x6f, 0x64, 0x65, 
	0x6c, 0x5f, 0x31, 0x34, 0x36, 0x2f, 0x64, 0x65, 0x6e, 0x73, 0x65, 0x5f, 
	0x31, 0x34, 0x32, 0x2f, 0x4d, 0x61, 0x74, 0x4d, 0x75, 0x6c, 0x00, 0x00, 
	0xe4, 0xe9, 0xff, 0xff, 0x12, 0xeb, 0xff, 0xff, 0x04, 0x00, 0x00, 0x00, 
	0x00, 0x14, 0x00, 0x00, 0x67, 0xf5, 0x26, 0xbe, 0x6c, 0xd5, 0x31, 0xbe, 
	0x80, 0xa5, 0x86, 0x3a, 0x1a, 0xb3, 0xbd, 0xbc, 0xaf, 0xdd, 0x78, 0x3e, 
	0xc9, 0x10, 0xe2, 0xbc, 0xa4, 0x82, 0xd0, 0xbd, 0x79, 0x63, 0x69, 0x3e, 
	0x5f, 0x5e, 0x51, 0x3e, 0x46, 0x2f, 0x55, 0x3e, 0xe4, 0xed, 0xb5, 0x3e, 
	0x59, 0xf0, 0x6f, 0xbc, 0xc2, 0x04, 0x43, 0xbe, 0xcc, 0x68, 0xe0, 0x3e, 
	0xf0, 0x38, 0x2a, 0xbc, 0x44, 0xb7, 0xa6, 0xbd, 0xcf, 0x8a, 0x9f, 0x3d, 
	0xe3, 0xcd, 0x11, 0x3e, 0x59, 0xa9, 0x5c, 0x3e, 0x59, 0x45, 0xcd, 0x3e, 
	0x5b, 0x5b, 0xb2, 0x3d, 0xfe, 0x99, 0xf2, 0x3e, 0xdd, 0xc8, 0x91, 0xbe, 
	0x96, 0x07, 0xf4, 0x3e, 0xf7, 0x3a, 0x59, 0xbe, 0xd0, 0xe6, 0x1f, 0x3e, 
	0x76, 0x8f, 0x47, 0xbe, 0xc0, 0xaf, 0xc5, 0x3e, 0x94, 0x2c, 0x1b, 0xbe, 
	0x9b, 0xee, 0xad, 0x3e, 0xd1, 0xcd, 0x93, 0xbd, 0xa7, 0xd3, 0x6b, 0x3c, 
	0x50, 0x22, 0x9b, 0xbe, 0x4f, 0x38, 0x5e, 0x3d, 0xcf, 0x06, 0x01, 0xbe, 
	0x35, 0xb1, 0xef, 0x3c, 0x7a, 0xe6, 0xbd, 0xbe, 0x94, 0xda, 0xc3, 0x3d, 
	0x17, 0xc8, 0x9a, 0xbe, 0x4f, 0x3e, 0xdf, 0x3e, 0x5c, 0x0d, 0x0e, 0x3e, 
	0xd1, 0x1b, 0x73, 0x3e, 0xc6, 0xf0, 0x78, 0x3e, 0x8a, 0x1c, 0xb7, 0xbd, 
	0x68, 0x13, 0x2b, 0xbe, 0x79, 0x32, 0x27, 0x3d, 0x1c, 0xe3, 0x84, 0x3d, 
	0xde, 0xc4, 0x8a, 0xbd, 0x3a, 0xe0, 0x6c, 0xbe, 0x0b, 0x84, 0xb4, 0xbb, 
	0x46, 0xe3, 0x88, 0x3e, 0x4e, 0xa7, 0x04, 0x3e, 0xcc, 0x1c, 0x24, 0xbc, 
	0x88, 0x58, 0xfc, 0x3c, 0x22, 0x82, 0x49, 0xbe, 0x10, 0xf2, 0x97, 0x3e, 
	0x3b, 0x01, 0xd6, 0xbe, 0xb3, 0x1f, 0x87, 0x3e, 0xd8, 0x9c, 0x95, 0xbe, 
	0x57, 0x38, 0x5e, 0xbc, 0x46, 0x83, 0x7c, 0xbe, 0x14, 0xeb, 0x19, 0x3d, 
	0x9e, 0xbf, 0x8f, 0xbe, 0x9e, 0xae, 0xeb, 0x3e, 0x7b, 0xed, 0x9d, 0xbe, 
	0xd5, 0x84, 0xee, 0x3d, 0xe8, 0xb3, 0x49, 0xbd, 0xe1, 0x8b, 0xbc, 0x3e, 
	0x50, 0x73, 0x93, 0xbe, 0xbe, 0xa3, 0x83, 0x3e, 0x12, 0xe4, 0xf7, 0xbe, 
	0x60, 0x03, 0x76, 0x3e, 0xa0, 0xc5, 0xfb, 0xbe, 0x0f, 0x8b, 0xbc, 0x3e, 
	0xdf, 0xd8, 0x85, 0xbe, 0xcf, 0x6d, 0xf1, 0x3e, 0x56, 0x1e, 0x2a, 0xbf, 
	0x5e, 0xd6, 0xe6, 0x3e, 0x5e, 0xa6, 0x94, 0xbe, 0x41, 0x51, 0x84, 0x3e, 
	0xa4, 0x76, 0xee, 0x3d, 0x77, 0x2d, 0x80, 0xbe, 0xab, 0xdb, 0x92, 0x3c, 
	0x4e, 0x66, 0xba, 0xbd, 0xa7, 0x6f, 0xf9, 0xbd, 0xc9, 0x1a, 0xa7, 0x3d, 
	0x21, 0x60, 0x46, 0x3c, 0xdc, 0x04, 0x3b, 0x3e, 0xd7, 0x8c, 0xb8, 0xbd, 
	0x38, 0xe1, 0x97, 0xbd, 0x7c, 0x5e, 0x17, 0xbd, 0xf1, 0xaf, 0x40, 0x3e, 
	0x2d, 0xfc, 0x28, 0x3e, 0x0b, 0x45, 0x17, 0x3e, 0x2d, 0x65, 0x56, 0x3e, 
	0xfd, 0x88, 0x02, 0xbe, 0x1d, 0x00, 0x5f, 0xba, 0xb8, 0xa2, 0x44, 0x3d, 
	0x2d, 0xd0, 0x2b, 0x3e, 0xd0, 0xc3, 0x12, 0x3d, 0xc2, 0xde, 0x0c, 0xbe, 
	0x33, 0x86, 0xb9, 0x3e, 0x06, 0xf0, 0x70, 0xbe, 0x23, 0x2b, 0x8d, 0x3d, 
	0x25, 0x5b, 0xc3, 0xbe, 0xe2, 0xab, 0xd6, 0x3e, 0x86, 0xf8, 0x9c, 0xbe, 
	0x83, 0x59, 0xd5, 0x3e, 0x71, 0x51, 0xe6, 0xbe, 0x62, 0x5e, 0xbb, 0xbc, 
	0xc1, 0x05, 0xa2, 0xbc, 0x31, 0xbc, 0xc8, 0x3e, 0xe7, 0x0c, 0x97, 0xbd, 
	0x2d, 0xa2, 0xca, 0x3d, 0x31, 0xf6, 0xb7, 0xbc, 0x90, 0xbc, 0x5c, 0x3e, 
	0xe8, 0xc9, 0xbd, 0xbe, 0x2b, 0xc0, 0xb6, 0x3e, 0x8d, 0xa5, 0xfc, 0xbd, 
	0x8b, 0x2e, 0xfa, 0x3e, 0x84, 0xcb, 0x6a, 0x3e, 0x20, 0x90, 0x70, 0xbe, 
	0x79, 0x02, 0x77, 0xbb, 0x1d, 0x37, 0x7b, 0xbe, 0xb1, 0xbf, 0x94, 0x3e, 
	0x62, 0x15, 0xa6, 0xbd, 0xeb, 0x3c, 0x5f, 0x3e, 0x46, 0x54, 0xfa, 0x3d, 
	0x88, 0x4a, 0xe5, 0x3d, 0x5c, 0x6e, 0x94, 0xbd, 0x7e, 0x1f, 0x64, 0x3e, 
	0xc3, 0x45, 0x71, 0xbe, 0x07, 0xae, 0x02, 0x3f, 0x53, 0x88, 0x0d, 0x3c, 
	0xf6, 0x0c, 0x9f, 0x3b, 0x95, 0x41, 0x83, 0xbe, 0xb0, 0x12, 0x80, 0x3e, 
	0xde, 0xff, 0xcf, 0xbe, 0xbe, 0xfd, 0xa1, 0x3e, 0x90, 0x63, 0xeb, 0xbe, 
	0x38, 0x92, 0x34, 0x3e, 0x63, 0xfc, 0xae, 0xbe, 0x8c, 0xf4, 0xbe, 0x3e, 
	0x48, 0x26, 0x4b, 0xbe, 0x5c, 0x26, 0xc9, 0x3e, 0xfa, 0x12, 0x4a, 0xbe, 
	0x25, 0xd3, 0x82, 0x3e, 0xdf, 0x0d, 0xc5, 0xbe, 0x1e, 0xf6, 0x5d, 0x3e, 
	0xa0, 0xfe, 0x10, 0xbe, 0x56, 0xe0, 0x09, 0x3f, 0x47, 0x80, 0xb4, 0xbe, 
	0x84, 0x8b, 0x49, 0x3e, 0x24, 0xaa, 0x1b, 0xbf, 0x78, 0x0d, 0xb0, 0x3e, 
	0xda, 0x5a, 0x97, 0xbe, 0x70, 0x0d, 0x25, 0x3f, 0x57, 0xd7, 0x3d, 0xbe, 
	0xbd, 0x3a, 0xcb, 0x3e, 0x1a, 0x7a, 0x8a, 0xbe, 0x1b, 0x82, 0x3c, 0x3e, 
	0x2c, 0xc3, 0xb4, 0x3b, 0x78, 0xd0, 0x5c, 0x3e, 0xa5, 0x43, 0xc7, 0x3d, 
	0xd3, 0x20, 0x80, 0x3e, 0x69, 0x15, 0x31, 0xbe, 0xfd, 0xa1, 0xa0, 0x3e, 
	0x69, 0x75, 0x99, 0x3e, 0x8c, 0x28, 0xf9, 0x3d, 0xf1, 0x24, 0x13, 0xbd, 
	0x69, 0x2f, 0x61, 0xbe, 0x0f, 0x61, 0xae, 0xbd, 0xc4, 0xc7, 0x45, 0xbe, 
	0xc2, 0xce, 0x81, 0x3e, 0x56, 0x44, 0x09, 0xbe, 0xac, 0x56, 0x97, 0xbd, 
	0xcc, 0x99, 0xc9, 0xbe, 0xf9, 0x70, 0xe5, 0xbd, 0x27, 0x20, 0x52, 0x3e, 
	0x43, 0xd3, 0x0f, 0xbd, 0x56, 0x02, 0x9d, 0xbe, 0xf4, 0x22, 0xb8, 0x3e, 
	0xbe, 0x90, 0x2a, 0x3c, 0xfa, 0x3d, 0x83, 0x3b, 0x24, 0x92, 0xcd, 0xbe, 
	0x77, 0x08, 0x72, 0x3e, 0x6c, 0x6e, 0x33, 0x3d, 0x10, 0x37, 0x7f, 0x3d, 
	0xe2, 0x8d, 0xa3, 0xbe, 0x97, 0xe7, 0x17, 0x3e, 0x2e, 0x71, 0x5a, 0xbe, 
	0x46, 0xd5, 0x99, 0x3d, 0xef, 0x4e, 0xc5, 0xbe, 0x11, 0x9a, 0xc8, 0x3e, 
	0x16, 0xe3, 0x89, 0xbd, 0x6a, 0x8c, 0xd8, 0x3e, 0x81, 0x78, 0xef, 0xbc, 
	0x2d, 0x69, 0xf2, 0x3e, 0xbd, 0x95, 0xa9, 0xbd, 0x6e, 0xea, 0x2f, 0x3e, 
	0x47, 0xf9, 0x2a, 0x3e, 0xea, 0x84, 0x25, 0xbe, 0x9d, 0xe8, 0x42, 0xbe, 
	0x26, 0x0d, 0xad, 0x3d, 0xab, 0x6b, 0x7b, 0xbd, 0x75, 0x67, 0x4b, 0xbd, 
	0x73, 0x89, 0x02, 0xbe, 0xac, 0x9f, 0x8e, 0xbe, 0xb2, 0xa0, 0x71, 0xbe, 
	0x29, 0x01, 0xa4, 0x3d, 0x70, 0x1b, 0x9c, 0xbe, 0x23, 0x8c, 0xe2, 0xbd, 
	0x32, 0x6b, 0x53, 0x3e, 0x3c, 0x1d, 0xab, 0xbc, 0xe8, 0xe9, 0xed, 0xbb, 
	0xf5, 0x66, 0x26, 0x3d, 0xea, 0x33, 0x0b, 0xbe, 0xd2, 0xe3, 0x0e, 0x3d, 
	0x1b, 0x56, 0xc6, 0x3d, 0x31, 0xb3, 0xc0, 0xbd, 0x03, 0x6a, 0x83, 0x3e, 
	0x16, 0x09, 0x1d, 0x3e, 0x0b, 0xb9, 0xea, 0x3d, 0x7d, 0x7a, 0x69, 0xbd, 
	0xa7, 0x95, 0x2b, 0xbe, 0xec, 0x89, 0x17, 0xbe, 0x6a, 0x64, 0x28, 0xbe, 
	0xec, 0xba, 0xe3, 0x3d, 0x2b, 0xc0, 0x90, 0xbe, 0xb6, 0x2a, 0xc2, 0x3d, 
	0x77, 0xe0, 0x8e, 0x3d, 0x12, 0x7f, 0x4f, 0xbe, 0x1b, 0xe5, 0x91, 0xbb, 
	0xce, 0x56, 0xe9, 0x3d, 0xcd, 0x61, 0x42, 0xbe, 0x9d, 0x6b, 0x19, 0x3d, 
	0x36, 0xb7, 0x86, 0x3e, 0x43, 0xbd, 0xcc, 0xbc, 0x47, 0x40, 0x2b, 0x3e, 
	0x9b, 0xd7, 0x65, 0x3e, 0xcc, 0xea, 0x61, 0xbd, 0xf4, 0x7d, 0xf2, 0xbd, 
	0xd2, 0x66, 0xff, 0x3d, 0x81, 0xb9, 0x4e, 0xbd, 0x97, 0x32, 0x25, 0xbe, 
	0x37, 0xd8, 0x4d, 0xbe, 0x3d, 0x8b, 0xb5, 0x3e, 0x53, 0x0a, 0x97, 0xbd, 
	0x79, 0xb9, 0x42, 0x3e, 0x4f, 0x9a, 0x28, 0xbd, 0x49, 0xe9, 0x8f, 0xbc, 
	0xdd, 0xa6, 0x30, 0xbe, 0x1e, 0x74, 0x5f, 0x3e, 0xad, 0xae, 0x41, 0xbe, 
	0x20, 0xb3, 0xd2, 0xbd, 0x90, 0x02, 0x95, 0x3e, 0x88, 0xe6, 0x82, 0xbd, 
	0x4a, 0xb4, 0xbd, 0x3e, 0x84, 0x02, 0x28, 0xbe, 0x5a, 0x93, 0x87, 0x3e, 
	0x51, 0xbd, 0x7b, 0xbe, 0x9e, 0xe7, 0xb0, 0x3c, 0x7b, 0x9a, 0x5d, 0xbe, 
	0x42, 0x7d, 0x97, 0x3e, 0x8e, 0x06, 0xac, 0xbd, 0x08, 0xc5, 0x49, 0x3d, 
	0x78, 0x3b, 0xcc, 0xbd, 0xa0, 0x19, 0xa7, 0x3e, 0x81, 0xbf, 0xe2, 0xbe, 
	0xbf, 0xeb, 0xd7, 0x3e, 0x75, 0xb9, 0xb4, 0xbd, 0x8e, 0x7d, 0xa1, 0x3e, 
	0x32, 0xf7, 0x63, 0xbe, 0x92, 0xe4, 0xb3, 0x3e, 0x88, 0x02, 0x31, 0xbe, 
	0xde, 0xda, 0x29, 0x3e, 0x44, 0x9f, 0x02, 0xbf, 0xac, 0xe2, 0xfb, 0x3e, 
	0x02, 0xb3, 0x07, 0xbc, 0x8d, 0x61, 0xa3, 0x3e, 0xa3, 0x1d, 0x70, 0x3e, 
	0xac, 0x91, 0xa0, 0xbc, 0x06, 0x0e, 0xce, 0x3e, 0x89, 0xd5, 0x16, 0xbe, 
	0xf3, 0x1f, 0x86, 0xbc, 0xeb, 0xe9, 0x30, 0xbd, 0x6c, 0xb0, 0x37, 0xbe, 
	0xe3, 0x78, 0x80, 0x3d, 0x98, 0x62, 0xca, 0x3d, 0x9f, 0x0d, 0x65, 0x3e, 
	0x9e, 0xaa, 0xb2, 0x3d, 0x38, 0x1a, 0x89, 0x3e, 0xea, 0x64, 0x8c, 0xbe, 
	0x85, 0x4b, 0xd4, 0x3d, 0x72, 0x23, 0x84, 0x3e, 0x5c, 0x04, 0xbd, 0x3d, 
	0x73, 0x03, 0xe4, 0xbc, 0xfd, 0x5f, 0x9e, 0xbc, 0xaf, 0x3a, 0xcb, 0x3d, 
	0x33, 0xf5, 0xa7, 0x3e, 0xa6, 0xed, 0x33, 0xbe, 0x45, 0x16, 0xb1, 0x3d, 
	0x50, 0xb2, 0x5e, 0xbe, 0x77, 0xe3, 0x6d, 0x3e, 0xd8, 0x73, 0xb0, 0xbe, 
	0xc2, 0x38, 0xb0, 0x3d, 0x94, 0x6c, 0x81, 0xbd, 0x9b, 0x14, 0x9b, 0xbd, 
	0xd5, 0x57, 0x45, 0xbd, 0x07, 0xc1, 0x82, 0x3e, 0x4e, 0xe7, 0xe9, 0xbe, 
	0x8f, 0x60, 0x69, 0xbd, 0xe7, 0x28, 0x95, 0x3c, 0x86, 0x7a, 0x84, 0xbc, 
	0x25, 0x5e, 0x2a, 0xbe, 0xe6, 0x0b, 0x43, 0xbc, 0x20, 0xaf, 0x91, 0xbd, 
	0x9d, 0xc6, 0xf5, 0x3e, 0xe8, 0x35, 0xbe, 0xbe, 0x50, 0x29, 0x04, 0x3f, 
	0xda, 0xa2, 0x22, 0x3d, 0xde, 0x73, 0x67, 0xbe, 0xc6, 0xc1, 0x7b, 0x3e, 
	0x05, 0xea, 0x6f, 0xbe, 0x2e, 0xa7, 0xb9, 0x3e, 0x84, 0x0e, 0x1e, 0x3d, 
	0x03, 0x7f, 0x06, 0x3e, 0x1d, 0xfd, 0x33, 0x3e, 0xf6, 0x55, 0x4f, 0x3e, 
	0xa4, 0xa1, 0x5e, 0x3d, 0x18, 0x18, 0x8b, 0x3e, 0x84, 0x52, 0x2f, 0xbe, 
	0x7f, 0x51, 0xeb, 0x3e, 0xa0, 0xff, 0x46, 0xbc, 0xec, 0x6a, 0x88, 0x3d, 
	0xbc, 0xa0, 0xa7, 0xbe, 0x82, 0x4d, 0xda, 0x3d, 0xc2, 0x4a, 0xea, 0xbc, 
	0x73, 0x4c, 0x35, 0x3e, 0x59, 0xbd, 0xe0, 0xbe, 0xe5, 0x9d, 0x8f, 0x3d, 
	0x9e, 0x5f, 0x3b, 0xbe, 0x24, 0x7c, 0xdc, 0x3e, 0xe2, 0xb5, 0xea, 0xbe, 
	0x09, 0xc5, 0xee, 0x3e, 0xd0, 0xae, 0x96, 0xbe, 0x2c, 0x99, 0xb3, 0x3e, 
	0x1b, 0x54, 0x96, 0xbe, 0x6d, 0xd8, 0x0b, 0x3f, 0x64, 0xf1, 0xb2, 0xbe, 
	0xed, 0xa5, 0x7a, 0x3c, 0xe7, 0x1a, 0x01, 0xbf, 0x94, 0x44, 0x21, 0x3f, 
	0x53, 0xf1, 0x02, 0xbf, 0x78, 0xa9, 0x91, 0x3e, 0x61, 0x84, 0xea, 0xbe, 
	0xf1, 0xfe, 0x05, 0x3f, 0x39, 0x52, 0x1a, 0xbf, 0x10, 0x2e, 0xce, 0x3e, 
	0xbf, 0xcd, 0x81, 0xbe, 0x28, 0x8f, 0x0b, 0xbe, 0xa8, 0x0a, 0x3e, 0x3e, 
	0xcb, 0x7c, 0x86, 0xbe, 0x91, 0x5e, 0x23, 0xbe, 0x0e, 0x92, 0x84, 0xbe, 
	0x8a, 0x98, 0x56, 0xbe, 0x58, 0xdd, 0x3b, 0x3d, 0x84, 0xfd, 0x90, 0xbe, 
	0x28, 0xce, 0xb3, 0x3d, 0xf6, 0x6e, 0xfe, 0xbd, 0x66, 0x65, 0x67, 0xbe, 
	0x7a, 0x5b, 0xfe, 0xbd, 0x8a, 0x7b, 0x90, 0xbe, 0x2e, 0x65, 0xf8, 0xbd, 
	0x25, 0xe0, 0x20, 0xbe, 0xa8, 0x87, 0x14, 0xbe, 0x9c, 0x33, 0xc3, 0x3d, 
	0x38, 0x7a, 0x1d, 0x3e, 0x00, 0x58, 0x8a, 0x3e, 0xe4, 0x61, 0x0e, 0x3e, 
	0x84, 0x5b, 0xa4, 0x3d, 0x62, 0x67, 0x47, 0x3e, 0xac, 0xad, 0xa7, 0x3d, 
	0xc4, 0x74, 0x5e, 0xbe, 0x6c, 0x7c, 0x82, 0x3e, 0xcc, 0x54, 0x2d, 0xbe, 
	0xee, 0x42, 0x10, 0xbe, 0x4a, 0x97, 0xec, 0xbd, 0x1a, 0x22, 0x1c, 0x3e, 
	0x65, 0xf1, 0x0c, 0xbe, 0x0a, 0xb9, 0x12, 0x3e, 0x94, 0x90, 0x22, 0x3e, 
	0x80, 0xd1, 0x11, 0x3e, 0x24, 0x6d, 0xb4, 0x3d, 0x9f, 0x42, 0x8b, 0xbe, 
	0xe7, 0x77, 0x0e, 0xbe, 0x04, 0xcd, 0x48, 0x3e, 0x62, 0x3b, 0x0c, 0x3e, 
	0x7a, 0xaf, 0x96, 0xbd, 0x72, 0xa9, 0x29, 0xbe, 0xa7, 0xab, 0x81, 0x3e, 
	0xf4, 0xea, 0x6c, 0xbe, 0x04, 0x6d, 0x99, 0xbe, 0x6e, 0x32, 0xa4, 0x3d, 
	0xea, 0xdb, 0x0e, 0xbd, 0x12, 0x3b, 0xe1, 0xbd, 0xbd, 0x46, 0xee, 0x3d, 
	0xb4, 0xf9, 0xd8, 0xbd, 0xa3, 0x97, 0x84, 0x3e, 0x95, 0xb7, 0xba, 0xbd, 
	0x14, 0x7e, 0x97, 0x3d, 0xea, 0x1b, 0x09, 0xbe, 0x73, 0xf8, 0x7a, 0xbe, 
	0x7b, 0x4b, 0xe9, 0xbd, 0xf9, 0xdf, 0x16, 0xbe, 0x8c, 0x58, 0xc4, 0x3d, 
	0x1a, 0x48, 0x7e, 0xbe, 0x49, 0x41, 0x2c, 0xbe, 0xac, 0x70, 0x3b, 0xbe, 
	0xd9, 0xdb, 0x72, 0x3e, 0x73, 0x62, 0x7a, 0x3d, 0xc2, 0x8b, 0x0c, 0xbe, 
	0x9f, 0xe6, 0x75, 0x3e, 0x3f, 0x02, 0x6c, 0xbe, 0xcc, 0xe5, 0x18, 0x3e, 
	0xe6, 0x5e, 0x08, 0x3e, 0x5e, 0xf7, 0x8c, 0x3d, 0xbf, 0xf4, 0x4f, 0xbe, 
	0xc4, 0x0b, 0x84, 0x3d, 0x70, 0x6d, 0x94, 0x3d, 0x6d, 0x61, 0xc3, 0xbd, 
	0xa2, 0xb8, 0x8e, 0xbe, 0xaf, 0xc6, 0xf3, 0x3d, 0xd9, 0xbd, 0x7b, 0xbe, 
	0x88, 0x79, 0xa3, 0x3d, 0x34, 0x40, 0xd7, 0x3d, 0xa3, 0x83, 0x61, 0x3e, 
	0x4a, 0x4d, 0x80, 0x3e, 0x98, 0x80, 0x9e, 0xbe, 0xc8, 0x6e, 0x2e, 0xbd, 
	0xd8, 0x28, 0x65, 0xbe, 0xfc, 0x3b, 0x48, 0x3e, 0x7f, 0x15, 0xf6, 0xbd, 
	0x1a, 0x49, 0x1c, 0xbe, 0xa8, 0x45, 0x22, 0xbd, 0xe7, 0xd7, 0x82, 0x3e, 
	0x21, 0xdd, 0x61, 0x3d, 0xb8, 0x53, 0x75, 0xbe, 0x50, 0xc1, 0x24, 0xbe, 
	0xe0, 0xd1, 0x46, 0xbd, 0x8f, 0x1a, 0x6b, 0xbe, 0x5c, 0xe7, 0x8c, 0xbe, 
	0x3b, 0x90, 0xab, 0x3d, 0xe7, 0xed, 0x76, 0xbe, 0x96, 0x7a, 0x82, 0x3e, 
	0xdf, 0x61, 0xbb, 0x3d, 0x22, 0xa3, 0x34, 0xbd, 0xee, 0xe4, 0x54, 0x3e, 
	0x84, 0x7a, 0x55, 0xbe, 0xd0, 0x68, 0x38, 0x3c, 0x80, 0xd7, 0xd0, 0x3d, 
	0xaa, 0xd2, 0xe6, 0x3d, 0x22, 0x62, 0x2d, 0x3d, 0xf9, 0xe1, 0x91, 0xbe, 
	0x3e, 0x69, 0x1a, 0x3e, 0xbe, 0xf3, 0x77, 0x3d, 0x09, 0x08, 0x90, 0xbe, 
	0x57, 0xb6, 0xd5, 0x3d, 0xf3, 0x2d, 0xb9, 0x3d, 0xbc, 0x75, 0x63, 0x3e, 
	0x3b, 0x26, 0x47, 0xbe, 0x28, 0x24, 0xcc, 0xbc, 0x10, 0xba, 0x54, 0x3c, 
	0xdd, 0x09, 0x71, 0x3d, 0xe5, 0x99, 0x22, 0xbe, 0xe0, 0x0c, 0x6a, 0xbe, 
	0xce, 0xc3, 0xa1, 0xbd, 0x2e, 0x3e, 0xe6, 0xbd, 0x3a, 0x87, 0xea, 0xbc, 
	0xde, 0x22, 0x79, 0x3e, 0xcb, 0x7d, 0xf3, 0xbd, 0xbb, 0xb2, 0x44, 0xbb, 
	0xf5, 0xe9, 0x1f, 0xb9, 0x82, 0x69, 0x10, 0x3e, 0x2b, 0x25, 0x73, 0xbc, 
	0x4f, 0xff, 0x15, 0xbe, 0xa0, 0xff, 0x91, 0x3d, 0x3c, 0x00, 0x0c, 0xbe, 
	0x6c, 0x17, 0xc6, 0x3d, 0xea, 0x46, 0x78, 0x3e, 0xa6, 0x31, 0x98, 0x3d, 
	0xb4, 0xa2, 0xd8, 0x3d, 0x88, 0x47, 0x2f, 0xbe, 0xe5, 0x7e, 0x8c, 0xbc, 
	0x45, 0x84, 0x78, 0x3d, 0xf6, 0x1a, 0x68, 0x3e, 0xe1, 0x72, 0xbd, 0xbe, 
	0x0f, 0xc9, 0xe1, 0x3c, 0xab, 0x2e, 0x84, 0x3d, 0xae, 0xc9, 0xca, 0x39, 
	0x85, 0xe6, 0x26, 0xbe, 0xaa, 0xed, 0x7b, 0x3e, 0x96, 0xe2, 0x65, 0x3e, 
	0x98, 0x77, 0xb5, 0x3e, 0x22, 0x86, 0xb9, 0xbe, 0x5f, 0xb0, 0x2a, 0x3e, 
	0x56, 0xae, 0x19, 0x3d, 0x1f, 0xfb, 0x7a, 0xbc, 0x15, 0x62, 0xbd, 0xbd, 
	0x90, 0x0c, 0xe1, 0x3e, 0x7a, 0x65, 0xcf, 0xbd, 0x6e, 0x84, 0xb4, 0xbd, 
	0x43, 0xa0, 0x42, 0xbe, 0xb6, 0xe6, 0x3d, 0x3e, 0xbc, 0x0b, 0xd5, 0xbe, 
	0xaf, 0x7e, 0x20, 0x3e, 0x70, 0x7b, 0x49, 0xbe, 0x27, 0xb4, 0x25, 0x3e, 
	0xa8, 0xe0, 0x54, 0xbe, 0xc4, 0x58, 0x08, 0x3f, 0xc7, 0x3b, 0x4e, 0x3d, 
	0x0d, 0x28, 0xa8, 0x3e, 0x5c, 0x0e, 0x95, 0xbd, 0xe1, 0x51, 0x37, 0xbd, 
	0xf2, 0x93, 0x64, 0xbe, 0x06, 0x7f, 0x75, 0x3e, 0xfd, 0xd4, 0x0a, 0x3e, 
	0xba, 0x14, 0x4e, 0xbe, 0x5c, 0x07, 0xae, 0xbc, 0xfa, 0xd8, 0xac, 0x3e, 
	0x3e, 0x10, 0xa8, 0x3e, 0xe6, 0x12, 0x88, 0x3e, 0x74, 0xbf, 0x92, 0xbe, 
	0x55, 0x65, 0x78, 0x3e, 0xa2, 0x6f, 0xa3, 0x3e, 0x9f, 0xd1, 0x25, 0x3e, 
	0x81, 0x12, 0xa6, 0xbe, 0xb7, 0xde, 0xe4, 0xbd, 0x4a, 0x79, 0xf3, 0x3c, 
	0x20, 0x9b, 0xe5, 0xbd, 0xa8, 0xfa, 0xf7, 0x3d, 0xda, 0xb2, 0x95, 0xbc, 
	0x61, 0xe1, 0x96, 0xbe, 0xbc, 0xe0, 0x02, 0x3e, 0x66, 0x81, 0xda, 0xbc, 
	0xd4, 0x39, 0x31, 0x3e, 0x0b, 0x01, 0xca, 0xbe, 0x30, 0x2d, 0xc7, 0x3e, 
	0xa5, 0x94, 0x3e, 0xbe, 0x69, 0x27, 0xc5, 0x3e, 0xbe, 0x4c, 0xbc, 0x3c, 
	0xc8, 0x23, 0x07, 0x3f, 0x46, 0xee, 0x09, 0xbf, 0x83, 0xac, 0xdb, 0x3e, 
	0xae, 0x15, 0xf7, 0xbd, 0x5a, 0x91, 0xcc, 0x3e, 0xaf, 0xc5, 0x6a, 0xbc, 
	0x76, 0x66, 0xd4, 0x3e, 0xdd, 0x55, 0x77, 0xbd, 0xb1, 0xa8, 0x18, 0x3e, 
	0x72, 0x41, 0x19, 0xbd, 0x52, 0xbd, 0x65, 0xbe, 0x73, 0x7a, 0x35, 0x3e, 
	0x87, 0xce, 0xf3, 0xbd, 0x61, 0x46, 0x7a, 0xbe, 0x35, 0x8d, 0x9a, 0x3d, 
	0x8f, 0x21, 0x96, 0x3e, 0x83, 0x49, 0xe9, 0xbd, 0x62, 0xad, 0x1a, 0xbe, 
	0xaa, 0x28, 0x42, 0x3e, 0xc7, 0x81, 0xb8, 0x3d, 0x43, 0x00, 0x5e, 0x3e, 
	0x2a, 0x23, 0xad, 0x3c, 0xb7, 0x5b, 0x13, 0x3e, 0x98, 0xca, 0x5c, 0x3e, 
	0x20, 0xd4, 0x6f, 0x3e, 0xe2, 0x65, 0xac, 0xbe, 0xa7, 0x57, 0x67, 0x3e, 
	0x55, 0x26, 0xab, 0xbe, 0x1d, 0xa2, 0xa2, 0x3e, 0x37, 0xa0, 0x02, 0x3d, 
	0x56, 0x17, 0x8d, 0x3e, 0x39, 0x68, 0x01, 0x3d, 0xef, 0x5b, 0xb4, 0x3e, 
	0x64, 0x1c, 0x33, 0x3c, 0x43, 0x00, 0xcb, 0x3e, 0xac, 0x24, 0xad, 0xbd, 
	0xa3, 0x99, 0x82, 0x3e, 0x41, 0xbb, 0x8d, 0xbe, 0xe2, 0x28, 0x8d, 0x3e, 
	0xe4, 0xcc, 0xc4, 0xbe, 0x46, 0x43, 0xb6, 0xbd, 0xcd, 0x58, 0x6b, 0x3c, 
	0xad, 0x79, 0x88, 0x3e, 0x1c, 0x2e, 0x1c, 0x3d, 0x4d, 0xc0, 0xdf, 0x3e, 
	0xd7, 0x73, 0x9d, 0xbe, 0xe9, 0x65, 0x90, 0x3e, 0x0b, 0x2c, 0x79, 0xbe, 
	0x3f, 0xda, 0x89, 0x3d, 0xf2, 0x5e, 0x6f, 0x3c, 0x75, 0x0c, 0xd0, 0xbc, 
	0xe2, 0x11, 0xf2, 0xbd, 0xc5, 0xcb, 0x49, 0x3e, 0xf8, 0xce, 0x1c, 0x3e, 
	0x92, 0x63, 0x28, 0x3e, 0x89, 0x51, 0x81, 0x3e, 0x80, 0xbf, 0x8d, 0x3d, 
	0xcc, 0x15, 0xfb, 0x3d, 0x98, 0x54, 0x51, 0x3d, 0x4e, 0x0b, 0x42, 0xbd, 
	0xd5, 0xcd, 0x16, 0xbe, 0xe5, 0x55, 0xe2, 0x3d, 0x4c, 0x1b, 0x4e, 0x3d, 
	0xb6, 0xb2, 0x20, 0x3d, 0xfe, 0x38, 0xa8, 0x3e, 0x3c, 0x53, 0x0a, 0xbe, 
	0xe2, 0x91, 0x83, 0x3e, 0xa5, 0xfe, 0x96, 0x3c, 0x94, 0x99, 0x66, 0xbd, 
	0x9e, 0xf0, 0x5a, 0xbe, 0xdb, 0xbd, 0xc0, 0x3d, 0xdc, 0x2a, 0x94, 0xbe, 
	0x49, 0x97, 0x60, 0x3e, 0x9b, 0xd0, 0xdf, 0xbd, 0x9c, 0x75, 0xe1, 0x3e, 
	0x8d, 0xa6, 0xc1, 0xbe, 0x7e, 0x32, 0x37, 0x3d, 0xa1, 0x5c, 0xd5, 0xbc, 
	0xe2, 0x64, 0x70, 0x3e, 0x90, 0xd1, 0x58, 0xbc, 0xf4, 0x47, 0xbb, 0x3e, 
	0xce, 0xa4, 0x67, 0xbe, 0x05, 0x00, 0xee, 0x3e, 0xaa, 0xfe, 0xee, 0xbe, 
	0x17, 0xfc, 0x2a, 0x3e, 0x25, 0x44, 0x04, 0xbd, 0x26, 0xd5, 0xe9, 0x3e, 
	0xbb, 0x60, 0x03, 0xbf, 0x44, 0x0f, 0x8d, 0x3e, 0xd8, 0x4b, 0xa9, 0xbd, 
	0xa8, 0xaf, 0x71, 0x3d, 0x56, 0x55, 0xfc, 0xbd, 0x36, 0x5f, 0xcb, 0xbd, 
	0x3a, 0x0b, 0x3c, 0x3e, 0xfa, 0x26, 0x36, 0xbe, 0x4c, 0x6a, 0xd3, 0x3d, 
	0x20, 0xf0, 0xe1, 0xbc, 0xf8, 0xb7, 0x3f, 0x3d, 0x98, 0x42, 0x64, 0xbe, 
	0xc8, 0x16, 0x0f, 0xbe, 0x81, 0x21, 0x7e, 0xbe, 0xe5, 0x05, 0x2a, 0xbe, 
	0xa0, 0xd4, 0xfd, 0x3c, 0xb4, 0x68, 0xd1, 0xbd, 0xac, 0x62, 0xd3, 0x3d, 
	0xbf, 0x2d, 0x24, 0xbe, 0x68, 0x21, 0xa3, 0xbd, 0x21, 0x69, 0x16, 0xbe, 
	0x86, 0xe5, 0x8b, 0xbe, 0x60, 0xce, 0x3d, 0xbe, 0x82, 0x6c, 0x8e, 0x3e, 
	0x08, 0x24, 0x0d, 0xbd, 0xc2, 0xba, 0x38, 0x3e, 0xc0, 0xb5, 0xd7, 0xbd, 
	0x08, 0xe1, 0xac, 0x3d, 0xd8, 0xe4, 0x5f, 0x3e, 0x03, 0xe1, 0x08, 0xbe, 
	0xac, 0x65, 0xf9, 0x3d, 0x25, 0x37, 0x09, 0xbe, 0x90, 0x2d, 0x6a, 0xbe, 
	0xf0, 0xcd, 0x41, 0x3d, 0xde, 0xd7, 0x8c, 0xbe, 0x70, 0x0a, 0xf3, 0xbd, 
	0x38, 0x7e, 0x87, 0xbe, 0x78, 0x02, 0x87, 0xbe, 0x60, 0x36, 0xd9, 0xbd, 
	0xf8, 0x88, 0x3c, 0xbd, 0xe2, 0x9d, 0x78, 0xbe, 0xc0, 0xca, 0xb7, 0x3c, 
	0x1a, 0x62, 0x09, 0xbe, 0x20, 0xc8, 0xad, 0x3d, 0x50, 0xf3, 0x96, 0xbd, 
	0x96, 0x4c, 0x44, 0x3e, 0x64, 0x84, 0x12, 0x3e, 0x4c, 0x39, 0x40, 0xbd, 
	0xfa, 0x06, 0xc5, 0xbd, 0x83, 0x20, 0x89, 0xbe, 0x04, 0xf4, 0x3f, 0xbd, 
	0x98, 0x98, 0x0f, 0xbe, 0xfa, 0x91, 0xe2, 0xbd, 0x9a, 0x21, 0x20, 0xbe, 
	0x82, 0x65, 0xfc, 0xbd, 0x62, 0x8a, 0x1b, 0x3e, 0x60, 0x64, 0xc1, 0x3c, 
	0xe7, 0xbf, 0x6c, 0xbe, 0xcc, 0x8f, 0x7e, 0xbe, 0x38, 0x25, 0x73, 0xbd, 
	0x56, 0x0e, 0xbf, 0xbd, 0x38, 0xcf, 0x42, 0x3d, 0xc6, 0xca, 0xf7, 0xbd, 
	0xfe, 0xd4, 0x39, 0x3e, 0xb2, 0x8e, 0xe6, 0xbd, 0xeb, 0x8d, 0x13, 0xbe, 
	0xf0, 0x9b, 0xa4, 0x3c, 0x90, 0x33, 0xb4, 0xbc, 0xe1, 0xc4, 0x80, 0xbe, 
	0x74, 0x9e, 0x3b, 0xbe, 0x04, 0x17, 0x38, 0xbd, 0x94, 0x82, 0x80, 0x3d, 
	0x30, 0xf1, 0xb5, 0xbd, 0xb6, 0x32, 0x2a, 0x3e, 0x78, 0xac, 0x33, 0xbe, 
	0x40, 0xf8, 0x8d, 0x3b, 0x38, 0xc7, 0x8a, 0x3d, 0xb0, 0xb3, 0x1d, 0x3e, 
	0x10, 0x2d, 0x0c, 0x3e, 0x6c, 0xd1, 0x06, 0x3e, 0x46, 0x47, 0x1f, 0xbe, 
	0xa0, 0x52, 0x50, 0x3d, 0x38, 0xa6, 0x4e, 0xbd, 0x54, 0x17, 0x28, 0x3d, 
	0x60, 0x26, 0xb4, 0x3d, 0x8f, 0xc4, 0x88, 0x3e, 0xe4, 0x2f, 0x40, 0xbe, 
	0x6c, 0x63, 0x40, 0x3e, 0x0c, 0x36, 0x87, 0xbe, 0x3a, 0x38, 0x18, 0xbe, 
	0x4a, 0x94, 0x0b, 0x3d, 0xbe, 0xf8, 0x14, 0xbe, 0x33, 0xf7, 0x4b, 0xbe, 
	0xd2, 0x52, 0xe2, 0xbd, 0xd5, 0x7b, 0xb2, 0x3c, 0x88, 0x96, 0x84, 0xbe, 
	0x6e, 0xfa, 0x91, 0xbe, 0x2c, 0x0a, 0xf8, 0x3d, 0xc1, 0x25, 0x20, 0x3c, 
	0xce, 0x7b, 0x0e, 0x3e, 0xa0, 0x4f, 0x58, 0xbe, 0x09, 0x56, 0xe6, 0xbd, 
	0x2c, 0x5f, 0x43, 0x3e, 0xd7, 0x44, 0xf5, 0x3c, 0xb6, 0x63, 0xaf, 0x3d, 
	0xf3, 0xb0, 0xcd, 0xbd, 0x06, 0xe2, 0xfa, 0xbd, 0x6d, 0xf4, 0x5a, 0x3e, 
	0x9a, 0x80, 0x5f, 0xbe, 0xc6, 0x7d, 0x1c, 0x3e, 0x5d, 0x2d, 0x6d, 0xbe, 
	0xae, 0x2e, 0x22, 0x3e, 0x7e, 0x34, 0xa6, 0x3c, 0xcf, 0xf2, 0xb7, 0xbd, 
	0x5e, 0x47, 0x4f, 0x3e, 0xba, 0xae, 0x57, 0xbe, 0x1c, 0xe3, 0x97, 0xbd, 
	0x5f, 0x29, 0x80, 0x3e, 0x53, 0xef, 0x85, 0xbe, 0x32, 0x2c, 0x88, 0xbe, 
	0x63, 0x4f, 0x0b, 0xbe, 0xf7, 0x91, 0xad, 0xbc, 0x51, 0x9d, 0x37, 0x3e, 
	0xad, 0x11, 0x72, 0xbe, 0x0f, 0xa5, 0x47, 0x3e, 0xd0, 0x05, 0xb9, 0x3d, 
	0xe1, 0x9e, 0x38, 0x3d, 0x53, 0x6a, 0x22, 0x3e, 0x9d, 0x42, 0x8a, 0xbe, 
	0xee, 0x79, 0x94, 0xbe, 0x01, 0xd6, 0x38, 0x3d, 0x19, 0x8c, 0xc4, 0xbd, 
	0xcb, 0xc4, 0x55, 0xbe, 0x7d, 0x94, 0x68, 0x3e, 0x6f, 0x34, 0x2a, 0xbe, 
	0xb9, 0x87, 0x83, 0x3e, 0xde, 0xcd, 0xd4, 0xbc, 0x4d, 0xbe, 0x37, 0x3d, 
	0x91, 0x42, 0x78, 0xbe, 0xfa, 0x19, 0x4d, 0xbe, 0x9b, 0x58, 0x8b, 0x3e, 
	0x79, 0x30, 0x0a, 0xbe, 0x0a, 0xa8, 0xd6, 0x3c, 0x24, 0xa8, 0x14, 0x3e, 
	0xe7, 0xe1, 0x80, 0x3e, 0xd1, 0x90, 0x7a, 0x3e, 0x94, 0xeb, 0x07, 0xba, 
	0xd9, 0x4c, 0x00, 0xbe, 0x3b, 0x7c, 0x29, 0xbd, 0x34, 0xc9, 0x32, 0x3e, 
	0x46, 0xb3, 0x7f, 0xbe, 0x4f, 0x52, 0x2e, 0xbe, 0xdf, 0x63, 0xa5, 0x3d, 
	0xaf, 0x3c, 0x3e, 0x3e, 0x4f, 0xd6, 0x94, 0xbe, 0x6d, 0x46, 0xd9, 0xbd, 
	0xbb, 0xcd, 0x8e, 0xbe, 0xd7, 0x6c, 0x89, 0xbe, 0x82, 0xbe, 0x1c, 0xbe, 
	0x20, 0xc0, 0x28, 0x3d, 0x28, 0x1c, 0x85, 0xbe, 0x4f, 0x1e, 0x89, 0x3d, 
	0x80, 0x55, 0x80, 0x3e, 0xaf, 0x37, 0x76, 0x3d, 0xd7, 0x82, 0x4a, 0x3e, 
	0x8c, 0xe2, 0xb4, 0xbd, 0x08, 0xb0, 0x13, 0xbe, 0x21, 0x85, 0xca, 0x3d, 
	0x19, 0x82, 0xd2, 0x3c, 0xb9, 0x5d, 0x63, 0xbe, 0xeb, 0xb0, 0x2f, 0x3e, 
	0x5a, 0x5f, 0x09, 0xbe, 0x22, 0xd0, 0x06, 0x3e, 0x50, 0xcb, 0x56, 0xbe, 
	0x0f, 0xf0, 0xe1, 0x3d, 0x6d, 0x4e, 0x8f, 0x3e, 0xe6, 0x76, 0x5b, 0xbe, 
	0x96, 0x38, 0x5c, 0x3e, 0xf3, 0x02, 0x03, 0x3e, 0x15, 0x72, 0xae, 0x3d, 
	0x4f, 0xa6, 0x24, 0x3e, 0xba, 0x75, 0x65, 0xbe, 0x76, 0x66, 0x8d, 0xbe, 
	0x42, 0x5d, 0x8c, 0x3e, 0x52, 0x3e, 0xa9, 0x3c, 0xca, 0x96, 0xf7, 0xbd, 
	0x0c, 0x72, 0x87, 0x3e, 0x6d, 0x20, 0x11, 0x3e, 0xf0, 0x43, 0x81, 0xbe, 
	0xf9, 0x41, 0x59, 0xbe, 0xf2, 0x11, 0x84, 0xbe, 0x06, 0xe8, 0x88, 0xbe, 
	0xc2, 0x97, 0x40, 0xbe, 0x70, 0xc9, 0xd1, 0x3c, 0xf4, 0x80, 0xca, 0xbd, 
	0x78, 0x84, 0x96, 0xbe, 0xce, 0xc0, 0x5b, 0x3e, 0xa8, 0x31, 0x81, 0xbd, 
	0x5e, 0x44, 0x82, 0xbe, 0x6b, 0x52, 0xf5, 0xbd, 0x8a, 0x36, 0x70, 0xbe, 
	0x68, 0x0c, 0x66, 0x3e, 0x9d, 0xfa, 0x3f, 0x3d, 0x49, 0x7d, 0x2b, 0x3e, 
	0xee, 0x86, 0x2d, 0xbe, 0xb7, 0xc8, 0xb0, 0xbd, 0x3b, 0x2d, 0x93, 0x3d, 
	0xc4, 0xa9, 0x2f, 0xbe, 0x26, 0x91, 0x3d, 0x3e, 0xba, 0x69, 0x84, 0x3d, 
	0x80, 0x26, 0x1a, 0x3e, 0x9a, 0x81, 0x57, 0x3d, 0x6f, 0xf0, 0xd4, 0x3d, 
	0x9b, 0xd4, 0x6d, 0x3e, 0xb6, 0x82, 0x02, 0xbc, 0xba, 0xf7, 0x89, 0x3d, 
	0x93, 0x64, 0xf9, 0x3c, 0x1a, 0xc3, 0xfd, 0x3d, 0x74, 0xd2, 0x92, 0xbe, 
	0x44, 0x67, 0x71, 0x3d, 0x1d, 0xce, 0x13, 0xbe, 0x0d, 0x26, 0xaa, 0xbe, 
	0x10, 0x3f, 0x5e, 0xbe, 0xe1, 0x68, 0x81, 0xbe, 0x15, 0x9c, 0xa3, 0x3d, 
	0x06, 0xfb, 0x59, 0x3e, 0x7d, 0xf1, 0x99, 0xbe, 0x37, 0x39, 0x89, 0x3d, 
	0x99, 0xd7, 0x6c, 0x3e, 0x78, 0xde, 0x80, 0xbe, 0x48, 0x81, 0x23, 0x3d, 
	0x83, 0xe4, 0xa0, 0x3d, 0x21, 0xb4, 0x7b, 0xbe, 0x9b, 0x0a, 0x38, 0x3e, 
	0xcc, 0x6a, 0x43, 0xbe, 0xe7, 0x35, 0x77, 0xbe, 0x29, 0x61, 0xfb, 0xbd, 
	0xff, 0x53, 0x42, 0xbe, 0x95, 0x73, 0x98, 0xbe, 0x85, 0x29, 0x5b, 0x3e, 
	0xe0, 0x8f, 0x5a, 0xbe, 0x04, 0x0b, 0x67, 0x3e, 0xa1, 0xe1, 0x12, 0x3d, 
	0x35, 0xef, 0xd9, 0xbc, 0x4d, 0x10, 0x11, 0x3e, 0x42, 0x50, 0x94, 0x3e, 
	0x78, 0x9f, 0x46, 0x3e, 0x70, 0xb9, 0xbe, 0xbc, 0xa6, 0x98, 0x94, 0x3d, 
	0x66, 0xe8, 0xa5, 0x3e, 0xec, 0x8a, 0x9f, 0xbe, 0x99, 0x21, 0x57, 0xbc, 
	0x05, 0xc1, 0x48, 0x3e, 0x0f, 0xd7, 0x5f, 0x3d, 0xbd, 0x59, 0x05, 0xbe, 
	0xcf, 0xdd, 0xf7, 0x3d, 0xd6, 0x92, 0x22, 0xbe, 0x01, 0x87, 0x16, 0x3e, 
	0xc1, 0xdf, 0x2f, 0xbe, 0x64, 0xc4, 0xdb, 0x3e, 0xc1, 0xd4, 0x2f, 0xbe, 
	0x42, 0x98, 0xc8, 0x3e, 0x09, 0x13, 0x8c, 0xbe, 0x5f, 0x59, 0xb9, 0x3e, 
	0x4f, 0x36, 0xba, 0xbd, 0xdb, 0xcb, 0x09, 0x3e, 0xd3, 0x82, 0xb4, 0xbe, 
	0x87, 0x4b, 0x95, 0x3e, 0x54, 0x0f, 0x3f, 0xbe, 0xf7, 0xbf, 0x1e, 0x3d, 
	0xd2, 0x30, 0x92, 0xbe, 0x43, 0xdb, 0x90, 0x3e, 0x5a, 0xc2, 0x79, 0x3d, 
	0xde, 0x7c, 0x80, 0x3e, 0x91, 0x8c, 0xdc, 0xbe, 0x7f, 0x1a, 0xba, 0x3e, 
	0x79, 0x29, 0xaf, 0xbe, 0x81, 0x53, 0xde, 0x3e, 0x18, 0xee, 0x3b, 0xbe, 
	0x6f, 0xb6, 0xd7, 0x3e, 0xf1, 0x92, 0x7e, 0xbd, 0x4b, 0x59, 0x78, 0x3e, 
	0xe3, 0xeb, 0x26, 0x3e, 0x5c, 0x87, 0x5a, 0x3e, 0xbd, 0xad, 0x72, 0xbc, 
	0x69, 0x74, 0xd9, 0xbd, 0x55, 0xf2, 0xf7, 0x3d, 0xfd, 0x0b, 0x00, 0xbe, 
	0x5e, 0xeb, 0xd0, 0x3d, 0xd9, 0xf4, 0x4d, 0xbe, 0x62, 0xca, 0x28, 0x3e, 
	0x49, 0xc4, 0x3e, 0xbe, 0x97, 0x67, 0x01, 0x3c, 0x85, 0x95, 0x0a, 0xbd, 
	0xac, 0xe7, 0x70, 0xbe, 0xc8, 0xcf, 0x65, 0x3e, 0x8f, 0x96, 0x50, 0x3e, 
	0x8a, 0xec, 0x86, 0x3e, 0x76, 0x2b, 0x5e, 0x3d, 0x78, 0x5b, 0x99, 0x3e, 
	0x36, 0xed, 0x80, 0x3d, 0xb4, 0xc5, 0x07, 0xbc, 0x77, 0xf9, 0xe9, 0x3c, 
	0x05, 0xa4, 0x33, 0xbd, 0x1b, 0xf6, 0xa2, 0xbd, 0xd3, 0xc0, 0x94, 0x3e, 
	0xc7, 0x43, 0x8c, 0xbe, 0xc8, 0x4b, 0x48, 0x3e, 0x0f, 0x2c, 0x7b, 0xbe, 
	0xae, 0xda, 0x15, 0xbd, 0xe1, 0xba, 0x29, 0xbe, 0x9a, 0x3a, 0xe9, 0x3c, 
	0xd3, 0x79, 0xc4, 0xbe, 0x70, 0xfb, 0x35, 0x3c, 0xd4, 0x77, 0x0e, 0xbe, 
	0x7c, 0xec, 0xb0, 0x3e, 0xcc, 0xdc, 0xd1, 0xbd, 0x8b, 0x6c, 0xcf, 0x3e, 
	0x39, 0xf3, 0xc1, 0xbe, 0x45, 0x13, 0xf0, 0x3e, 0x16, 0x72, 0x98, 0xbe, 
	0xba, 0xd7, 0x1d, 0x3d, 0x54, 0x0f, 0x0b, 0xbe, 0x3f, 0x1c, 0xb3, 0x3d, 
	0xcd, 0xbe, 0xb5, 0x3e, 0x72, 0x1a, 0x28, 0x3e, 0x26, 0x48, 0x18, 0xbe, 
	0x4d, 0x48, 0xe0, 0xbc, 0x01, 0x21, 0x45, 0x3e, 0x9c, 0xcd, 0x18, 0x3e, 
	0x6b, 0x55, 0xba, 0xbe, 0xda, 0x20, 0x02, 0xbd, 0xb2, 0xa0, 0xbb, 0x3e, 
	0x8a, 0x4a, 0x9c, 0x3e, 0xcc, 0x8a, 0x91, 0xbe, 0x4a, 0x63, 0x07, 0xbe, 
	0x61, 0xf4, 0xee, 0xbd, 0x86, 0x60, 0xdd, 0x3d, 0xa8, 0xa2, 0x60, 0xbe, 
	0xf1, 0x4a, 0x99, 0x3e, 0x83, 0x96, 0x84, 0xbe, 0x3d, 0x23, 0xe6, 0x3d, 
	0xd1, 0xed, 0x65, 0xbe, 0x20, 0x11, 0xc7, 0x3e, 0x65, 0x67, 0x8f, 0xbe, 
	0xee, 0xbc, 0x01, 0xbe, 0xa0, 0x16, 0x9a, 0xbe, 0xc8, 0x40, 0x67, 0x3d, 
	0x25, 0xa1, 0xb2, 0x3b, 0x3a, 0xc0, 0xdd, 0x3d, 0x15, 0xce, 0xdf, 0xbe, 
	0xb3, 0xef, 0x7d, 0x3e, 0xf8, 0x15, 0x94, 0xbc, 0xc4, 0x5f, 0xfe, 0x3e, 
	0xcc, 0xba, 0x00, 0xbe, 0x1c, 0x88, 0xec, 0x3e, 0x6e, 0xca, 0x99, 0xbe, 
	0xa1, 0xd5, 0x02, 0x3f, 0xef, 0x30, 0x2b, 0xbe, 0xed, 0xf7, 0xed, 0x3e, 
	0xdf, 0x40, 0xe7, 0xbe, 0xdf, 0xbc, 0xd8, 0x3d, 0x90, 0x5b, 0x00, 0xbe, 
	0x9d, 0x6a, 0x20, 0xbe, 0x86, 0x1d, 0xa2, 0x3e, 0xfd, 0xff, 0x61, 0x3e, 
	0x5a, 0x38, 0x90, 0xbe, 0xc1, 0x8a, 0xa4, 0x3e, 0xfc, 0x73, 0x93, 0x3e, 
	0xd4, 0x52, 0xe7, 0xbd, 0x4a, 0x08, 0xa2, 0xbe, 0x19, 0xe9, 0x10, 0xbe, 
	0x08, 0x52, 0x5d, 0xbc, 0xc5, 0x7c, 0x80, 0x3e, 0x42, 0x6f, 0x43, 0xbe, 
	0x7c, 0x63, 0x18, 0x3e, 0x00, 0x16, 0x88, 0x3e, 0xc2, 0x43, 0x89, 0x3e, 
	0x43, 0xd7, 0x53, 0xbc, 0x42, 0x2e, 0x95, 0x3e, 0x48, 0x62, 0xd8, 0x3c, 
	0x1c, 0xaf, 0x75, 0xbd, 0x2c, 0xe2, 0x8e, 0xbe, 0xf4, 0xc0, 0xa2, 0x3e, 
	0xf6, 0xad, 0x10, 0xbd, 0x2d, 0xaa, 0xf3, 0x3d, 0x5c, 0xdb, 0xcd, 0xbe, 
	0x27, 0xb3, 0xda, 0x3d, 0xf9, 0x62, 0xc0, 0xbe, 0x9a, 0xa8, 0xac, 0x3e, 
	0xee, 0x21, 0x11, 0xbe, 0xdb, 0x8a, 0x93, 0xbd, 0x41, 0x91, 0x0d, 0x3c, 
	0x35, 0x50, 0xac, 0x3e, 0xb4, 0x02, 0xdc, 0x3a, 0x42, 0x34, 0x27, 0x3a, 
	0x11, 0x6e, 0xfb, 0xbe, 0x29, 0x75, 0xf1, 0x3e, 0x39, 0x0b, 0x0c, 0xbf, 
	0xd6, 0x24, 0x95, 0x3e, 0x06, 0x2c, 0xda, 0xbe, 0x6e, 0xbc, 0x3f, 0x3d, 
	0x4d, 0x96, 0xd1, 0xbd, 0x1b, 0xc2, 0x67, 0xbe, 0x33, 0x12, 0xb5, 0x3e, 
	0x97, 0xbf, 0x59, 0x3e, 0x63, 0x25, 0x6d, 0xbe, 0x77, 0xf4, 0x4b, 0x3e, 
	0x13, 0x6c, 0x6a, 0x3e, 0x3e, 0xa2, 0xb3, 0x3d, 0xc9, 0x05, 0x3e, 0x3d, 
	0xb2, 0xcf, 0x29, 0x3e, 0x9b, 0xd0, 0x16, 0xbe, 0x1b, 0x16, 0x14, 0xbe, 
	0x1e, 0xd1, 0x0e, 0xbd, 0x81, 0x43, 0xf6, 0x3d, 0xd8, 0xc1, 0xc5, 0x3d, 
	0x20, 0xdb, 0xa5, 0x3e, 0x2e, 0xfb, 0xfb, 0x3d, 0xf3, 0x58, 0x9b, 0x3e, 
	0x75, 0xb0, 0xc1, 0xbc, 0x4a, 0x05, 0x57, 0x3e, 0xcd, 0x92, 0x06, 0xbe, 
	0xa3, 0xc9, 0xfa, 0xbd, 0x5b, 0x1f, 0x40, 0xbe, 0xe9, 0x74, 0x1c, 0x3e, 
	0x4e, 0x23, 0xbc, 0xbd, 0xc6, 0x04, 0xa3, 0x3d, 0x14, 0x8f, 0x48, 0xbe, 
	0xd7, 0x7c, 0x3e, 0xbd, 0x0c, 0x8b, 0xb1, 0xbe, 0xdf, 0xc2, 0x94, 0x3d, 
	0x3c, 0xd8, 0xad, 0x3d, 0xbf, 0x5e, 0x15, 0x3e, 0xc7, 0x93, 0x8b, 0xbe, 
	0x71, 0x4d, 0xa5, 0x3e, 0x58, 0x15, 0x6f, 0xbe, 0x72, 0x9b, 0x87, 0x3d, 
	0x86, 0x81, 0x3d, 0xbe, 0x59, 0x91, 0x00, 0x3f, 0xe9, 0xb2, 0x90, 0xbe, 
	0x9d, 0xaf, 0x68, 0x3e, 0x36, 0xa6, 0x91, 0x3d, 0xff, 0x12, 0x39, 0x3e, 
	0x36, 0x63, 0xac, 0x3e, 0xd0, 0x7f, 0x85, 0xbe, 0xfb, 0x5a, 0x00, 0xbe, 
	0x06, 0x2d, 0x05, 0x3d, 0x6a, 0x2e, 0x81, 0x3e, 0xd5, 0x57, 0x13, 0x3e, 
	0x42, 0x48, 0x42, 0xbd, 0xca, 0xf7, 0x3a, 0x3d, 0x25, 0xbb, 0x1d, 0x3d, 
	0x36, 0xab, 0x6a, 0x3e, 0x58, 0xef, 0x61, 0xbe, 0x14, 0x87, 0xd6, 0xbd, 
	0x3b, 0x8b, 0x09, 0x3e, 0x7f, 0xcd, 0x92, 0xbd, 0x42, 0x59, 0xef, 0x3d, 
	0xef, 0x75, 0x89, 0x3e, 0x41, 0xb4, 0x9b, 0x3d, 0xe2, 0x7c, 0x36, 0x3e, 
	0xc8, 0x48, 0xc6, 0xbd, 0x79, 0xdb, 0xd7, 0x3e, 0x5e, 0x48, 0xb3, 0xbd, 
	0x7d, 0xff, 0x67, 0xbd, 0x69, 0xd1, 0x93, 0x3d, 0xc2, 0x1f, 0x20, 0x3e, 
	0x0b, 0x79, 0x01, 0x3d, 0x40, 0x37, 0x92, 0xbd, 0x06, 0x50, 0x59, 0xbe, 
	0xc9, 0xbc, 0xb3, 0x3e, 0x22, 0x4f, 0xa0, 0xbe, 0xea, 0x69, 0x9f, 0x3e, 
	0xec, 0xae, 0xf4, 0xbe, 0xca, 0xa2, 0xed, 0x3e, 0xc3, 0x47, 0xd4, 0xbe, 
	0xa3, 0xc7, 0xed, 0x3e, 0x1d, 0x10, 0x53, 0xbe, 0xe6, 0x4c, 0x01, 0x3f, 
	0x6e, 0x09, 0xb9, 0xbe, 0xed, 0x36, 0x88, 0x3e, 0x6d, 0xb5, 0x37, 0x3e, 
	0x60, 0x8a, 0xc7, 0x3a, 0xf6, 0x9c, 0x8f, 0x3d, 0x19, 0x1c, 0x2e, 0xbe, 
	0xc4, 0x31, 0xc0, 0x3e, 0xdc, 0xe8, 0x8c, 0x3d, 0x93, 0xe3, 0x65, 0xbe, 
	0x74, 0x10, 0x0a, 0xbc, 0xb3, 0x26, 0xe4, 0x3e, 0x96, 0x6d, 0x88, 0xbe, 
	0xe9, 0x21, 0xb2, 0x3d, 0xb2, 0xf0, 0x50, 0xbd, 0xdf, 0x35, 0x92, 0x3e, 
	0x41, 0xa2, 0xb6, 0xbe, 0x46, 0x82, 0xce, 0x3e, 0x88, 0xf3, 0x96, 0xbe, 
	0xa9, 0xb3, 0x1c, 0x3e, 0x6b, 0x57, 0x5b, 0xbe, 0x8b, 0xf2, 0x64, 0x3e, 
	0xeb, 0x16, 0xee, 0x3c, 0x1a, 0xb8, 0x7e, 0x3e, 0xa6, 0x13, 0x8e, 0xbe, 
	0x92, 0xf4, 0xa8, 0x3e, 0xe0, 0x85, 0xb3, 0xbe, 0x77, 0xbc, 0xe9, 0x3e, 
	0xf9, 0x86, 0xc2, 0xbe, 0x5a, 0x12, 0x9d, 0x3d, 0xb2, 0x3f, 0xf1, 0xbe, 
	0x0a, 0x38, 0x0b, 0x3f, 0x5f, 0x9e, 0xb5, 0xbd, 0x0f, 0x41, 0x67, 0x3e, 
	0x5d, 0x8f, 0xea, 0xbe, 0x23, 0x53, 0x87, 0x3e, 0xd7, 0x04, 0x92, 0xbe, 
	0xc2, 0x6c, 0x12, 0x3f, 0x56, 0x79, 0xc3, 0xbe, 0x5f, 0xdc, 0xcb, 0x3e, 
	0x85, 0x5a, 0xe6, 0xbe, 0x6a, 0x66, 0xba, 0x3e, 0xb8, 0x2a, 0xd5, 0xbe, 
	0x01, 0xb0, 0xe0, 0x3b, 0xec, 0xc0, 0x35, 0xbe, 0xb1, 0xf1, 0x51, 0x3d, 
	0xd0, 0xb9, 0x6c, 0x3e, 0xbf, 0xdd, 0x86, 0xbd, 0x29, 0xc9, 0x6c, 0xbe, 
	0xb7, 0x87, 0x5a, 0xbe, 0xca, 0x8c, 0xa6, 0xbe, 0x4b, 0xd4, 0x9d, 0xbe, 
	0x93, 0x8e, 0xa2, 0x3d, 0xed, 0x76, 0x63, 0xbe, 0xb3, 0x50, 0x3a, 0x3e, 
	0x44, 0x52, 0x60, 0x3e, 0x60, 0xdc, 0x89, 0x3b, 0x08, 0xf2, 0x03, 0x3e, 
	0x31, 0xaf, 0x09, 0x3e, 0x7f, 0xa7, 0xfc, 0x3d, 0x4e, 0x52, 0x96, 0xbe, 
	0x5a, 0x7e, 0xac, 0xbe, 0x7f, 0x12, 0x55, 0x3e, 0xf8, 0x42, 0x4f, 0xbe, 
	0xd9, 0x3a, 0xd1, 0x3d, 0x28, 0x66, 0x13, 0xbe, 0x7a, 0xa9, 0x9f, 0xbe, 
	0xf5, 0xe9, 0x2c, 0x3d, 0xd1, 0x47, 0x08, 0x3e, 0x58, 0x20, 0xb9, 0xbc, 
	0x48, 0xdb, 0x89, 0xbd, 0x84, 0xff, 0xdf, 0xba, 0x3a, 0xb7, 0x11, 0xbe, 
	0xe0, 0xfb, 0x51, 0xbe, 0xf8, 0x2d, 0x65, 0xbd, 0x89, 0xdb, 0x55, 0x3d, 
	0xec, 0x41, 0xc9, 0xbd, 0x34, 0x21, 0xb8, 0x3d, 0x1c, 0x15, 0x25, 0xbe, 
	0x17, 0x9d, 0x03, 0x3e, 0x93, 0x63, 0xc3, 0x3c, 0x4d, 0x59, 0x3a, 0x3e, 
	0x3f, 0x6c, 0x8c, 0x3d, 0x98, 0x92, 0x3d, 0xbe, 0xb1, 0xbf, 0x87, 0x3e, 
	0x80, 0x1e, 0xce, 0x3e, 0xf0, 0x18, 0x71, 0x3e, 0xf6, 0x64, 0xa5, 0xbd, 
	0xd2, 0x80, 0xb9, 0x3e, 0x02, 0x78, 0x0a, 0x3e, 0xcc, 0x12, 0x71, 0x3e, 
	0xec, 0x20, 0x9b, 0xbd, 0xe1, 0x01, 0xa8, 0x3e, 0xb3, 0x94, 0x0e, 0x3d, 
	0x16, 0xe5, 0x75, 0x3e, 0xd4, 0xe8, 0x39, 0xbe, 0x78, 0x3e, 0xaa, 0xbd, 
	0x0f, 0x85, 0xce, 0xbd, 0x57, 0x9d, 0xe1, 0x3d, 0x36, 0xb7, 0x07, 0xbd, 
	0x35, 0xbe, 0x77, 0x3e, 0xff, 0x38, 0x2b, 0xbe, 0x75, 0x99, 0x25, 0x3c, 
	0xd1, 0x1a, 0xd6, 0xbe, 0xee, 0x13, 0xaa, 0x3d, 0xc1, 0x1d, 0x33, 0x3e, 
	0xfb, 0xb4, 0x3b, 0x3d, 0xac, 0x03, 0xb0, 0xbd, 0x08, 0x3d, 0x28, 0x3e, 
	0x9c, 0xea, 0x8d, 0x3d, 0x1e, 0x42, 0xb2, 0x3e, 0x05, 0xcd, 0xe7, 0xbc, 
	0x55, 0x8c, 0x0b, 0x3f, 0x5e, 0x34, 0xaa, 0xbe, 0xf2, 0x9c, 0x09, 0x3f, 
	0xfa, 0x2a, 0xbb, 0xbe, 0x1d, 0xb1, 0x57, 0x3e, 0x1f, 0x34, 0x1e, 0xbd, 
	0x87, 0xf1, 0x33, 0x3e, 0xb9, 0x81, 0xc7, 0xbe, 0x6a, 0xf1, 0x6d, 0x3e, 
	0xe3, 0x25, 0x87, 0xbe, 0xa3, 0xbc, 0x8c, 0x3e, 0x20, 0x35, 0x05, 0x3e, 
	0x44, 0x5a, 0xae, 0x3d, 0xb0, 0x69, 0xc1, 0xbd, 0xea, 0xef, 0x83, 0x3e, 
	0xa4, 0x7d, 0x12, 0xbd, 0x76, 0xc9, 0xce, 0xbd, 0x8b, 0x53, 0x5e, 0x3e, 
	0x14, 0x59, 0x81, 0xbe, 0x0a, 0x6f, 0xad, 0x3e, 0x08, 0xec, 0x12, 0x3e, 
	0x4e, 0xf3, 0x09, 0xbe, 0x9d, 0x43, 0x14, 0x3e, 0x3a, 0xc3, 0xaf, 0x3c, 
	0x5d, 0xa7, 0x99, 0x3d, 0xda, 0x98, 0xb6, 0xbc, 0xa4, 0x13, 0x9c, 0xbe, 
	0x59, 0x11, 0xeb, 0x3e, 0xe8, 0xe4, 0xb9, 0xbd, 0x60, 0x01, 0x2e, 0x3e, 
	0x88, 0xeb, 0xb7, 0xbe, 0x81, 0xd6, 0x97, 0x3e, 0xf5, 0x35, 0xb9, 0xbe, 
	0xb1, 0x02, 0x1f, 0x3e, 0x0c, 0x24, 0xdb, 0xbe, 0x27, 0x55, 0xda, 0x3e, 
	0x4b, 0xe6, 0xb5, 0xbd, 0x22, 0x1d, 0xbb, 0x3e, 0xce, 0xf0, 0xd2, 0xbe, 
	0xff, 0x92, 0xdf, 0x3e, 0x4d, 0x0f, 0xa2, 0xbe, 0x2b, 0x0c, 0xe3, 0x3e, 
	0x88, 0x39, 0xa1, 0xbe, 0xee, 0xfd, 0xef, 0x3e, 0x37, 0x24, 0x26, 0xbe, 
	0xf8, 0xa4, 0xcd, 0x3e, 0x08, 0xe8, 0xd2, 0xbe, 0x15, 0xdf, 0xa3, 0x3e, 
	0x6b, 0x6b, 0x07, 0xbf, 0x71, 0x74, 0xdb, 0x3d, 0xf5, 0xb1, 0x55, 0xbe, 
	0x36, 0xfe, 0xff, 0xff, 0x10, 0x00, 0x00, 0x00, 0x04, 0x00, 0x00, 0x00, 
	0x14, 0x00, 0x00, 0x00, 0x30, 0x00, 0x00, 0x00, 0x02, 0x00, 0x00, 0x00, 
	0x20, 0x00, 0x00, 0x00, 0x28, 0x00, 0x00, 0x00, 0x1a, 0x00, 0x00, 0x00, 
	0x6d, 0x6f, 0x64, 0x65, 0x6c, 0x5f, 0x31, 0x34, 0x36, 0x2f, 0x64, 0x65, 
	0x6e, 0x73, 0x65, 0x5f, 0x31, 0x34, 0x31, 0x2f, 0x4d, 0x61, 0x74, 0x4d, 
	0x75, 0x6c, 0x00, 0x00, 0x34, 0xfe, 0xff, 0xff, 0x62, 0xff, 0xff, 0xff, 
	0x04, 0x00, 0x00, 0x00, 0x40, 0x00, 0x00, 0x00, 0x1d, 0x3d, 0x93, 0x3f, 
	0xb9, 0x0c, 0x8f, 0xbd, 0x86, 0x05, 0x80, 0x3f, 0x7d, 0xcb, 0x63, 0x3f, 
	0x7c, 0xd6, 0xa1, 0xbd, 0x46, 0x23, 0x72, 0x3f, 0xc3, 0xcf, 0x81, 0x3f, 
	0xe7, 0xa6, 0x87, 0xbd, 0xce, 0xad, 0x48, 0x3f, 0xc4, 0x14, 0x74, 0x3f, 
	0x62, 0xdb, 0x73, 0x3f, 0x68, 0xba, 0x75, 0x3f, 0x9e, 0xdf, 0xe1, 0xbd, 
	0xaa, 0x65, 0x53, 0x3f, 0x98, 0x22, 0xf2, 0x3e, 0x33, 0x83, 0x9d, 0x3f, 
	0xc6, 0xfe, 0xff, 0xff, 0x10, 0x00, 0x00, 0x00, 0x03, 0x00, 0x00, 0x00, 
	0x10, 0x00, 0x00, 0x00, 0x3c, 0x00, 0x00, 0x00, 0x01, 0x00, 0x00, 0x00, 
	0x10, 0x00, 0x00, 0x00, 0x2a, 0x00, 0x00, 0x00, 0x6d, 0x6f, 0x64, 0x65, 
	0x6c, 0x5f, 0x31, 0x34, 0x36, 0x2f, 0x64, 0x65, 0x6e, 0x73, 0x65, 0x5f, 
	0x31, 0x34, 0x32, 0x2f, 0x42, 0x69, 0x61, 0x73, 0x41, 0x64, 0x64, 0x2f, 
	0x52, 0x65, 0x61, 0x64, 0x56, 0x61, 0x72, 0x69, 0x61, 0x62, 0x6c, 0x65, 
	0x4f, 0x70, 0x00, 0x00, 0x1c, 0xff, 0xff, 0xff, 0x00, 0x00, 0x06, 0x00, 
	0x08, 0x00, 0x04, 0x00, 0x06, 0x00, 0x00, 0x00, 0x04, 0x00, 0x00, 0x00, 
	0x80, 0x00, 0x00, 0x00, 0x12, 0xd0, 0x6e, 0x3e, 0xa1, 0xec, 0x7a, 0x3e, 
	0x7f, 0x8c, 0x24, 0x3e, 0x2e, 0xb1, 0x1e, 0xbd, 0x22, 0x4e, 0x0e, 0x3e, 
	0xf8, 0x36, 0xba, 0xbc, 0x9e, 0x1f, 0x21, 0x3e, 0xef, 0xe4, 0x2d, 0x3e, 
	0xa3, 0x84, 0x0a, 0x3c, 0x00, 0x00, 0x00, 0x00, 0xb6, 0x3a, 0xb9, 0xbc, 
	0xe7, 0xee, 0xd5, 0xbc, 0xa0, 0x80, 0x2a, 0x3e, 0x64, 0xba, 0x5b, 0x3e, 
	0x0d, 0xde, 0x11, 0x3e, 0xb3, 0xcb, 0x21, 0x3e, 0x00, 0x00, 0x00, 0x00, 
	0x00, 0x00, 0x00, 0x00, 0x50, 0xed, 0xe0, 0xbb, 0x6f, 0x43, 0x74, 0xbc, 
	0x6a, 0x32, 0xaf, 0xbb, 0xf4, 0x27, 0x4d, 0xbd, 0x5e, 0x3c, 0x5d, 0x3e, 
	0xc7, 0x9e, 0x18, 0x3e, 0xdc, 0x21, 0x36, 0x3e, 0xe4, 0xef, 0x1f, 0x3e, 
	0xd4, 0xf9, 0x27, 0x3e, 0xeb, 0xdb, 0x42, 0x3e, 0xd4, 0xc4, 0xd2, 0x3b, 
	0x99, 0xe3, 0x6e, 0xbd, 0x6d, 0x39, 0x65, 0x3e, 0xab, 0x31, 0xa1, 0xbd, 
	0xaa, 0xff, 0xff, 0xff, 0x10, 0x00, 0x00, 0x00, 0x02, 0x00, 0x00, 0x00, 
	0x10, 0x00, 0x00, 0x00, 0x40, 0x00, 0x00, 0x00, 0x01, 0x00, 0x00, 0x00, 
	0x20, 0x00, 0x00, 0x00, 0x2a, 0x00, 0x00, 0x00, 0x6d, 0x6f, 0x64, 0x65, 
	0x6c, 0x5f, 0x31, 0x34, 0x36, 0x2f, 0x64, 0x65, 0x6e, 0x73, 0x65, 0x5f, 
	0x31, 0x34, 0x31, 0x2f, 0x42, 0x69, 0x61, 0x73, 0x41, 0x64, 0x64, 0x2f, 
	0x52, 0x65, 0x61, 0x64, 0x56, 0x61, 0x72, 0x69, 0x61, 0x62, 0x6c, 0x65, 
	0x4f, 0x70, 0x00, 0x00, 0x04, 0x00, 0x06, 0x00, 0x04, 0x00, 0x00, 0x00, 
	0x00, 0x00, 0x0e, 0x00, 0x14, 0x00, 0x04, 0x00, 0x00, 0x00, 0x08, 0x00, 
	0x0c, 0x00, 0x10, 0x00, 0x0e, 0x00, 0x00, 0x00, 0x10, 0x00, 0x00, 0x00, 
	0x01, 0x00, 0x00, 0x00, 0x14, 0x00, 0x00, 0x00, 0x20, 0x00, 0x00, 0x00, 
	0x02, 0x00, 0x00, 0x00, 0x01, 0x00, 0x00, 0x00, 0x28, 0x00, 0x00, 0x00, 
	0x09, 0x00, 0x00, 0x00, 0x69, 0x6e, 0x70, 0x75, 0x74, 0x5f, 0x31, 0x31, 
	0x30, 0x00, 0x00, 0x00, 0xfc, 0xff, 0xff, 0xff, 0x04, 0x00, 0x04, 0x00, 
	0x04, 0x00, 0x00, 0x00
};
const int enc2_16_seq10_len = 8428;