
// if having troubles with min/max, uncomment the following
// #undef min    
// #undef max
#ifdef __has_attribute
#define HAVE_ATTRIBUTE(x) __has_attribute(x)
#else
#define HAVE_ATTRIBUTE(x) 0
#endif
#if HAVE_ATTRIBUTE(aligned) || (defined(__GNUC__) && !defined(__clang__))
#define DATA_ALIGN_ATTRIBUTE __attribute__((aligned(4)))
#else
#define DATA_ALIGN_ATTRIBUTE
#endif
const unsigned char pred3_16_seq10[] DATA_ALIGN_ATTRIBUTE = {
	0x1c, 0x00, 0x00, 0x00, 0x54, 0x46, 0x4c, 0x33, 0x00, 0x00, 0x12, 0x00, 
	0x1c, 0x00, 0x04, 0x00, 0x08, 0x00, 0x0c, 0x00, 0x10, 0x00, 0x14, 0x00, 
	0x00, 0x00, 0x18, 0x00, 0x12, 0x00, 0x00, 0x00, 0x03, 0x00, 0x00, 0x00, 
	0x14, 0x00, 0x00, 0x00, 0x18, 0x00, 0x00, 0x00, 0xac, 0x00, 0x00, 0x00, 
	0x18, 0x00, 0x00, 0x00, 0x54, 0x00, 0x00, 0x00, 0x01, 0x00, 0x00, 0x00, 
	0x38, 0x03, 0x00, 0x00, 0x01, 0x00, 0x00, 0x00, 0xb8, 0x00, 0x00, 0x00, 
	0x0f, 0x00, 0x00, 0x00, 0xdc, 0x2c, 0x00, 0x00, 0xd8, 0x2c, 0x00, 0x00, 
	0xac, 0x2b, 0x00, 0x00, 0x04, 0x2b, 0x00, 0x00, 0x64, 0x2a, 0x00, 0x00, 
	0x00, 0x2a, 0x00, 0x00, 0xac, 0x10, 0x00, 0x00, 0x58, 0x08, 0x00, 0x00, 
	0x04, 0x04, 0x00, 0x00, 0x70, 0x03, 0x00, 0x00, 0xb4, 0x2c, 0x00, 0x00, 
	0xb0, 0x2c, 0x00, 0x00, 0xac, 0x2c, 0x00, 0x00, 0xa8, 0x2c, 0x00, 0x00, 
	0x38, 0x00, 0x00, 0x00, 0x01, 0x00, 0x00, 0x00, 0x0c, 0x00, 0x00, 0x00, 
	0x08, 0x00, 0x0c, 0x00, 0x04, 0x00, 0x08, 0x00, 0x08, 0x00, 0x00, 0x00, 
	0x08, 0x00, 0x00, 0x00, 0x0e, 0x00, 0x00, 0x00, 0x13, 0x00, 0x00, 0x00, 
	0x6d, 0x69, 0x6e, 0x5f, 0x72, 0x75, 0x6e, 0x74, 0x69, 0x6d, 0x65, 0x5f, 
	0x76, 0x65, 0x72, 0x73, 0x69, 0x6f, 0x6e, 0x00, 0xc2, 0xd4, 0xff, 0xff, 
	0x04, 0x00, 0x00, 0x00, 0x10, 0x00, 0x00, 0x00, 0x31, 0x2e, 0x35, 0x2e, 
	0x30, 0x00, 0x00, 0x00, 0x00, 0x00, 0x00, 0x00, 0x00, 0x00, 0x00, 0x00, 
	0x0f, 0x00, 0x00, 0x00, 0x4d, 0x4c, 0x49, 0x52, 0x20, 0x43, 0x6f, 0x6e, 
	0x76, 0x65, 0x72, 0x74, 0x65, 0x64, 0x2e, 0x00, 0x00, 0x00, 0x0e, 0x00, 
	0x18, 0x00, 0x04, 0x00, 0x08, 0x00, 0x0c, 0x00, 0x10, 0x00, 0x14, 0x00, 
	0x0e, 0x00, 0x00, 0x00, 0x14, 0x00, 0x00, 0x00, 0x48, 0x00, 0x00, 0x00, 
	0x4c, 0x00, 0x00, 0x00, 0x50, 0x00, 0x00, 0x00, 0x60, 0x00, 0x00, 0x00, 
	0x0d, 0x00, 0x00, 0x00, 0xd8, 0x2b, 0x00, 0x00, 0x70, 0x2b, 0x00, 0x00, 
	0x88, 0x2a, 0x00, 0x00, 0xe8, 0x29, 0x00, 0x00, 0x48, 0x29, 0x00, 0x00, 
	0xf0, 0x28, 0x00, 0x00, 0x9c, 0x0f, 0x00, 0x00, 0x48, 0x07, 0x00, 0x00, 
	0xf4, 0x02, 0x00, 0x00, 0x44, 0x02, 0x00, 0x00, 0x7c, 0x01, 0x00, 0x00, 
	0xd4, 0x00, 0x00, 0x00, 0x68, 0x00, 0x00, 0x00, 0x01, 0x00, 0x00, 0x00, 
	0x00, 0x00, 0x00, 0x00, 0x01, 0x00, 0x00, 0x00, 0x0c, 0x00, 0x00, 0x00, 
	0x04, 0x00, 0x00, 0x00, 0xcc, 0x01, 0x00, 0x00, 0x24, 0x01, 0x00, 0x00, 
	0x7c, 0x00, 0x00, 0x00, 0x10, 0x00, 0x00, 0x00, 0x04, 0x00, 0x00, 0x00, 
	0x6d, 0x61, 0x69, 0x6e, 0x00, 0x00, 0x00, 0x00, 0x02, 0xff, 0xff, 0xff, 
	0x00, 0x00, 0x00, 0x08, 0x1c, 0x00, 0x00, 0x00, 0x10, 0x00, 0x00, 0x00, 
	0x04, 0x00, 0x00, 0x00, 0x4e, 0xfe, 0xff, 0xff, 0x00, 0x00, 0x00, 0x01, 
	0x01, 0x00, 0x00, 0x00, 0x0c, 0x00, 0x00, 0x00, 0x03, 0x00, 0x00, 0x00, 
	0x0b, 0x00, 0x00, 0x00, 0x08, 0x00, 0x00, 0x00, 0x04, 0x00, 0x00, 0x00, 
	0xce, 0xd4, 0xff, 0xff, 0x10, 0x00, 0x00, 0x00, 0x0d, 0x00, 0x00, 0x00, 
	0x14, 0x00, 0x00, 0x00, 0x20, 0x00, 0x00, 0x00, 0x02, 0x00, 0x00, 0x00, 
	0x01, 0x00, 0x00, 0x00, 0x01, 0x00, 0x00, 0x00, 0x08, 0x00, 0x00, 0x00, 
	0x49, 0x64, 0x65, 0x6e, 0x74, 0x69, 0x74, 0x79, 0x00, 0x00, 0x00, 0x00, 
	0xbc, 0xd4, 0xff, 0xff, 0x6a, 0xff, 0xff, 0xff, 0x00, 0x00, 0x00, 0x08, 
	0x1c, 0x00, 0x00, 0x00, 0x10, 0x00, 0x00, 0x00, 0x04, 0x00, 0x00, 0x00, 
	0xb6, 0xfe, 0xff, 0xff, 0x00, 0x00, 0x00, 0x01, 0x01, 0x00, 0x00, 0x00, 
	0x0b, 0x00, 0x00, 0x00, 0x03, 0x00, 0x00, 0x00, 0x0a, 0x00, 0x00, 0x00, 
	0x07, 0x00, 0x00, 0x00, 0x03, 0x00, 0x00, 0x00, 0x36, 0xd5, 0xff, 0xff, 
	0x10, 0x00, 0x00, 0x00, 0x0c, 0x00, 0x00, 0x00, 0x14, 0x00, 0x00, 0x00, 
	0x4c, 0x00, 0x00, 0x00, 0x02, 0x00, 0x00, 0x00, 0x01, 0x00, 0x00, 0x00, 
	0x10, 0x00, 0x00, 0x00, 0x34, 0x00, 0x00, 0x00, 0x6d, 0x6f, 0x64, 0x65, 
	0x6c, 0x5f, 0x31, 0x34, 0x38, 0x2f, 0x64, 0x65, 0x6e, 0x73, 0x65, 0x5f, 
	0x31, 0x34, 0x37, 0x2f, 0x52, 0x65, 0x6c, 0x75, 0x3b, 0x6d, 0x6f, 0x64, 
	0x65, 0x6c, 0x5f, 0x31, 0x34, 0x38, 0x2f, 0x64, 0x65, 0x6e, 0x73, 0x65, 
	0x5f, 0x31, 0x34, 0x37, 0x2f, 0x42, 0x69, 0x61, 0x73, 0x41, 0x64, 0x64, 
	0x00, 0x00, 0x00, 0x00, 0x9c, 0xd5, 0xff, 0xff, 0x00, 0x00, 0x0e, 0x00, 
	0x14, 0x00, 0x00, 0x00, 0x08, 0x00, 0x0c, 0x00, 0x07, 0x00, 0x10, 0x00, 
	0x0e, 0x00, 0x00, 0x00, 0x00, 0x00, 0x00, 0x08, 0x1c, 0x00, 0x00, 0x00, 
	0x10, 0x00, 0x00, 0x00, 0x04, 0x00, 0x00, 0x00, 0x5a, 0xff, 0xff, 0xff, 
	0x00, 0x00, 0x00, 0x01, 0x01, 0x00, 0x00, 0x00, 0x0a, 0x00, 0x00, 0x00, 
	0x03, 0x00, 0x00, 0x00, 0x09, 0x00, 0x00, 0x00, 0x06, 0x00, 0x00, 0x00, 
	0x02, 0x00, 0x00, 0x00, 0xda, 0xd5, 0xff, 0xff, 0x10, 0x00, 0x00, 0x00, 
	0x0b, 0x00, 0x00, 0x00, 0x14, 0x00, 0x00, 0x00, 0x4c, 0x00, 0x00, 0x00, 
	0x02, 0x00, 0x00, 0x00, 0x01, 0x00, 0x00, 0x00, 0x10, 0x00, 0x00, 0x00, 
	0x34, 0x00, 0x00, 0x00, 0x6d, 0x6f, 0x64, 0x65, 0x6c, 0x5f, 0x31, 0x34, 
	0x38, 0x2f, 0x64, 0x65, 0x6e, 0x73, 0x65, 0x5f, 0x31, 0x34, 0x36, 0x2f, 
	0x52, 0x65, 0x6c, 0x75, 0x3b, 0x6d, 0x6f, 0x64, 0x65, 0x6c, 0x5f, 0x31, 
	0x34, 0x38, 0x2f, 0x64, 0x65, 0x6e, 0x73, 0x65, 0x5f, 0x31, 0x34, 0x36, 
	0x2f, 0x42, 0x69, 0x61, 0x73, 0x41, 0x64, 0x64, 0x00, 0x00, 0x00, 0x00, 
	0x40, 0xd6, 0xff, 0xff, 0x00, 0x00, 0x0e, 0x00, 0x16, 0x00, 0x00, 0x00, 
	0x08, 0x00, 0x0c, 0x00, 0x07, 0x00, 0x10, 0x00, 0x0e, 0x00, 0x00, 0x00, 
	0x00, 0x00, 0x00, 0x08, 0x24, 0x00, 0x00, 0x00, 0x18, 0x00, 0x00, 0x00, 
	0x0c, 0x00, 0x00, 0x00, 0x00, 0x00, 0x06, 0x00, 0x08, 0x00, 0x07, 0x00, 
	0x06, 0x00, 0x00, 0x00, 0x00, 0x00, 0x00, 0x01, 0x01, 0x00, 0x00, 0x00, 
	0x09, 0x00, 0x00, 0x00, 0x03, 0x00, 0x00, 0x00, 0x00, 0x00, 0x00, 0x00, 
	0x05, 0x00, 0x00, 0x00, 0x01, 0x00, 0x00, 0x00, 0x00, 0x00, 0x0a, 0x00, 
	0x0c, 0x00, 0x07, 0x00, 0x00, 0x00, 0x08, 0x00, 0x0a, 0x00, 0x00, 0x00, 
	0x00, 0x00, 0x00, 0x09, 0x01, 0x00, 0x00, 0x00, 0x9e, 0xd6, 0xff, 0xff, 
	0x10, 0x00, 0x00, 0x00, 0x0a, 0x00, 0x00, 0x00, 0x14, 0x00, 0x00, 0x00, 
	0x4c, 0x00, 0x00, 0x00, 0x02, 0x00, 0x00, 0x00, 0x01, 0x00, 0x00, 0x00, 
	0x20, 0x00, 0x00, 0x00, 0x34, 0x00, 0x00, 0x00, 0x6d, 0x6f, 0x64, 0x65, 
	0x6c, 0x5f, 0x31, 0x34, 0x38, 0x2f, 0x64, 0x65, 0x6e, 0x73, 0x65, 0x5f, 
	0x31, 0x34, 0x35, 0x2f, 0x52, 0x65, 0x6c, 0x75, 0x3b, 0x6d, 0x6f, 0x64, 
	0x65, 0x6c, 0x5f, 0x31, 0x34, 0x38, 0x2f, 0x64, 0x65, 0x6e, 0x73, 0x65, 
	0x5f, 0x31, 0x34, 0x35, 0x2f, 0x42, 0x69, 0x61, 0x73, 0x41, 0x64, 0x64, 
	0x00, 0x00, 0x00, 0x00, 0xb8, 0xd6, 0xff, 0xff, 0xe6, 0xd7, 0xff, 0xff, 
	0x04, 0x00, 0x00, 0x00, 0x40, 0x00, 0x00, 0x00, 0x3e, 0x93, 0x02, 0x3f, 
	0x2a, 0x55, 0x40, 0x3f, 0x23, 0x4d, 0x89, 0xbe, 0x30, 0x48, 0xb6, 0xbe, 
	0x50, 0x04, 0x05, 0xbe, 0x94, 0xc8, 0x53, 0xbf, 0xb1, 0xab, 0x0e, 0xbf, 
	0xf1, 0xfe, 0xaf, 0xbe, 0x67, 0xa7, 0x86, 0x3e, 0x38, 0x78, 0xef, 0xbe, 
	0x05, 0x70, 0x58, 0x3f, 0x15, 0xc6, 0x3a, 0x3f, 0x8b, 0x31, 0x2f, 0x3f, 
	0x22, 0x6b, 0x92, 0x3f, 0xc2, 0xe1, 0x90, 0xbe, 0x93, 0xdf, 0x3c, 0x3f, 
	0x4a, 0xd7, 0xff, 0xff, 0x10, 0x00, 0x00, 0x00, 0x09, 0x00, 0x00, 0x00, 
	0x14, 0x00, 0x00, 0x00, 0x30, 0x00, 0x00, 0x00, 0x02, 0x00, 0x00, 0x00, 
	0x01, 0x00, 0x00, 0x00, 0x10, 0x00, 0x00, 0x00, 0x1a, 0x00, 0x00, 0x00, 
	0x6d, 0x6f, 0x64, 0x65, 0x6c, 0x5f, 0x31, 0x34, 0x38, 0x2f, 0x64, 0x65, 
	0x6e, 0x73, 0x65, 0x5f, 0x31, 0x34, 0x38, 0x2f, 0x4d, 0x61, 0x74, 0x4d, 
	0x75, 0x6c, 0x00, 0x00, 0x48, 0xd7, 0xff, 0xff, 0x76, 0xd8, 0xff, 0xff, 
	0x04, 0x00, 0x00, 0x00, 0x00, 0x04, 0x00, 0x00, 0x65, 0x62, 0x1f, 0x3f, 
	0xa1, 0x38, 0x0b, 0xbf, 0x3d, 0x47, 0xa7, 0x3d, 0x8f, 0x06, 0x02, 0x3e, 
	0x8a, 0xc9, 0xb3, 0xbd, 0xf3, 0x06, 0xcf, 0x3e, 0x76, 0x62, 0x39, 0x3e, 
	0x28, 0x8a, 0x98, 0x3c, 0xe9, 0xbb, 0x14, 0x3f, 0xa2, 0x3f, 0x02, 0x3f, 
	0x22, 0x0a, 0xcc, 0x3c, 0x8b, 0x94, 0x68, 0x3e, 0x99, 0x56, 0xc0, 0x3e, 
	0x06, 0x46, 0x84, 0xbe, 0x30, 0xcf, 0x92, 0xbe, 0x15, 0xce, 0x10, 0x3f, 
	0xaf, 0x35, 0xaa, 0x3e, 0x49, 0xaf, 0xd5, 0x3e, 0xfb, 0xe7, 0xba, 0x3e, 
	0xe7, 0x2f, 0x1f, 0x3f, 0xd8, 0x4f, 0x9b, 0x3e, 0x5b, 0xb8, 0xf3, 0x3e, 
	0xfc, 0x76, 0xcf, 0x3d, 0x56, 0xc3, 0x12, 0xbf, 0x4f, 0xe0, 0x4c, 0x3e, 
	0x36, 0x36, 0xa2, 0x3e, 0x54, 0xe2, 0x03, 0x3f, 0x4f, 0xbe, 0x2a, 0x3f, 
	0xd7, 0x02, 0xf4, 0x3e, 0x6c, 0x62, 0xb2, 0x3e, 0xc4, 0x5f, 0x36, 0xbe, 
	0x8b, 0xdb, 0xc4, 0x3e, 0xf1, 0x26, 0x3b, 0x3d, 0x74, 0x3a, 0x37, 0x3f, 
	0x76, 0xcd, 0x6a, 0xbe, 0x05, 0x56, 0x8a, 0x3e, 0x10, 0x58, 0x73, 0x3e, 
	0xd7, 0xa2, 0x0f, 0xbf, 0x61, 0xd7, 0x97, 0x3e, 0xa6, 0xa9, 0x64, 0xbd, 
	0xc6, 0xa8, 0x8d, 0x3e, 0x80, 0x39, 0xeb, 0x3e, 0x6e, 0x20, 0xf0, 0xbe, 
	0x54, 0xf1, 0xab, 0xbe, 0x72, 0xa9, 0xb8, 0xbe, 0xb1, 0xa1, 0xd3, 0x3e, 
	0xcf, 0xf8, 0xa3, 0x3e, 0x43, 0x76, 0xc4, 0xbe, 0xd4, 0x52, 0x0a, 0x3e, 
	0x07, 0x74, 0xcb, 0xbb, 0x17, 0x86, 0x21, 0x3e, 0xc9, 0x65, 0xc5, 0x3c, 
	0x5f, 0x68, 0x94, 0x3e, 0xa6, 0x48, 0x3c, 0x3c, 0x77, 0x34, 0x2a, 0xbc, 
	0xea, 0xac, 0x84, 0x3c, 0x1b, 0xf8, 0xd7, 0xbe, 0xb9, 0x56, 0x23, 0x3e, 
	0x82, 0x17, 0x85, 0x3d, 0xd9, 0xb0, 0x10, 0xbe, 0xa0, 0xbf, 0x13, 0xbf, 
	0x6b, 0x01, 0x74, 0x3e, 0xae, 0xf9, 0x30, 0x3f, 0xa9, 0x21, 0x4c, 0xbe, 
	0x99, 0xd3, 0xad, 0x3c, 0xca, 0x96, 0x35, 0x3e, 0x5d, 0x3e, 0x8b, 0x3e, 
	0x92, 0xa8, 0xd0, 0x3d, 0x8b, 0x23, 0xc5, 0xbe, 0x73, 0xb0, 0x0d, 0xbe, 
	0x53, 0x10, 0xf0, 0xbd, 0x91, 0x47, 0xb3, 0xbe, 0xcd, 0x2e, 0xb9, 0xbe, 
	0x7f, 0xb1, 0xcf, 0xbe, 0xb5, 0xe5, 0x34, 0xbe, 0x25, 0xa6, 0xde, 0xbe, 
	0x3c, 0x69, 0xa2, 0xbe, 0xa2, 0xa0, 0x6e, 0x3e, 0x9d, 0x15, 0x82, 0xbe, 
	0x3d, 0x1d, 0x22, 0x3e, 0xef, 0x34, 0x61, 0xbe, 0x0f, 0x6e, 0x96, 0x3e, 
	0x1c, 0x59, 0x1e, 0x3d, 0xbc, 0x03, 0x08, 0xbc, 0xb5, 0x9d, 0x6f, 0xbe, 
	0x33, 0x39, 0x7a, 0xbf, 0x9c, 0x68, 0xd8, 0x3e, 0x94, 0x88, 0xe9, 0x3e, 
	0x61, 0x4e, 0x97, 0x3e, 0x91, 0x0d, 0x08, 0xbf, 0x8b, 0x7c, 0x00, 0x3e, 
	0x6f, 0x3d, 0xd7, 0xbe, 0x35, 0x61, 0x9c, 0xbd, 0x0f, 0xc5, 0xf2, 0xbe, 
	0xe7, 0xa9, 0x2f, 0x3f, 0x20, 0x6f, 0x9d, 0x3e, 0x8e, 0x68, 0xc7, 0xbe, 
	0x6c, 0xce, 0xd1, 0x3d, 0x80, 0x85, 0x58, 0x3c, 0xf0, 0xad, 0x32, 0xbd, 
	0xd5, 0x0d, 0x8a, 0x3e, 0xe0, 0x70, 0x48, 0x3c, 0x6b, 0x48, 0xa5, 0xbe, 
	0xd0, 0x5e, 0xb3, 0xbc, 0x60, 0xd7, 0x2c, 0x3c, 0x49, 0x49, 0xc2, 0xbe, 
	0x50, 0x1d, 0xaf, 0xbd, 0x80, 0x84, 0x90, 0xbd, 0x56, 0x2e, 0xb9, 0xbe, 
	0x9f, 0xd2, 0xa1, 0xbe, 0x9a, 0xb8, 0xc0, 0xbe, 0xb7, 0xf4, 0x98, 0xbe, 
	0x15, 0xa0, 0xdd, 0xbd, 0x76, 0xde, 0xd1, 0xbe, 0x9a, 0xe5, 0x83, 0x3e, 
	0xc1, 0x40, 0xc4, 0xbe, 0xf8, 0xce, 0xa3, 0xbe, 0xc0, 0xc3, 0x9a, 0xbc, 
	0x32, 0x57, 0x9c, 0x3e, 0x05, 0x3e, 0xa5, 0xbe, 0x5a, 0xeb, 0xe0, 0xbc, 
	0x60, 0x33, 0xfb, 0x3d, 0x92, 0x51, 0xfd, 0x3c, 0x7f, 0xe3, 0x80, 0x3e, 
	0xac, 0xb1, 0x29, 0xbc, 0x1f, 0xae, 0xcf, 0x3e, 0xf9, 0xd4, 0x41, 0xbe, 
	0x7d, 0xa2, 0xbf, 0xbe, 0xbe, 0xd9, 0x6e, 0x3e, 0x27, 0x7d, 0x77, 0xbe, 
	0xd2, 0xe8, 0x02, 0x3f, 0xde, 0x89, 0x14, 0x3f, 0x93, 0xe9, 0xd2, 0x3d, 
	0x20, 0x5e, 0x80, 0x3f, 0xc0, 0xfe, 0xb9, 0x3e, 0x26, 0x33, 0xf3, 0xbe, 
	0x07, 0x1b, 0x7a, 0x3e, 0x13, 0x60, 0x6f, 0x3f, 0xc5, 0x6d, 0x28, 0x3f, 
	0x0d, 0xaa, 0xc9, 0x3e, 0x33, 0xbe, 0x18, 0x3f, 0x7f, 0x00, 0xa1, 0xbe, 
	0x60, 0xf5, 0x87, 0xbd, 0x53, 0xac, 0x67, 0xbd, 0x53, 0x34, 0xdf, 0xbe, 
	0x2d, 0x85, 0x52, 0x3d, 0xe1, 0x38, 0x5d, 0x3d, 0xa9, 0x05, 0xe3, 0xbe, 
	0x85, 0xcc, 0x8b, 0xbe, 0x30, 0x50, 0xe3, 0xbe, 0xc4, 0x9c, 0xaa, 0x3d, 
	0x03, 0x8b, 0xfd, 0x3c, 0x26, 0x5b, 0x80, 0x3e, 0xcd, 0xe2, 0xa1, 0x3e, 
	0x4a, 0x5f, 0xbb, 0xbe, 0x36, 0x14, 0x2c, 0x3e, 0x9a, 0xfb, 0x6b, 0xbb, 
	0xb9, 0x3d, 0x00, 0xbd, 0xf0, 0x3b, 0xaf, 0xbc, 0x4b, 0x3a, 0xbe, 0x3e, 
	0x84, 0x53, 0x1d, 0x3f, 0x20, 0x02, 0x15, 0xbf, 0x80, 0x7b, 0x11, 0x3f, 
	0x6e, 0xf5, 0x51, 0x3e, 0x41, 0x17, 0x34, 0x3f, 0x81, 0x46, 0x9c, 0x3e, 
	0xd2, 0x87, 0xda, 0x3d, 0x73, 0x34, 0xcd, 0xbd, 0x12, 0x49, 0x91, 0x3e, 
	0xa0, 0x5d, 0x31, 0x3f, 0x52, 0x5d, 0x4f, 0x3e, 0xe6, 0xd6, 0x7c, 0xbd, 
	0xb1, 0xbe, 0x18, 0x3f, 0x18, 0x49, 0x90, 0xbe, 0x2a, 0x12, 0x2c, 0xbe, 
	0x16, 0x0f, 0xbe, 0x3d, 0x59, 0xfd, 0x61, 0xbe, 0x27, 0xdf, 0xc8, 0xbe, 
	0xa2, 0x31, 0x63, 0x3e, 0x61, 0x2e, 0x5c, 0x3e, 0x7d, 0xfd, 0x48, 0x3e, 
	0xb5, 0xec, 0xb8, 0x3e, 0x2a, 0x08, 0x27, 0x3f, 0x04, 0xb7, 0x09, 0xbf, 
	0x3d, 0x9c, 0xe2, 0x3e, 0xf7, 0xae, 0x71, 0x3f, 0x28, 0xfc, 0x36, 0x3e, 
	0xad, 0x4c, 0x8a, 0x3e, 0x67, 0x00, 0xbc, 0x3e, 0xa3, 0x51, 0xb1, 0xbe, 
	0x85, 0x93, 0xa5, 0xbe, 0x40, 0x91, 0xa2, 0x3e, 0xc0, 0x2d, 0xf9, 0x3c, 
	0xc7, 0xff, 0xf9, 0xbd, 0x97, 0x4a, 0xac, 0x3e, 0xa6, 0xa6, 0x33, 0x3f, 
	0xb8, 0x04, 0xa3, 0x3d, 0x9e, 0x73, 0xe3, 0x3e, 0xdd, 0x89, 0x1a, 0x3f, 
	0xe1, 0xb2, 0x95, 0xbe, 0x9d, 0xe4, 0xdb, 0x3e, 0x35, 0xa4, 0x6f, 0x3e, 
	0xfa, 0xc0, 0xef, 0x3e, 0x87, 0x2a, 0x0d, 0x3f, 0x07, 0xa8, 0xcf, 0x3e, 
	0xe0, 0x10, 0x34, 0x3e, 0xad, 0xd3, 0xa2, 0xbe, 0xcf, 0x40, 0x13, 0x3e, 
	0xe5, 0x8b, 0x22, 0x3e, 0xf3, 0x06, 0x5c, 0xbf, 0x9d, 0x92, 0xfd, 0xbe, 
	0xe5, 0x06, 0x84, 0x3e, 0x85, 0xe7, 0x92, 0xbe, 0xec, 0x4b, 0x95, 0x3e, 
	0x8e, 0x3b, 0xf6, 0xbd, 0xf1, 0xed, 0x85, 0x3f, 0xe0, 0x74, 0x94, 0xbe, 
	0xd7, 0x01, 0x48, 0x3f, 0x02, 0x46, 0xdf, 0xbd, 0x7e, 0xe5, 0xea, 0xbe, 
	0x25, 0x1d, 0x9e, 0xbd, 0xc9, 0x02, 0x00, 0xbe, 0x0e, 0x2a, 0x3a, 0xbf, 
	0xcd, 0xa6, 0x35, 0xbd, 0x26, 0x41, 0x43, 0x3e, 0xc2, 0xa7, 0xa1, 0x3e, 
	0x78, 0x63, 0xe8, 0xbd, 0xd3, 0x9f, 0xe3, 0x3d, 0x8e, 0x33, 0x50, 0x3e, 
	0xfd, 0xa1, 0xd3, 0x3c, 0x0b, 0x1a, 0x00, 0xbf, 0xcf, 0xd4, 0x88, 0xbe, 
	0x1c, 0xd3, 0x1b, 0xbc, 0x1c, 0xdb, 0x57, 0xbd, 0x6f, 0x45, 0x1a, 0x3e, 
	0xf9, 0xce, 0xd4, 0xbe, 0x45, 0xaa, 0x04, 0xbe, 0x61, 0xd2, 0x9a, 0xbe, 
	0x27, 0xe8, 0x0d, 0x3c, 0x8b, 0x15, 0xec, 0x3d, 0x82, 0x0c, 0xc7, 0x3e, 
	0x7d, 0x10, 0x2a, 0xbf, 0x68, 0x19, 0x18, 0x3f, 0x40, 0x33, 0x9e, 0x3e, 
	0x40, 0x4c, 0xc4, 0x3e, 0x73, 0xd3, 0x86, 0x3f, 0xd5, 0xa1, 0xff, 0x3e, 
	0x46, 0x81, 0x45, 0xbe, 0xe6, 0x0b, 0x02, 0x3f, 0x7c, 0xe8, 0x86, 0x3f, 
	0x10, 0x93, 0x71, 0x3e, 0x88, 0x72, 0x79, 0xbd, 0x34, 0x71, 0x3e, 0x3e, 
	0xa0, 0xd2, 0xab, 0xbd, 0x5d, 0xd3, 0x7a, 0xbe, 0xff, 0xd6, 0x4e, 0x3e, 
	0x9a, 0xdb, 0xff, 0xff, 0x10, 0x00, 0x00, 0x00, 0x08, 0x00, 0x00, 0x00, 
	0x14, 0x00, 0x00, 0x00, 0x30, 0x00, 0x00, 0x00, 0x02, 0x00, 0x00, 0x00, 
	0x10, 0x00, 0x00, 0x00, 0x10, 0x00, 0x00, 0x00, 0x1a, 0x00, 0x00, 0x00, 
	0x6d, 0x6f, 0x64, 0x65, 0x6c, 0x5f, 0x31, 0x34, 0x38, 0x2f, 0x64, 0x65, 
	0x6e, 0x73, 0x65, 0x5f, 0x31, 0x34, 0x37, 0x2f, 0x4d, 0x61, 0x74, 0x4d, 
	0x75, 0x6c, 0x00, 0x00, 0x98, 0xdb, 0xff, 0xff, 0xc6, 0xdc, 0xff, 0xff, 
	0x04, 0x00, 0x00, 0x00, 0x00, 0x08, 0x00, 0x00, 0x6a, 0x53, 0x8e, 0x3e, 
	0x62, 0xc6, 0xfa, 0xbd, 0x04, 0xbf, 0xd5, 0x3e, 0x06, 0x4b, 0x40, 0x3e, 
	0x2e, 0x88, 0x99, 0xbe, 0xe3, 0xdc, 0x61, 0x3e, 0x3b, 0x39, 0x98, 0xbd, 
	0x8a, 0x55, 0x50, 0xbe, 0x32, 0x5e, 0x98, 0x3e, 0x57, 0xc7, 0xd0, 0xbd, 
	0xbc, 0x36, 0xf5, 0x3d, 0xa1, 0x41, 0x0b, 0x3d, 0xd4, 0xfd, 0xea, 0x3e, 
	0x26, 0x91, 0x4b, 0xbe, 0x43, 0xe7, 0x9e, 0x3d, 0xf0, 0xef, 0x7d, 0x3d, 
	0xb2, 0x01, 0xc1, 0x3c, 0x51, 0x98, 0xff, 0x3e, 0x16, 0x7f, 0xe8, 0x3d, 
	0x2b, 0xad, 0x71, 0xbe, 0x00, 0x07, 0x64, 0xbe, 0xc8, 0x72, 0xb4, 0x3e, 
	0x19, 0x11, 0x30, 0x3e, 0x0c, 0x41, 0xa0, 0xbd, 0x8d, 0xe8, 0x35, 0xbe, 
	0xba, 0xe5, 0xa5, 0x3e, 0xf7, 0xdf, 0xd7, 0x3e, 0xae, 0x8d, 0xce, 0x3e, 
	0xae, 0xe7, 0xe0, 0x3e, 0x87, 0x00, 0x31, 0x3f, 0x67, 0xea, 0x05, 0xbf, 
	0xbc, 0xac, 0xac, 0x3e, 0x52, 0x80, 0x97, 0x3e, 0x79, 0xb6, 0x52, 0x3b, 
	0x04, 0xc0, 0xbf, 0xbe, 0xcd, 0x23, 0xf1, 0xbe, 0x07, 0xf8, 0xe2, 0x3e, 
	0x76, 0xf3, 0x88, 0xbe, 0x50, 0x88, 0xe7, 0xbe, 0x74, 0xa4, 0xdd, 0x3d, 
	0xae, 0x00, 0x0b, 0xbe, 0x29, 0x5b, 0x92, 0x3e, 0x7d, 0x25, 0x9c, 0x3e, 
	0xf6, 0xaa, 0x13, 0xbf, 0x7b, 0xa4, 0xc7, 0xbe, 0x2e, 0x61, 0x50, 0x3e, 
	0x83, 0x77, 0x08, 0x3b, 0xe5, 0xf0, 0x8a, 0x3e, 0x86, 0x17, 0xea, 0x3d, 
	0xfe, 0x54, 0xe4, 0xbe, 0x22, 0xe2, 0x87, 0x3e, 0x4d, 0x34, 0xab, 0x3e, 
	0x8a, 0xde, 0x85, 0xbd, 0xf2, 0x8f, 0xc9, 0xbe, 0xa2, 0x1d, 0xa6, 0xbe, 
	0x89, 0x78, 0x68, 0xbe, 0x1f, 0x7d, 0x66, 0xbe, 0x2e, 0x9d, 0xe5, 0x3c, 
	0xcd, 0x03, 0xc6, 0xbe, 0x60, 0x7a, 0x80, 0x3d, 0x37, 0xd5, 0x80, 0xbc, 
	0x88, 0x05, 0x32, 0xbe, 0x70, 0x58, 0xdb, 0x3e, 0x28, 0xa8, 0xd4, 0xbe, 
	0x56, 0x19, 0x7d, 0x3e, 0x32, 0x50, 0xc0, 0xbe, 0xb6, 0x2e, 0xc6, 0x3e, 
	0xce, 0x46, 0xc9, 0x3e, 0xfb, 0x4c, 0x97, 0xbe, 0x1d, 0xa1, 0x39, 0x3e, 
	0x0c, 0x5f, 0xb2, 0x3e, 0x1f, 0x7f, 0x23, 0xbd, 0x31, 0x1d, 0x1d, 0xbe, 
	0x63, 0x85, 0x4f, 0xbf, 0x80, 0xc1, 0x59, 0x3c, 0xac, 0xb6, 0xc9, 0x3e, 
	0xe5, 0x63, 0x40, 0xbc, 0xa8, 0x0f, 0xfa, 0x3d, 0x22, 0x3f, 0x4b, 0xbe, 
	0x4a, 0x1e, 0x2f, 0x3e, 0x4a, 0x7c, 0x47, 0xbf, 0x21, 0x23, 0x28, 0x3d, 
	0x38, 0xeb, 0x87, 0x3e, 0x68, 0x81, 0x2e, 0x3d, 0x5f, 0xa7, 0x9f, 0x3e, 
	0x13, 0x50, 0xfe, 0x3e, 0x1d, 0xa4, 0x9a, 0x3e, 0xfb, 0x6b, 0xb0, 0xbe, 
	0xf0, 0x28, 0xf2, 0xbc, 0x6c, 0x6b, 0x84, 0x3d, 0xde, 0x64, 0x74, 0x3e, 
	0x71, 0x25, 0x04, 0xbe, 0xa1, 0x43, 0x2a, 0x3e, 0x73, 0xc3, 0x38, 0x3f, 
	0x21, 0x01, 0x2a, 0xbf, 0x55, 0x82, 0x17, 0x3e, 0xc4, 0x1a, 0x75, 0xbe, 
	0xfb, 0x0c, 0x3a, 0xbf, 0x9d, 0x48, 0xce, 0xbc, 0xb1, 0xeb, 0xcc, 0xbc, 
	0x59, 0x26, 0x1f, 0xbf, 0xe3, 0x14, 0x0b, 0x3f, 0x91, 0x65, 0xb9, 0x3e, 
	0xb1, 0x6b, 0x00, 0xbe, 0xf6, 0x1e, 0x1e, 0x3d, 0x03, 0x72, 0x18, 0xbf, 
	0x0f, 0xe0, 0x92, 0x3e, 0x3b, 0x4a, 0xba, 0xbd, 0xdf, 0x5b, 0x1b, 0xbd, 
	0xb4, 0x2e, 0xc9, 0x3d, 0x2a, 0x9d, 0xd5, 0x3e, 0xf4, 0xb0, 0x93, 0xbd, 
	0xd8, 0x21, 0xd5, 0xbe, 0xc1, 0x06, 0x98, 0x3c, 0x21, 0xf2, 0x62, 0xbe, 
	0x11, 0xfb, 0x96, 0x3e, 0x8d, 0x91, 0xbe, 0x3e, 0xd2, 0xef, 0xdf, 0x3d, 
	0x92, 0x3b, 0xb4, 0x3e, 0x20, 0x37, 0xc0, 0x3d, 0x00, 0x7d, 0x87, 0xbc, 
	0xdf, 0x6e, 0x23, 0x3e, 0x20, 0x09, 0xea, 0x39, 0x7a, 0x19, 0x20, 0xbe, 
	0x60, 0x6b, 0x0a, 0x3e, 0x5b, 0x44, 0xd6, 0x3e, 0xe3, 0xa3, 0xbe, 0xbe, 
	0x1a, 0xd6, 0xa6, 0x3e, 0x43, 0xd3, 0xa0, 0xbe, 0x27, 0xd9, 0x59, 0xbf, 
	0xf2, 0x12, 0xc0, 0x3d, 0xe8, 0xea, 0xf4, 0x3e, 0x76, 0xeb, 0x60, 0xbf, 
	0x67, 0x41, 0xc7, 0x3e, 0xab, 0x58, 0x40, 0x3e, 0x82, 0x3a, 0x59, 0x3e, 
	0x6e, 0xd3, 0x3b, 0x3e, 0x79, 0xca, 0xca, 0xbe, 0x98, 0x6c, 0xe2, 0x3d, 
	0x89, 0xfb, 0x59, 0xbc, 0x55, 0x01, 0xb1, 0x3e, 0x41, 0x88, 0xaa, 0x3e, 
	0x68, 0x32, 0x10, 0xbe, 0xee, 0x09, 0x30, 0x3e, 0x16, 0x7f, 0x3a, 0xbf, 
	0x7d, 0x39, 0x99, 0xbd, 0x96, 0xfd, 0xa5, 0xbd, 0x48, 0x31, 0x1b, 0xbe, 
	0x7c, 0x02, 0x84, 0xbe, 0x1d, 0x13, 0x71, 0x3d, 0x09, 0x09, 0x60, 0x3e, 
	0x38, 0xad, 0x22, 0xbd, 0x60, 0xae, 0x56, 0x3d, 0xd6, 0xbe, 0x23, 0xbe, 
	0xe2, 0x95, 0x04, 0x3f, 0xdd, 0x26, 0x8e, 0x3e, 0x26, 0xc2, 0xd3, 0x3e, 
	0x89, 0x35, 0x33, 0x3f, 0xea, 0x6c, 0x59, 0xbf, 0x26, 0xff, 0x4f, 0x3e, 
	0xd5, 0x84, 0x8d, 0x3e, 0xde, 0x40, 0x09, 0xbe, 0x90, 0xf2, 0xc7, 0xbe, 
	0x16, 0x4b, 0xb8, 0xbe, 0x4e, 0x91, 0xff, 0x3c, 0xc9, 0xcb, 0xa1, 0xbd, 
	0xb3, 0xc9, 0x5b, 0xbe, 0xd5, 0x36, 0xa8, 0x3e, 0x26, 0x10, 0x95, 0x3d, 
	0x00, 0x3d, 0xd6, 0xbd, 0xda, 0x7d, 0x6b, 0x3e, 0xc1, 0xe1, 0xeb, 0x3d, 
	0x1e, 0x90, 0xe1, 0xbd, 0xd0, 0x38, 0x41, 0xbe, 0x6a, 0x84, 0xea, 0xbd, 
	0x54, 0x96, 0xac, 0xbd, 0xe5, 0xfd, 0xab, 0xbd, 0x44, 0x38, 0xf0, 0x3e, 
	0x11, 0x7a, 0x4b, 0x3e, 0x0e, 0x54, 0x5b, 0x3e, 0x25, 0x5e, 0x84, 0xbd, 
	0xea, 0xef, 0xb5, 0x3e, 0x2d, 0xee, 0x8e, 0x3e, 0xf6, 0x10, 0x3e, 0x3e, 
	0xdb, 0xb2, 0xae, 0x3e, 0x1c, 0x35, 0x16, 0x3e, 0xd7, 0xac, 0x36, 0xbe, 
	0x21, 0x81, 0xd5, 0x3e, 0x2a, 0x92, 0x90, 0x3e, 0x4b, 0x9c, 0xd9, 0x3c, 
	0x67, 0x4e, 0x90, 0xbd, 0xcb, 0x78, 0xfb, 0xbe, 0xe5, 0x1f, 0x88, 0xbc, 
	0xb0, 0x24, 0xa9, 0xbe, 0x25, 0x8f, 0xa0, 0xbd, 0xcf, 0x03, 0xd2, 0x3e, 
	0x7e, 0xca, 0x86, 0xbe, 0xed, 0x80, 0xc8, 0x3e, 0x03, 0x46, 0x6e, 0x3e, 
	0x99, 0x3f, 0xa1, 0x3e, 0x03, 0x54, 0x6c, 0x3e, 0xb8, 0x54, 0xd6, 0xbd, 
	0xd2, 0x8e, 0x39, 0x3e, 0x0f, 0xdf, 0x95, 0x3e, 0x45, 0x62, 0x9f, 0x3e, 
	0xfe, 0x9b, 0xaf, 0xbe, 0x3a, 0x87, 0x84, 0x3e, 0x74, 0x4d, 0xdb, 0x3d, 
	0x0d, 0x78, 0x07, 0xbf, 0xa1, 0xfd, 0x0e, 0x3e, 0x32, 0x32, 0x52, 0xbe, 
	0x60, 0x72, 0x69, 0x3d, 0x82, 0x66, 0x1a, 0xbe, 0xeb, 0x6f, 0x90, 0x3e, 
	0x7b, 0x97, 0x93, 0xbc, 0x8b, 0xbb, 0x85, 0x3e, 0xe8, 0x3a, 0x54, 0xbd, 
	0xe8, 0x2d, 0xc1, 0x3e, 0xa3, 0x79, 0xa2, 0x3e, 0xf7, 0x57, 0xef, 0x3e, 
	0x04, 0xef, 0x7b, 0x3d, 0xb4, 0x0a, 0xe3, 0x3e, 0xfb, 0xa6, 0x2f, 0xbf, 
	0x68, 0x9e, 0xd0, 0xbd, 0x69, 0x11, 0x96, 0x3e, 0x06, 0xa8, 0x34, 0x3f, 
	0xd0, 0x8c, 0x72, 0xbd, 0x3f, 0xf9, 0x8a, 0x3e, 0x9c, 0x9d, 0x49, 0x3f, 
	0x14, 0x9d, 0x8e, 0xbe, 0x44, 0xa2, 0xe3, 0xbd, 0x50, 0xb9, 0x96, 0xbe, 
	0x90, 0xd1, 0xa7, 0x3e, 0x82, 0x19, 0x94, 0x3e, 0xe0, 0x16, 0x7d, 0xbd, 
	0x5c, 0x9f, 0xc6, 0xbc, 0x15, 0x9d, 0x68, 0x3e, 0xb0, 0x34, 0xcf, 0xbc, 
	0x94, 0xcc, 0xaa, 0x3e, 0x56, 0x00, 0x55, 0x3e, 0x2d, 0xe8, 0xce, 0x3e, 
	0x7b, 0x0f, 0x0e, 0xbe, 0x77, 0xbd, 0xde, 0xbd, 0xdb, 0x28, 0xb3, 0x3e, 
	0x46, 0x95, 0x88, 0x3e, 0x0f, 0x47, 0x7a, 0xbd, 0x18, 0xd5, 0xa8, 0x3c, 
	0x65, 0xd7, 0x9f, 0x3e, 0x9a, 0xed, 0x7a, 0x3e, 0x9b, 0xb3, 0x2d, 0x3e, 
	0xab, 0x41, 0xcd, 0xbd, 0x29, 0x3c, 0xde, 0x3c, 0x5c, 0x14, 0x9a, 0x3e, 
	0x7c, 0x6f, 0xb3, 0xbd, 0xf6, 0x3c, 0x05, 0x3f, 0x6f, 0xaa, 0x48, 0x3e, 
	0xde, 0xaf, 0x95, 0x3e, 0x8e, 0x59, 0x38, 0xbf, 0x50, 0x83, 0x92, 0xbc, 
	0xe1, 0x3c, 0x49, 0x3e, 0x1e, 0x67, 0x21, 0xbf, 0x2e, 0x10, 0xb0, 0x3e, 
	0xb1, 0x15, 0xa3, 0x3e, 0xe0, 0xab, 0x8f, 0xbe, 0xb2, 0x7f, 0x73, 0x3e, 
	0xee, 0x28, 0x29, 0xbe, 0x90, 0x12, 0xa7, 0xbc, 0x36, 0xa0, 0x02, 0x3d, 
	0xc9, 0xc3, 0xa3, 0x3e, 0xf8, 0x0c, 0xa0, 0xbe, 0xf3, 0x6a, 0x46, 0xbe, 
	0xb4, 0x2e, 0x15, 0x3e, 0xfd, 0xe8, 0x5d, 0xbe, 0x11, 0x52, 0x87, 0xbd, 
	0xe6, 0x35, 0xb6, 0x3e, 0xa0, 0x03, 0xa0, 0x3d, 0xe8, 0xed, 0x97, 0x3e, 
	0x6b, 0x34, 0x44, 0x3e, 0x67, 0xcd, 0x45, 0xbe, 0xc5, 0x0e, 0xab, 0xbe, 
	0xd0, 0x0f, 0x79, 0xbd, 0x15, 0x04, 0xf9, 0x3e, 0xa8, 0xae, 0xd7, 0xbd, 
	0xef, 0xb3, 0x31, 0x3e, 0x9b, 0x2e, 0x11, 0xbd, 0xec, 0x0a, 0x27, 0x3f, 
	0x7a, 0x81, 0xaf, 0xbe, 0x32, 0x99, 0x00, 0x3f, 0xa5, 0xfb, 0x31, 0x3e, 
	0x8c, 0xe2, 0x62, 0x3e, 0xcd, 0x3c, 0x07, 0x3f, 0x3c, 0x05, 0x53, 0xbe, 
	0x7d, 0xd4, 0x51, 0x3e, 0xf8, 0x6c, 0x0d, 0x3d, 0xf6, 0xa9, 0xa7, 0xbe, 
	0x61, 0xf0, 0x7b, 0xbe, 0x65, 0xb3, 0x28, 0xbe, 0xd6, 0x4e, 0x9f, 0x3d, 
	0x80, 0x01, 0x64, 0xbe, 0xf0, 0x3c, 0x6e, 0xbc, 0x00, 0xf3, 0xe2, 0x3e, 
	0xc4, 0xf2, 0x73, 0xbe, 0x73, 0x3c, 0x6c, 0x3e, 0x5e, 0x54, 0x5f, 0xbe, 
	0x13, 0x42, 0x12, 0x3f, 0x71, 0xde, 0x71, 0x3e, 0x54, 0x42, 0x6e, 0x3d, 
	0x21, 0xa8, 0x88, 0xbe, 0x8b, 0xdd, 0x91, 0xbc, 0xa0, 0x6d, 0xb1, 0xbe, 
	0xc4, 0x17, 0x68, 0x3e, 0xc0, 0x88, 0x97, 0x3c, 0x5a, 0x01, 0x22, 0x3e, 
	0x84, 0xef, 0x47, 0x3b, 0x5c, 0xbf, 0x99, 0xbe, 0x9f, 0x6f, 0xb3, 0xbe, 
	0x45, 0x16, 0x43, 0xbe, 0x87, 0x24, 0x40, 0x3e, 0xa3, 0x18, 0x09, 0x3f, 
	0x18, 0xe0, 0x00, 0x3e, 0xf1, 0xcd, 0x55, 0xbe, 0xea, 0x99, 0x0a, 0xbf, 
	0xf8, 0x1e, 0x05, 0x3f, 0x7a, 0x5b, 0xb5, 0x3c, 0xf9, 0x6c, 0x0d, 0xbe, 
	0xae, 0xd7, 0xb2, 0x3e, 0x7d, 0xdd, 0x99, 0x3e, 0x20, 0x1b, 0x6f, 0x3e, 
	0xb8, 0xc2, 0x4f, 0x3e, 0x7a, 0xbb, 0x25, 0x3d, 0x18, 0x78, 0xf5, 0xbd, 
	0xff, 0x56, 0x09, 0x3f, 0x9c, 0x96, 0x5a, 0xbd, 0x00, 0x43, 0xd4, 0x3b, 
	0xd6, 0x56, 0xe7, 0x3e, 0xce, 0x5a, 0xd9, 0xbd, 0x62, 0x9d, 0x07, 0xbf, 
	0x36, 0xb4, 0x48, 0x3e, 0x0b, 0xb4, 0x89, 0xbd, 0x39, 0x08, 0x9d, 0x3e, 
	0x52, 0x80, 0x97, 0x3e, 0x41, 0xf0, 0xbb, 0x3e, 0xdc, 0x6c, 0x2f, 0x3e, 
	0x1d, 0x8b, 0xad, 0x3e, 0xfc, 0x39, 0xad, 0xbd, 0x08, 0x5a, 0x00, 0x3f, 
	0x86, 0xe4, 0x0a, 0x3f, 0x47, 0xbf, 0x82, 0x3d, 0xa4, 0x34, 0x8f, 0x3e, 
	0x7e, 0xb7, 0x4d, 0x3d, 0xef, 0x49, 0x87, 0xbe, 0x0a, 0x90, 0xcf, 0x3e, 
	0x38, 0x89, 0x90, 0x3e, 0x86, 0x59, 0xe4, 0xbe, 0x20, 0xc9, 0x52, 0xbc, 
	0xe7, 0xd1, 0x4e, 0x3e, 0x04, 0x8c, 0x51, 0xbf, 0x44, 0xd2, 0xa6, 0x3e, 
	0x1e, 0x4f, 0x45, 0x3e, 0x7a, 0xc1, 0x91, 0xbd, 0xec, 0x0f, 0xd6, 0x3d, 
	0x35, 0x62, 0xab, 0xbe, 0x1e, 0x1e, 0x19, 0x3e, 0xf2, 0xa4, 0xf9, 0x3d, 
	0x77, 0xbe, 0x72, 0x3d, 0x7e, 0x0e, 0x75, 0x3e, 0x11, 0xda, 0x4b, 0x3e, 
	0x6d, 0x7f, 0x15, 0xbe, 0x01, 0xdd, 0x5c, 0xbf, 0xa0, 0xb3, 0x1b, 0x3e, 
	0x03, 0xbc, 0xa8, 0x3e, 0x83, 0xd5, 0x81, 0x3e, 0x74, 0x06, 0xac, 0xbe, 
	0x79, 0x7b, 0x3d, 0x3d, 0x78, 0xa3, 0xe6, 0x3d, 0x20, 0x92, 0x24, 0x3d, 
	0x2c, 0x6d, 0x8f, 0xbe, 0x1c, 0xe6, 0xab, 0x3e, 0x3d, 0x15, 0xc2, 0x3e, 
	0x80, 0x22, 0x1c, 0xbb, 0x9a, 0x3b, 0x00, 0xbe, 0xa2, 0xb9, 0x30, 0x3f, 
	0xd8, 0x46, 0x3a, 0xbf, 0x04, 0x59, 0x15, 0x3e, 0xc8, 0x56, 0xa9, 0xbe, 
	0xa3, 0x45, 0xd0, 0xbd, 0xb7, 0xbf, 0xae, 0x3e, 0xd7, 0xe3, 0xee, 0x3e, 
	0x6a, 0x00, 0x04, 0xbf, 0x56, 0x78, 0xd5, 0xbd, 0xf9, 0xfb, 0xed, 0x3e, 
	0xd5, 0xf0, 0x6e, 0xbe, 0x35, 0x7b, 0xfc, 0x3e, 0xc3, 0x8d, 0x8e, 0xbe, 
	0x1a, 0xb6, 0x27, 0x3e, 0xe4, 0x14, 0xd2, 0x3e, 0xf5, 0x59, 0xab, 0x3e, 
	0xa1, 0x5f, 0x8c, 0x3e, 0x33, 0x3a, 0xfc, 0x3e, 0xb7, 0xf9, 0x75, 0xbe, 
	0x7f, 0x7d, 0x32, 0xbf, 0x38, 0xb1, 0x00, 0x3f, 0x26, 0x15, 0x36, 0xbe, 
	0x6c, 0x5a, 0x5b, 0xbe, 0xcd, 0xbc, 0x94, 0xbe, 0x41, 0xe7, 0xcd, 0x3d, 
	0x11, 0xa8, 0x7f, 0xbe, 0x96, 0xe7, 0x4e, 0x3e, 0x60, 0x8f, 0x07, 0x3d, 
	0xb6, 0x55, 0xf8, 0x3d, 0xef, 0xae, 0x79, 0xbc, 0xe2, 0x52, 0xc9, 0x3e, 
	0x4a, 0xfe, 0xb4, 0x3e, 0xc2, 0x73, 0x1d, 0xbd, 0xb1, 0xfc, 0xc4, 0xbe, 
	0x4e, 0xce, 0xe1, 0x3e, 0x23, 0xd7, 0x06, 0xbd, 0x23, 0xae, 0x08, 0xbc, 
	0x36, 0x14, 0x32, 0xbe, 0x0b, 0x1a, 0x77, 0xbe, 0x7f, 0x3b, 0x37, 0xbe, 
	0x60, 0x36, 0xa6, 0xbe, 0xdd, 0x95, 0x0a, 0x3e, 0x7c, 0x50, 0x85, 0xbe, 
	0xde, 0xfb, 0x9b, 0xbe, 0x7c, 0xd0, 0xe3, 0x3d, 0x40, 0x42, 0x8a, 0x3b, 
	0x5a, 0xa1, 0x24, 0x3d, 0x43, 0x00, 0x8b, 0xbe, 0x80, 0x55, 0x77, 0xbc, 
	0x7d, 0xcf, 0x50, 0x3d, 0x48, 0x36, 0x8e, 0x3d, 0xc1, 0xef, 0x53, 0xbd, 
	0x09, 0xd3, 0xb0, 0x3b, 0x19, 0xdf, 0xa4, 0x3e, 0x38, 0x6e, 0xb2, 0x3d, 
	0xc8, 0xc9, 0xa0, 0x3e, 0x49, 0x43, 0x18, 0x3d, 0xe8, 0xff, 0xa1, 0x3e, 
	0x5e, 0x60, 0xf3, 0xbd, 0x36, 0x8b, 0x62, 0x3e, 0x3f, 0x1a, 0x55, 0xbe, 
	0xc3, 0xfc, 0x41, 0x3d, 0x7f, 0xa2, 0x45, 0xbd, 0x80, 0x80, 0xd5, 0x3d, 
	0x6f, 0x00, 0xcf, 0x3c, 0x56, 0xd9, 0x54, 0xbe, 0xdb, 0xb7, 0x28, 0xbe, 
	0xcf, 0xca, 0x38, 0xbe, 0xb4, 0x53, 0x53, 0x3e, 0xa7, 0x2a, 0x1c, 0xbe, 
	0x46, 0x07, 0x20, 0xbe, 0xea, 0x93, 0x7e, 0x3e, 0xfc, 0xe6, 0xea, 0xbe, 
	0x24, 0x0e, 0x11, 0xbf, 0xee, 0xae, 0x19, 0x3e, 0x4a, 0x0a, 0xc3, 0xbd, 
	0x9d, 0x58, 0x09, 0x3b, 0x28, 0x6c, 0x63, 0xbd, 0x2d, 0xb8, 0x12, 0xbf, 
	0xe7, 0x1b, 0x17, 0xbe, 0x6b, 0xb5, 0x8f, 0xbe, 0x3d, 0xe8, 0x49, 0x3e, 
	0x02, 0x9f, 0xec, 0xbd, 0x25, 0x20, 0x0b, 0x3f, 0x35, 0x7a, 0xf4, 0xbe, 
	0xa0, 0xd1, 0x99, 0x3d, 0xf9, 0xd5, 0x2b, 0xbe, 0x25, 0x44, 0xaf, 0xbe, 
	0x1d, 0x8c, 0xf7, 0xbe, 0xa6, 0xa4, 0xb6, 0xbd, 0x2c, 0xf6, 0x89, 0xbd, 
	0x92, 0xe4, 0x43, 0x3e, 0xa2, 0xfd, 0xe3, 0xbe, 0x23, 0x68, 0xdc, 0xbe, 
	0x83, 0xa7, 0x2b, 0x3e, 0x36, 0x38, 0x7f, 0xbe, 0xa1, 0xc8, 0x53, 0xbe, 
	0x68, 0x44, 0x5c, 0xbd, 0x92, 0x69, 0x86, 0xbe, 0xe0, 0x4b, 0x62, 0xbe, 
	0x3e, 0xe7, 0xf3, 0xbe, 0x8b, 0xdf, 0xf7, 0x3c, 0xaa, 0xd1, 0x2d, 0x3e, 
	0xd1, 0x36, 0xfc, 0xbe, 0x60, 0x6f, 0xee, 0x3e, 0xb9, 0xd2, 0x3a, 0x3e, 
	0x79, 0x14, 0xa4, 0xbe, 0xdb, 0xdf, 0x01, 0x3f, 0x8f, 0xf5, 0x71, 0x3e, 
	0x29, 0xef, 0x5e, 0xbe, 0x3c, 0xe2, 0x02, 0x3f, 0xaf, 0x0b, 0x4d, 0xbd, 
	0x26, 0x62, 0x20, 0x3e, 0x57, 0x78, 0xbf, 0x3e, 0x9a, 0xb0, 0x51, 0x3e, 
	0xdd, 0x87, 0x8b, 0xbe, 0x23, 0x29, 0x99, 0x3c, 0x44, 0x7f, 0x2e, 0x3e, 
	0xe4, 0xec, 0xda, 0x3d, 0x5c, 0xa1, 0x5b, 0x3e, 0xcc, 0x04, 0xff, 0x3e, 
	0xf1, 0x73, 0x57, 0xbe, 0x8a, 0xaf, 0x39, 0xbe, 0xf5, 0x23, 0x73, 0xbe, 
	0xa9, 0xfa, 0xb5, 0x3e, 0x33, 0x46, 0x4d, 0x3e, 0xe8, 0xf4, 0x93, 0x3e, 
	0x21, 0x25, 0x02, 0x3f, 0xf5, 0xb2, 0x33, 0x3e, 0x61, 0x07, 0x23, 0xbf, 
	0xf5, 0xe3, 0x2b, 0xbe, 0xea, 0xe3, 0xff, 0xff, 0x10, 0x00, 0x00, 0x00, 
	0x07, 0x00, 0x00, 0x00, 0x14, 0x00, 0x00, 0x00, 0x30, 0x00, 0x00, 0x00, 
	0x02, 0x00, 0x00, 0x00, 0x10, 0x00, 0x00, 0x00, 0x20, 0x00, 0x00, 0x00, 
	0x1a, 0x00, 0x00, 0x00, 0x6d, 0x6f, 0x64, 0x65, 0x6c, 0x5f, 0x31, 0x34, 
	0x38, 0x2f, 0x64, 0x65, 0x6e, 0x73, 0x65, 0x5f, 0x31, 0x34, 0x36, 0x2f, 
	0x4d, 0x61, 0x74, 0x4d, 0x75, 0x6c, 0x00, 0x00, 0xe8, 0xe3, 0xff, 0xff, 
	0x16, 0xe5, 0xff, 0xff, 0x04, 0x00, 0x00, 0x00, 0x00, 0x19, 0x00, 0x00, 
	0x06, 0x12, 0x1f, 0xbe, 0x3b, 0x4f, 0xb5, 0x3d, 0x33, 0x8f, 0xae, 0xba, 
	0x66, 0x17, 0x15, 0x3d, 0x3c, 0xae, 0x4a, 0x3e, 0x2b, 0x72, 0x23, 0x3e, 
	0x37, 0xef, 0x3c, 0x3d, 0xd8, 0xe2, 0x32, 0x3d, 0xa9, 0x0f, 0xac, 0x3c, 
	0x73, 0x9c, 0x93, 0xbe, 0x57, 0x77, 0x72, 0xbd, 0x20, 0xd1, 0xa5, 0x3d, 
	0xf3, 0xa2, 0x48, 0xbe, 0x24, 0xea, 0xf2, 0xbc, 0x76, 0x10, 0x5a, 0xbe, 
	0xdf, 0x00, 0x83, 0xbd, 0x66, 0xbb, 0x8f, 0xbe, 0x0c, 0x4f, 0x73, 0xbe, 
	0x63, 0x04, 0x30, 0xbd, 0xd1, 0x40, 0x51, 0xbe, 0xd2, 0xbe, 0x8a, 0xbd, 
	0xa3, 0xd9, 0x25, 0x3e, 0x17, 0x67, 0x9e, 0xbd, 0xc1, 0x28, 0x20, 0x3e, 
	0xa0, 0x2b, 0x1d, 0x3e, 0x98, 0x1d, 0xd8, 0xbd, 0xf9, 0x8d, 0x8f, 0xbe, 
	0x55, 0xb3, 0x30, 0x3e, 0x89, 0x41, 0x87, 0xbe, 0x04, 0x17, 0x46, 0x3e, 
	0x76, 0x4b, 0xa6, 0xbd, 0x80, 0x39, 0xb2, 0x3d, 0x3d, 0x0e, 0x13, 0x3e, 
	0x8a, 0xc5, 0xf5, 0xbd, 0xd8, 0xab, 0x24, 0xbe, 0x08, 0x60, 0xbd, 0x3d, 
	0x27, 0xd2, 0xa4, 0xbc, 0x37, 0xc2, 0x62, 0x3e, 0x19, 0x92, 0x01, 0xbe, 
	0x48, 0xcb, 0x53, 0xbe, 0x86, 0x04, 0x0c, 0xbe, 0x9a, 0xfe, 0x8a, 0xbe, 
	0x68, 0x9d, 0x01, 0x3e, 0xa5, 0x76, 0x53, 0xbe, 0x23, 0xd4, 0x3c, 0x3e, 
	0x35, 0xe7, 0x8b, 0x3d, 0xc3, 0x9b, 0x24, 0x3e, 0x3f, 0xbb, 0x62, 0x3c, 
	0xe6, 0x33, 0x03, 0x3e, 0x36, 0x99, 0xab, 0xbb, 0x47, 0x57, 0xb5, 0x3d, 
	0x5c, 0xe9, 0xbb, 0xbe, 0xdc, 0xdf, 0xc7, 0xbd, 0xe3, 0xf5, 0x0e, 0x3e, 
	0x03, 0x90, 0x63, 0x3c, 0xc2, 0x73, 0xa1, 0x3e, 0x6c, 0xc7, 0x93, 0x3c, 
	0x3d, 0xc1, 0x82, 0xbe, 0xe8, 0x7e, 0x0b, 0x3f, 0xe4, 0x92, 0x0a, 0x3f, 
	0xae, 0x25, 0x8c, 0x3e, 0xa4, 0xdc, 0xbd, 0xbe, 0xd9, 0xc0, 0xca, 0xbd, 
	0x73, 0x64, 0xa1, 0x3e, 0x2f, 0xbb, 0xd6, 0x3e, 0xae, 0x3a, 0x20, 0x3e, 
	0x25, 0x76, 0xe5, 0xbd, 0xfd, 0x98, 0x58, 0xbe, 0x40, 0xe6, 0x00, 0x3f, 
	0x76, 0x22, 0x3e, 0x3e, 0xaf, 0x2c, 0x84, 0x3d, 0xa0, 0x40, 0xcf, 0xbe, 
	0xd3, 0xdf, 0xef, 0x3c, 0xaf, 0xf5, 0xdb, 0x3e, 0x09, 0x5f, 0xc6, 0x3b, 
	0x76, 0xe8, 0x4f, 0x3e, 0xfd, 0xaf, 0x29, 0xbd, 0xff, 0x19, 0xdc, 0xbd, 
	0x37, 0xf1, 0x11, 0x3f, 0x00, 0x25, 0x04, 0x3f, 0x20, 0xa8, 0xe4, 0x3e, 
	0x7a, 0xf1, 0x9e, 0xbc, 0x71, 0x61, 0xbb, 0xbd, 0x78, 0x05, 0xb1, 0x3e, 
	0xf1, 0x79, 0x17, 0x3e, 0x61, 0x3a, 0x02, 0x3f, 0xdf, 0x56, 0xb9, 0xbe, 
	0x4d, 0xbe, 0x30, 0xbe, 0x5d, 0xbb, 0xac, 0x3e, 0x27, 0xcf, 0xfa, 0x3e, 
	0x66, 0x6a, 0xf3, 0x3e, 0x63, 0x4b, 0xaa, 0xbe, 0xe1, 0xd7, 0x63, 0xbe, 
	0x80, 0x22, 0x3d, 0x3e, 0x72, 0x40, 0x03, 0x3e, 0x20, 0x5a, 0x82, 0x3e, 
	0xa7, 0xf9, 0xc9, 0xbe, 0x3d, 0x94, 0x10, 0xbf, 0xda, 0xc8, 0x8b, 0x3e, 
	0xb0, 0xff, 0x1c, 0x3e, 0x9e, 0x40, 0x6d, 0x3d, 0xf4, 0x24, 0x84, 0x3d, 
	0x4a, 0x3b, 0x96, 0x3e, 0xab, 0x81, 0x6f, 0x3d, 0x4f, 0xb2, 0x3e, 0xbe, 
	0x90, 0x56, 0x05, 0xbd, 0xa0, 0xd1, 0xc0, 0x3d, 0x5f, 0x0f, 0x0e, 0x3d, 
	0x50, 0x2b, 0x37, 0xbe, 0x45, 0x32, 0x56, 0xbe, 0x66, 0x87, 0x06, 0x3e, 
	0xb5, 0x82, 0x3a, 0x3d, 0x6f, 0x0b, 0x01, 0x3f, 0xa5, 0x99, 0xf4, 0xbd, 
	0x34, 0x8a, 0x35, 0xbc, 0x0f, 0xc4, 0x0d, 0xbe, 0xec, 0x15, 0x37, 0x3e, 
	0xad, 0xea, 0xaa, 0x3e, 0xea, 0xe3, 0x2d, 0x3d, 0xec, 0xfb, 0x96, 0xbe, 
	0x7a, 0xfe, 0xef, 0xbd, 0x70, 0xc2, 0x8e, 0x3e, 0xa7, 0xdb, 0x84, 0x3e, 
	0x14, 0xed, 0xd2, 0xbe, 0x02, 0x54, 0xae, 0xbd, 0xee, 0xda, 0x21, 0x3d, 
	0xa8, 0x1d, 0x06, 0x3f, 0x62, 0x3c, 0xc3, 0x3e, 0x2b, 0x26, 0x8d, 0xbe, 
	0xe3, 0xa9, 0xc8, 0xbd, 0xca, 0xed, 0x7c, 0xbe, 0x94, 0x68, 0xfe, 0x3e, 
	0x70, 0x35, 0xba, 0x3e, 0xa6, 0xb5, 0xbf, 0xb9, 0x47, 0x13, 0x5f, 0xbe, 
	0xc8, 0x09, 0xe0, 0xbe, 0xc0, 0x5b, 0xcd, 0x3d, 0x0f, 0x0c, 0x99, 0x3e, 
	0xf0, 0x8f, 0xfa, 0xbd, 0x89, 0x48, 0x19, 0x3e, 0xaf, 0x27, 0xda, 0xbe, 
	0x66, 0x12, 0x8a, 0x3e, 0xe7, 0x98, 0xf8, 0x3e, 0x6f, 0x3d, 0xcb, 0xbd, 
	0x88, 0x22, 0xf3, 0x3d, 0x1c, 0xf4, 0x94, 0xbe, 0x11, 0x0d, 0x50, 0x3e, 
	0x25, 0x74, 0x87, 0x3e, 0xa8, 0xca, 0x6d, 0xbe, 0x39, 0x09, 0xdb, 0x3d, 
	0xf6, 0x3a, 0x88, 0xbe, 0xea, 0x2b, 0x99, 0x3e, 0x1f, 0x90, 0x66, 0x3e, 
	0x46, 0x4a, 0xbc, 0x3d, 0x0b, 0xe8, 0x39, 0xbd, 0xc4, 0x8f, 0x2e, 0xbe, 
	0xf6, 0xab, 0xa8, 0x3e, 0x36, 0x06, 0x93, 0x3d, 0x64, 0xf7, 0x6a, 0xbe, 
	0x43, 0x13, 0xb2, 0xbd, 0xc1, 0x24, 0x87, 0xbe, 0xe7, 0x69, 0x9e, 0x3e, 
	0x1a, 0x76, 0x65, 0x3e, 0x34, 0xcd, 0xd4, 0xbd, 0x6a, 0x51, 0xf3, 0x3b, 
	0xdb, 0x8d, 0xae, 0xbc, 0xae, 0x38, 0xbe, 0x3e, 0x8b, 0xbe, 0xb5, 0x3e, 
	0xf0, 0x46, 0x34, 0xbe, 0xd8, 0x33, 0xf7, 0xbd, 0xff, 0xf2, 0x1e, 0x3e, 
	0x6f, 0x2f, 0x8d, 0x3d, 0x7c, 0xc0, 0x15, 0x3e, 0x6c, 0xe1, 0xed, 0xbc, 
	0x8f, 0x47, 0x63, 0xbd, 0x45, 0xcd, 0x42, 0xbe, 0x77, 0x9d, 0x7e, 0x3e, 
	0x0d, 0xc7, 0x61, 0x3e, 0x31, 0xa6, 0x38, 0xbe, 0xbb, 0xd3, 0x61, 0x3e, 
	0xf0, 0x1e, 0x95, 0xbd, 0x28, 0xe0, 0xd7, 0x3e, 0xa7, 0x8a, 0x92, 0x3e, 
	0x87, 0x4e, 0xa4, 0xbd, 0x5b, 0x42, 0x27, 0x3e, 0x22, 0x2c, 0x44, 0x3e, 
	0x82, 0x0f, 0x9b, 0x3e, 0x3f, 0x0e, 0xb9, 0x3e, 0x58, 0xb7, 0x9a, 0x3d, 
	0xe5, 0x43, 0x17, 0x3e, 0x15, 0x33, 0xff, 0x3d, 0x01, 0x37, 0x25, 0x3e, 
	0xcc, 0x0a, 0x6d, 0x3e, 0x7c, 0x55, 0x0f, 0xbe, 0x99, 0x1f, 0x37, 0x3e, 
	0x42, 0x23, 0x8a, 0xbe, 0x9c, 0x07, 0x18, 0x3c, 0xee, 0xc8, 0x09, 0x3e, 
	0xc9, 0x1a, 0x95, 0x3d, 0x3a, 0xdb, 0x32, 0x3e, 0x29, 0x9a, 0xd8, 0x3e, 
	0xf6, 0xd7, 0x5b, 0x3d, 0x7e, 0x9a, 0x7f, 0xbd, 0x3b, 0x6e, 0x4f, 0x3e, 
	0xc9, 0xf2, 0xf6, 0x3e, 0x81, 0xf9, 0xc3, 0x3e, 0x82, 0x6a, 0x4c, 0xbe, 
	0xf8, 0xa2, 0x95, 0xbe, 0x52, 0xa0, 0x19, 0x3d, 0xf6, 0x32, 0x57, 0x3e, 
	0xd7, 0x6b, 0xb6, 0x3d, 0x36, 0xdc, 0x90, 0xbc, 0x45, 0x9b, 0xe4, 0xbe, 
	0xb1, 0xfa, 0xf7, 0x3e, 0x88, 0xd1, 0x4c, 0x3c, 0xb4, 0x4e, 0x73, 0x3e, 
	0xab, 0xa1, 0xdb, 0xbe, 0x39, 0x28, 0x0a, 0xbe, 0x8e, 0x58, 0xe0, 0x3e, 
	0x44, 0xde, 0xa3, 0x3e, 0x48, 0x1b, 0xbe, 0x3e, 0x06, 0xf3, 0xb3, 0xbe, 
	0x75, 0xed, 0xa6, 0xbe, 0xe5, 0x2a, 0xd9, 0x3e, 0x08, 0xaf, 0x88, 0x3e, 
	0x93, 0xb4, 0xd5, 0x3e, 0x5f, 0xcb, 0x12, 0xbd, 0x04, 0xe0, 0x79, 0xbe, 
	0xaf, 0x33, 0x37, 0x3e, 0x7b, 0x9d, 0x11, 0x3e, 0xb1, 0x93, 0xb2, 0x3e, 
	0x09, 0xd9, 0xc1, 0xbe, 0x33, 0x88, 0x4d, 0xbe, 0x03, 0xbe, 0xc2, 0x3e, 
	0x08, 0xf1, 0xf2, 0x3d, 0x9a, 0xd3, 0xc5, 0x3d, 0x1c, 0xe9, 0x7c, 0xbd, 
	0xc8, 0x02, 0x9f, 0xbe, 0xcc, 0x61, 0x07, 0x3d, 0xfa, 0x32, 0x7e, 0x3e, 
	0x7c, 0x11, 0xcf, 0x3e, 0x6a, 0x13, 0x9c, 0xbe, 0x0e, 0xc5, 0xd2, 0xbd, 
	0x38, 0x57, 0x0e, 0x3f, 0x93, 0xa1, 0x24, 0x3d, 0x89, 0x0d, 0x15, 0x3f, 
	0x00, 0xab, 0xd9, 0xbe, 0x34, 0xe4, 0x88, 0xbe, 0x05, 0x93, 0xcd, 0x3e, 
	0xe3, 0xb2, 0x5e, 0x3d, 0x72, 0xc8, 0x10, 0xbe, 0x07, 0x6c, 0xd1, 0x3e, 
	0x5d, 0xd2, 0xbb, 0x3e, 0x2a, 0x63, 0x84, 0x3d, 0xb3, 0x2c, 0x1b, 0xbe, 
	0xd2, 0x44, 0x92, 0xbd, 0x1d, 0x0b, 0xdb, 0x3e, 0x28, 0x7a, 0x4e, 0x3e, 
	0xbc, 0x43, 0xe4, 0xbe, 0xda, 0x90, 0x11, 0x3d, 0x83, 0x85, 0x9f, 0xbe, 
	0xbf, 0x88, 0xbe, 0xbc, 0x51, 0xff, 0xa3, 0x3e, 0x4d, 0x41, 0x38, 0xbe, 
	0xe7, 0x70, 0x84, 0x3c, 0xe5, 0x92, 0x7d, 0xbe, 0x47, 0x41, 0x9f, 0x3d, 
	0x5a, 0xdf, 0xd5, 0x3e, 0x25, 0x63, 0xdb, 0xbe, 0xc9, 0x2d, 0x91, 0xbd, 
	0x00, 0x70, 0xd7, 0xbd, 0x3a, 0x48, 0x63, 0x3e, 0x94, 0x35, 0x64, 0x3c, 
	0xa6, 0x89, 0xce, 0xbe, 0x5e, 0xbf, 0xb2, 0xbe, 0x69, 0x9c, 0x2a, 0xbe, 
	0x60, 0x91, 0x7e, 0x3e, 0xad, 0xb0, 0x03, 0x3e, 0xbc, 0x34, 0xdb, 0xbe, 
	0xd7, 0xa2, 0x8b, 0x3d, 0xed, 0x74, 0x74, 0xbe, 0xc7, 0x0a, 0xc6, 0x3e, 
	0x93, 0x88, 0xf7, 0x3e, 0x04, 0x66, 0x4d, 0xbe, 0x92, 0x3e, 0x4f, 0xbd, 
	0x43, 0x0d, 0x50, 0xbe, 0xb4, 0xed, 0xad, 0x3e, 0x45, 0xa6, 0x1a, 0x3e, 
	0xed, 0xc7, 0xfe, 0xbd, 0x2b, 0x1a, 0x83, 0xbe, 0x38, 0xc7, 0x68, 0xbe, 
	0xfe, 0xaf, 0x9e, 0x3e, 0xb4, 0x71, 0xa7, 0x3d, 0x58, 0xcb, 0xd7, 0x3c, 
	0x58, 0x00, 0x0e, 0xbe, 0xf3, 0xb1, 0x05, 0xbd, 0xa4, 0xe6, 0x2d, 0x3e, 
	0x80, 0xf4, 0x21, 0x3c, 0x90, 0x78, 0x77, 0xbd, 0x3d, 0xdc, 0xa8, 0xbe, 
	0xb3, 0xe7, 0x58, 0xbd, 0x10, 0x41, 0xc8, 0x3e, 0x48, 0x1f, 0xc5, 0x3e, 
	0x9b, 0xeb, 0x88, 0xbe, 0x87, 0xb7, 0x02, 0xbe, 0x34, 0xdc, 0x8d, 0xbe, 
	0xa2, 0xe6, 0x86, 0x3e, 0xf7, 0x17, 0x2d, 0xbd, 0x8b, 0x64, 0xf6, 0x3d, 
	0x59, 0x20, 0x21, 0x3d, 0x0b, 0x20, 0x90, 0xbe, 0xe0, 0x81, 0xc4, 0x3d, 
	0xdd, 0xe6, 0x13, 0x3e, 0xaa, 0x27, 0x30, 0xbc, 0x12, 0xc8, 0xa4, 0x3d, 
	0xd2, 0x84, 0x33, 0xbe, 0x5d, 0xa0, 0xab, 0x3d, 0x69, 0xe2, 0x81, 0x3e, 
	0x64, 0x47, 0x17, 0x3e, 0xf1, 0x65, 0xc8, 0xbd, 0xa0, 0x1d, 0x99, 0xbe, 
	0xd1, 0xf4, 0x38, 0xbd, 0xdf, 0x0e, 0xaf, 0x3e, 0xa7, 0x6a, 0xa4, 0xbe, 
	0x60, 0xcd, 0x01, 0xbe, 0xa0, 0x59, 0x9b, 0x3d, 0xa3, 0xc8, 0x89, 0x3e, 
	0x2b, 0x82, 0x81, 0x3e, 0x72, 0xa5, 0x34, 0x3d, 0x85, 0x80, 0x8d, 0xbe, 
	0x0a, 0x77, 0x25, 0xbd, 0x31, 0xc3, 0x7b, 0x3e, 0x29, 0x7e, 0x6c, 0x3e, 
	0xd2, 0xb3, 0x8d, 0x3d, 0xfb, 0x94, 0x2c, 0xbe, 0xfa, 0x96, 0x96, 0xbe, 
	0x79, 0x81, 0xd6, 0x3e, 0x98, 0x32, 0x13, 0x3d, 0xb2, 0x3c, 0xe5, 0x3d, 
	0x80, 0x43, 0xf7, 0xbd, 0xec, 0x2c, 0x71, 0xbe, 0x1f, 0xea, 0xea, 0x3e, 
	0x64, 0xef, 0xa9, 0x3e, 0xfc, 0x7a, 0x88, 0xbe, 0x39, 0x37, 0x79, 0x3c, 
	0xd1, 0xf5, 0xa1, 0x3d, 0x44, 0x26, 0xd3, 0x3e, 0xb3, 0xb5, 0x9a, 0x3e, 
	0xf5, 0x08, 0x65, 0xbd, 0x7e, 0x31, 0x67, 0xbd, 0x24, 0xb0, 0x15, 0x3e, 
	0x67, 0x66, 0x2f, 0xbe, 0x52, 0xc2, 0x01, 0xbe, 0xc1, 0xee, 0xca, 0x3d, 
	0xef, 0x76, 0x5c, 0x3e, 0x68, 0xf3, 0x0a, 0xbe, 0x05, 0x28, 0x0b, 0xbc, 
	0xda, 0x14, 0xde, 0x3d, 0x33, 0xc2, 0xa8, 0x3c, 0x40, 0x13, 0x02, 0x3e, 
	0x9b, 0xe9, 0x99, 0x3d, 0x57, 0xf1, 0x41, 0x3d, 0xd8, 0x5a, 0x59, 0x3e, 
	0xfa, 0xc1, 0x72, 0xbe, 0x4a, 0x50, 0xe1, 0x3d, 0x96, 0x1d, 0xa8, 0xbd, 
	0x0e, 0x32, 0xf8, 0xbc, 0x80, 0x80, 0x5f, 0xbe, 0xd7, 0x39, 0x24, 0x3e, 
	0x49, 0x23, 0xcd, 0xbd, 0xc5, 0xa4, 0xfd, 0xbd, 0x61, 0xbe, 0x70, 0xbe, 
	0x66, 0xc1, 0x80, 0x3e, 0xcd, 0x45, 0xee, 0x3d, 0x3a, 0xe0, 0x0a, 0xbe, 
	0x7f, 0x7b, 0x9a, 0xbd, 0x72, 0x58, 0x63, 0x3e, 0x30, 0x0a, 0x26, 0x3e, 
	0x55, 0x9c, 0x42, 0x3e, 0xd8, 0x23, 0x16, 0xbe, 0xb6, 0x23, 0x8a, 0xbe, 
	0xfc, 0xb9, 0x1a, 0x3e, 0x3d, 0x52, 0x89, 0xbd, 0x5a, 0xfc, 0xda, 0x3c, 
	0xd5, 0x65, 0x1e, 0x3e, 0x6e, 0x8b, 0x1e, 0x3b, 0xce, 0x5e, 0x4d, 0xbe, 
	0xf0, 0x87, 0x03, 0x3e, 0x12, 0x1c, 0x1f, 0xbe, 0xef, 0xa9, 0x1a, 0xbd, 
	0x73, 0xa5, 0x7c, 0x3e, 0xb1, 0xf2, 0x14, 0xbd, 0xe6, 0x48, 0x8a, 0xbe, 
	0x74, 0x59, 0x87, 0xbe, 0x46, 0x35, 0x03, 0xbe, 0x9a, 0x2c, 0x83, 0xbe, 
	0xf1, 0xbd, 0xeb, 0xbd, 0xe0, 0x60, 0x45, 0xbe, 0x0c, 0x2c, 0x93, 0xbd, 
	0x74, 0x26, 0x0a, 0xbc, 0x54, 0xd4, 0xaf, 0x3c, 0x84, 0xbb, 0x30, 0x3e, 
	0x5d, 0x78, 0xdb, 0x3e, 0x96, 0x98, 0x47, 0x3e, 0x91, 0xc2, 0x09, 0x3e, 
	0xed, 0xf0, 0x26, 0xbe, 0x5c, 0x57, 0x92, 0x3e, 0x4a, 0xc7, 0xe4, 0x3d, 
	0xa1, 0xb0, 0x1c, 0xbe, 0x74, 0x1b, 0x3c, 0x3e, 0x26, 0x61, 0x23, 0xbe, 
	0x4b, 0x67, 0x66, 0xbd, 0x80, 0x9f, 0xca, 0x3d, 0x2f, 0x4e, 0x04, 0xbd, 
	0x82, 0x1d, 0xf2, 0x3d, 0x9a, 0xc4, 0xa8, 0xbc, 0x27, 0x67, 0xe8, 0x3e, 
	0x54, 0x3d, 0x27, 0x3e, 0xb3, 0x98, 0xb7, 0x3d, 0xbe, 0xed, 0xd3, 0x3d, 
	0xc7, 0x82, 0x69, 0xbd, 0xf6, 0xa0, 0x8f, 0x3d, 0xae, 0x96, 0x02, 0xbd, 
	0x19, 0xcc, 0x54, 0xbe, 0xaa, 0x09, 0xc3, 0xbd, 0xba, 0x87, 0x68, 0xbd, 
	0x8b, 0x7f, 0xb8, 0x3e, 0xc8, 0x22, 0x98, 0x3e, 0xeb, 0x39, 0x11, 0x3e, 
	0x6a, 0x69, 0xa7, 0x3d, 0x47, 0x06, 0x95, 0xbe, 0x28, 0xcf, 0x5f, 0x3e, 
	0xee, 0x02, 0xa2, 0x3e, 0xcb, 0x16, 0x4b, 0xbd, 0x06, 0x0a, 0x94, 0x3e, 
	0x76, 0xfe, 0xfb, 0x3d, 0xe6, 0x0a, 0x50, 0x3e, 0xce, 0x91, 0xb7, 0x3c, 
	0x2f, 0x41, 0xa7, 0xbd, 0x94, 0xa6, 0x1f, 0x3e, 0x2a, 0x77, 0x1a, 0x3e, 
	0x34, 0x7d, 0xd7, 0x3e, 0xc8, 0x02, 0x14, 0x3e, 0x02, 0x0c, 0xfb, 0x3d, 
	0x48, 0x59, 0x21, 0x3e, 0x91, 0xb5, 0x03, 0x3d, 0x2d, 0x41, 0xfc, 0x3d, 
	0x6c, 0x44, 0x01, 0x3f, 0x88, 0xfa, 0x92, 0x3c, 0x17, 0xf8, 0x2c, 0xbe, 
	0x34, 0x12, 0x41, 0xbd, 0x00, 0xb2, 0x15, 0xbc, 0x82, 0x1d, 0xf3, 0x3d, 
	0x23, 0x58, 0x79, 0x3e, 0xb8, 0x9b, 0x1b, 0x3d, 0xbe, 0xd1, 0x4b, 0xbd, 
	0x6b, 0xcf, 0xad, 0xbe, 0x1c, 0x0f, 0xdb, 0x3b, 0xa8, 0x32, 0xce, 0x3e, 
	0x6b, 0xb6, 0x9f, 0x3e, 0x97, 0xd2, 0x01, 0x3d, 0x56, 0x75, 0x99, 0x3d, 
	0x52, 0xb2, 0xfc, 0xbd, 0x34, 0xbf, 0xd8, 0x3e, 0x93, 0xf1, 0x8e, 0x3e, 
	0x2f, 0x1d, 0x00, 0x3e, 0x28, 0x75, 0xd4, 0xbd, 0x24, 0xb2, 0x18, 0xbe, 
	0xe9, 0x46, 0xba, 0x3e, 0x88, 0x2c, 0x13, 0xbd, 0xe0, 0x88, 0x3d, 0xbc, 
	0x7d, 0x5a, 0xa4, 0xbe, 0x63, 0x4d, 0xf5, 0xbd, 0x31, 0x6f, 0xce, 0x3e, 
	0xae, 0xa2, 0x99, 0x3e, 0xfa, 0x43, 0x0a, 0xbe, 0x33, 0x2e, 0x9d, 0xbe, 
	0x7e, 0x0a, 0xc1, 0x3d, 0x62, 0x02, 0x9e, 0x3e, 0x01, 0xca, 0x6c, 0x3e, 
	0x9e, 0x3e, 0x9c, 0x3e, 0x56, 0xac, 0xa2, 0xbd, 0x37, 0x91, 0x59, 0xbe, 
	0xf5, 0x1b, 0xc5, 0x3e, 0x20, 0x6c, 0x7d, 0x3e, 0x8d, 0xe0, 0x58, 0xbd, 
	0xa4, 0x0e, 0x42, 0xbe, 0xee, 0xb5, 0x43, 0x3d, 0xbf, 0x24, 0x91, 0x3d, 
	0x9c, 0xe9, 0x9c, 0x3e, 0x50, 0x42, 0xe8, 0xbc, 0x91, 0xe8, 0x95, 0xbd, 
	0x86, 0xba, 0x00, 0x3c, 0xec, 0xc0, 0x89, 0x3d, 0x67, 0x11, 0xb0, 0x3e, 
	0xce, 0x99, 0xb0, 0x3e, 0x0a, 0xc2, 0x86, 0xbd, 0x74, 0x35, 0x80, 0xbe, 
	0xaa, 0x1a, 0xd3, 0x3e, 0xd5, 0xe5, 0xa0, 0x3e, 0xd4, 0x42, 0x37, 0xbe, 
	0x50, 0x20, 0x7f, 0x3d, 0x7c, 0xe3, 0x03, 0xbe, 0x04, 0x43, 0x1e, 0x3e, 
	0x84, 0xd0, 0x0a, 0xbe, 0x00, 0x77, 0x1b, 0xbe, 0xa8, 0x2e, 0x55, 0xbe, 
	0x31, 0x6d, 0x3c, 0xbe, 0x88, 0x8e, 0x87, 0x3e, 0xca, 0x48, 0x5d, 0xbe, 
	0x62, 0x20, 0x0e, 0xbe, 0x1f, 0x3b, 0x08, 0xbe, 0xe8, 0xe5, 0x10, 0x3e, 
	0x10, 0x95, 0x48, 0x3d, 0x5c, 0xf0, 0x04, 0xbe, 0xd0, 0xd1, 0x2b, 0x3d, 
	0x40, 0x6e, 0xda, 0x3d, 0xf0, 0xb4, 0x1d, 0xbe, 0xe4, 0xd6, 0x7a, 0xbd, 
	0xf0, 0x7a, 0x66, 0x3d, 0xd0, 0xcc, 0x88, 0x3c, 0x40, 0x47, 0x40, 0xbd, 
	0x68, 0x7b, 0xb3, 0xbc, 0xe8, 0x6d, 0xb1, 0x3d, 0x0a, 0xf1, 0x00, 0xbe, 
	0x4a, 0xb3, 0x89, 0x3e, 0x3a, 0xf1, 0x2e, 0xbe, 0xb4, 0x73, 0x91, 0xbd, 
	0xb8, 0x73, 0x3b, 0xbe, 0xcc, 0x2a, 0xf6, 0xbd, 0x5c, 0x0b, 0x74, 0xbd, 
	0x94, 0xa3, 0x25, 0xbd, 0xd0, 0x67, 0x35, 0xbe, 0xaf, 0xea, 0x27, 0xbe, 
	0xaa, 0x89, 0x17, 0x3e, 0x1c, 0xc5, 0x89, 0x3e, 0x27, 0xaf, 0x5e, 0xbe, 
	0x88, 0x07, 0x72, 0xbe, 0x46, 0x64, 0x24, 0xbe, 0xe9, 0x57, 0x6a, 0xbe, 
	0x00, 0x4b, 0x16, 0xbe, 0x32, 0x9a, 0x94, 0xbd, 0x9e, 0xe8, 0x50, 0xbe, 
	0x3c, 0x2c, 0x3d, 0xbe, 0xe6, 0x65, 0x65, 0x3e, 0x78, 0x90, 0x93, 0x3d, 
	0x51, 0x9e, 0x82, 0xbe, 0x64, 0x16, 0x8a, 0x3e, 0x80, 0xae, 0x6c, 0x3e, 
	0x00, 0xbb, 0xb9, 0x3c, 0x70, 0x40, 0x4c, 0xbe, 0x67, 0x93, 0x81, 0x3d, 
	0xc6, 0x6c, 0x16, 0x3e, 0xd9, 0x49, 0x5a, 0xbe, 0x7c, 0x20, 0x91, 0xbe, 
	0x8c, 0x93, 0x5a, 0xbe, 0x46, 0xb8, 0x66, 0x3e, 0x70, 0x52, 0xd8, 0x3e, 
	0x1e, 0x5c, 0xf7, 0x3d, 0x2c, 0xf2, 0x05, 0xbe, 0xd6, 0xb8, 0xde, 0x3d, 
	0x24, 0xda, 0xc6, 0xbc, 0xd0, 0x3a, 0xba, 0x3e, 0xa7, 0x44, 0xc2, 0xbc, 
	0x23, 0xfb, 0xb5, 0x3b, 0xb0, 0xf8, 0x93, 0xbe, 0x4e, 0x01, 0x87, 0x3d, 
	0x24, 0x83, 0xc1, 0x3e, 0x74, 0xcb, 0xa7, 0x3d, 0x78, 0xa7, 0x57, 0x3e, 
	0xe1, 0xd3, 0x92, 0xbe, 0x7b, 0xdd, 0x1f, 0x3d, 0x9b, 0x4f, 0xba, 0x3e, 
	0xb8, 0xe3, 0xca, 0xbd, 0x36, 0xa0, 0x52, 0xbe, 0x14, 0xd6, 0xdc, 0xbc, 
	0xce, 0xe0, 0x89, 0x3e, 0x18, 0x54, 0xcc, 0x3e, 0x2f, 0x98, 0x0a, 0xbe, 
	0x3d, 0xe0, 0xdf, 0x3d, 0x82, 0x3d, 0x4c, 0xbe, 0x39, 0xd3, 0x1b, 0x3c, 
	0x5a, 0xde, 0x97, 0x3e, 0x3c, 0x3a, 0x2c, 0xbe, 0x89, 0xc8, 0x6a, 0xbe, 
	0x94, 0xa2, 0x2d, 0x3d, 0x7c, 0xbd, 0xd4, 0x3e, 0x81, 0xf5, 0xb7, 0x3e, 
	0x91, 0x0f, 0x57, 0x3d, 0x57, 0x09, 0xc2, 0x3d, 0x7b, 0xe3, 0x61, 0xbe, 
	0xc4, 0x66, 0x36, 0xbd, 0xa4, 0x54, 0xd4, 0x3e, 0xcd, 0x84, 0xaf, 0xbe, 
	0xf3, 0xb2, 0xdf, 0xbd, 0xc4, 0x45, 0x89, 0x3d, 0x9f, 0xa6, 0xa8, 0x3d, 
	0x46, 0x21, 0x65, 0x3d, 0xc7, 0x56, 0x88, 0xbd, 0x0c, 0x0a, 0x2d, 0xbd, 
	0x10, 0x98, 0x2a, 0xbd, 0xf6, 0xda, 0xc2, 0x3e, 0x1a, 0x7f, 0x14, 0xbc, 
	0x05, 0x53, 0x73, 0x3c, 0x4b, 0x8b, 0x30, 0x3e, 0xc8, 0x77, 0x1e, 0xbe, 
	0x9b, 0x09, 0x90, 0x3e, 0xf4, 0x30, 0x9d, 0x3e, 0x34, 0x1b, 0xb1, 0xbd, 
	0x60, 0x83, 0xd9, 0xbd, 0x78, 0x64, 0x90, 0xbe, 0x35, 0xbf, 0x6c, 0x3e, 
	0x98, 0x6c, 0x7e, 0x3e, 0x49, 0x48, 0x3f, 0xbe, 0x24, 0xf3, 0x7b, 0x3d, 
	0xd8, 0x4a, 0xb2, 0xbd, 0x87, 0xe2, 0x51, 0xbd, 0x67, 0x4a, 0xc9, 0x3e, 
	0x08, 0xab, 0x94, 0xbd, 0x36, 0xa1, 0xb1, 0xbe, 0xef, 0xc6, 0x9c, 0xbc, 
	0x5f, 0x58, 0x95, 0x3e, 0x2a, 0x08, 0xa9, 0x3e, 0x28, 0x4c, 0x9d, 0xbd, 
	0x56, 0x81, 0xa6, 0xbe, 0xb4, 0x1e, 0xc1, 0x3c, 0xb6, 0xe6, 0xc9, 0x3e, 
	0x43, 0xf3, 0x53, 0x3e, 0x14, 0x1e, 0x14, 0xbd, 0xdd, 0x09, 0x90, 0xbb, 
	0xb0, 0x40, 0x6f, 0xbe, 0xe6, 0xc0, 0x02, 0x3e, 0x93, 0x4f, 0xf5, 0x3e, 
	0x8a, 0x2b, 0x47, 0xbd, 0xa5, 0xc4, 0x8f, 0xbe, 0xd5, 0x49, 0xb8, 0xbe, 
	0x19, 0xe5, 0x97, 0x3e, 0xae, 0x8a, 0xc4, 0x3e, 0xed, 0xf6, 0x75, 0x3c, 
	0x97, 0x7d, 0xea, 0xbc, 0x01, 0xe3, 0xc9, 0xbd, 0x40, 0xc0, 0x72, 0x3e, 
	0x9f, 0xdd, 0xba, 0x3d, 0xa8, 0x2e, 0x88, 0xbe, 0xcd, 0x3e, 0xf1, 0xbd, 
	0xce, 0xa7, 0x72, 0x3d, 0x27, 0x82, 0xbb, 0x3e, 0x70, 0x57, 0x12, 0x3e, 
	0x7c, 0xe1, 0x4f, 0xbe, 0xb1, 0x98, 0x99, 0xbe, 0x98, 0x9c, 0x47, 0x3e, 
	0x38, 0x2b, 0x21, 0x3d, 0x11, 0xf3, 0x73, 0xbe, 0x8e, 0xaa, 0x80, 0x3e, 
	0x00, 0xfa, 0xa7, 0xbb, 0x20, 0x22, 0x51, 0xbc, 0x60, 0x8a, 0x6d, 0x3d, 
	0xe0, 0x46, 0xc3, 0xbc, 0xb7, 0x0f, 0x35, 0xbe, 0x86, 0xc6, 0xaa, 0xbd, 
	0xe0, 0x3d, 0x3a, 0x3d, 0x56, 0xe1, 0x60, 0x3e, 0xb2, 0xb4, 0x16, 0x3e, 
	0x70, 0x1f, 0xdd, 0x3c, 0xfa, 0x0a, 0x87, 0xbe, 0x28, 0x59, 0x2d, 0x3d, 
	0xb8, 0x33, 0x86, 0x3e, 0xb7, 0xc3, 0x0e, 0xbe, 0xa2, 0x83, 0x54, 0xbe, 
	0x62, 0x5c, 0x03, 0x3e, 0x04, 0x73, 0xbd, 0xbd, 0xf0, 0xd4, 0xa0, 0x3c, 
	0x12, 0xb5, 0x3e, 0x3e, 0x20, 0x95, 0xa0, 0x3c, 0x5c, 0x41, 0x0f, 0xbd, 
	0xb8, 0x37, 0x27, 0xbd, 0x30, 0xda, 0xd6, 0x3c, 0x00, 0x38, 0x82, 0xbe, 
	0x20, 0x8e, 0x26, 0x3e, 0xe1, 0x15, 0x77, 0xbe, 0xcf, 0xde, 0x0c, 0xbe, 
	0xe0, 0x85, 0x52, 0x3e, 0xc8, 0xd4, 0xbb, 0xbd, 0xd1, 0x63, 0x04, 0xbe, 
	0xaa, 0x33, 0x82, 0x3e, 0xd8, 0xc7, 0xcd, 0xbd, 0x24, 0x13, 0x5d, 0xbd, 
	0x4a, 0x08, 0xfa, 0xbd, 0xea, 0x27, 0x25, 0x3e, 0x34, 0x10, 0x06, 0xbd, 
	0xae, 0x81, 0x72, 0xbe, 0x18, 0xce, 0x8f, 0xbd, 0xec, 0x44, 0x02, 0xbe, 
	0x46, 0xe7, 0x84, 0xbe, 0x60, 0x97, 0x70, 0x3c, 0x60, 0x2b, 0x38, 0x3d, 
	0xf0, 0xf9, 0xe4, 0xbc, 0xd4, 0x27, 0x19, 0xbd, 0x28, 0x98, 0x9e, 0x3d, 
	0x23, 0x96, 0x2e, 0xbe, 0x8a, 0xbe, 0x5f, 0x3c, 0x70, 0x59, 0x97, 0x3e, 
	0xec, 0x41, 0x06, 0x3d, 0x70, 0x40, 0x59, 0xbe, 0xdf, 0x32, 0xbd, 0xbd, 
	0x93, 0xa9, 0x67, 0xbe, 0x1d, 0x29, 0x51, 0xbd, 0xc1, 0xa0, 0xbb, 0x3e, 
	0x08, 0x85, 0x2f, 0xbc, 0xb1, 0xa9, 0x4c, 0xbd, 0x59, 0x01, 0x41, 0x3e, 
	0xb9, 0xad, 0x50, 0x3e, 0x86, 0x3f, 0x97, 0x3d, 0xf7, 0x1c, 0x98, 0xbe, 
	0x27, 0x06, 0x75, 0x3e, 0x2c, 0xa7, 0xd4, 0xbc, 0xba, 0x0b, 0x97, 0x3e, 
	0x06, 0xef, 0xa5, 0x3e, 0x4d, 0x0e, 0x81, 0xbe, 0xcb, 0x54, 0x93, 0x3d, 
	0x5d, 0x13, 0x59, 0x3d, 0xb4, 0x4b, 0xd9, 0x3e, 0x4b, 0x0a, 0xbd, 0x3e, 
	0x20, 0x12, 0x19, 0x3c, 0x49, 0xe9, 0x5d, 0x3e, 0x8a, 0x62, 0x3a, 0x3e, 
	0xaa, 0x4a, 0x7c, 0x3e, 0xbb, 0x3c, 0x64, 0x3e, 0xd5, 0x6a, 0x82, 0xbe, 
	0x03, 0xd9, 0x0d, 0x3e, 0x91, 0xc7, 0x68, 0xbe, 0xd8, 0x77, 0x0c, 0x3e, 
	0xfb, 0xa7, 0x98, 0x3d, 0xed, 0x46, 0x1c, 0x3d, 0x6b, 0x38, 0x83, 0x3e, 
	0x8d, 0x94, 0x13, 0x3e, 0x1e, 0x38, 0x02, 0x3e, 0x5c, 0x95, 0xf6, 0x3e, 
	0xf5, 0x99, 0xef, 0xbd, 0x48, 0xac, 0x68, 0x3e, 0xf2, 0xaa, 0x20, 0xbe, 
	0x0d, 0x46, 0xcf, 0x3e, 0x16, 0xfd, 0xe4, 0x3d, 0xc1, 0x83, 0x09, 0xbe, 
	0x0d, 0x79, 0x45, 0x3e, 0x84, 0x93, 0x03, 0xbd, 0xa9, 0x6b, 0x2d, 0x3e, 
	0x8a, 0xc5, 0x8f, 0x3e, 0x8c, 0x6a, 0x45, 0x3c, 0x5b, 0xf6, 0x5c, 0xbe, 
	0x06, 0xff, 0x95, 0xbd, 0xfc, 0x3f, 0xdd, 0x3d, 0x8b, 0x66, 0x82, 0xbe, 
	0xa0, 0x7c, 0x31, 0x3c, 0xbe, 0x84, 0x6b, 0xbe, 0x6a, 0x10, 0x1b, 0xbe, 
	0xe8, 0x45, 0xbf, 0xbd, 0xa0, 0x26, 0x00, 0xbd, 0x17, 0xea, 0x24, 0xbe, 
	0x02, 0x9d, 0x17, 0xbe, 0x38, 0x5d, 0xa0, 0x3d, 0x43, 0x44, 0x43, 0xbe, 
	0x3c, 0xac, 0xfd, 0x3d, 0x3b, 0x26, 0x5a, 0xbe, 0xc0, 0xae, 0x3d, 0xbc, 
	0xda, 0x28, 0x2e, 0x3e, 0xa0, 0x7e, 0x62, 0x3e, 0x30, 0x98, 0xfc, 0x3d, 
	0x60, 0x82, 0x3f, 0xbe, 0x38, 0xf0, 0x85, 0xbe, 0x03, 0x7d, 0x7a, 0xbe, 
	0xa0, 0x3e, 0x89, 0xbe, 0xcc, 0x3d, 0x3e, 0xbd, 0x1f, 0x2a, 0x27, 0xbe, 
	0xac, 0x23, 0x0c, 0x3e, 0x10, 0x2b, 0x5a, 0xbd, 0x88, 0xf7, 0x82, 0x3e, 
	0x7b, 0x7c, 0x10, 0xbe, 0xe2, 0xb7, 0x87, 0x3e, 0x9a, 0x67, 0x7f, 0xbe, 
	0x78, 0x11, 0xd6, 0xbc, 0x3e, 0x7d, 0x1a, 0xbe, 0x24, 0xd2, 0x2d, 0x3e, 
	0xe0, 0x55, 0x61, 0x3e, 0x60, 0x01, 0x0b, 0x3e, 0xe1, 0x4e, 0x84, 0xbe, 
	0x14, 0x1b, 0x63, 0xbe, 0x1c, 0x8c, 0xdf, 0x3d, 0x70, 0x95, 0xff, 0x3c, 
	0x24, 0x44, 0xdd, 0x3d, 0xb8, 0x5b, 0xda, 0xbd, 0xf8, 0xeb, 0x20, 0xbe, 
	0xcc, 0xa8, 0xd5, 0x3d, 0x6e, 0x4e, 0x5e, 0xbe, 0x48, 0xd0, 0x6d, 0x3d, 
	0x20, 0xcb, 0x60, 0x3e, 0x83, 0xd2, 0x79, 0xbe, 0x1e, 0xb3, 0x34, 0x3e, 
	0xf6, 0x64, 0x7c, 0xbe, 0xbc, 0x08, 0x8a, 0x3e, 0xc9, 0xa8, 0xb9, 0x3e, 
	0x85, 0x2d, 0x94, 0xbe, 0xc0, 0xb0, 0x78, 0xbe, 0x6c, 0x09, 0xaa, 0x3e, 
	0x5c, 0x9c, 0xea, 0x3e, 0x33, 0xdf, 0x89, 0x3e, 0xd5, 0x85, 0x3e, 0xbb, 
	0xda, 0x3f, 0x80, 0xbe, 0xdd, 0x6e, 0x42, 0x3e, 0xcd, 0xc8, 0xfe, 0x3d, 
	0xcb, 0x78, 0x43, 0x3e, 0xbf, 0x95, 0xf2, 0xbc, 0x23, 0x78, 0x28, 0xbe, 
	0x41, 0x38, 0x11, 0x3f, 0xcc, 0x01, 0xcf, 0x3e, 0xbf, 0x17, 0xd9, 0x3e, 
	0x1c, 0x65, 0xcc, 0xbe, 0x15, 0x51, 0xb6, 0xbe, 0x5a, 0x4d, 0xfa, 0x3e, 
	0x03, 0x3b, 0x03, 0x3f, 0x26, 0xd4, 0xab, 0x3e, 0xaf, 0x1b, 0xa6, 0xbe, 
	0x3b, 0x4d, 0xa6, 0xbe, 0xb0, 0xc0, 0x23, 0x3f, 0xb0, 0x69, 0x12, 0x3e, 
	0x9e, 0xf9, 0xb7, 0x3d, 0x84, 0x7d, 0x9e, 0xbe, 0x43, 0xd9, 0x73, 0xbe, 
	0x67, 0xc5, 0x7b, 0x3e, 0xec, 0x6f, 0x25, 0x3f, 0xd2, 0x8f, 0x0e, 0x3f, 
	0x8f, 0x9c, 0x2b, 0xbe, 0x21, 0x44, 0x98, 0xbe, 0xad, 0xaa, 0x1c, 0x3f, 
	0xc5, 0x2e, 0x0e, 0x3e, 0x7f, 0x64, 0x83, 0x3e, 0xeb, 0xb7, 0x7e, 0xbe, 
	0xcf, 0x71, 0x56, 0xbe, 0xf8, 0x98, 0x14, 0x3f, 0xd4, 0x27, 0x15, 0x3f, 
	0xc9, 0x77, 0xf6, 0x3e, 0x2c, 0xe2, 0x9b, 0xbe, 0xb8, 0x0d, 0xa9, 0xbe, 
	0xcb, 0x39, 0xf1, 0x3e, 0xfa, 0x81, 0xf9, 0x3d, 0xad, 0x59, 0x4a, 0x3e, 
	0x04, 0xbd, 0x08, 0xbf, 0x59, 0x2e, 0x8e, 0xbe, 0xa7, 0x25, 0x29, 0x3f, 
	0x03, 0x3e, 0xbd, 0x3e, 0x63, 0xa5, 0x96, 0xbe, 0xfe, 0x46, 0x1e, 0x3d, 
	0x0f, 0xd0, 0xdc, 0x3e, 0xe2, 0xdb, 0x91, 0x3d, 0xdf, 0x18, 0x70, 0xbe, 
	0xef, 0xd9, 0x6c, 0xbe, 0xed, 0x2b, 0x76, 0x3e, 0x6a, 0x25, 0xa1, 0x3e, 
	0xff, 0x6d, 0x88, 0xbd, 0xd6, 0x9a, 0x64, 0x3c, 0x3d, 0xde, 0x53, 0xbe, 
	0x40, 0x35, 0x7e, 0x3b, 0xaf, 0x6e, 0x8f, 0xbd, 0x9f, 0x37, 0x55, 0xbe, 
	0x6c, 0x41, 0xcf, 0xbd, 0x07, 0xdd, 0x5b, 0xbd, 0x90, 0x58, 0x1f, 0x3e, 
	0x1a, 0x2c, 0x92, 0x3e, 0x91, 0xc9, 0x43, 0xbe, 0x9d, 0x4c, 0x5d, 0x3d, 
	0x93, 0x39, 0x96, 0xbd, 0x2e, 0xc5, 0xd8, 0x3e, 0x3a, 0x3d, 0x88, 0x3e, 
	0xa5, 0x8b, 0xc2, 0xbe, 0xe1, 0x87, 0xd1, 0x3d, 0x9d, 0xaf, 0x9f, 0xbe, 
	0xb2, 0xf0, 0xb3, 0x3e, 0x00, 0xf8, 0xcf, 0x3e, 0xfc, 0x41, 0xb5, 0xbd, 
	0x36, 0x9e, 0xb0, 0xbe, 0xcd, 0x51, 0xc7, 0x3d, 0x33, 0x05, 0xdf, 0x3e, 
	0x54, 0xf3, 0x43, 0x3e, 0x52, 0x84, 0x57, 0xbe, 0x71, 0xa9, 0xb0, 0x3b, 
	0xeb, 0x78, 0x49, 0xbd, 0x69, 0x07, 0xdf, 0x3e, 0xae, 0x65, 0xed, 0x3e, 
	0x33, 0xe3, 0x99, 0xbe, 0x3c, 0x0d, 0x71, 0xbe, 0x6e, 0xbc, 0xae, 0xbe, 
	0x15, 0xd7, 0xc3, 0x3e, 0xf6, 0x03, 0xc9, 0x3d, 0xf4, 0xbe, 0xc4, 0xbd, 
	0xcc, 0xcb, 0x43, 0x3e, 0xc9, 0x7d, 0xeb, 0xbe, 0x6a, 0x99, 0x3d, 0x3e, 
	0x3b, 0xc5, 0x99, 0x3e, 0x8c, 0x08, 0xe5, 0x3d, 0x9a, 0xd8, 0x84, 0xbe, 
	0x52, 0x6d, 0x2a, 0xbe, 0xbb, 0x1f, 0x85, 0xbd, 0xe6, 0x1d, 0x45, 0xbc, 
	0xc8, 0xc1, 0x15, 0xbe, 0x8b, 0x32, 0x6b, 0x3c, 0x46, 0x50, 0x4e, 0xbe, 
	0x2a, 0x59, 0x06, 0x3e, 0x2a, 0x05, 0x84, 0xbc, 0xb1, 0x97, 0x6c, 0xbe, 
	0x8d, 0x46, 0x62, 0x3e, 0xa1, 0xe7, 0x03, 0x3e, 0xe2, 0x7f, 0x30, 0x3e, 
	0xc1, 0x3b, 0x57, 0x3e, 0x9e, 0xa3, 0xee, 0x3c, 0x5f, 0x9a, 0x81, 0xbb, 
	0x51, 0xdd, 0x86, 0x3b, 0xd7, 0x28, 0x4b, 0xbd, 0xcf, 0x4b, 0x87, 0x3c, 
	0xb4, 0x33, 0x23, 0xbe, 0x5c, 0xa8, 0xb6, 0xbd, 0x1d, 0x20, 0x34, 0x3d, 
	0xcc, 0x29, 0x07, 0x3e, 0x06, 0x5d, 0xb9, 0x3d, 0xb1, 0x47, 0x68, 0x3e, 
	0x1d, 0x40, 0x5c, 0xbe, 0x6d, 0x83, 0x46, 0xbe, 0x23, 0x1b, 0x21, 0x3e, 
	0xb4, 0xc0, 0x54, 0xbe, 0x97, 0x16, 0x58, 0x3e, 0x66, 0x13, 0x5f, 0xbe, 
	0x94, 0x6e, 0x88, 0xbd, 0xdb, 0x7f, 0x20, 0xbe, 0xbe, 0x6b, 0x6b, 0xbc, 
	0xbd, 0xb0, 0xa0, 0x3d, 0x7f, 0x2a, 0x92, 0xbe, 0xc3, 0xcb, 0xa3, 0x3d, 
	0xe9, 0xcc, 0x19, 0xbe, 0xf3, 0xa7, 0x3f, 0xbe, 0xe3, 0x92, 0xc2, 0x3d, 
	0xcb, 0x0b, 0x0f, 0xbe, 0xa0, 0x83, 0x02, 0x3e, 0xf6, 0xdb, 0xaa, 0x3d, 
	0xcc, 0x8e, 0x8c, 0xbe, 0xfe, 0x18, 0xdf, 0xbd, 0x91, 0x5e, 0x0d, 0x3e, 
	0x2f, 0xdc, 0x46, 0x3e, 0xd4, 0xb3, 0x91, 0xbe, 0x79, 0x44, 0x1c, 0x3e, 
	0xe7, 0x03, 0x53, 0x3e, 0xa6, 0x07, 0xe4, 0xbd, 0x5d, 0xc5, 0x37, 0xbe, 
	0xbe, 0xf1, 0x1b, 0xbe, 0xeb, 0x0f, 0x06, 0xbe, 0xbc, 0xec, 0x40, 0xbd, 
	0x1d, 0xec, 0x6d, 0xbe, 0x90, 0x05, 0xee, 0x3c, 0x6b, 0xcd, 0x0e, 0xbe, 
	0x84, 0x34, 0x96, 0x3d, 0x04, 0x32, 0xb1, 0x3d, 0xa0, 0xae, 0x02, 0x3e, 
	0xd4, 0xec, 0xd7, 0xbd, 0xb8, 0x7f, 0x08, 0xbd, 0xd0, 0x9f, 0x09, 0x3e, 
	0x98, 0x99, 0xb0, 0x3d, 0xc4, 0x20, 0x88, 0x3e, 0x86, 0x22, 0x37, 0x3e, 
	0x66, 0xed, 0x17, 0x3e, 0x5b, 0x8e, 0x7e, 0xbe, 0x18, 0xea, 0xb7, 0x3d, 
	0x28, 0xa5, 0x1a, 0x3e, 0xa0, 0xb2, 0x11, 0xbd, 0xd0, 0x24, 0x9e, 0x3c, 
	0xa0, 0x12, 0x6e, 0xbe, 0x10, 0x0b, 0xbf, 0x3d, 0x38, 0x10, 0x19, 0xbd, 
	0xde, 0x0d, 0x45, 0x3e, 0x80, 0x5a, 0x42, 0x3e, 0xac, 0xcb, 0xd3, 0xbd, 
	0xd4, 0xee, 0x8f, 0x3d, 0x8c, 0x95, 0xe0, 0xbd, 0xac, 0x6a, 0x15, 0x3e, 
	0xe6, 0x7b, 0x7d, 0xbe, 0x98, 0x50, 0x65, 0xbe, 0xf8, 0x12, 0x63, 0x3d, 
	0x8c, 0x88, 0x5f, 0x3e, 0xb8, 0xa8, 0x5a, 0x3d, 0x1a, 0x53, 0xcb, 0xbd, 
	0xd0, 0x1f, 0xac, 0x3c, 0xd0, 0xc0, 0x6a, 0x3e, 0xd0, 0x3b, 0x52, 0x3d, 
	0xb4, 0xf3, 0xbf, 0xbd, 0xe4, 0xe5, 0x25, 0xbe, 0x9e, 0xe5, 0x89, 0xbd, 
	0x5c, 0x76, 0x87, 0xbe, 0xed, 0x3e, 0x81, 0xbe, 0x6f, 0x94, 0x7c, 0xbe, 
	0x82, 0x4d, 0x67, 0xbe, 0x28, 0x56, 0x6f, 0x3d, 0x4a, 0xe6, 0xee, 0xbd, 
	0x90, 0x5d, 0x2b, 0x3d, 0x4e, 0x0a, 0x35, 0xbe, 0x8b, 0xa2, 0x93, 0x3c, 
	0x0e, 0x7f, 0x2b, 0x3e, 0xc7, 0x68, 0x1d, 0x3e, 0x68, 0x46, 0x2d, 0x3e, 
	0x13, 0x0f, 0x42, 0xbe, 0x41, 0x78, 0x41, 0x3e, 0xb2, 0x02, 0xfe, 0xbd, 
	0xe2, 0x02, 0x4b, 0x3e, 0x7b, 0xfb, 0x0a, 0x3e, 0x3d, 0x19, 0x02, 0x3e, 
	0xd8, 0x26, 0x97, 0x3d, 0x03, 0x1a, 0x71, 0xbe, 0xd6, 0x29, 0x17, 0x3e, 
	0x58, 0xd2, 0x0d, 0x3e, 0x00, 0x15, 0xc9, 0x3d, 0xa0, 0xdb, 0x21, 0x3e, 
	0x92, 0xce, 0x5c, 0x3e, 0x02, 0x84, 0x73, 0xbe, 0xb0, 0x97, 0x1a, 0xbe, 
	0x21, 0x2a, 0x26, 0x3d, 0xd6, 0x8d, 0x70, 0xbd, 0xba, 0x1e, 0xd8, 0xbd, 
	0x3a, 0x0d, 0x1e, 0xbe, 0xf8, 0x5b, 0x3f, 0x3e, 0x16, 0x8f, 0x04, 0x3d, 
	0xe3, 0xcc, 0x5f, 0x3d, 0xc0, 0xec, 0x69, 0xbe, 0x79, 0x45, 0x3f, 0xbe, 
	0x2a, 0xe5, 0x8f, 0xbd, 0x00, 0xa3, 0x59, 0xbe, 0x01, 0xd3, 0x51, 0x3c, 
	0xa6, 0x1a, 0xeb, 0xbd, 0x78, 0xb8, 0x08, 0xbe, 0xe6, 0xee, 0xe7, 0x3d, 
	0xc5, 0x69, 0x22, 0x3e, 0x69, 0xe2, 0x49, 0x3d, 0x15, 0x08, 0x38, 0xbe, 
	0x0f, 0x92, 0x1e, 0x3c, 0x34, 0x8e, 0xe2, 0xbb, 0xb1, 0xbe, 0xc9, 0xbd, 
	0x4a, 0x29, 0xed, 0x3d, 0x51, 0x94, 0x14, 0xbe, 0x31, 0x63, 0x37, 0x3d, 
	0x5e, 0x03, 0x8e, 0xbe, 0x03, 0x74, 0x80, 0xbd, 0xaf, 0x76, 0x86, 0x3d, 
	0x4e, 0x4d, 0x89, 0xbd, 0xe4, 0x56, 0x73, 0xbe, 0xa2, 0x97, 0x33, 0xbd, 
	0x15, 0xec, 0x03, 0x3e, 0xe7, 0xae, 0x8c, 0x3e, 0x54, 0x3f, 0xbb, 0x3d, 
	0xd8, 0x4c, 0x09, 0xbe, 0x85, 0xad, 0x90, 0xbe, 0xe2, 0x6d, 0x01, 0xb9, 
	0x54, 0x37, 0x9d, 0x3e, 0x51, 0xa8, 0xb6, 0x3d, 0x14, 0xfb, 0x01, 0xbe, 
	0x6b, 0x9f, 0x23, 0xbe, 0xbe, 0x01, 0xcd, 0xbd, 0xeb, 0x11, 0xec, 0x3e, 
	0x7d, 0x2b, 0x26, 0xbd, 0xc0, 0xc2, 0xc1, 0xbd, 0x9e, 0x76, 0x7b, 0x3c, 
	0xb2, 0xbe, 0x02, 0xbd, 0x01, 0x31, 0x01, 0x3e, 0x9d, 0x8a, 0x7a, 0xbd, 
	0x9a, 0xec, 0x8b, 0xbe, 0xcd, 0x3a, 0x0f, 0x3e, 0x63, 0xff, 0x3d, 0x3d, 
	0x03, 0x37, 0x2b, 0x3e, 0xe9, 0xef, 0xbc, 0x3e, 0xa8, 0x32, 0xb6, 0xbe, 
	0xfe, 0x2c, 0x80, 0x3c, 0x70, 0x1e, 0xf8, 0xbd, 0x33, 0x13, 0x9e, 0x3e, 
	0x57, 0x07, 0xc6, 0x3e, 0x10, 0xc8, 0xd5, 0xbc, 0x76, 0x5d, 0xa0, 0xbe, 
	0xf4, 0x32, 0x97, 0xbe, 0xee, 0x31, 0xed, 0x3e, 0x54, 0xf6, 0x92, 0x3e, 
	0xce, 0x03, 0x73, 0xbe, 0x1f, 0xd2, 0x22, 0xbe, 0x08, 0x8e, 0x3c, 0xbd, 
	0xa6, 0xd8, 0xbf, 0x3d, 0xb7, 0x83, 0x3e, 0x3e, 0x92, 0x36, 0xca, 0xbd, 
	0xf7, 0x80, 0x10, 0x3d, 0x15, 0xed, 0x8d, 0xbe, 0x03, 0x57, 0x9f, 0x3e, 
	0xe3, 0x80, 0x43, 0x3e, 0x97, 0x92, 0x06, 0x3e, 0x77, 0x7f, 0x13, 0xbe, 
	0xe2, 0x0a, 0x91, 0x3d, 0x2f, 0xa2, 0xd2, 0x3e, 0x01, 0x5c, 0xf2, 0x3d, 
	0xef, 0xc7, 0x4b, 0xbe, 0x07, 0x1e, 0x8a, 0xbd, 0x25, 0xb6, 0x5a, 0xbc, 
	0x7c, 0xfd, 0xfe, 0x3d, 0xa9, 0xbb, 0xc4, 0x3d, 0x5f, 0x0d, 0x5b, 0xbe, 
	0x85, 0x5e, 0xd7, 0xbd, 0x01, 0x20, 0x4a, 0x3d, 0x7a, 0x5a, 0xfe, 0xbd, 
	0x5a, 0xe1, 0x84, 0xbe, 0xd8, 0xc5, 0x76, 0x3e, 0xe9, 0x24, 0x8c, 0xbc, 
	0x80, 0xe5, 0x5d, 0xbe, 0xd8, 0x85, 0xa2, 0x3d, 0xf1, 0x5c, 0x67, 0x3e, 
	0xe2, 0x50, 0x4b, 0x3e, 0xf5, 0xfe, 0x34, 0xbe, 0xf7, 0x03, 0x84, 0x3e, 
	0x14, 0x8c, 0xab, 0xbd, 0x39, 0xf8, 0x45, 0x3e, 0x02, 0x70, 0x37, 0xbe, 
	0x25, 0x0e, 0x8c, 0xbd, 0x4f, 0xce, 0x5c, 0xbe, 0xd3, 0x46, 0x14, 0xbe, 
	0xca, 0xf4, 0x90, 0xbd, 0xbe, 0xac, 0x0d, 0x3d, 0x52, 0x2b, 0x20, 0x3e, 
	0x08, 0x8d, 0x53, 0x3d, 0x46, 0x18, 0xb4, 0x3a, 0x5e, 0x2a, 0x0f, 0x3e, 
	0x5d, 0x1b, 0xd6, 0x3c, 0xdf, 0x29, 0x65, 0x3e, 0x4a, 0x3d, 0xfd, 0x3d, 
	0xc2, 0x70, 0x53, 0xbb, 0x58, 0xaf, 0x2b, 0xbe, 0xa2, 0x03, 0x1f, 0x3d, 
	0xb0, 0x9b, 0xd1, 0xbd, 0x96, 0x9b, 0x65, 0xbd, 0x56, 0xa1, 0x73, 0xbe, 
	0x3d, 0x3a, 0x7a, 0x3e, 0x31, 0x33, 0x1d, 0xbe, 0x0d, 0xfb, 0xc2, 0xbd, 
	0x84, 0x7b, 0xf9, 0xbd, 0x6f, 0x73, 0x82, 0xbe, 0x5c, 0xae, 0x3e, 0xbe, 
	0x68, 0xe2, 0x42, 0x3e, 0x87, 0x6a, 0x8c, 0xbe, 0x3a, 0x50, 0x40, 0xbe, 
	0x36, 0x36, 0x8d, 0x3d, 0x2b, 0x47, 0xbf, 0x3d, 0x00, 0x8a, 0x14, 0x3e, 
	0x9a, 0x1f, 0x2f, 0x3d, 0x8e, 0xb1, 0x19, 0xbe, 0x60, 0xd0, 0x2a, 0xbc, 
	0xa9, 0x55, 0x1b, 0xbe, 0xa0, 0xa7, 0xea, 0x3c, 0xf4, 0xec, 0x74, 0x3e, 
	0xc8, 0x0e, 0xfa, 0x3d, 0xc4, 0xb8, 0xea, 0xbd, 0x34, 0xb7, 0xbf, 0x3d, 
	0xbe, 0xe4, 0x10, 0x3e, 0xe0, 0x36, 0x34, 0x3d, 0xbf, 0x4d, 0x2a, 0xbe, 
	0x0d, 0xaa, 0x20, 0xbe, 0x90, 0xe6, 0x6a, 0x3e, 0x9e, 0x05, 0x73, 0xbe, 
	0xc4, 0x2f, 0xa1, 0x3d, 0x78, 0x32, 0x53, 0x3e, 0xb0, 0x27, 0xcf, 0x3c, 
	0x3b, 0x96, 0x01, 0xbe, 0xfa, 0x3a, 0x80, 0xbd, 0x1c, 0x1b, 0x82, 0x3d, 
	0x2e, 0x92, 0xf2, 0xbd, 0xfb, 0x9e, 0x6e, 0xbe, 0xb0, 0xae, 0xb9, 0x3d, 
	0xfc, 0x0f, 0xbc, 0xbd, 0x14, 0x49, 0x9c, 0xbd, 0x64, 0x4f, 0xd7, 0xbd, 
	0x0d, 0xdf, 0x68, 0xbe, 0xc0, 0x62, 0x75, 0x3d, 0x20, 0x43, 0x32, 0x3e, 
	0xca, 0x03, 0x88, 0xbd, 0x00, 0xf4, 0x03, 0xba, 0x08, 0xdf, 0x1e, 0x3d, 
	0x24, 0x14, 0x6f, 0x3e, 0x34, 0x26, 0xb4, 0xbd, 0xae, 0x2c, 0x17, 0x3e, 
	0xa8, 0xbf, 0x4b, 0xbe, 0x82, 0xf6, 0x6a, 0xbe, 0x00, 0xc3, 0xc9, 0x3d, 
	0xe4, 0x58, 0xae, 0x3d, 0x4b, 0x1a, 0x41, 0xbe, 0x59, 0xaf, 0x51, 0xbe, 
	0x4f, 0x31, 0x59, 0xbe, 0x7e, 0x28, 0x93, 0xbd, 0x72, 0xf0, 0xd6, 0xbd, 
	0x02, 0x33, 0x53, 0xbe, 0x20, 0xda, 0xd0, 0xbd, 0xe0, 0x4f, 0xca, 0xbc, 
	0xde, 0xf1, 0x64, 0xbe, 0x5c, 0xe8, 0x3f, 0x3e, 0x14, 0xf5, 0x04, 0x3e, 
	0xe6, 0x27, 0xed, 0xbd, 0xb2, 0xcf, 0x7e, 0xbe, 0x04, 0x53, 0x20, 0xbe, 
	0xa2, 0xb2, 0x7f, 0xbe, 0xf0, 0x08, 0xc8, 0x3c, 0xba, 0x57, 0x4d, 0xbe, 
	0x2e, 0x16, 0x89, 0x3e, 0xb8, 0x24, 0x83, 0x3e, 0x94, 0xae, 0x65, 0xbd, 
	0x6a, 0x8a, 0x5e, 0x3e, 0xf0, 0xe1, 0x5d, 0x3d, 0x62, 0xa5, 0xc0, 0xbd, 
	0x94, 0x41, 0x8d, 0x3d, 0x81, 0xa4, 0x00, 0xbe, 0x82, 0x74, 0x24, 0xbe, 
	0x09, 0xf2, 0x12, 0xbe, 0xce, 0x6b, 0x95, 0xbd, 0x84, 0x97, 0x96, 0xbd, 
	0xc8, 0xbf, 0x90, 0xbd, 0x14, 0x9e, 0xab, 0x3d, 0x17, 0x98, 0x05, 0xbe, 
	0x28, 0xed, 0x60, 0xbe, 0xb0, 0xbf, 0x91, 0x3c, 0x72, 0x16, 0x38, 0x3e, 
	0xc0, 0xda, 0xf8, 0xbc, 0xdf, 0xd4, 0x82, 0xbe, 0x88, 0x22, 0x18, 0xbe, 
	0xa8, 0x3f, 0xc5, 0xbd, 0x18, 0x17, 0xd0, 0xbc, 0xfc, 0x0f, 0x9a, 0x3d, 
	0xf0, 0x62, 0x8f, 0x3d, 0x80, 0x91, 0x70, 0xbb, 0x10, 0xd7, 0x42, 0x3e, 
	0x20, 0xaa, 0x3b, 0xbe, 0x24, 0xfa, 0x5c, 0xbe, 0xc0, 0xc1, 0x16, 0xbe, 
	0xdb, 0xa6, 0x6b, 0xbe, 0x24, 0xf2, 0xd5, 0xbd, 0x1a, 0xf3, 0x0b, 0xbe, 
	0x6c, 0xad, 0x71, 0x3e, 0x0c, 0xb1, 0x0f, 0x3e, 0x80, 0x97, 0xfe, 0xbd, 
	0xe8, 0x40, 0x81, 0x3e, 0x4c, 0x10, 0x7e, 0x3e, 0x08, 0x9b, 0x78, 0x3d, 
	0x1e, 0x51, 0x74, 0xbe, 0x55, 0xbb, 0x0d, 0xbe, 0xcc, 0xa6, 0x81, 0x3d, 
	0xc2, 0xeb, 0x30, 0xbe, 0xc6, 0x0e, 0x3e, 0x3e, 0x8d, 0x02, 0xde, 0xbc, 
	0x07, 0xce, 0x8f, 0x3e, 0xb6, 0x94, 0x78, 0x3e, 0xaf, 0x4a, 0xd5, 0x3b, 
	0x4b, 0x7a, 0x39, 0xbe, 0x6a, 0x50, 0xc4, 0xbd, 0xf7, 0x12, 0x93, 0x3e, 
	0x8a, 0x7c, 0xc4, 0x3e, 0x19, 0xc3, 0x8a, 0x3d, 0x4e, 0xca, 0xdc, 0x3d, 
	0xa1, 0x44, 0x84, 0xbe, 0x0c, 0x44, 0x4b, 0x3e, 0x69, 0xf0, 0x89, 0x3e, 
	0x52, 0x12, 0x73, 0xbe, 0xf0, 0x23, 0x86, 0x3b, 0x7e, 0xd1, 0xe9, 0xbd, 
	0x52, 0x33, 0xc1, 0x3c, 0x43, 0x63, 0x6f, 0x3e, 0xb8, 0xbc, 0x5d, 0xbe, 
	0x69, 0xd4, 0x75, 0x3d, 0xec, 0xf7, 0x28, 0xbe, 0xc2, 0xb3, 0x83, 0x3e, 
	0xf6, 0x9d, 0xc5, 0x3d, 0x5f, 0xef, 0x82, 0xbe, 0x0b, 0xa2, 0xd8, 0x3d, 
	0x32, 0x3d, 0x3b, 0x3d, 0xef, 0xb0, 0x4f, 0xbd, 0xd8, 0xf3, 0x58, 0x3e, 
	0x88, 0x57, 0x8e, 0x3d, 0x30, 0xff, 0x31, 0xbe, 0xd4, 0x70, 0xd7, 0x3d, 
	0xf3, 0x1d, 0x86, 0xbc, 0x61, 0xac, 0x9b, 0x3e, 0xf1, 0xa7, 0x5b, 0xbd, 
	0x25, 0xb5, 0x63, 0x3e, 0x11, 0x9f, 0x56, 0xbc, 0xa4, 0x06, 0xae, 0x3e, 
	0xc5, 0xf0, 0xa4, 0x3c, 0xb3, 0x84, 0x62, 0xbd, 0xb2, 0xb0, 0x99, 0xbe, 
	0x34, 0x28, 0xe7, 0xbc, 0xc9, 0x9e, 0xf5, 0xbc, 0xc4, 0x5d, 0xa6, 0x3e, 
	0x54, 0xd5, 0xb8, 0xbd, 0x4a, 0xf9, 0x4f, 0x3e, 0xb1, 0x7c, 0x25, 0xbe, 
	0x56, 0x76, 0x56, 0x3d, 0x0b, 0x4d, 0x49, 0x3e, 0x59, 0xa8, 0x46, 0xbe, 
	0x0a, 0x75, 0x4e, 0xbd, 0xaa, 0x9b, 0xe2, 0x3d, 0x69, 0x45, 0x7a, 0x3d, 
	0xc6, 0xd4, 0xaa, 0x3e, 0xed, 0xc5, 0x8e, 0xbe, 0x7c, 0xc5, 0x90, 0x3d, 
	0xb6, 0xd6, 0x22, 0x3e, 0x26, 0x1f, 0x9f, 0x3e, 0xaf, 0xb2, 0xf6, 0x3e, 
	0x46, 0xdb, 0xd7, 0xbd, 0x70, 0xff, 0x25, 0xbe, 0x86, 0x5a, 0xb5, 0xbc, 
	0xac, 0xb7, 0x0f, 0x3e, 0x34, 0xd6, 0x49, 0x3e, 0xdb, 0xb0, 0x77, 0xbe, 
	0x53, 0x61, 0x5e, 0xbe, 0x9e, 0xa8, 0xb4, 0xbc, 0xe8, 0xe5, 0x07, 0x3e, 
	0x8e, 0x9f, 0xff, 0x3e, 0x38, 0xe5, 0x36, 0xbd, 0xe7, 0x5e, 0xb8, 0xbe, 
	0x7f, 0x77, 0xf7, 0xbd, 0xd9, 0x84, 0x87, 0x3d, 0xee, 0x28, 0xf8, 0x3e, 
	0xe7, 0xd0, 0xaa, 0xbe, 0x57, 0x8d, 0x57, 0xbe, 0xf0, 0x1e, 0x47, 0xbe, 
	0x87, 0x46, 0x8b, 0x3c, 0x6d, 0x45, 0xba, 0x3e, 0xe3, 0xf6, 0x28, 0xbd, 
	0xa7, 0x74, 0x84, 0xbc, 0xfa, 0xcc, 0xa3, 0xbe, 0x1c, 0x5e, 0xbb, 0x3e, 
	0xfb, 0xb2, 0xb1, 0x3d, 0xe0, 0xfc, 0x62, 0xbe, 0x1e, 0xa4, 0x74, 0x3d, 
	0x1e, 0xb4, 0x55, 0xbe, 0xdb, 0xd6, 0x94, 0x3e, 0xe2, 0x03, 0x87, 0x3e, 
	0xbd, 0x21, 0xd9, 0xbd, 0x31, 0x16, 0x9c, 0xbe, 0x35, 0x7a, 0x82, 0xbe, 
	0x42, 0x83, 0x93, 0x3e, 0x26, 0x86, 0x1d, 0x3e, 0x22, 0xbc, 0xc4, 0x3d, 
	0x9d, 0x61, 0x1f, 0xbe, 0x7e, 0x5f, 0x76, 0xbd, 0x90, 0xbf, 0xef, 0x3e, 
	0x21, 0x95, 0x9d, 0x3e, 0x0f, 0x8d, 0x3d, 0xbe, 0x03, 0x42, 0xdd, 0xbd, 
	0x37, 0x5e, 0x40, 0x3e, 0xcd, 0xa7, 0xcb, 0x3e, 0x1e, 0x7d, 0x0c, 0x3e, 
	0x62, 0x53, 0x38, 0xbe, 0x97, 0x1a, 0x3e, 0x3e, 0xe2, 0x14, 0x28, 0x3e, 
	0x0c, 0x38, 0xa9, 0x3e, 0xd5, 0xc9, 0xde, 0x3e, 0x4f, 0xba, 0x05, 0x3e, 
	0x73, 0x70, 0x24, 0xbe, 0xd1, 0x68, 0x15, 0x3e, 0x83, 0x0d, 0x4a, 0x3e, 
	0xfb, 0x6f, 0x89, 0x3d, 0x01, 0xfd, 0x5c, 0x3e, 0xc0, 0x41, 0xb5, 0xbd, 
	0xc4, 0x15, 0x7a, 0x3e, 0x6f, 0xe2, 0xa4, 0x3e, 0xaf, 0x06, 0x3d, 0x3e, 
	0x94, 0xaf, 0x33, 0xbd, 0x3e, 0x25, 0x0d, 0x3e, 0x11, 0x1b, 0x6d, 0x3e, 
	0xee, 0xbb, 0xa3, 0x3e, 0xeb, 0x24, 0xcb, 0x3e, 0x38, 0x7b, 0x6d, 0xbe, 
	0x38, 0xdf, 0x88, 0x3e, 0x68, 0x41, 0x1f, 0x3e, 0x80, 0xe2, 0xec, 0x3e, 
	0xf8, 0x02, 0x69, 0x3e, 0x04, 0x86, 0xcf, 0xbd, 0x1c, 0x10, 0x6a, 0x3e, 
	0x35, 0xab, 0x2e, 0x3e, 0xbd, 0xc1, 0x84, 0x3e, 0x20, 0x10, 0x8a, 0x3d, 
	0xb4, 0xa8, 0x2c, 0x3e, 0xf4, 0x51, 0x22, 0x3e, 0xd2, 0xaf, 0x3f, 0xbe, 
	0xe4, 0x30, 0x5a, 0x3e, 0x7f, 0x2e, 0x8e, 0x3e, 0xc9, 0xa4, 0x03, 0xbe, 
	0xc8, 0xf8, 0x3b, 0xbe, 0xa7, 0xd7, 0x2d, 0xbe, 0xa5, 0x33, 0x64, 0xbc, 
	0x90, 0x90, 0x80, 0x3d, 0xb8, 0x8e, 0x54, 0xbd, 0xde, 0xbc, 0x51, 0x3e, 
	0x39, 0x21, 0x3a, 0xbe, 0x19, 0xc9, 0xd9, 0x3c, 0x55, 0x50, 0xdf, 0x3c, 
	0x43, 0xf3, 0x2e, 0xbe, 0x1c, 0xce, 0x49, 0xbe, 0x4b, 0x27, 0x55, 0x3e, 
	0xb3, 0x5e, 0xa3, 0x3e, 0xd5, 0x98, 0xd5, 0x3e, 0x8e, 0x6e, 0x3e, 0x3e, 
	0xc3, 0xbb, 0x65, 0xbe, 0xf6, 0x2e, 0x6e, 0x3d, 0x4e, 0x66, 0x7b, 0xbc, 
	0x50, 0x93, 0x41, 0x3e, 0x44, 0xce, 0x2a, 0x3e, 0x75, 0xdf, 0xdc, 0xbc, 
	0xc6, 0x7b, 0x1d, 0xbe, 0x82, 0xfd, 0xa6, 0x3e, 0x05, 0xff, 0x23, 0xbd, 
	0xb6, 0xf1, 0xed, 0xbd, 0x3c, 0xc6, 0x67, 0xbe, 0x99, 0x1e, 0x4e, 0x3d, 
	0xa3, 0xca, 0x89, 0x3e, 0x6b, 0xf7, 0x35, 0xbb, 0x1b, 0xd1, 0x65, 0x3e, 
	0xc8, 0x08, 0x4f, 0xbe, 0x21, 0x7e, 0x55, 0x3e, 0x8f, 0x45, 0x70, 0x3e, 
	0xe3, 0x10, 0x23, 0x3e, 0xb5, 0xdf, 0x3c, 0xbd, 0x17, 0x66, 0x8b, 0xbd, 
	0x41, 0x4b, 0x38, 0xbe, 0x27, 0x25, 0x8f, 0x3d, 0x9c, 0xbe, 0x26, 0x3e, 
	0x88, 0x85, 0x48, 0x3e, 0xb8, 0x82, 0x0c, 0x3e, 0x44, 0x80, 0x98, 0xbd, 
	0x2f, 0x7f, 0xe6, 0x3e, 0xe9, 0xf1, 0x51, 0x3d, 0x6b, 0xf4, 0x65, 0xbe, 
	0x30, 0x49, 0xa9, 0xbc, 0xc4, 0xcd, 0xfd, 0x3c, 0xde, 0xdb, 0x79, 0x3e, 
	0xc5, 0x71, 0xc7, 0x3d, 0xfd, 0x29, 0x89, 0xbd, 0xfd, 0x48, 0xc9, 0x3c, 
	0xc0, 0x89, 0x99, 0xbe, 0xed, 0xc3, 0xcb, 0x3e, 0x9a, 0x6c, 0xfc, 0x3c, 
	0xc0, 0xc3, 0x7d, 0xbc, 0x14, 0xb2, 0x14, 0xbe, 0xc2, 0xe0, 0xbf, 0x3b, 
	0xda, 0x3d, 0xdf, 0x3e, 0xd2, 0x92, 0xdb, 0x3e, 0x4a, 0x63, 0x89, 0x3d, 
	0x00, 0x4a, 0x8d, 0x3d, 0xff, 0xb6, 0x1e, 0xbe, 0xc0, 0x9f, 0xeb, 0x3d, 
	0xc8, 0xc4, 0x69, 0x3e, 0x33, 0xa2, 0x24, 0xbe, 0xf8, 0x54, 0x8b, 0xbe, 
	0xc3, 0x89, 0xe1, 0xbc, 0xed, 0x16, 0x9f, 0x3e, 0x5f, 0x85, 0x8a, 0x3e, 
	0x6d, 0x79, 0x95, 0xbe, 0x40, 0x26, 0x87, 0x3c, 0x5d, 0xbb, 0x99, 0xbe, 
	0x56, 0xe0, 0x3e, 0x3e, 0x86, 0xa7, 0x23, 0x3e, 0xe3, 0x33, 0x0a, 0xbf, 
	0x9c, 0x12, 0x10, 0xbe, 0xe4, 0xdb, 0x3c, 0xbe, 0x1a, 0x43, 0xbe, 0xbd, 
	0xe0, 0x05, 0xa5, 0x3e, 0xe8, 0xa4, 0xfa, 0xbe, 0xc5, 0xd6, 0x0b, 0xbd, 
	0x32, 0xb4, 0xb4, 0x3d, 0xfc, 0xed, 0xab, 0x3e, 0x26, 0xe9, 0x94, 0x3e, 
	0xf7, 0x2a, 0xb1, 0xbe, 0x5b, 0x54, 0x16, 0xbd, 0x35, 0x37, 0x67, 0xbe, 
	0xf5, 0xfd, 0xb5, 0x3e, 0xfe, 0x8e, 0x3a, 0x3e, 0xd0, 0x5a, 0x0f, 0xbf, 
	0xa7, 0x60, 0x1a, 0xbd, 0xcb, 0x99, 0x47, 0xbe, 0x11, 0xcf, 0x40, 0x3d, 
	0xbe, 0x81, 0x2e, 0x3e, 0xe3, 0x0b, 0xc4, 0xbe, 0x79, 0x94, 0x0f, 0xbe, 
	0x8e, 0x4d, 0xb2, 0xbe, 0x6c, 0xbe, 0x36, 0x3d, 0x9d, 0x40, 0x2d, 0x3d, 
	0xe9, 0xbc, 0x93, 0xbe, 0x4c, 0x44, 0xc9, 0xbe, 0xe2, 0xb3, 0x83, 0xbe, 
	0x12, 0x17, 0xba, 0x3e, 0xf6, 0x9a, 0xd5, 0x3e, 0x36, 0x1c, 0x92, 0xbd, 
	0x4c, 0xab, 0xa2, 0xbe, 0x97, 0xf5, 0x3f, 0xbe, 0x70, 0x75, 0xc0, 0x3e, 
	0xcc, 0xc2, 0x2d, 0x3d, 0x3f, 0x61, 0xf7, 0xbe, 0x1d, 0xc7, 0x1c, 0xbe, 
	0x50, 0x5c, 0x67, 0x3e, 0x83, 0x3e, 0xbe, 0xbe, 0xc9, 0x52, 0x0d, 0xbe, 
	0x0f, 0x3d, 0x0b, 0x3f, 0xe5, 0xef, 0xa8, 0x3e, 0xbc, 0xc4, 0x05, 0xbd, 
	0x7b, 0xd4, 0x11, 0xbe, 0x95, 0xff, 0x92, 0xbc, 0x0b, 0x6e, 0x75, 0x3e, 
	0x6e, 0x0f, 0x0a, 0x3f, 0x16, 0x9c, 0x86, 0x3e, 0xb9, 0x09, 0x8a, 0xbd, 
	0xfa, 0xcb, 0x8a, 0xbe, 0xb3, 0x5c, 0x9d, 0x3e, 0x4d, 0x8c, 0x2b, 0x3e, 
	0x70, 0xe2, 0xa4, 0x3e, 0x45, 0x19, 0x90, 0xbe, 0xed, 0x89, 0x94, 0xbc, 
	0x34, 0xf0, 0xb3, 0x3e, 0xae, 0xcc, 0x8b, 0x3e, 0xa7, 0xe3, 0x21, 0x3e, 
	0xf3, 0xc5, 0x4d, 0x3d, 0x74, 0xdf, 0x87, 0xbe, 0x85, 0x7f, 0x07, 0x3f, 
	0x1d, 0xb8, 0xcf, 0x3e, 0x38, 0x95, 0xa4, 0x3e, 0x08, 0x19, 0x37, 0xbe, 
	0x83, 0xa8, 0xd3, 0xbe, 0x2a, 0x6c, 0xb2, 0x3e, 0xa2, 0x0b, 0x92, 0x3e, 
	0x14, 0x2c, 0xfd, 0x3e, 0x7e, 0x82, 0xac, 0xbe, 0x54, 0xd7, 0xef, 0xbe, 
	0xb6, 0x44, 0xac, 0x3e, 0x97, 0x64, 0x4b, 0x3e, 0xb3, 0x4e, 0x11, 0x3e, 
	0xaf, 0x42, 0x87, 0xbe, 0x76, 0x6c, 0x34, 0xbe, 0xb8, 0xc2, 0xa3, 0x3d, 
	0x7d, 0xda, 0x0d, 0x3f, 0xb5, 0x85, 0xbd, 0x3e, 0x83, 0x12, 0xd3, 0xbd, 
	0x31, 0xd6, 0x5f, 0xbe, 0xfd, 0x23, 0xc5, 0x3e, 0x78, 0xbb, 0x9c, 0x3e, 
	0x54, 0xbc, 0xf0, 0x3e, 0x53, 0x7f, 0xbd, 0xbe, 0x89, 0x94, 0xd7, 0xbe, 
	0x5b, 0xad, 0xd9, 0x3e, 0xe1, 0xc7, 0x0d, 0x3f, 0xaf, 0x06, 0x74, 0x3e, 
	0x23, 0xb9, 0x76, 0xbd, 0xbc, 0xde, 0x4f, 0x3d, 0x0c, 0x75, 0xf7, 0xbd, 
	0x58, 0x82, 0x49, 0xbe, 0x6b, 0x36, 0xb4, 0x3b, 0x88, 0x7b, 0xb7, 0x3e, 
	0x53, 0x7f, 0xab, 0x3e, 0x0c, 0x13, 0x78, 0xbe, 0x31, 0x7d, 0xb6, 0x3c, 
	0xa8, 0x44, 0x6a, 0xbd, 0x16, 0x4a, 0x81, 0x3e, 0xce, 0x70, 0xa3, 0x3e, 
	0x5e, 0x4b, 0x2b, 0xbe, 0x96, 0xbc, 0x4f, 0x3e, 0x19, 0x00, 0x4a, 0xbe, 
	0xc8, 0xe1, 0x15, 0x3e, 0x58, 0xb8, 0x48, 0x3d, 0xb0, 0x20, 0x2e, 0xbd, 
	0x72, 0x5f, 0x43, 0x3e, 0xf4, 0x2a, 0xe9, 0xbd, 0xed, 0x94, 0xeb, 0x3e, 
	0x7e, 0xf0, 0x34, 0x3e, 0x41, 0xd9, 0xb2, 0xbe, 0xc0, 0xd0, 0x46, 0xbe, 
	0x9a, 0x12, 0xc4, 0x38, 0xe0, 0x3a, 0xcc, 0x3e, 0xac, 0x96, 0x42, 0x3e, 
	0x41, 0xc8, 0xaa, 0x3d, 0x31, 0x11, 0xf1, 0x3b, 0xa1, 0xe1, 0x40, 0x3e, 
	0x49, 0x38, 0x93, 0x3e, 0x23, 0xfb, 0x4d, 0x3d, 0xee, 0x89, 0xb1, 0xbe, 
	0x57, 0x7c, 0x33, 0xbe, 0xae, 0x5b, 0xa5, 0xbd, 0x6a, 0xdd, 0x9c, 0x3e, 
	0x59, 0x26, 0xc3, 0x3e, 0x7f, 0x90, 0xaa, 0xbc, 0xda, 0xd5, 0xd9, 0xbd, 
	0x0d, 0xd4, 0x77, 0xbe, 0xae, 0x79, 0xb0, 0x3d, 0xdd, 0xc7, 0x5f, 0x3e, 
	0xc2, 0x81, 0x14, 0xbe, 0xeb, 0xc2, 0x6c, 0x3c, 0x13, 0xfd, 0x18, 0xbe, 
	0x25, 0x16, 0x0c, 0x3e, 0x98, 0xed, 0x2a, 0x3e, 0xab, 0x6c, 0x93, 0xbb, 
	0x05, 0x54, 0x1d, 0x3e, 0x3a, 0xfd, 0xff, 0xff, 0x10, 0x00, 0x00, 0x00, 
	0x06, 0x00, 0x00, 0x00, 0x14, 0x00, 0x00, 0x00, 0x30, 0x00, 0x00, 0x00, 
	0x02, 0x00, 0x00, 0x00, 0x20, 0x00, 0x00, 0x00, 0x32, 0x00, 0x00, 0x00, 
	0x1a, 0x00, 0x00, 0x00, 0x6d, 0x6f, 0x64, 0x65, 0x6c, 0x5f, 0x31, 0x34, 
	0x38, 0x2f, 0x64, 0x65, 0x6e, 0x73, 0x65, 0x5f, 0x31, 0x34, 0x35, 0x2f, 
	0x4d, 0x61, 0x74, 0x4d, 0x75, 0x6c, 0x00, 0x00, 0x38, 0xfd, 0xff, 0xff, 
	0x66, 0xfe, 0xff, 0xff, 0x04, 0x00, 0x00, 0x00, 0x04, 0x00, 0x00, 0x00, 
	0x06, 0x17, 0x1e, 0x3e, 0x8e, 0xfd, 0xff, 0xff, 0x10, 0x00, 0x00, 0x00, 
	0x05, 0x00, 0x00, 0x00, 0x10, 0x00, 0x00, 0x00, 0x3c, 0x00, 0x00, 0x00, 
	0x01, 0x00, 0x00, 0x00, 0x01, 0x00, 0x00, 0x00, 0x2a, 0x00, 0x00, 0x00, 
	0x6d, 0x6f, 0x64, 0x65, 0x6c, 0x5f, 0x31, 0x34, 0x38, 0x2f, 0x64, 0x65, 
	0x6e, 0x73, 0x65, 0x5f, 0x31, 0x34, 0x38, 0x2f, 0x42, 0x69, 0x61, 0x73, 
	0x41, 0x64, 0x64, 0x2f, 0x52, 0x65, 0x61, 0x64, 0x56, 0x61, 0x72, 0x69, 
	0x61, 0x62, 0x6c, 0x65, 0x4f, 0x70, 0x00, 0x00, 0x98, 0xfd, 0xff, 0xff, 
	0xc6, 0xfe, 0xff, 0xff, 0x04, 0x00, 0x00, 0x00, 0x40, 0x00, 0x00, 0x00, 
	0xf0, 0xf7, 0x40, 0x3e, 0xcc, 0x68, 0x2e, 0x3e, 0x37, 0xb5, 0x58, 0xbd, 
	0x4a, 0x5e, 0x3c, 0xbd, 0xc0, 0xce, 0x51, 0xbc, 0xfe, 0x43, 0xa3, 0xbe, 
	0x00, 0x00, 0x00, 0x00, 0xe1, 0x2f, 0x6d, 0xbd, 0x9b, 0xfe, 0x9e, 0x3e, 
	0x65, 0x5a, 0x18, 0xbd, 0xd9, 0x5e, 0x39, 0x3e, 0x2f, 0xa7, 0x3b, 0x3e, 
	0x55, 0x55, 0x33, 0x3e, 0x4b, 0x2e, 0x2f, 0x3f, 0xd7, 0x70, 0x98, 0xbd, 
	0xc9, 0xf1, 0x42, 0x3e, 0x2a, 0xfe, 0xff, 0xff, 0x10, 0x00, 0x00, 0x00, 
	0x04, 0x00, 0x00, 0x00, 0x10, 0x00, 0x00, 0x00, 0x3c, 0x00, 0x00, 0x00, 
	0x01, 0x00, 0x00, 0x00, 0x10, 0x00, 0x00, 0x00, 0x2a, 0x00, 0x00, 0x00, 
	0x6d, 0x6f, 0x64, 0x65, 0x6c, 0x5f, 0x31, 0x34, 0x38, 0x2f, 0x64, 0x65, 
	0x6e, 0x73, 0x65, 0x5f, 0x31, 0x34, 0x37, 0x2f, 0x42, 0x69, 0x61, 0x73, 
	0x41, 0x64, 0x64, 0x2f, 0x52, 0x65, 0x61, 0x64, 0x56, 0x61, 0x72, 0x69, 
	0x61, 0x62, 0x6c, 0x65, 0x4f, 0x70, 0x00, 0x00, 0x34, 0xfe, 0xff, 0xff, 
	0x62, 0xff, 0xff, 0xff, 0x04, 0x00, 0x00, 0x00, 0x40, 0x00, 0x00, 0x00, 
	0x04, 0x32, 0x90, 0x3e, 0xce, 0x8e, 0xd8, 0x3c, 0xf3, 0x4b, 0x9d, 0x3e, 
	0xc2, 0xfc, 0xb3, 0x3e, 0x1f, 0x06, 0xa6, 0x3e, 0xc2, 0x8f, 0x3a, 0x3e, 
	0x2f, 0x74, 0x57, 0x3e, 0xca, 0x65, 0x90, 0xbe, 0x40, 0x34, 0x95, 0x3e, 
	0x4f, 0x98, 0x99, 0x3e, 0xbd, 0x61, 0x83, 0x3e, 0xa2, 0xc1, 0x9f, 0x3e, 
	0x5a, 0xc2, 0x65, 0x3e, 0xa2, 0x71, 0x1b, 0xbd, 0x63, 0xf1, 0xdb, 0x3b, 
	0x46, 0xc5, 0x7c, 0x3e, 0xc6, 0xfe, 0xff, 0xff, 0x10, 0x00, 0x00, 0x00, 
	0x03, 0x00, 0x00, 0x00, 0x10, 0x00, 0x00, 0x00, 0x3c, 0x00, 0x00, 0x00, 
	0x01, 0x00, 0x00, 0x00, 0x10, 0x00, 0x00, 0x00, 0x2a, 0x00, 0x00, 0x00, 
	0x6d, 0x6f, 0x64, 0x65, 0x6c, 0x5f, 0x31, 0x34, 0x38, 0x2f, 0x64, 0x65, 
	0x6e, 0x73, 0x65, 0x5f, 0x31, 0x34, 0x36, 0x2f, 0x42, 0x69, 0x61, 0x73, 
	0x41, 0x64, 0x64, 0x2f, 0x52, 0x65, 0x61, 0x64, 0x56, 0x61, 0x72, 0x69, 
	0x61, 0x62, 0x6c, 0x65, 0x4f, 0x70, 0x00, 0x00, 0x1c, 0xff, 0xff, 0xff, 
	0x00, 0x00, 0x06, 0x00, 0x08, 0x00, 0x04, 0x00, 0x06, 0x00, 0x00, 0x00, 
	0x04, 0x00, 0x00, 0x00, 0x80, 0x00, 0x00, 0x00, 0x06, 0x76, 0xae, 0xbc, 
	0x1d, 0x65, 0x86, 0x3c, 0x25, 0x05, 0x08, 0x3e, 0x23, 0x3d, 0xf5, 0x3d, 
	0x0f, 0x37, 0xb7, 0x3d, 0x1a, 0xf0, 0x8c, 0x3d, 0x03, 0x98, 0xb3, 0x3d, 
	0xde, 0x4d, 0x0f, 0xbc, 0x97, 0xf0, 0x0b, 0x3e, 0xa1, 0xa1, 0xc6, 0xbd, 
	0x00, 0x00, 0x00, 0x00, 0xf9, 0x4b, 0xad, 0x3d, 0xcd, 0x91, 0xb0, 0x3d, 
	0x00, 0x00, 0x00, 0x00, 0x8c, 0xb3, 0xd4, 0x3d, 0x00, 0x00, 0x00, 0x00, 
	0x96, 0xe6, 0x10, 0x3e, 0x5e, 0x1f, 0x8d, 0x3d, 0x8d, 0xec, 0x09, 0xbd, 
	0x00, 0x00, 0x00, 0x00, 0xb3, 0x98, 0xf7, 0xbc, 0xc5, 0x6e, 0xce, 0x3d, 
	0xa4, 0x7d, 0x16, 0xbc, 0x00, 0x00, 0x00, 0x00, 0x00, 0x00, 0x00, 0x00, 
	0x18, 0x6e, 0xca, 0x3d, 0x90, 0xf3, 0xe8, 0x3d, 0x48, 0xf7, 0x09, 0x3e, 
	0x8c, 0xdc, 0xfd, 0x3d, 0x15, 0x2f, 0x17, 0x3d, 0xc3, 0x8b, 0x8c, 0x3d, 
	0xdd, 0x08, 0xd7, 0x3d, 0xaa, 0xff, 0xff, 0xff, 0x10, 0x00, 0x00, 0x00, 
	0x02, 0x00, 0x00, 0x00, 0x10, 0x00, 0x00, 0x00, 0x40, 0x00, 0x00, 0x00, 
	0x01, 0x00, 0x00, 0x00, 0x20, 0x00, 0x00, 0x00, 0x2a, 0x00, 0x00, 0x00, 
	0x6d, 0x6f, 0x64, 0x65, 0x6c, 0x5f, 0x31, 0x34, 0x38, 0x2f, 0x64, 0x65, 
	0x6e, 0x73, 0x65, 0x5f, 0x31, 0x34, 0x35, 0x2f, 0x42, 0x69, 0x61, 0x73, 
	0x41, 0x64, 0x64, 0x2f, 0x52, 0x65, 0x61, 0x64, 0x56, 0x61, 0x72, 0x69, 
	0x61, 0x62, 0x6c, 0x65, 0x4f, 0x70, 0x00, 0x00, 0x04, 0x00, 0x06, 0x00, 
	0x04, 0x00, 0x00, 0x00, 0x00, 0x00, 0x0e, 0x00, 0x14, 0x00, 0x04, 0x00, 
	0x00, 0x00, 0x08, 0x00, 0x0c, 0x00, 0x10, 0x00, 0x0e, 0x00, 0x00, 0x00, 
	0x10, 0x00, 0x00, 0x00, 0x01, 0x00, 0x00, 0x00, 0x14, 0x00, 0x00, 0x00, 
	0x20, 0x00, 0x00, 0x00, 0x02, 0x00, 0x00, 0x00, 0x01, 0x00, 0x00, 0x00, 
	0x32, 0x00, 0x00, 0x00, 0x09, 0x00, 0x00, 0x00, 0x69, 0x6e, 0x70, 0x75, 
	0x74, 0x5f, 0x31, 0x31, 0x32, 0x00, 0x00, 0x00, 0xfc, 0xff, 0xff, 0xff, 
	0x04, 0x00, 0x04, 0x00, 0x04, 0x00, 0x00, 0x00
};
const int pred3_16_seq10_len = 11564;