
// if having troubles with min/max, uncomment the following
// #undef min    
// #undef max
#ifdef __has_attribute
#define HAVE_ATTRIBUTE(x) __has_attribute(x)
#else
#define HAVE_ATTRIBUTE(x) 0
#endif
#if HAVE_ATTRIBUTE(aligned) || (defined(__GNUC__) && !defined(__clang__))
#define DATA_ALIGN_ATTRIBUTE __attribute__((aligned(4)))
#else
#define DATA_ALIGN_ATTRIBUTE
#endif
const unsigned char pred2_16_seq10[] DATA_ALIGN_ATTRIBUTE = {
	0x1c, 0x00, 0x00, 0x00, 0x54, 0x46, 0x4c, 0x33, 0x00, 0x00, 0x12, 0x00, 
	0x1c, 0x00, 0x04, 0x00, 0x08, 0x00, 0x0c, 0x00, 0x10, 0x00, 0x14, 0x00, 
	0x00, 0x00, 0x18, 0x00, 0x12, 0x00, 0x00, 0x00, 0x03, 0x00, 0x00, 0x00, 
	0x14, 0x00, 0x00, 0x00, 0x18, 0x00, 0x00, 0x00, 0xac, 0x00, 0x00, 0x00, 
	0x18, 0x00, 0x00, 0x00, 0x54, 0x00, 0x00, 0x00, 0x01, 0x00, 0x00, 0x00, 
	0x38, 0x03, 0x00, 0x00, 0x01, 0x00, 0x00, 0x00, 0xb8, 0x00, 0x00, 0x00, 
	0x0f, 0x00, 0x00, 0x00, 0xdc, 0x27, 0x00, 0x00, 0xd8, 0x27, 0x00, 0x00, 
	0xac, 0x26, 0x00, 0x00, 0x04, 0x26, 0x00, 0x00, 0x64, 0x25, 0x00, 0x00, 
	0x00, 0x25, 0x00, 0x00, 0xac, 0x10, 0x00, 0x00, 0x58, 0x08, 0x00, 0x00, 
	0x04, 0x04, 0x00, 0x00, 0x70, 0x03, 0x00, 0x00, 0xb4, 0x27, 0x00, 0x00, 
	0xb0, 0x27, 0x00, 0x00, 0xac, 0x27, 0x00, 0x00, 0xa8, 0x27, 0x00, 0x00, 
	0x38, 0x00, 0x00, 0x00, 0x01, 0x00, 0x00, 0x00, 0x0c, 0x00, 0x00, 0x00, 
	0x08, 0x00, 0x0c, 0x00, 0x04, 0x00, 0x08, 0x00, 0x08, 0x00, 0x00, 0x00, 
	0x08, 0x00, 0x00, 0x00, 0x0e, 0x00, 0x00, 0x00, 0x13, 0x00, 0x00, 0x00, 
	0x6d, 0x69, 0x6e, 0x5f, 0x72, 0x75, 0x6e, 0x74, 0x69, 0x6d, 0x65, 0x5f, 
	0x76, 0x65, 0x72, 0x73, 0x69, 0x6f, 0x6e, 0x00, 0xc2, 0xd9, 0xff, 0xff, 
	0x04, 0x00, 0x00, 0x00, 0x10, 0x00, 0x00, 0x00, 0x31, 0x2e, 0x35, 0x2e, 
	0x30, 0x00, 0x00, 0x00, 0x00, 0x00, 0x00, 0x00, 0x00, 0x00, 0x00, 0x00, 
	0x0f, 0x00, 0x00, 0x00, 0x4d, 0x4c, 0x49, 0x52, 0x20, 0x43, 0x6f, 0x6e, 
	0x76, 0x65, 0x72, 0x74, 0x65, 0x64, 0x2e, 0x00, 0x00, 0x00, 0x0e, 0x00, 
	0x18, 0x00, 0x04, 0x00, 0x08, 0x00, 0x0c, 0x00, 0x10, 0x00, 0x14, 0x00, 
	0x0e, 0x00, 0x00, 0x00, 0x14, 0x00, 0x00, 0x00, 0x48, 0x00, 0x00, 0x00, 
	0x4c, 0x00, 0x00, 0x00, 0x50, 0x00, 0x00, 0x00, 0x60, 0x00, 0x00, 0x00, 
	0x0d, 0x00, 0x00, 0x00, 0xd8, 0x26, 0x00, 0x00, 0x70, 0x26, 0x00, 0x00, 
	0x88, 0x25, 0x00, 0x00, 0xe8, 0x24, 0x00, 0x00, 0x48, 0x24, 0x00, 0x00, 
	0xf0, 0x23, 0x00, 0x00, 0x9c, 0x0f, 0x00, 0x00, 0x48, 0x07, 0x00, 0x00, 
	0xf4, 0x02, 0x00, 0x00, 0x44, 0x02, 0x00, 0x00, 0x7c, 0x01, 0x00, 0x00, 
	0xd4, 0x00, 0x00, 0x00, 0x68, 0x00, 0x00, 0x00, 0x01, 0x00, 0x00, 0x00, 
	0x00, 0x00, 0x00, 0x00, 0x01, 0x00, 0x00, 0x00, 0x0c, 0x00, 0x00, 0x00, 
	0x04, 0x00, 0x00, 0x00, 0xcc, 0x01, 0x00, 0x00, 0x24, 0x01, 0x00, 0x00, 
	0x7c, 0x00, 0x00, 0x00, 0x10, 0x00, 0x00, 0x00, 0x04, 0x00, 0x00, 0x00, 
	0x6d, 0x61, 0x69, 0x6e, 0x00, 0x00, 0x00, 0x00, 0x02, 0xff, 0xff, 0xff, 
	0x00, 0x00, 0x00, 0x08, 0x1c, 0x00, 0x00, 0x00, 0x10, 0x00, 0x00, 0x00, 
	0x04, 0x00, 0x00, 0x00, 0x4e, 0xfe, 0xff, 0xff, 0x00, 0x00, 0x00, 0x01, 
	0x01, 0x00, 0x00, 0x00, 0x0c, 0x00, 0x00, 0x00, 0x03, 0x00, 0x00, 0x00, 
	0x0b, 0x00, 0x00, 0x00, 0x08, 0x00, 0x00, 0x00, 0x04, 0x00, 0x00, 0x00, 
	0xce, 0xd9, 0xff, 0xff, 0x10, 0x00, 0x00, 0x00, 0x0d, 0x00, 0x00, 0x00, 
	0x14, 0x00, 0x00, 0x00, 0x20, 0x00, 0x00, 0x00, 0x02, 0x00, 0x00, 0x00, 
	0x01, 0x00, 0x00, 0x00, 0x01, 0x00, 0x00, 0x00, 0x08, 0x00, 0x00, 0x00, 
	0x49, 0x64, 0x65, 0x6e, 0x74, 0x69, 0x74, 0x79, 0x00, 0x00, 0x00, 0x00, 
	0xbc, 0xd9, 0xff, 0xff, 0x6a, 0xff, 0xff, 0xff, 0x00, 0x00, 0x00, 0x08, 
	0x1c, 0x00, 0x00, 0x00, 0x10, 0x00, 0x00, 0x00, 0x04, 0x00, 0x00, 0x00, 
	0xb6, 0xfe, 0xff, 0xff, 0x00, 0x00, 0x00, 0x01, 0x01, 0x00, 0x00, 0x00, 
	0x0b, 0x00, 0x00, 0x00, 0x03, 0x00, 0x00, 0x00, 0x0a, 0x00, 0x00, 0x00, 
	0x07, 0x00, 0x00, 0x00, 0x03, 0x00, 0x00, 0x00, 0x36, 0xda, 0xff, 0xff, 
	0x10, 0x00, 0x00, 0x00, 0x0c, 0x00, 0x00, 0x00, 0x14, 0x00, 0x00, 0x00, 
	0x4c, 0x00, 0x00, 0x00, 0x02, 0x00, 0x00, 0x00, 0x01, 0x00, 0x00, 0x00, 
	0x10, 0x00, 0x00, 0x00, 0x34, 0x00, 0x00, 0x00, 0x6d, 0x6f, 0x64, 0x65, 
	0x6c, 0x5f, 0x31, 0x34, 0x35, 0x2f, 0x64, 0x65, 0x6e, 0x73, 0x65, 0x5f, 
	0x31, 0x34, 0x33, 0x2f, 0x52, 0x65, 0x6c, 0x75, 0x3b, 0x6d, 0x6f, 0x64, 
	0x65, 0x6c, 0x5f, 0x31, 0x34, 0x35, 0x2f, 0x64, 0x65, 0x6e, 0x73, 0x65, 
	0x5f, 0x31, 0x34, 0x33, 0x2f, 0x42, 0x69, 0x61, 0x73, 0x41, 0x64, 0x64, 
	0x00, 0x00, 0x00, 0x00, 0x9c, 0xda, 0xff, 0xff, 0x00, 0x00, 0x0e, 0x00, 
	0x14, 0x00, 0x00, 0x00, 0x08, 0x00, 0x0c, 0x00, 0x07, 0x00, 0x10, 0x00, 
	0x0e, 0x00, 0x00, 0x00, 0x00, 0x00, 0x00, 0x08, 0x1c, 0x00, 0x00, 0x00, 
	0x10, 0x00, 0x00, 0x00, 0x04, 0x00, 0x00, 0x00, 0x5a, 0xff, 0xff, 0xff, 
	0x00, 0x00, 0x00, 0x01, 0x01, 0x00, 0x00, 0x00, 0x0a, 0x00, 0x00, 0x00, 
	0x03, 0x00, 0x00, 0x00, 0x09, 0x00, 0x00, 0x00, 0x06, 0x00, 0x00, 0x00, 
	0x02, 0x00, 0x00, 0x00, 0xda, 0xda, 0xff, 0xff, 0x10, 0x00, 0x00, 0x00, 
	0x0b, 0x00, 0x00, 0x00, 0x14, 0x00, 0x00, 0x00, 0x4c, 0x00, 0x00, 0x00, 
	0x02, 0x00, 0x00, 0x00, 0x01, 0x00, 0x00, 0x00, 0x10, 0x00, 0x00, 0x00, 
	0x34, 0x00, 0x00, 0x00, 0x6d, 0x6f, 0x64, 0x65, 0x6c, 0x5f, 0x31, 0x34, 
	0x35, 0x2f, 0x64, 0x65, 0x6e, 0x73, 0x65, 0x5f, 0x31, 0x34, 0x32, 0x2f, 
	0x52, 0x65, 0x6c, 0x75, 0x3b, 0x6d, 0x6f, 0x64, 0x65, 0x6c, 0x5f, 0x31, 
	0x34, 0x35, 0x2f, 0x64, 0x65, 0x6e, 0x73, 0x65, 0x5f, 0x31, 0x34, 0x32, 
	0x2f, 0x42, 0x69, 0x61, 0x73, 0x41, 0x64, 0x64, 0x00, 0x00, 0x00, 0x00, 
	0x40, 0xdb, 0xff, 0xff, 0x00, 0x00, 0x0e, 0x00, 0x16, 0x00, 0x00, 0x00, 
	0x08, 0x00, 0x0c, 0x00, 0x07, 0x00, 0x10, 0x00, 0x0e, 0x00, 0x00, 0x00, 
	0x00, 0x00, 0x00, 0x08, 0x24, 0x00, 0x00, 0x00, 0x18, 0x00, 0x00, 0x00, 
	0x0c, 0x00, 0x00, 0x00, 0x00, 0x00, 0x06, 0x00, 0x08, 0x00, 0x07, 0x00, 
	0x06, 0x00, 0x00, 0x00, 0x00, 0x00, 0x00, 0x01, 0x01, 0x00, 0x00, 0x00, 
	0x09, 0x00, 0x00, 0x00, 0x03, 0x00, 0x00, 0x00, 0x00, 0x00, 0x00, 0x00, 
	0x05, 0x00, 0x00, 0x00, 0x01, 0x00, 0x00, 0x00, 0x00, 0x00, 0x0a, 0x00, 
	0x0c, 0x00, 0x07, 0x00, 0x00, 0x00, 0x08, 0x00, 0x0a, 0x00, 0x00, 0x00, 
	0x00, 0x00, 0x00, 0x09, 0x01, 0x00, 0x00, 0x00, 0x9e, 0xdb, 0xff, 0xff, 
	0x10, 0x00, 0x00, 0x00, 0x0a, 0x00, 0x00, 0x00, 0x14, 0x00, 0x00, 0x00, 
	0x4c, 0x00, 0x00, 0x00, 0x02, 0x00, 0x00, 0x00, 0x01, 0x00, 0x00, 0x00, 
	0x20, 0x00, 0x00, 0x00, 0x34, 0x00, 0x00, 0x00, 0x6d, 0x6f, 0x64, 0x65, 
	0x6c, 0x5f, 0x31, 0x34, 0x35, 0x2f, 0x64, 0x65, 0x6e, 0x73, 0x65, 0x5f, 
	0x31, 0x34, 0x31, 0x2f, 0x52, 0x65, 0x6c, 0x75, 0x3b, 0x6d, 0x6f, 0x64, 
	0x65, 0x6c, 0x5f, 0x31, 0x34, 0x35, 0x2f, 0x64, 0x65, 0x6e, 0x73, 0x65, 
	0x5f, 0x31, 0x34, 0x31, 0x2f, 0x42, 0x69, 0x61, 0x73, 0x41, 0x64, 0x64, 
	0x00, 0x00, 0x00, 0x00, 0xb8, 0xdb, 0xff, 0xff, 0xe6, 0xdc, 0xff, 0xff, 
	0x04, 0x00, 0x00, 0x00, 0x40, 0x00, 0x00, 0x00, 0xb3, 0xca, 0x20, 0xbe, 
	0xe7, 0xe7, 0x32, 0x3f, 0x92, 0x3e, 0x91, 0xbd, 0xbf, 0x53, 0x03, 0x3f, 
	0xb6, 0xf7, 0xe8, 0x3e, 0xb6, 0x81, 0x1f, 0x3f, 0xad, 0x25, 0x89, 0xbe, 
	0xe9, 0xdf, 0x0a, 0xbe, 0x50, 0xc1, 0x30, 0x3f, 0x49, 0x73, 0x37, 0x3f, 
	0xfe, 0x96, 0xab, 0xbe, 0x85, 0xb9, 0x1c, 0xbd, 0x8c, 0x9f, 0x0d, 0xbe, 
	0x45, 0x09, 0xd8, 0x3e, 0x8d, 0x49, 0xd7, 0x3e, 0xea, 0xc5, 0x2a, 0x3f, 
	0x4a, 0xdc, 0xff, 0xff, 0x10, 0x00, 0x00, 0x00, 0x09, 0x00, 0x00, 0x00, 
	0x14, 0x00, 0x00, 0x00, 0x30, 0x00, 0x00, 0x00, 0x02, 0x00, 0x00, 0x00, 
	0x01, 0x00, 0x00, 0x00, 0x10, 0x00, 0x00, 0x00, 0x1a, 0x00, 0x00, 0x00, 
	0x6d, 0x6f, 0x64, 0x65, 0x6c, 0x5f, 0x31, 0x34, 0x35, 0x2f, 0x64, 0x65, 
	0x6e, 0x73, 0x65, 0x5f, 0x31, 0x34, 0x34, 0x2f, 0x4d, 0x61, 0x74, 0x4d, 
	0x75, 0x6c, 0x00, 0x00, 0x48, 0xdc, 0xff, 0xff, 0x76, 0xdd, 0xff, 0xff, 
	0x04, 0x00, 0x00, 0x00, 0x00, 0x04, 0x00, 0x00, 0x98, 0x30, 0x7f, 0x3e, 
	0xf9, 0x6e, 0xc4, 0xbe, 0x47, 0x1c, 0x62, 0x3e, 0x54, 0xab, 0x93, 0xbd, 
	0x5c, 0x45, 0xbe, 0xbe, 0x11, 0x62, 0x02, 0xbe, 0x9d, 0x78, 0x67, 0xbe, 
	0xeb, 0x0d, 0x43, 0xbd, 0x92, 0x25, 0x05, 0xbe, 0x29, 0x96, 0xdc, 0x3d, 
	0xb5, 0xda, 0xe2, 0xbe, 0x32, 0x0a, 0xc0, 0xbe, 0x3c, 0xb7, 0x29, 0x3e, 
	0xde, 0xb3, 0xc5, 0xbd, 0xae, 0x58, 0x9a, 0x3e, 0x77, 0xd2, 0x93, 0xbe, 
	0xec, 0x39, 0x00, 0xba, 0x28, 0xd9, 0x8a, 0xbe, 0x41, 0xe2, 0x1d, 0x3f, 
	0x27, 0xdb, 0xd7, 0x3d, 0xed, 0xb4, 0x1a, 0xbf, 0x1a, 0x17, 0xf7, 0x3e, 
	0xb8, 0xf9, 0xfc, 0x3e, 0x80, 0x38, 0x0f, 0xbe, 0x0e, 0x11, 0x8b, 0x3e, 
	0xd1, 0x70, 0x11, 0x3f, 0x6e, 0x34, 0xda, 0x3e, 0xd8, 0xf3, 0x93, 0x3d, 
	0x5e, 0x2f, 0xa5, 0xbe, 0x39, 0xbe, 0x1a, 0x3f, 0x97, 0x08, 0x40, 0x3e, 
	0x5d, 0xa5, 0xbf, 0x3e, 0xe1, 0xf4, 0xbb, 0xbe, 0xf4, 0xc9, 0x8b, 0x3e, 
	0xe6, 0x49, 0x5c, 0xbe, 0x68, 0x9b, 0xb3, 0xbe, 0x8b, 0x96, 0xca, 0xbd, 
	0x09, 0x84, 0x80, 0xbe, 0xf6, 0x2e, 0x21, 0x3e, 0x15, 0xa0, 0x9c, 0xbe, 
	0x2d, 0x32, 0x7e, 0x3e, 0xd0, 0xb2, 0x73, 0x3e, 0x29, 0x25, 0x75, 0x3e, 
	0x73, 0x9a, 0x0e, 0xbe, 0x28, 0x76, 0x8b, 0xbe, 0xc9, 0x2b, 0xe4, 0xbe, 
	0xa9, 0x7a, 0xde, 0xbe, 0x72, 0xc6, 0x9e, 0x3e, 0x2f, 0xdf, 0x8d, 0x3e, 
	0x24, 0x09, 0x92, 0x3d, 0xc1, 0x2d, 0xa9, 0x3d, 0x60, 0x8c, 0x13, 0x3b, 
	0x2f, 0xc5, 0xab, 0xbe, 0x2f, 0xd3, 0xbc, 0x3e, 0x11, 0x63, 0x83, 0x3e, 
	0x12, 0x2e, 0x9f, 0x3b, 0x2e, 0xb8, 0xe0, 0x3e, 0xeb, 0x99, 0x30, 0xbe, 
	0x9b, 0xcf, 0x0e, 0x3f, 0x77, 0x23, 0x4c, 0x3d, 0x69, 0xa5, 0x78, 0x3e, 
	0x40, 0xfc, 0xfd, 0x3e, 0xc2, 0xf7, 0x42, 0x3e, 0xd5, 0x70, 0x24, 0x3f, 
	0x20, 0xbb, 0xb4, 0x3d, 0x91, 0x6d, 0xab, 0x3e, 0xa5, 0x0e, 0x0b, 0xbe, 
	0x81, 0x10, 0x6c, 0x3e, 0xff, 0xa3, 0xbc, 0xbe, 0x4a, 0xeb, 0x8c, 0x3e, 
	0x15, 0x04, 0xb2, 0x3e, 0x41, 0x76, 0x70, 0x3e, 0x2b, 0x7e, 0x37, 0xbe, 
	0xd9, 0x42, 0xb9, 0xbc, 0x41, 0x23, 0xb4, 0x3e, 0x22, 0x43, 0xa7, 0x3e, 
	0x89, 0x99, 0x67, 0xbe, 0xb8, 0x5a, 0xf0, 0xbd, 0xe8, 0xd5, 0x42, 0x3f, 
	0x8d, 0x92, 0x26, 0x3f, 0x6e, 0x72, 0xf9, 0x3e, 0x2b, 0x85, 0x44, 0xbd, 
	0xd6, 0x55, 0x3a, 0x3e, 0x08, 0xab, 0xfe, 0x3e, 0x47, 0x7e, 0xf4, 0x3c, 
	0x37, 0x53, 0x05, 0x3c, 0x70, 0x38, 0x48, 0x3e, 0xd0, 0xbb, 0x59, 0x3e, 
	0x74, 0x8b, 0x06, 0x3f, 0x9b, 0x55, 0x63, 0xbc, 0x66, 0x9d, 0x0a, 0x3f, 
	0x69, 0xc5, 0x09, 0x3f, 0xe4, 0x74, 0x9d, 0xbe, 0x93, 0xbd, 0x23, 0xbe, 
	0x84, 0x2c, 0xfc, 0x3e, 0xa4, 0x83, 0xa6, 0x3e, 0xec, 0x1a, 0x7c, 0xbe, 
	0xcf, 0xa3, 0x44, 0xbe, 0x17, 0xf1, 0xd9, 0xbd, 0x8a, 0x2d, 0x73, 0xbe, 
	0xd3, 0xd1, 0xab, 0xbd, 0x52, 0xa3, 0x58, 0xbe, 0x0d, 0xc5, 0x74, 0xbd, 
	0xfe, 0xc7, 0xaf, 0xbe, 0x22, 0xa7, 0x9b, 0x3e, 0x70, 0x03, 0x24, 0xbe, 
	0xa8, 0x5a, 0x2f, 0xbe, 0x6c, 0x15, 0x82, 0x3d, 0xfa, 0x0e, 0x78, 0xbe, 
	0x45, 0x29, 0xc7, 0x3d, 0xa3, 0x82, 0x0e, 0xbe, 0xd3, 0xa4, 0x6e, 0xbe, 
	0x2f, 0xd8, 0xe1, 0xbd, 0xd3, 0x41, 0x05, 0xbe, 0x19, 0xa2, 0xed, 0xbd, 
	0x4a, 0xb2, 0xcc, 0x3d, 0xcc, 0xee, 0xbd, 0x3e, 0x50, 0x0d, 0xff, 0xbe, 
	0xd8, 0xfd, 0x76, 0x3e, 0x2e, 0xd6, 0xb8, 0x3d, 0x05, 0x0f, 0x9f, 0xbe, 
	0x24, 0xb5, 0x25, 0x3e, 0x3f, 0x4c, 0x96, 0xbd, 0x4a, 0x2f, 0x27, 0xbe, 
	0x6e, 0x36, 0x90, 0xbe, 0x01, 0x73, 0x9f, 0x3e, 0x76, 0x13, 0x1c, 0x3e, 
	0x87, 0x18, 0xab, 0x3c, 0x98, 0x4f, 0x2d, 0xbe, 0x26, 0x8b, 0x36, 0x3d, 
	0xc5, 0x3a, 0x70, 0x3e, 0xa4, 0xbc, 0x9d, 0x3e, 0x1e, 0x5d, 0x57, 0x3e, 
	0x36, 0x0a, 0x9f, 0x3e, 0x98, 0xa2, 0x20, 0x3d, 0x99, 0xa4, 0x42, 0xbd, 
	0x17, 0x6b, 0x01, 0x3f, 0x19, 0x1b, 0x07, 0x3f, 0x67, 0x5f, 0x17, 0x3f, 
	0x63, 0x38, 0x07, 0x3e, 0xfd, 0x57, 0x3f, 0xbe, 0x19, 0x73, 0x01, 0x3e, 
	0xea, 0x97, 0x03, 0xbd, 0xaa, 0x16, 0xb4, 0x3e, 0x55, 0x17, 0x4b, 0x3e, 
	0x60, 0x8c, 0x35, 0x3d, 0xe8, 0x3b, 0x09, 0x3f, 0xae, 0xaa, 0xd9, 0x3e, 
	0x3a, 0x15, 0x83, 0xbe, 0xc3, 0xd0, 0x14, 0x3f, 0xa6, 0xf7, 0x0f, 0x3f, 
	0xc2, 0x79, 0x9d, 0xbe, 0x15, 0x07, 0xdc, 0x3e, 0x6e, 0x6f, 0x03, 0x3e, 
	0x7d, 0x4e, 0x39, 0xbe, 0xac, 0x53, 0x2a, 0x3e, 0x37, 0x79, 0x85, 0x3e, 
	0x34, 0xc3, 0x1c, 0x3f, 0xd3, 0x51, 0x89, 0x3e, 0x24, 0xd9, 0x26, 0x3e, 
	0xde, 0xda, 0x56, 0xbd, 0x0b, 0xfe, 0x2d, 0x3d, 0x5e, 0x91, 0xab, 0x3d, 
	0x23, 0xea, 0xb8, 0xbc, 0x08, 0xfa, 0x36, 0x3e, 0xb9, 0x3b, 0x37, 0xbc, 
	0x3e, 0x1d, 0x95, 0x3e, 0x3c, 0x70, 0xa2, 0xbe, 0x25, 0x1f, 0x6c, 0x3e, 
	0xec, 0xc2, 0xcd, 0xbe, 0xb1, 0x78, 0xc3, 0xbe, 0x29, 0x2f, 0xfb, 0xbe, 
	0xc3, 0x2e, 0x01, 0x3e, 0x9b, 0x70, 0x96, 0x3e, 0xc4, 0x7d, 0xc2, 0xbd, 
	0xe3, 0xbe, 0xbd, 0x3d, 0x3d, 0xb3, 0x9b, 0x3e, 0x4d, 0xed, 0x3b, 0x3e, 
	0x74, 0x88, 0xa9, 0xbe, 0x9b, 0x69, 0x80, 0x38, 0xe8, 0x51, 0x8e, 0x3d, 
	0x14, 0x4d, 0x50, 0x3e, 0x70, 0x2e, 0xcf, 0xbe, 0xcf, 0x82, 0x64, 0x3e, 
	0xcb, 0x7b, 0x98, 0x3d, 0x09, 0xe8, 0xd4, 0xbe, 0x33, 0x12, 0xbb, 0xbd, 
	0x37, 0xec, 0xa0, 0xbe, 0x46, 0x3b, 0xdb, 0xbd, 0x19, 0x86, 0x71, 0xbe, 
	0x57, 0x0b, 0xb0, 0x3e, 0x22, 0xb7, 0xec, 0xbd, 0x6e, 0xf7, 0xd2, 0xbe, 
	0x62, 0x4e, 0x7b, 0x3e, 0xee, 0x46, 0xe2, 0xbe, 0x50, 0x50, 0x7e, 0x3e, 
	0x2f, 0xc3, 0x4a, 0xbe, 0xa2, 0x02, 0x9d, 0x3e, 0x93, 0x73, 0xa4, 0x3e, 
	0x60, 0xbf, 0xe1, 0x3d, 0xc3, 0xe2, 0x0c, 0xbe, 0x5b, 0x3d, 0xeb, 0xbe, 
	0x8e, 0xcd, 0xdf, 0xbe, 0x52, 0xa2, 0xf0, 0xbd, 0xf6, 0x46, 0xbc, 0x3d, 
	0xb2, 0x6e, 0x8d, 0x3d, 0x1a, 0x69, 0x29, 0xbc, 0xe1, 0x23, 0x8c, 0xbe, 
	0xe6, 0x23, 0xbb, 0x3e, 0x60, 0xa6, 0x52, 0x3e, 0x06, 0xb0, 0x11, 0x3d, 
	0x26, 0x9e, 0xa7, 0x3e, 0x56, 0x58, 0x61, 0x3d, 0xf6, 0x88, 0x37, 0x3e, 
	0x5d, 0x4e, 0xe9, 0x3e, 0x6b, 0xbd, 0xc4, 0x3e, 0xb6, 0x45, 0x78, 0x3e, 
	0xa6, 0x5e, 0x99, 0x3c, 0xa3, 0xdc, 0x42, 0x3d, 0xdc, 0x14, 0x22, 0x3f, 
	0xce, 0x1d, 0x80, 0x3e, 0x95, 0x38, 0xf5, 0xbd, 0x73, 0xb7, 0xcf, 0x3c, 
	0x28, 0x73, 0xf8, 0x3e, 0xe4, 0xf1, 0xfe, 0x3e, 0xad, 0xfd, 0xa7, 0xbe, 
	0x43, 0x2c, 0x33, 0x3f, 0x40, 0x6b, 0xe4, 0x3e, 0x2b, 0x74, 0x09, 0xbf, 
	0x26, 0x4e, 0x91, 0x3e, 0xd6, 0xf4, 0x3e, 0xbd, 0xb5, 0xd3, 0x49, 0xbe, 
	0xaf, 0xe0, 0x0c, 0x3f, 0x52, 0xbe, 0xfd, 0x3d, 0xf4, 0xd1, 0x93, 0xbd, 
	0x74, 0x09, 0xb4, 0x3d, 0xe5, 0x0b, 0xaa, 0xbe, 0x1a, 0x17, 0x9e, 0x3e, 
	0x68, 0x15, 0x81, 0x3d, 0x77, 0x36, 0x87, 0xbd, 0x7d, 0xe3, 0xe6, 0xbc, 
	0x1d, 0x71, 0xa8, 0xbd, 0x4d, 0x1d, 0xd7, 0x3e, 0xa0, 0x85, 0x84, 0xbd, 
	0xfa, 0xeb, 0x45, 0xbe, 0xc6, 0x45, 0x2d, 0x3e, 0x99, 0xb9, 0x23, 0x3f, 
	0x61, 0x86, 0xa1, 0xbe, 0x1c, 0x24, 0x08, 0x3f, 0xf6, 0xac, 0xcf, 0x3e, 
	0xdc, 0x6c, 0x0d, 0x3e, 0xd8, 0x4a, 0xd4, 0x3e, 0x55, 0xa8, 0xc6, 0xbe, 
	0x94, 0x29, 0x16, 0x3f, 0xe6, 0xec, 0xf0, 0x3e, 0xc2, 0x12, 0xc2, 0x3e, 
	0x9a, 0xe0, 0xff, 0xff, 0x10, 0x00, 0x00, 0x00, 0x08, 0x00, 0x00, 0x00, 
	0x14, 0x00, 0x00, 0x00, 0x30, 0x00, 0x00, 0x00, 0x02, 0x00, 0x00, 0x00, 
	0x10, 0x00, 0x00, 0x00, 0x10, 0x00, 0x00, 0x00, 0x1a, 0x00, 0x00, 0x00, 
	0x6d, 0x6f, 0x64, 0x65, 0x6c, 0x5f, 0x31, 0x34, 0x35, 0x2f, 0x64, 0x65, 
	0x6e, 0x73, 0x65, 0x5f, 0x31, 0x34, 0x33, 0x2f, 0x4d, 0x61, 0x74, 0x4d, 
	0x75, 0x6c, 0x00, 0x00, 0x98, 0xe0, 0xff, 0xff, 0xc6, 0xe1, 0xff, 0xff, 
	0x04, 0x00, 0x00, 0x00, 0x00, 0x08, 0x00, 0x00, 0xf5, 0x7e, 0x01, 0x3d, 
	0xe6, 0x56, 0x42, 0x3e, 0x77, 0x43, 0x5c, 0x3e, 0xd4, 0xb6, 0x14, 0x3d, 
	0x4a, 0x87, 0x83, 0xbe, 0x5d, 0x1a, 0x41, 0x3e, 0xcd, 0x75, 0x80, 0x3e, 
	0x2d, 0x05, 0xae, 0xbd, 0x4e, 0x42, 0x07, 0x3e, 0x3c, 0xf9, 0xd1, 0x3d, 
	0x9a, 0xcb, 0xd1, 0x3b, 0xfa, 0x6c, 0x19, 0xbe, 0xdb, 0xd6, 0x06, 0x3e, 
	0x47, 0xfd, 0x99, 0x3e, 0x65, 0x1c, 0x19, 0x3e, 0x76, 0x44, 0x94, 0x3e, 
	0x8b, 0x8f, 0x9e, 0xbe, 0x51, 0xce, 0x8b, 0x3e, 0x37, 0x44, 0xdb, 0xbd, 
	0x12, 0xd4, 0x9a, 0xbd, 0xfa, 0x26, 0xed, 0x3d, 0x16, 0x65, 0xa8, 0xbe, 
	0x61, 0x0e, 0x9d, 0x3e, 0xc3, 0xdd, 0xbb, 0x3d, 0xc6, 0x40, 0xda, 0x3e, 
	0xbc, 0x80, 0x32, 0xbe, 0xe3, 0xe2, 0xd8, 0x3d, 0xe6, 0x5c, 0x07, 0x3e, 
	0x4d, 0xd0, 0x20, 0x3e, 0x64, 0x7d, 0xd9, 0xbd, 0x15, 0x22, 0x0e, 0x3e, 
	0x20, 0x58, 0xd7, 0x3d, 0xb2, 0x93, 0xf8, 0xbd, 0x03, 0xa1, 0xb8, 0xbe, 
	0xc7, 0x43, 0xf5, 0x3d, 0x9d, 0x31, 0xaf, 0xbe, 0x81, 0xdc, 0xc3, 0xbe, 
	0x44, 0x04, 0x9f, 0xbd, 0xf7, 0x51, 0x3e, 0x3d, 0xd5, 0xa9, 0xc9, 0xbe, 
	0x2b, 0x5f, 0x44, 0xbe, 0x10, 0x15, 0xa9, 0x3d, 0x75, 0x94, 0x02, 0x3c, 
	0x87, 0xab, 0xf0, 0x3d, 0x06, 0x8e, 0x3e, 0x3e, 0xb0, 0xb6, 0x53, 0xbc, 
	0x0d, 0x96, 0x1f, 0x3e, 0x7c, 0xee, 0x62, 0xbd, 0xba, 0xd3, 0xe4, 0xbd, 
	0x4d, 0x86, 0x14, 0xbe, 0xf8, 0x2e, 0xa0, 0x3d, 0xa8, 0x25, 0xad, 0x3d, 
	0x61, 0xfe, 0x3a, 0xbe, 0x9a, 0xc8, 0x97, 0x3e, 0x14, 0x9f, 0x18, 0x3e, 
	0x18, 0xfc, 0xac, 0xbe, 0x35, 0x80, 0xe8, 0x3d, 0xa2, 0xcd, 0xdb, 0xbe, 
	0x4a, 0xbe, 0x5a, 0xbe, 0xfd, 0x66, 0x63, 0xbe, 0x09, 0x9f, 0x43, 0x3d, 
	0x83, 0xdd, 0x40, 0xbe, 0xa2, 0x19, 0x99, 0xbd, 0x70, 0x26, 0x83, 0x3d, 
	0x7e, 0x1f, 0xdd, 0x3d, 0x41, 0xd3, 0x10, 0x3e, 0xb9, 0xf1, 0xe3, 0x3c, 
	0x3a, 0xf9, 0xd7, 0xbe, 0x2a, 0x49, 0x5c, 0x3d, 0x22, 0xed, 0x82, 0x3e, 
	0x5d, 0x2b, 0xea, 0xbc, 0x65, 0x71, 0x59, 0xbe, 0x92, 0xd9, 0x15, 0xbf, 
	0x5f, 0x4c, 0x6b, 0xbe, 0x49, 0xd6, 0x8e, 0x3e, 0xdc, 0xeb, 0x3b, 0xbd, 
	0xe3, 0xc7, 0x32, 0xbe, 0x6c, 0x4c, 0x13, 0xbe, 0xc9, 0xbb, 0xa5, 0x3e, 
	0x43, 0x61, 0x35, 0x3e, 0x5c, 0x27, 0x13, 0x3e, 0xd9, 0x49, 0x89, 0xbe, 
	0x5f, 0xd9, 0x67, 0x3e, 0xcc, 0xdb, 0xad, 0xbe, 0x8f, 0xe1, 0x58, 0xbe, 
	0x00, 0xed, 0xc7, 0xbc, 0x71, 0xae, 0xb8, 0x3d, 0x06, 0x88, 0xad, 0x3e, 
	0x0a, 0xcd, 0x8a, 0x3e, 0x1b, 0x0a, 0x76, 0x3e, 0x60, 0x7d, 0x87, 0x3e, 
	0xc6, 0x24, 0x43, 0xbe, 0x9a, 0xd1, 0x9a, 0xbe, 0x51, 0x00, 0x29, 0xbe, 
	0xba, 0xb3, 0x85, 0x3e, 0x60, 0x3d, 0x54, 0xbf, 0x97, 0x01, 0x85, 0x3e, 
	0xdc, 0xb5, 0xf1, 0x3d, 0x29, 0xbf, 0x04, 0x3f, 0x14, 0x54, 0x53, 0xbe, 
	0xd8, 0x00, 0xfa, 0x3e, 0xb2, 0x28, 0xa4, 0x3d, 0x36, 0xe4, 0x8d, 0x3e, 
	0xd7, 0x53, 0xf6, 0x3e, 0xc0, 0xd7, 0xa4, 0xbe, 0xa4, 0x70, 0x9a, 0xbd, 
	0x98, 0xb9, 0xaa, 0xbe, 0x39, 0x31, 0x61, 0xbe, 0x28, 0xee, 0xf1, 0x3e, 
	0x38, 0x43, 0xba, 0x3e, 0x68, 0xea, 0xb0, 0x3e, 0x64, 0x44, 0xa4, 0x3e, 
	0x13, 0x9f, 0xa2, 0x3e, 0xb0, 0x55, 0x5e, 0x3d, 0x0e, 0x6d, 0x7e, 0x3e, 
	0xd4, 0x35, 0x1c, 0xbe, 0x24, 0x89, 0x54, 0xbe, 0xd8, 0x93, 0xd9, 0x3d, 
	0x6d, 0x15, 0x4a, 0x3c, 0x52, 0x7e, 0x02, 0x3f, 0x50, 0xc0, 0xe3, 0x3e, 
	0x32, 0xb1, 0xeb, 0x3c, 0x6d, 0x8d, 0x91, 0x3e, 0x40, 0x8d, 0x23, 0x3e, 
	0x47, 0xba, 0x12, 0x3d, 0xc6, 0x0f, 0x89, 0xbe, 0x57, 0x7c, 0xf3, 0x3e, 
	0xa2, 0x87, 0xc8, 0xbc, 0x68, 0xd1, 0xd9, 0x3c, 0x5f, 0xe3, 0xde, 0xbe, 
	0x12, 0x01, 0x1c, 0x3d, 0x76, 0x7a, 0x15, 0xbf, 0xe3, 0x26, 0x8d, 0x3d, 
	0x49, 0xd2, 0x90, 0xbe, 0x95, 0x6c, 0x55, 0xbe, 0x47, 0xb2, 0x85, 0xbb, 
	0xda, 0xd2, 0x4b, 0x3f, 0xe0, 0xe6, 0x69, 0x3c, 0x1e, 0x3a, 0xd8, 0xbd, 
	0xc7, 0xc0, 0x94, 0x3e, 0xdc, 0x1d, 0xad, 0xbd, 0xd3, 0x4f, 0x83, 0x3d, 
	0x7a, 0xdd, 0x0c, 0xbe, 0x3c, 0xaa, 0xe2, 0x3d, 0x07, 0x97, 0x9b, 0x3e, 
	0xc8, 0xff, 0xa4, 0xbd, 0x35, 0x96, 0x7f, 0xbe, 0xd8, 0x7f, 0xa8, 0x3c, 
	0x57, 0x01, 0x9f, 0xbe, 0xdc, 0xda, 0x18, 0x3e, 0x5e, 0xce, 0x5c, 0xbe, 
	0x81, 0xcb, 0x92, 0xbe, 0xb8, 0xfd, 0xcc, 0xbe, 0x7a, 0x09, 0xca, 0xbe, 
	0xbb, 0xda, 0x94, 0xbe, 0x21, 0x8b, 0x84, 0x3d, 0x8f, 0xdc, 0xe5, 0xbe, 
	0x3b, 0x66, 0x7c, 0x3e, 0xb9, 0x2d, 0xa6, 0x3d, 0x4d, 0x84, 0x93, 0x3e, 
	0xe2, 0x98, 0xfe, 0x3e, 0xc4, 0x07, 0x0d, 0x3f, 0x50, 0xcc, 0xba, 0xbd, 
	0x89, 0x24, 0x31, 0xbd, 0x7f, 0xa9, 0xbd, 0x3e, 0xec, 0x54, 0x0f, 0xbe, 
	0x3e, 0x50, 0xc1, 0x3e, 0xdd, 0xe7, 0xe4, 0x3e, 0x27, 0x9f, 0x2c, 0xbf, 
	0x7e, 0x07, 0x71, 0x3e, 0xda, 0xb1, 0xa6, 0x3e, 0x62, 0xf1, 0x11, 0x3e, 
	0x6d, 0x53, 0x3d, 0x3e, 0x55, 0xd7, 0x27, 0xbe, 0x01, 0x39, 0x91, 0xbd, 
	0x21, 0xe3, 0xaf, 0xbc, 0xf0, 0x93, 0xa8, 0xbc, 0x61, 0x00, 0xa3, 0x3e, 
	0x52, 0x32, 0x94, 0x3e, 0x93, 0x22, 0xa7, 0x3e, 0xd6, 0x42, 0x31, 0x3e, 
	0xc9, 0x63, 0x21, 0xbd, 0xa6, 0xd7, 0x44, 0x3e, 0x84, 0xf3, 0x9d, 0x3d, 
	0x24, 0xc2, 0x86, 0x3e, 0x11, 0x4a, 0x55, 0x3e, 0x9d, 0x58, 0x82, 0x3e, 
	0xe5, 0xca, 0xe4, 0x3d, 0xe7, 0x67, 0x60, 0xbe, 0x65, 0xd0, 0x6e, 0xbe, 
	0xd2, 0xfc, 0xfd, 0x3e, 0x53, 0x20, 0x14, 0xbf, 0xbd, 0x9c, 0xa7, 0x3b, 
	0xef, 0x98, 0xb2, 0x3d, 0x3a, 0xd3, 0xb4, 0x3e, 0x5b, 0xdd, 0x2a, 0xbf, 
	0xd9, 0xeb, 0xf3, 0xbd, 0xc6, 0xbf, 0xa0, 0xbe, 0x93, 0xae, 0xd0, 0x3e, 
	0x1b, 0x9e, 0x67, 0x3e, 0xf5, 0x01, 0x67, 0xbf, 0xa1, 0xa9, 0xb3, 0xbe, 
	0xd3, 0x5b, 0x90, 0x3e, 0xdd, 0x04, 0x7f, 0xbe, 0x93, 0xec, 0xc4, 0x3e, 
	0x58, 0x21, 0x3f, 0xbb, 0x5d, 0xbc, 0xf6, 0xbd, 0x19, 0xbc, 0xa9, 0xbd, 
	0x70, 0xb5, 0x16, 0x3d, 0xc4, 0xdc, 0x00, 0x3e, 0x87, 0x6f, 0x69, 0xbe, 
	0x88, 0xa8, 0xa4, 0xbe, 0xb9, 0xa4, 0x8f, 0xbe, 0xad, 0x3a, 0xc6, 0x3d, 
	0x3d, 0x57, 0x9d, 0xbd, 0x9c, 0x72, 0xd1, 0x3e, 0x40, 0xee, 0x07, 0xbe, 
	0x45, 0xcf, 0x9e, 0x3e, 0xf6, 0xde, 0x4f, 0x3e, 0x72, 0x7b, 0xcf, 0x3e, 
	0x36, 0x27, 0x42, 0xbf, 0xc2, 0xb9, 0x88, 0xbe, 0x34, 0xb5, 0x65, 0xbe, 
	0x77, 0x10, 0x71, 0xbf, 0xf0, 0xcc, 0xc8, 0x3c, 0xd1, 0xff, 0xe7, 0xbd, 
	0x64, 0x01, 0x2d, 0x3c, 0x8d, 0xa8, 0x20, 0xbe, 0xa7, 0x2c, 0x89, 0xbe, 
	0x7f, 0x19, 0x95, 0xbe, 0x71, 0x37, 0x17, 0x3e, 0x01, 0x09, 0x31, 0x3d, 
	0xab, 0xf1, 0x17, 0xbe, 0x76, 0x8d, 0x68, 0x3e, 0xb6, 0x9a, 0xa7, 0x3e, 
	0x40, 0x23, 0x2b, 0xbd, 0x0d, 0xd5, 0x8f, 0xbe, 0x24, 0x41, 0xb1, 0xbe, 
	0xf3, 0xe5, 0xe9, 0x3c, 0x8a, 0x62, 0xaa, 0xbe, 0xac, 0x48, 0x91, 0xbd, 
	0x01, 0xa6, 0x3b, 0xbe, 0xa3, 0xe0, 0x7f, 0x3e, 0x56, 0x88, 0x5c, 0x3e, 
	0x98, 0xe3, 0xa1, 0xbe, 0x56, 0xd4, 0x86, 0x3e, 0x8b, 0x8e, 0xe3, 0x3d, 
	0x4d, 0x04, 0xb2, 0xbd, 0xa9, 0xd7, 0xa4, 0xbe, 0x13, 0x3d, 0xa6, 0x3d, 
	0x29, 0x7c, 0x1c, 0xbe, 0x5b, 0x33, 0x45, 0xbe, 0xd0, 0xcc, 0x9f, 0xbe, 
	0x9e, 0xd0, 0x55, 0x3e, 0x58, 0xae, 0xb5, 0xbe, 0x00, 0x88, 0x80, 0x3b, 
	0xb7, 0x13, 0xbb, 0x3e, 0x6f, 0xc8, 0x01, 0x3e, 0x3f, 0xe7, 0x8a, 0x3e, 
	0xce, 0x03, 0xd3, 0xbe, 0x76, 0x1e, 0xa0, 0x3e, 0x5e, 0xab, 0xf7, 0xbd, 
	0x2b, 0x4c, 0xc6, 0x3e, 0x24, 0xa2, 0x9f, 0x3e, 0x2b, 0x56, 0xca, 0xbe, 
	0x5a, 0xd4, 0x83, 0xbe, 0x47, 0x23, 0xbf, 0x3d, 0xaa, 0xed, 0x8e, 0xbe, 
	0xa7, 0x26, 0x9b, 0x3e, 0x43, 0x1f, 0x09, 0x3f, 0x8c, 0xbd, 0xc1, 0x3e, 
	0xb2, 0xcc, 0xf2, 0x3e, 0xcc, 0xe9, 0x86, 0xbd, 0x42, 0x27, 0x2e, 0xbe, 
	0x02, 0xbc, 0x6d, 0xbe, 0x1a, 0x2a, 0xa7, 0xbe, 0x38, 0xaf, 0xc5, 0x3d, 
	0x2d, 0xf7, 0x91, 0xbe, 0x98, 0x0e, 0xbe, 0x3e, 0x7a, 0x38, 0x9f, 0x3d, 
	0x16, 0xfc, 0xc0, 0x3c, 0x32, 0x18, 0xda, 0x3e, 0x58, 0x78, 0xc5, 0x3e, 
	0xb9, 0xc4, 0x05, 0x3f, 0x24, 0xd3, 0xb2, 0xbe, 0x1e, 0x88, 0x9b, 0x3c, 
	0xe1, 0xdf, 0xcc, 0x3e, 0x45, 0x92, 0xc1, 0xbe, 0x2a, 0x27, 0xb1, 0x3e, 
	0x95, 0x4e, 0xa2, 0x3c, 0x9d, 0x9a, 0x14, 0x3e, 0x43, 0xce, 0x49, 0xbe, 
	0x86, 0xd6, 0x8b, 0x3e, 0x85, 0x0d, 0xa2, 0xbd, 0x44, 0xf3, 0xbf, 0x3e, 
	0x86, 0x31, 0xf2, 0x3d, 0xe2, 0xb4, 0x56, 0x3e, 0x00, 0x2a, 0x3a, 0xbe, 
	0xe5, 0x35, 0x62, 0x3d, 0xe1, 0xbb, 0xe2, 0xbd, 0x0e, 0xff, 0x97, 0x3e, 
	0xf7, 0x16, 0xc4, 0x3e, 0xca, 0xac, 0x0d, 0x3e, 0x66, 0x48, 0xfe, 0x3e, 
	0xc2, 0xf0, 0x21, 0x3e, 0x00, 0xc4, 0x03, 0xba, 0xfd, 0x75, 0x9e, 0xbd, 
	0x54, 0x61, 0x3c, 0xbe, 0xbf, 0x55, 0xa7, 0x3d, 0x5d, 0x6b, 0x80, 0x3e, 
	0xf8, 0x3d, 0x16, 0x3e, 0x54, 0xf6, 0x9a, 0xbd, 0xd0, 0xef, 0x47, 0x3e, 
	0x96, 0x1a, 0x94, 0x3e, 0x71, 0xab, 0x35, 0x3e, 0x90, 0xb1, 0xb0, 0x3e, 
	0xcd, 0x38, 0xa2, 0xbe, 0x42, 0xa2, 0x4a, 0xbd, 0x9b, 0x0d, 0x01, 0xbe, 
	0x4e, 0xdf, 0x8a, 0x3e, 0xe4, 0xec, 0x9f, 0x3e, 0xe4, 0x15, 0x97, 0x3e, 
	0xcb, 0x58, 0x91, 0x3e, 0x9a, 0x12, 0x4f, 0xbe, 0x71, 0x05, 0xca, 0x3e, 
	0xe0, 0xad, 0x89, 0xbe, 0x18, 0xca, 0x11, 0x3e, 0xae, 0xce, 0xe4, 0xbd, 
	0xde, 0xa3, 0x7a, 0xbd, 0xfc, 0x40, 0xf8, 0x3d, 0x4d, 0x9c, 0x9c, 0x3c, 
	0x2b, 0x21, 0xa5, 0x3e, 0x45, 0x5f, 0x9b, 0x3e, 0x85, 0x7a, 0xf5, 0x3e, 
	0xbf, 0x32, 0x17, 0x3e, 0x7f, 0xf6, 0x85, 0xbd, 0x0e, 0x27, 0x49, 0x3e, 
	0x6b, 0x4d, 0xa0, 0xbe, 0x95, 0xa5, 0x87, 0xbe, 0x4e, 0x83, 0x8f, 0x3e, 
	0x5c, 0x70, 0xb9, 0x3d, 0x3a, 0x5b, 0x92, 0x3e, 0xde, 0xeb, 0x7e, 0x3d, 
	0x8b, 0xe9, 0xdf, 0x3e, 0x8c, 0xd7, 0x9a, 0x3e, 0x86, 0x8e, 0x9a, 0x3d, 
	0x8d, 0x2e, 0x1a, 0x3e, 0xaf, 0x60, 0xff, 0xbd, 0x0e, 0x7e, 0x16, 0xbf, 
	0xbe, 0x77, 0xd5, 0x3c, 0xcd, 0x26, 0xf7, 0xbd, 0x19, 0x53, 0x29, 0xbf, 
	0xc8, 0x14, 0xd1, 0x3d, 0xce, 0x2f, 0x1a, 0x3f, 0x07, 0x0a, 0xcb, 0x3e, 
	0x34, 0x48, 0x47, 0xbe, 0xbb, 0x70, 0x97, 0x3e, 0xc7, 0x0b, 0x2d, 0xbe, 
	0x98, 0x21, 0x98, 0x3e, 0xcb, 0x6e, 0x10, 0x3e, 0xf2, 0xe3, 0x5b, 0xbe, 
	0xc7, 0x9b, 0xb4, 0xbe, 0xdd, 0xd6, 0x29, 0x3d, 0x66, 0x8f, 0x12, 0x3e, 
	0xe3, 0x97, 0x01, 0x3f, 0xaa, 0x4d, 0xa3, 0xbc, 0x49, 0xf9, 0xba, 0x3e, 
	0x4e, 0x86, 0x23, 0x3d, 0x0e, 0xda, 0x3d, 0xbe, 0x8d, 0x82, 0xa6, 0x3e, 
	0xb3, 0x56, 0x77, 0x3e, 0x6b, 0x4e, 0x36, 0xbe, 0x94, 0x5e, 0xf0, 0x3d, 
	0x7f, 0x2a, 0x1e, 0xbe, 0x5d, 0x52, 0x03, 0x3f, 0xda, 0x42, 0x48, 0x3e, 
	0x04, 0x25, 0x9b, 0x3e, 0x34, 0x62, 0x42, 0x3e, 0x42, 0x51, 0xac, 0x3e, 
	0x8d, 0xc0, 0x9c, 0x3e, 0x34, 0xa3, 0x85, 0x3d, 0xb2, 0x5c, 0x14, 0xbc, 
	0x64, 0xdd, 0xc5, 0x3d, 0xf8, 0xa3, 0xa1, 0xbb, 0xd8, 0x51, 0x0b, 0x3d, 
	0x68, 0x59, 0xca, 0xbe, 0x7f, 0xab, 0x11, 0x3d, 0x89, 0xad, 0xbc, 0xbd, 
	0xf6, 0x87, 0x53, 0xbe, 0x4a, 0x92, 0x85, 0x3e, 0x7f, 0xed, 0x3d, 0xbd, 
	0xc3, 0xff, 0x13, 0x3e, 0xfd, 0xd5, 0xaf, 0xbb, 0x52, 0x13, 0x8e, 0xbe, 
	0x09, 0x53, 0x7a, 0x3b, 0xeb, 0x19, 0xfa, 0xbc, 0xe7, 0x5b, 0x97, 0xbe, 
	0x45, 0x71, 0x9e, 0xbe, 0x8a, 0xa3, 0x46, 0xbe, 0xd2, 0x1f, 0x21, 0xba, 
	0x2e, 0x70, 0x58, 0xbe, 0xa4, 0x7c, 0x0d, 0x3e, 0x02, 0xd3, 0xe8, 0xbd, 
	0x06, 0x86, 0x31, 0xbd, 0x5f, 0x6d, 0xa4, 0x3e, 0x9f, 0x17, 0x00, 0x3e, 
	0x99, 0x0b, 0x62, 0xbe, 0x8e, 0x70, 0x50, 0xbd, 0x58, 0x50, 0x8a, 0xbe, 
	0x81, 0xc7, 0x62, 0x3c, 0xdb, 0x3c, 0xaf, 0xbe, 0xdb, 0xfc, 0x00, 0x3e, 
	0x0f, 0xff, 0xec, 0xbe, 0xfc, 0x92, 0x37, 0x3e, 0x5a, 0xea, 0x8a, 0xbe, 
	0x78, 0x86, 0x19, 0x3f, 0x0e, 0xd3, 0x76, 0x3d, 0xa4, 0x4e, 0xe6, 0x3e, 
	0xcf, 0x03, 0x33, 0xbe, 0x5d, 0x79, 0x13, 0xbf, 0x7a, 0x50, 0xdf, 0x3e, 
	0x37, 0x64, 0x7a, 0x3e, 0x50, 0x59, 0xbb, 0x3e, 0xdd, 0xc5, 0xd5, 0x3e, 
	0xcd, 0xcf, 0x15, 0xbf, 0x83, 0x21, 0x3b, 0xbe, 0x7d, 0x91, 0xf9, 0x3a, 
	0xef, 0x39, 0x66, 0xbe, 0x52, 0x22, 0xef, 0xbd, 0x07, 0x5d, 0xfd, 0xbd, 
	0x2e, 0x70, 0xad, 0x3e, 0x39, 0xb3, 0x52, 0x3d, 0xba, 0xd5, 0x2b, 0x3e, 
	0xb0, 0x22, 0xe7, 0x3d, 0x0b, 0xaf, 0xe6, 0xbd, 0x81, 0x08, 0x85, 0x3e, 
	0x22, 0x45, 0x9d, 0x3e, 0xd4, 0x1c, 0x38, 0xbd, 0x1a, 0x26, 0xdf, 0x3e, 
	0x38, 0xd0, 0xdd, 0x3e, 0x8a, 0x59, 0xad, 0x3e, 0x17, 0xa3, 0xd6, 0x3e, 
	0x71, 0x3a, 0x14, 0xbe, 0xcc, 0xb2, 0x46, 0x3d, 0x98, 0xdd, 0x10, 0xbf, 
	0x90, 0x2b, 0xe7, 0xbd, 0x93, 0x5e, 0xeb, 0xbd, 0xa8, 0x9b, 0x76, 0xbf, 
	0xa6, 0x85, 0xc3, 0xbe, 0x97, 0x93, 0x54, 0x3b, 0x15, 0xb3, 0xab, 0x3d, 
	0x3c, 0x7b, 0xe3, 0xbe, 0xa0, 0x06, 0x43, 0x3c, 0x11, 0xdb, 0x94, 0xbd, 
	0x85, 0xa8, 0xc5, 0xbe, 0x98, 0x71, 0xe5, 0x3d, 0xc2, 0xc3, 0x95, 0xbe, 
	0xc8, 0x7d, 0x2e, 0x3d, 0xbf, 0xf7, 0x58, 0xbe, 0x12, 0x2f, 0x60, 0xbe, 
	0x00, 0xe2, 0xbb, 0x3e, 0xb4, 0x9f, 0x96, 0x3e, 0x74, 0x22, 0x87, 0xbe, 
	0xeb, 0x4c, 0xe3, 0x3d, 0xa8, 0x45, 0xdf, 0x3d, 0xda, 0xb0, 0x1f, 0x3e, 
	0xde, 0x99, 0x27, 0xbe, 0x22, 0xc9, 0x96, 0x3e, 0x15, 0x64, 0x9f, 0x3e, 
	0xff, 0xff, 0x0b, 0xbe, 0x2e, 0xf8, 0xa6, 0xbe, 0x2d, 0x6b, 0xb3, 0xbd, 
	0x55, 0x5d, 0xdd, 0xbe, 0xac, 0x96, 0x1b, 0x3e, 0xa3, 0xbb, 0xa1, 0xbc, 
	0xc6, 0x99, 0x21, 0x3e, 0x52, 0x60, 0x0e, 0xbf, 0x57, 0xdd, 0x9b, 0x3e, 
	0x47, 0x2a, 0x49, 0x3e, 0x07, 0xd2, 0xb4, 0xbe, 0x52, 0xc9, 0xdf, 0xbd, 
	0x76, 0xd9, 0xd0, 0x3e, 0xb2, 0x2f, 0x28, 0x3d, 0x67, 0xb2, 0xbc, 0xbe, 
	0xd2, 0x8c, 0x98, 0x3d, 0x65, 0xcc, 0x3e, 0xbe, 0x1b, 0x93, 0x96, 0x3d, 
	0x40, 0xbd, 0x2b, 0x3e, 0xe7, 0x9e, 0xb2, 0xbe, 0x65, 0x92, 0x7c, 0xbe, 
	0xce, 0x0e, 0x41, 0x3e, 0x91, 0x88, 0xdd, 0x3e, 0x42, 0x79, 0xa9, 0x3e, 
	0x9d, 0xa3, 0x14, 0xbe, 0xb0, 0x21, 0x09, 0xbc, 0x48, 0xec, 0x39, 0x3d, 
	0xac, 0x1b, 0xca, 0x3d, 0xbd, 0xf8, 0x8d, 0x3e, 0x7b, 0x92, 0x66, 0x3e, 
	0xbe, 0x22, 0x33, 0x3e, 0xf0, 0x91, 0xb8, 0xbd, 0x55, 0xdf, 0x05, 0x3e, 
	0x14, 0x63, 0x2a, 0x39, 0xea, 0x79, 0xa5, 0x3e, 0xfa, 0xbe, 0x04, 0x3f, 
	0x8a, 0x4d, 0x02, 0x3f, 0xaa, 0xb8, 0x65, 0x3e, 0x85, 0xfc, 0x0f, 0xbe, 
	0x6e, 0xa6, 0x44, 0xbf, 0x5a, 0x2e, 0x20, 0xbd, 0xf8, 0xbf, 0xb0, 0xbd, 
	0x1b, 0xc2, 0xc3, 0xbe, 0xea, 0xe8, 0xff, 0xff, 0x10, 0x00, 0x00, 0x00, 
	0x07, 0x00, 0x00, 0x00, 0x14, 0x00, 0x00, 0x00, 0x30, 0x00, 0x00, 0x00, 
	0x02, 0x00, 0x00, 0x00, 0x10, 0x00, 0x00, 0x00, 0x20, 0x00, 0x00, 0x00, 
	0x1a, 0x00, 0x00, 0x00, 0x6d, 0x6f, 0x64, 0x65, 0x6c, 0x5f, 0x31, 0x34, 
	0x35, 0x2f, 0x64, 0x65, 0x6e, 0x73, 0x65, 0x5f, 0x31, 0x34, 0x32, 0x2f, 
	0x4d, 0x61, 0x74, 0x4d, 0x75, 0x6c, 0x00, 0x00, 0xe8, 0xe8, 0xff, 0xff, 
	0x16, 0xea, 0xff, 0xff, 0x04, 0x00, 0x00, 0x00, 0x00, 0x14, 0x00, 0x00, 
	0xa1, 0x01, 0x29, 0xbe, 0x26, 0x64, 0x16, 0xbe, 0x4f, 0x38, 0x6e, 0xbd, 
	0xea, 0x06, 0x41, 0x3c, 0x7d, 0xd1, 0x74, 0x3e, 0xd0, 0x7c, 0x13, 0xbc, 
	0xad, 0x1e, 0x17, 0xbe, 0x74, 0xd8, 0x83, 0x3e, 0x19, 0x1c, 0x5e, 0x3e, 
	0x6e, 0x2b, 0x66, 0x3e, 0xa0, 0x11, 0xa5, 0x3e, 0xbf, 0x15, 0x01, 0x3c, 
	0x5c, 0x49, 0x3e, 0xbe, 0x17, 0x3f, 0xe4, 0x3e, 0x4a, 0x08, 0x05, 0xbd, 
	0xea, 0x84, 0x75, 0xbd, 0xaf, 0xe0, 0xbc, 0x3d, 0x4d, 0x1f, 0x1b, 0x3e, 
	0x3a, 0x46, 0x4b, 0x3e, 0x37, 0x0b, 0xd3, 0x3e, 0x1f, 0x4c, 0xd8, 0x3d, 
	0x9e, 0x24, 0xf3, 0x3e, 0x5d, 0xcf, 0x93, 0xbe, 0xe2, 0x66, 0xf7, 0x3e, 
	0xa5, 0x19, 0x4e, 0xbe, 0x17, 0x5a, 0x18, 0x3e, 0xaa, 0xd2, 0x3b, 0xbe, 
	0x1c, 0x75, 0xc2, 0x3e, 0xd7, 0x7e, 0xf3, 0xbd, 0xdf, 0x0b, 0xa7, 0x3e, 
	0x48, 0x6c, 0x43, 0xbd, 0xf3, 0x87, 0x36, 0x3b, 0x7a, 0x60, 0x87, 0xbe, 
	0xcb, 0x8e, 0x11, 0x3d, 0x4e, 0x2e, 0xb7, 0xbd, 0xa9, 0x7e, 0x49, 0x3c, 
	0x4b, 0x76, 0xa7, 0xbe, 0xd9, 0xa5, 0x9c, 0x3d, 0x8b, 0xc1, 0x7c, 0xbe, 
	0x31, 0x12, 0xcf, 0x3e, 0xa2, 0x20, 0xe9, 0x3d, 0xf8, 0xcc, 0x90, 0x3e, 
	0x34, 0xca, 0x2a, 0x3e, 0xd9, 0xfb, 0x1d, 0xbd, 0xd6, 0x5a, 0x45, 0xbe, 
	0x9c, 0x15, 0xa0, 0x3d, 0x5a, 0x92, 0x94, 0xbb, 0x19, 0x9c, 0xb3, 0xbc, 
	0x0c, 0x8f, 0x7b, 0xbe, 0x1a, 0x4d, 0xd8, 0x3c, 0xf3, 0x43, 0x54, 0x3e, 
	0x8f, 0x99, 0x2e, 0x3e, 0xb3, 0x32, 0x09, 0xbd, 0xd7, 0xdd, 0x69, 0x3d, 
	0x8d, 0x88, 0x7c, 0xbe, 0x9d, 0xdc, 0xab, 0x3e, 0x47, 0xf3, 0xda, 0xbe, 
	0xbb, 0xae, 0x95, 0x3e, 0x5a, 0x4b, 0xab, 0xbe, 0xde, 0xc1, 0x6d, 0x3c, 
	0x9d, 0x01, 0x82, 0xbe, 0x2c, 0x9e, 0x73, 0x3d, 0x4f, 0x86, 0xa0, 0xbe, 
	0x82, 0xfa, 0xf8, 0x3e, 0xca, 0xc9, 0xa3, 0xbe, 0xbc, 0x0d, 0x05, 0x3e, 
	0x7e, 0xb7, 0x8a, 0xbd, 0xba, 0x60, 0xc5, 0x3e, 0xb4, 0x97, 0x95, 0xbe, 
	0xfb, 0x37, 0x88, 0x3e, 0x24, 0x8f, 0xfb, 0xbe, 0x0d, 0x46, 0x81, 0x3e, 
	0x3a, 0xed, 0xf5, 0xbe, 0xeb, 0x1e, 0xbf, 0x3e, 0xc4, 0x48, 0x85, 0xbe, 
	0x2a, 0xec, 0xf4, 0x3e, 0x86, 0xe1, 0x24, 0xbf, 0x5e, 0xf1, 0xe8, 0x3e, 
	0x19, 0x92, 0x8b, 0xbe, 0x77, 0x02, 0x82, 0x3e, 0x03, 0xe2, 0x0d, 0x3e, 
	0x90, 0xf5, 0x47, 0xbe, 0x33, 0x66, 0xee, 0xbc, 0x01, 0x8c, 0xea, 0xbc, 
	0x71, 0x78, 0xe9, 0xbd, 0x75, 0x00, 0x0a, 0x3e, 0xa1, 0x96, 0xb6, 0xbc, 
	0x60, 0x85, 0x75, 0x3e, 0x96, 0x9f, 0x82, 0xbd, 0x3a, 0xf0, 0x04, 0xbd, 
	0x57, 0x36, 0x6a, 0xbd, 0x75, 0xd5, 0x76, 0x3e, 0xe4, 0x0b, 0x40, 0x3e, 
	0x78, 0x4b, 0x3b, 0x3e, 0x68, 0xef, 0x52, 0x3e, 0x3d, 0x29, 0x99, 0xbd, 
	0x8e, 0x08, 0xfa, 0x3c, 0xec, 0xe3, 0xac, 0x3d, 0x1e, 0x62, 0x2e, 0x3e, 
	0xab, 0x0b, 0x90, 0x3d, 0x92, 0x76, 0xbe, 0xbd, 0x3a, 0xe5, 0xc8, 0x3e, 
	0x80, 0xe0, 0x63, 0xbe, 0x9f, 0xbe, 0xd1, 0x3d, 0x5b, 0xa5, 0xb2, 0xbe, 
	0x4d, 0x68, 0xe0, 0x3e, 0x9a, 0x63, 0x8f, 0xbe, 0x64, 0x5c, 0xe2, 0x3e, 
	0x1b, 0x45, 0xd0, 0xbe, 0x75, 0x03, 0x17, 0xbc, 0x0b, 0x81, 0xdd, 0x3c, 
	0xc5, 0x76, 0xd0, 0x3e, 0xcf, 0x70, 0x28, 0xbc, 0x85, 0x7e, 0xd8, 0x3d, 
	0x2e, 0x2b, 0x07, 0x3d, 0x1c, 0x06, 0x66, 0x3e, 0x27, 0xaa, 0x9a, 0xbe, 
	0x24, 0xe0, 0xb9, 0x3e, 0x3f, 0x7a, 0x3a, 0xbd, 0x95, 0x67, 0xf7, 0x3e, 
	0x2b, 0x5b, 0x62, 0x3e, 0x3b, 0xe7, 0x80, 0xbe, 0xaa, 0xe0, 0x3b, 0x3d, 
	0x90, 0x29, 0x8f, 0xbe, 0x92, 0x27, 0x97, 0x3e, 0xff, 0xda, 0xb1, 0xbd, 
	0x1b, 0xdf, 0x84, 0x3e, 0xeb, 0xf6, 0xc8, 0x3d, 0x88, 0x43, 0xe2, 0x3d, 
	0xf5, 0x36, 0x9a, 0xbd, 0xa2, 0xfb, 0x84, 0x3e, 0x24, 0xff, 0x81, 0xbe, 
	0xc9, 0x32, 0x02, 0x3f, 0x7c, 0x99, 0x9a, 0x3b, 0x00, 0x66, 0xd2, 0x3c, 
	0x72, 0xed, 0x8e, 0xbe, 0x37, 0x2b, 0x74, 0x3e, 0x91, 0x61, 0xcf, 0xbe, 
	0x29, 0xc9, 0xb0, 0x3e, 0x3e, 0x87, 0xef, 0xbe, 0x15, 0x9b, 0x24, 0x3e, 
	0xaa, 0x9b, 0xae, 0xbe, 0x99, 0xda, 0xc6, 0x3e, 0xf2, 0xde, 0x52, 0xbe, 
	0x3b, 0x78, 0xc4, 0x3e, 0xbf, 0xb4, 0x3d, 0xbe, 0x02, 0xa4, 0x88, 0x3e, 
	0xe8, 0x73, 0xc3, 0xbe, 0xfd, 0x82, 0x44, 0x3e, 0x63, 0xb0, 0xf2, 0xbd, 
	0x0d, 0xeb, 0x09, 0x3f, 0x77, 0x8c, 0xb2, 0xbe, 0x1a, 0x57, 0x2c, 0x3e, 
	0xd8, 0x77, 0x16, 0xbf, 0x38, 0xbd, 0xab, 0x3e, 0x46, 0xdd, 0x90, 0xbe, 
	0x59, 0x4d, 0x1e, 0x3f, 0xe7, 0x24, 0x23, 0xbe, 0xde, 0x71, 0xbf, 0x3e, 
	0x3b, 0xbc, 0x75, 0xbe, 0x71, 0xd0, 0x3e, 0x3e, 0x2f, 0x5b, 0x54, 0x3d, 
	0xbb, 0xd2, 0x21, 0x3e, 0x6b, 0xc9, 0x19, 0x3e, 0x32, 0x2f, 0x7f, 0x3e, 
	0xce, 0x38, 0x08, 0xbe, 0x98, 0xbf, 0x88, 0x3e, 0xeb, 0xb4, 0xb1, 0x3e, 
	0xf3, 0x59, 0x06, 0x3e, 0x9a, 0x70, 0xf4, 0xba, 0xac, 0xc6, 0x82, 0xbe, 
	0x13, 0xd1, 0x2d, 0xbd, 0xa1, 0xd3, 0x3b, 0xbe, 0x5b, 0xa0, 0x90, 0x3e, 
	0xc6, 0xef, 0x21, 0xbe, 0xfc, 0xa5, 0x02, 0xbd, 0x16, 0x62, 0xc0, 0xbe, 
	0x22, 0x55, 0xab, 0xbd, 0xd8, 0x1f, 0x45, 0x3e, 0x46, 0xed, 0xd9, 0xbb, 
	0x09, 0xec, 0x92, 0xbe, 0x6c, 0x6b, 0xc3, 0x3e, 0x74, 0x4a, 0xd6, 0x3b, 
	0x9b, 0x2e, 0xe1, 0x3c, 0x6f, 0x1b, 0xc7, 0xbe, 0xb7, 0x52, 0x7c, 0x3e, 
	0xb1, 0x84, 0x61, 0x3d, 0x8f, 0x11, 0x9e, 0x3d, 0xe6, 0x7a, 0x93, 0xbe, 
	0x9d, 0xc7, 0x1c, 0x3e, 0xdf, 0x71, 0x3f, 0xbe, 0xa3, 0x6d, 0xac, 0x3d, 
	0xcb, 0xaa, 0xae, 0xbe, 0xc5, 0xf2, 0xc8, 0x3e, 0xb6, 0x88, 0xec, 0xbc, 
	0xa3, 0xe0, 0xd9, 0x3e, 0x70, 0xf5, 0xa5, 0x3c, 0xff, 0x7d, 0xf2, 0x3e, 
	0x89, 0xaa, 0xf6, 0xbc, 0x1e, 0x9b, 0x26, 0x3e, 0xeb, 0x09, 0x26, 0x3e, 
	0xe1, 0xe5, 0x20, 0xbe, 0xb8, 0x21, 0x3f, 0xbe, 0xba, 0xe6, 0xad, 0x3d, 
	0x1e, 0xc2, 0x88, 0xbd, 0x23, 0x3d, 0x40, 0xbd, 0xe4, 0xd8, 0x05, 0xbe, 
	0x5d, 0xbd, 0x8c, 0xbe, 0x64, 0xa5, 0x71, 0xbe, 0xc3, 0xc4, 0xa7, 0x3d, 
	0x92, 0x1d, 0x9d, 0xbe, 0x0b, 0xb5, 0xe2, 0xbd, 0x10, 0x05, 0x53, 0x3e, 
	0x27, 0xb7, 0x8e, 0xbc, 0x2b, 0x0c, 0x22, 0xbc, 0x53, 0x44, 0x32, 0x3d, 
	0x4d, 0xd4, 0x0d, 0xbe, 0x98, 0xd6, 0x13, 0x3d, 0x68, 0x6c, 0xc0, 0x3d, 
	0x8c, 0xce, 0xba, 0xbd, 0xfc, 0xb1, 0x82, 0x3e, 0x44, 0x5e, 0x1f, 0x3e, 
	0x4d, 0xd8, 0xe2, 0x3d, 0x41, 0xac, 0x55, 0xbd, 0x5c, 0xd1, 0x2f, 0xbe, 
	0xd9, 0x8a, 0x13, 0xbe, 0x34, 0xa7, 0x2b, 0xbe, 0x43, 0x87, 0xe1, 0x3d, 
	0xdd, 0x31, 0x91, 0xbe, 0xdf, 0xbd, 0xc2, 0x3d, 0x54, 0xec, 0x87, 0x3d, 
	0x37, 0xa8, 0x4c, 0xbe, 0x3f, 0xba, 0x9e, 0xbb, 0x53, 0x1a, 0xf2, 0x3d, 
	0xdf, 0x03, 0x45, 0xbe, 0x04, 0x82, 0x2c, 0x3d, 0xa6, 0x78, 0x86, 0x3e, 
	0x65, 0x99, 0xb2, 0xbc, 0x3c, 0x66, 0x2e, 0x3e, 0x0e, 0x88, 0x67, 0x3e, 
	0x37, 0x5f, 0x96, 0xbd, 0x17, 0xc9, 0xa7, 0xbd, 0x35, 0x2d, 0x2e, 0x3d, 
	0x82, 0x05, 0x0a, 0xbc, 0xd1, 0xfa, 0x3d, 0xbe, 0xe2, 0xe0, 0x32, 0xbe, 
	0xec, 0x63, 0x90, 0x3e, 0xf2, 0x12, 0x19, 0xbd, 0xd9, 0xf4, 0x38, 0x3e, 
	0xa5, 0xe6, 0x8d, 0xbc, 0xfd, 0x8c, 0x93, 0xbd, 0x23, 0xbb, 0x10, 0xbe, 
	0xb7, 0x88, 0x53, 0x3e, 0xe5, 0x2c, 0x30, 0xbe, 0x88, 0x68, 0x19, 0xbe, 
	0x6f, 0xa5, 0xa3, 0x3e, 0x96, 0xc5, 0x91, 0xbd, 0xdc, 0xef, 0xc5, 0x3e, 
	0x54, 0x8a, 0x52, 0xbe, 0x0d, 0xb8, 0x90, 0x3e, 0x60, 0xb4, 0x80, 0xbe, 
	0x22, 0x41, 0x05, 0x3d, 0xf5, 0xa4, 0x7b, 0xbe, 0x2e, 0x9d, 0xa0, 0x3e, 
	0x42, 0xaa, 0xc0, 0xbd, 0xd3, 0x21, 0x48, 0x3d, 0xb2, 0x24, 0xe7, 0xbd, 
	0xdf, 0xa4, 0xa8, 0x3e, 0x3e, 0xb4, 0xdd, 0xbe, 0x87, 0x4a, 0xd5, 0x3e, 
	0x77, 0x16, 0xbb, 0xbd, 0x60, 0x6e, 0x9f, 0x3e, 0xc6, 0x1d, 0x50, 0xbe, 
	0x55, 0x83, 0xaf, 0x3e, 0x4d, 0x65, 0x27, 0xbe, 0x62, 0xe3, 0x22, 0x3e, 
	0x61, 0xf6, 0xfa, 0xbe, 0x71, 0xfa, 0xf6, 0x3e, 0xa8, 0x16, 0xa8, 0x3c, 
	0xae, 0x08, 0x99, 0x3e, 0x9a, 0x6e, 0x7c, 0x3e, 0xe7, 0x59, 0x04, 0x3d, 
	0x13, 0x2b, 0xb5, 0x3e, 0xa7, 0xe7, 0xbb, 0xbd, 0xaa, 0x0f, 0x4a, 0xbc, 
	0xea, 0x90, 0x28, 0x3a, 0x8c, 0x86, 0x5d, 0xbe, 0x68, 0x5d, 0xe7, 0x3d, 
	0x01, 0x71, 0xe8, 0x3d, 0x3d, 0x33, 0x84, 0x3e, 0x25, 0xe3, 0x77, 0x3d, 
	0x2a, 0x73, 0xa0, 0x3e, 0x57, 0x2a, 0x84, 0xbe, 0x1f, 0x8e, 0x05, 0x3e, 
	0xfe, 0x6e, 0x7c, 0x3e, 0xf6, 0x1d, 0x0c, 0x3e, 0xb2, 0x54, 0x56, 0xbb, 
	0xcd, 0xd4, 0x3d, 0x3c, 0x37, 0x59, 0xc4, 0x3d, 0xda, 0x0e, 0xb8, 0x3e, 
	0x4e, 0x01, 0x13, 0xbe, 0xaf, 0xa3, 0xe2, 0x3d, 0xab, 0xfa, 0x5a, 0xbe, 
	0xfc, 0x28, 0x84, 0x3e, 0xb7, 0xe6, 0xa3, 0xbe, 0xbe, 0x95, 0xc8, 0x3d, 
	0xae, 0x55, 0x34, 0xbd, 0x6d, 0xfe, 0x79, 0xbd, 0x37, 0x9a, 0x4e, 0xbc, 
	0x3b, 0x50, 0x85, 0x3e, 0xbf, 0xaf, 0xd8, 0xbe, 0x74, 0x87, 0x42, 0xbd, 
	0xc9, 0x58, 0x92, 0x3d, 0x31, 0x1e, 0x83, 0xbc, 0x39, 0x97, 0xf5, 0xbd, 
	0xf5, 0x5e, 0x1b, 0xbc, 0xeb, 0x9d, 0x65, 0xbc, 0x0d, 0xb5, 0xf5, 0x3e, 
	0x78, 0xbd, 0x9b, 0xbe, 0x7f, 0xaf, 0x01, 0x3f, 0x92, 0xd3, 0xbb, 0x3c, 
	0xcc, 0x1d, 0x79, 0xbe, 0xa2, 0xca, 0x97, 0x3e, 0xd5, 0x94, 0x88, 0xbe, 
	0x94, 0x8f, 0xb8, 0x3e, 0xde, 0xa0, 0xcf, 0x3c, 0x74, 0x18, 0x31, 0x3e, 
	0x7a, 0xcb, 0x16, 0x3e, 0xe4, 0x96, 0x46, 0x3e, 0x09, 0x7c, 0x41, 0x3d, 
	0xd1, 0x18, 0xa0, 0x3e, 0x6c, 0x03, 0x49, 0xbe, 0xc4, 0xf2, 0xea, 0x3e, 
	0xb2, 0x31, 0xa1, 0xbc, 0xeb, 0xe3, 0xbd, 0x3d, 0x59, 0x52, 0xb4, 0xbe, 
	0x5c, 0xfa, 0xb3, 0x3d, 0x56, 0x4a, 0x01, 0xbd, 0xab, 0x53, 0x54, 0x3e, 
	0x4c, 0xc9, 0xe6, 0xbe, 0x1c, 0x85, 0x51, 0x3d, 0x4f, 0x0d, 0x40, 0xbe, 
	0xe8, 0xaf, 0xe6, 0x3e, 0xbe, 0x3e, 0xf0, 0xbe, 0x84, 0xd6, 0xf1, 0x3e, 
	0xb0, 0xd7, 0x91, 0xbe, 0x91, 0x9c, 0xba, 0x3e, 0x56, 0xea, 0x98, 0xbe, 
	0xb6, 0xf6, 0x08, 0x3f, 0x6e, 0xb6, 0xae, 0xbe, 0x75, 0xb9, 0x6f, 0x3c, 
	0x0f, 0xd7, 0x02, 0xbf, 0x4e, 0xf4, 0x1d, 0x3f, 0x98, 0x43, 0xff, 0xbe, 
	0xfb, 0x8e, 0x8e, 0x3e, 0xe8, 0x5b, 0xe9, 0xbe, 0x32, 0x8d, 0x00, 0x3f, 
	0x00, 0xcd, 0x16, 0xbf, 0x77, 0xbe, 0xc6, 0x3e, 0x3a, 0xad, 0x70, 0xbe, 
	0x28, 0x8f, 0x0b, 0xbe, 0xa8, 0x0a, 0x3e, 0x3e, 0xcb, 0x7c, 0x86, 0xbe, 
	0x91, 0x5e, 0x23, 0xbe, 0x0e, 0x92, 0x84, 0xbe, 0x8a, 0x98, 0x56, 0xbe, 
	0x58, 0xdd, 0x3b, 0x3d, 0x84, 0xfd, 0x90, 0xbe, 0x28, 0xce, 0xb3, 0x3d, 
	0xf6, 0x6e, 0xfe, 0xbd, 0x66, 0x65, 0x67, 0xbe, 0x7a, 0x5b, 0xfe, 0xbd, 
	0x8a, 0x7b, 0x90, 0xbe, 0x2e, 0x65, 0xf8, 0xbd, 0x25, 0xe0, 0x20, 0xbe, 
	0xa8, 0x87, 0x14, 0xbe, 0x9c, 0x33, 0xc3, 0x3d, 0x38, 0x7a, 0x1d, 0x3e, 
	0x00, 0x58, 0x8a, 0x3e, 0xe4, 0x61, 0x0e, 0x3e, 0x84, 0x5b, 0xa4, 0x3d, 
	0x62, 0x67, 0x47, 0x3e, 0xac, 0xad, 0xa7, 0x3d, 0xc4, 0x74, 0x5e, 0xbe, 
	0x6c, 0x7c, 0x82, 0x3e, 0xcc, 0x54, 0x2d, 0xbe, 0xee, 0x42, 0x10, 0xbe, 
	0x4a, 0x97, 0xec, 0xbd, 0x1a, 0x22, 0x1c, 0x3e, 0x65, 0xf1, 0x0c, 0xbe, 
	0x0a, 0xb9, 0x12, 0x3e, 0x94, 0x90, 0x22, 0x3e, 0x80, 0xd1, 0x11, 0x3e, 
	0x24, 0x6d, 0xb4, 0x3d, 0x9f, 0x42, 0x8b, 0xbe, 0xe7, 0x77, 0x0e, 0xbe, 
	0x04, 0xcd, 0x48, 0x3e, 0x62, 0x3b, 0x0c, 0x3e, 0x7a, 0xaf, 0x96, 0xbd, 
	0x72, 0xa9, 0x29, 0xbe, 0xa7, 0xab, 0x81, 0x3e, 0xf4, 0xea, 0x6c, 0xbe, 
	0x04, 0x6d, 0x99, 0xbe, 0x6e, 0x32, 0xa4, 0x3d, 0xea, 0xdb, 0x0e, 0xbd, 
	0x12, 0x3b, 0xe1, 0xbd, 0xbd, 0x46, 0xee, 0x3d, 0xb4, 0xf9, 0xd8, 0xbd, 
	0xa3, 0x97, 0x84, 0x3e, 0x95, 0xb7, 0xba, 0xbd, 0x14, 0x7e, 0x97, 0x3d, 
	0xea, 0x1b, 0x09, 0xbe, 0x73, 0xf8, 0x7a, 0xbe, 0x7b, 0x4b, 0xe9, 0xbd, 
	0xf9, 0xdf, 0x16, 0xbe, 0x8c, 0x58, 0xc4, 0x3d, 0x1a, 0x48, 0x7e, 0xbe, 
	0x49, 0x41, 0x2c, 0xbe, 0xac, 0x70, 0x3b, 0xbe, 0xd9, 0xdb, 0x72, 0x3e, 
	0x73, 0x62, 0x7a, 0x3d, 0xc2, 0x8b, 0x0c, 0xbe, 0x9f, 0xe6, 0x75, 0x3e, 
	0x3f, 0x02, 0x6c, 0xbe, 0xcc, 0xe5, 0x18, 0x3e, 0xe6, 0x5e, 0x08, 0x3e, 
	0x5e, 0xf7, 0x8c, 0x3d, 0xbf, 0xf4, 0x4f, 0xbe, 0xc4, 0x0b, 0x84, 0x3d, 
	0x70, 0x6d, 0x94, 0x3d, 0x6d, 0x61, 0xc3, 0xbd, 0xa2, 0xb8, 0x8e, 0xbe, 
	0xaf, 0xc6, 0xf3, 0x3d, 0xd9, 0xbd, 0x7b, 0xbe, 0x88, 0x79, 0xa3, 0x3d, 
	0x34, 0x40, 0xd7, 0x3d, 0xa3, 0x83, 0x61, 0x3e, 0x4a, 0x4d, 0x80, 0x3e, 
	0x98, 0x80, 0x9e, 0xbe, 0xc8, 0x6e, 0x2e, 0xbd, 0xd8, 0x28, 0x65, 0xbe, 
	0xfc, 0x3b, 0x48, 0x3e, 0x7f, 0x15, 0xf6, 0xbd, 0x1a, 0x49, 0x1c, 0xbe, 
	0xa8, 0x45, 0x22, 0xbd, 0xe7, 0xd7, 0x82, 0x3e, 0x21, 0xdd, 0x61, 0x3d, 
	0xb8, 0x53, 0x75, 0xbe, 0x50, 0xc1, 0x24, 0xbe, 0xe0, 0xd1, 0x46, 0xbd, 
	0x8f, 0x1a, 0x6b, 0xbe, 0x5c, 0xe7, 0x8c, 0xbe, 0x3b, 0x90, 0xab, 0x3d, 
	0xe7, 0xed, 0x76, 0xbe, 0x96, 0x7a, 0x82, 0x3e, 0xdf, 0x61, 0xbb, 0x3d, 
	0x22, 0xa3, 0x34, 0xbd, 0xee, 0xe4, 0x54, 0x3e, 0x84, 0x7a, 0x55, 0xbe, 
	0xd0, 0x68, 0x38, 0x3c, 0x80, 0xd7, 0xd0, 0x3d, 0xaa, 0xd2, 0xe6, 0x3d, 
	0x22, 0x62, 0x2d, 0x3d, 0xf9, 0xe1, 0x91, 0xbe, 0x3e, 0x69, 0x1a, 0x3e, 
	0xbe, 0xf3, 0x77, 0x3d, 0x09, 0x08, 0x90, 0xbe, 0x57, 0xb6, 0xd5, 0x3d, 
	0xf3, 0x2d, 0xb9, 0x3d, 0xbc, 0x75, 0x63, 0x3e, 0x3b, 0x26, 0x47, 0xbe, 
	0x28, 0x24, 0xcc, 0xbc, 0x10, 0xba, 0x54, 0x3c, 0xdd, 0x09, 0x71, 0x3d, 
	0xe5, 0x99, 0x22, 0xbe, 0xe0, 0x0c, 0x6a, 0xbe, 0xce, 0xc3, 0xa1, 0xbd, 
	0x2e, 0x3e, 0xe6, 0xbd, 0x3a, 0x87, 0xea, 0xbc, 0xde, 0x22, 0x79, 0x3e, 
	0x21, 0x3f, 0xee, 0xbd, 0xa3, 0x76, 0x6d, 0x3d, 0x8a, 0xb4, 0x8c, 0xbd, 
	0x1f, 0x3a, 0x57, 0x3e, 0x25, 0xd3, 0xa3, 0xbc, 0xe5, 0x93, 0xbd, 0xbd, 
	0xd1, 0x22, 0x89, 0x3c, 0xd3, 0xf9, 0x93, 0xbd, 0xfb, 0x49, 0xd5, 0x3d, 
	0x77, 0x55, 0x93, 0x3e, 0xc8, 0xdd, 0xe9, 0x3c, 0x0f, 0xd0, 0x26, 0x3e, 
	0xb3, 0x73, 0x2a, 0xbe, 0x0d, 0xb4, 0xd7, 0x3c, 0xbc, 0x21, 0xfb, 0x3c, 
	0x02, 0x25, 0x91, 0x3e, 0xc7, 0x4f, 0xb8, 0xbe, 0x04, 0xd0, 0x8b, 0x3d, 
	0x0e, 0x03, 0x35, 0x3d, 0x44, 0x1b, 0x28, 0x3d, 0xc7, 0xa3, 0x12, 0xbe, 
	0xeb, 0xcf, 0x8f, 0x3e, 0x2b, 0x9c, 0x5b, 0x3e, 0xbc, 0x5a, 0xc8, 0x3e, 
	0x12, 0xe3, 0xb5, 0xbe, 0x7c, 0x49, 0x42, 0x3e, 0xb2, 0x7f, 0x27, 0x3d, 
	0xf7, 0x23, 0x71, 0x3c, 0xe6, 0x00, 0x88, 0xbd, 0x10, 0x3f, 0xea, 0x3e, 
	0x42, 0xc1, 0xa2, 0xbd, 0x80, 0x71, 0x87, 0xbd, 0xbf, 0xf8, 0x17, 0xbe, 
	0x39, 0x4b, 0x48, 0x3e, 0xf8, 0xee, 0xc4, 0xbe, 0xb5, 0xbf, 0x32, 0x3e, 
	0x5f, 0x2b, 0x1a, 0xbe, 0x0f, 0x12, 0x30, 0x3e, 0x30, 0xdc, 0x1e, 0xbe, 
	0xb9, 0x4e, 0x08, 0x3f, 0xf6, 0x29, 0x8e, 0x3d, 0xbe, 0x66, 0xbd, 0x3e, 
	0x71, 0x50, 0xfc, 0xbd, 0xf4, 0xe4, 0xb8, 0x3b, 0x22, 0x84, 0x5d, 0xbe, 
	0xf0, 0x74, 0x8f, 0x3e, 0xad, 0x84, 0xcc, 0x3d, 0xf1, 0x11, 0x22, 0xbe, 
	0x5c, 0xf1, 0x0c, 0x3b, 0x69, 0xeb, 0xbb, 0x3e, 0x3f, 0xcd, 0x9a, 0x3e, 
	0x90, 0x32, 0x9c, 0x3e, 0x92, 0xa5, 0x87, 0xbe, 0x22, 0x6c, 0x86, 0x3e, 
	0xe0, 0x44, 0x9d, 0x3e, 0xd5, 0x1d, 0x4b, 0x3e, 0xf2, 0xdd, 0x99, 0xbe, 
	0x7b, 0x1c, 0xbf, 0xbd, 0xc9, 0x39, 0xfd, 0x3c, 0x85, 0x81, 0xbd, 0xbd, 
	0x35, 0x3b, 0x1f, 0x3e, 0xad, 0xfe, 0xd7, 0xbb, 0xd4, 0xc3, 0x91, 0xbe, 
	0xbe, 0x71, 0x12, 0x3e, 0x17, 0x98, 0x81, 0x3b, 0x92, 0x29, 0x32, 0x3e, 
	0xa9, 0xda, 0xbc, 0xbe, 0x33, 0xe1, 0xcb, 0x3e, 0xa4, 0x4a, 0x13, 0xbe, 
	0x60, 0x2b, 0xc2, 0x3e, 0x46, 0xbb, 0x88, 0x3d, 0x7a, 0xa6, 0x06, 0x3f, 
	0xe9, 0x14, 0xf6, 0xbe, 0x9e, 0x6c, 0xd4, 0x3e, 0x4b, 0xf5, 0x82, 0xbd, 
	0x7a, 0x77, 0xc8, 0x3e, 0xdf, 0x83, 0x57, 0x3d, 0xb5, 0x38, 0xcd, 0x3e, 
	0x6f, 0x0c, 0x94, 0x3c, 0xaf, 0x88, 0xfd, 0x3d, 0x62, 0x0b, 0x1a, 0xbd, 
	0x4d, 0x93, 0x43, 0xbe, 0x81, 0xca, 0xf6, 0x3d, 0x5c, 0x18, 0x9f, 0xbd, 
	0x39, 0x65, 0x7d, 0xbe, 0x00, 0x1c, 0xd1, 0x3d, 0x6f, 0x4e, 0x7e, 0x3e, 
	0xb9, 0x08, 0xa0, 0xbd, 0x15, 0xa7, 0x0b, 0xbe, 0x4e, 0xf1, 0x58, 0x3e, 
	0x8d, 0x69, 0x68, 0x3d, 0xee, 0x83, 0x7d, 0x3e, 0x3a, 0xd9, 0xdf, 0x3c, 
	0x7d, 0x34, 0x22, 0x3e, 0x84, 0x62, 0x47, 0x3e, 0x24, 0x59, 0x87, 0x3e, 
	0x37, 0xef, 0xa5, 0xbe, 0x1f, 0x75, 0x79, 0x3e, 0xc8, 0x11, 0xb4, 0xbe, 
	0xa0, 0xba, 0xab, 0x3e, 0xa8, 0xc3, 0x49, 0x3d, 0x3e, 0x64, 0x92, 0x3e, 
	0xea, 0x14, 0xd5, 0x3c, 0x5d, 0x08, 0xbb, 0x3e, 0xb4, 0x45, 0xd2, 0x3c, 
	0xce, 0x05, 0xcc, 0x3e, 0x4c, 0xfb, 0x94, 0xbd, 0xaa, 0x57, 0x83, 0x3e, 
	0xd0, 0x39, 0x7d, 0xbe, 0xfc, 0x3f, 0x8b, 0x3e, 0xf0, 0xa2, 0xb8, 0xbe, 
	0xa5, 0x83, 0xb6, 0xbd, 0x9b, 0xd7, 0x59, 0x3d, 0x04, 0x85, 0x84, 0x3e, 
	0xe2, 0xd6, 0x92, 0x3d, 0x47, 0xd1, 0xdd, 0x3e, 0x00, 0xa5, 0x89, 0xbe, 
	0x86, 0xc1, 0x8c, 0x3e, 0xc9, 0xba, 0x46, 0xbe, 0xa6, 0x46, 0x3f, 0x3d, 
	0x19, 0xba, 0xc9, 0x3c, 0x63, 0x8a, 0xcf, 0x3c, 0x16, 0xc5, 0x32, 0xbe, 
	0x5d, 0x97, 0x82, 0x3e, 0x4d, 0x4b, 0x1f, 0x3e, 0x14, 0x07, 0x57, 0x3e, 
	0x7e, 0x8f, 0x53, 0x3e, 0xf1, 0x78, 0xf6, 0x3d, 0x7d, 0x26, 0x11, 0x3e, 
	0x8b, 0xd9, 0xb4, 0x3d, 0x3d, 0x32, 0xa3, 0xbd, 0x30, 0x94, 0xd0, 0xbd, 
	0xb6, 0x78, 0xfe, 0x3d, 0x2b, 0x31, 0xa6, 0x3d, 0x6c, 0xd6, 0xb1, 0x3c, 
	0xf8, 0x69, 0xbf, 0x3e, 0x9d, 0xcf, 0xf2, 0xbd, 0x52, 0xd9, 0x92, 0x3e, 
	0x01, 0x5a, 0xc7, 0x3b, 0x22, 0x18, 0xcc, 0xbc, 0xbb, 0xd7, 0x40, 0xbe, 
	0xfc, 0x55, 0xf4, 0x3d, 0x1c, 0x70, 0x94, 0xbe, 0x21, 0xb9, 0x7d, 0x3e, 
	0x2f, 0x9e, 0xba, 0xbd, 0xaa, 0x96, 0xe9, 0x3e, 0xc4, 0x1b, 0xbb, 0xbe, 
	0x4d, 0xb2, 0x83, 0x3d, 0x22, 0xe4, 0x89, 0x3b, 0x6a, 0x91, 0x79, 0x3e, 
	0xfc, 0x26, 0x9d, 0x3c, 0x52, 0x8f, 0xc1, 0x3e, 0x9b, 0xaa, 0x36, 0xbe, 
	0xc6, 0xbb, 0xee, 0x3e, 0xcf, 0x1f, 0xdc, 0xbe, 0x71, 0xde, 0x31, 0x3e, 
	0x06, 0xab, 0x98, 0x3c, 0x2b, 0x69, 0xea, 0x3e, 0x81, 0xfc, 0xe9, 0xbe, 
	0xac, 0x43, 0x89, 0x3e, 0xd8, 0x4b, 0xa9, 0xbd, 0xa8, 0xaf, 0x71, 0x3d, 
	0x56, 0x55, 0xfc, 0xbd, 0x36, 0x5f, 0xcb, 0xbd, 0x3a, 0x0b, 0x3c, 0x3e, 
	0xfa, 0x26, 0x36, 0xbe, 0x4c, 0x6a, 0xd3, 0x3d, 0x20, 0xf0, 0xe1, 0xbc, 
	0xf8, 0xb7, 0x3f, 0x3d, 0x98, 0x42, 0x64, 0xbe, 0xc8, 0x16, 0x0f, 0xbe, 
	0x81, 0x21, 0x7e, 0xbe, 0xe5, 0x05, 0x2a, 0xbe, 0xa0, 0xd4, 0xfd, 0x3c, 
	0xb4, 0x68, 0xd1, 0xbd, 0xac, 0x62, 0xd3, 0x3d, 0xbf, 0x2d, 0x24, 0xbe, 
	0x68, 0x21, 0xa3, 0xbd, 0x21, 0x69, 0x16, 0xbe, 0x86, 0xe5, 0x8b, 0xbe, 
	0x60, 0xce, 0x3d, 0xbe, 0x82, 0x6c, 0x8e, 0x3e, 0x08, 0x24, 0x0d, 0xbd, 
	0xc2, 0xba, 0x38, 0x3e, 0xc0, 0xb5, 0xd7, 0xbd, 0x08, 0xe1, 0xac, 0x3d, 
	0xd8, 0xe4, 0x5f, 0x3e, 0x03, 0xe1, 0x08, 0xbe, 0xac, 0x65, 0xf9, 0x3d, 
	0x25, 0x37, 0x09, 0xbe, 0x90, 0x2d, 0x6a, 0xbe, 0xf0, 0xcd, 0x41, 0x3d, 
	0xde, 0xd7, 0x8c, 0xbe, 0x70, 0x0a, 0xf3, 0xbd, 0x38, 0x7e, 0x87, 0xbe, 
	0x78, 0x02, 0x87, 0xbe, 0x60, 0x36, 0xd9, 0xbd, 0xf8, 0x88, 0x3c, 0xbd, 
	0xe2, 0x9d, 0x78, 0xbe, 0xc0, 0xca, 0xb7, 0x3c, 0x1a, 0x62, 0x09, 0xbe, 
	0x20, 0xc8, 0xad, 0x3d, 0x50, 0xf3, 0x96, 0xbd, 0x96, 0x4c, 0x44, 0x3e, 
	0x64, 0x84, 0x12, 0x3e, 0x4c, 0x39, 0x40, 0xbd, 0xfa, 0x06, 0xc5, 0xbd, 
	0x83, 0x20, 0x89, 0xbe, 0x04, 0xf4, 0x3f, 0xbd, 0x98, 0x98, 0x0f, 0xbe, 
	0xfa, 0x91, 0xe2, 0xbd, 0x9a, 0x21, 0x20, 0xbe, 0x82, 0x65, 0xfc, 0xbd, 
	0x62, 0x8a, 0x1b, 0x3e, 0x60, 0x64, 0xc1, 0x3c, 0xe7, 0xbf, 0x6c, 0xbe, 
	0xcc, 0x8f, 0x7e, 0xbe, 0x38, 0x25, 0x73, 0xbd, 0x56, 0x0e, 0xbf, 0xbd, 
	0x38, 0xcf, 0x42, 0x3d, 0xc6, 0xca, 0xf7, 0xbd, 0xfe, 0xd4, 0x39, 0x3e, 
	0xb2, 0x8e, 0xe6, 0xbd, 0xeb, 0x8d, 0x13, 0xbe, 0xf0, 0x9b, 0xa4, 0x3c, 
	0x90, 0x33, 0xb4, 0xbc, 0xe1, 0xc4, 0x80, 0xbe, 0x74, 0x9e, 0x3b, 0xbe, 
	0x04, 0x17, 0x38, 0xbd, 0x94, 0x82, 0x80, 0x3d, 0x30, 0xf1, 0xb5, 0xbd, 
	0xb6, 0x32, 0x2a, 0x3e, 0x78, 0xac, 0x33, 0xbe, 0x40, 0xf8, 0x8d, 0x3b, 
	0x38, 0xc7, 0x8a, 0x3d, 0xb0, 0xb3, 0x1d, 0x3e, 0x10, 0x2d, 0x0c, 0x3e, 
	0x6c, 0xd1, 0x06, 0x3e, 0x46, 0x47, 0x1f, 0xbe, 0xa0, 0x52, 0x50, 0x3d, 
	0x38, 0xa6, 0x4e, 0xbd, 0x54, 0x17, 0x28, 0x3d, 0x60, 0x26, 0xb4, 0x3d, 
	0x8f, 0xc4, 0x88, 0x3e, 0xe4, 0x2f, 0x40, 0xbe, 0x6c, 0x63, 0x40, 0x3e, 
	0x0c, 0x36, 0x87, 0xbe, 0x3a, 0x38, 0x18, 0xbe, 0x4a, 0x94, 0x0b, 0x3d, 
	0xbe, 0xf8, 0x14, 0xbe, 0x33, 0xf7, 0x4b, 0xbe, 0xd2, 0x52, 0xe2, 0xbd, 
	0xd5, 0x7b, 0xb2, 0x3c, 0x88, 0x96, 0x84, 0xbe, 0x6e, 0xfa, 0x91, 0xbe, 
	0x2c, 0x0a, 0xf8, 0x3d, 0xc1, 0x25, 0x20, 0x3c, 0xce, 0x7b, 0x0e, 0x3e, 
	0xa0, 0x4f, 0x58, 0xbe, 0x09, 0x56, 0xe6, 0xbd, 0x2c, 0x5f, 0x43, 0x3e, 
	0xd7, 0x44, 0xf5, 0x3c, 0xb6, 0x63, 0xaf, 0x3d, 0xf3, 0xb0, 0xcd, 0xbd, 
	0x06, 0xe2, 0xfa, 0xbd, 0x6d, 0xf4, 0x5a, 0x3e, 0x9a, 0x80, 0x5f, 0xbe, 
	0xc6, 0x7d, 0x1c, 0x3e, 0x5d, 0x2d, 0x6d, 0xbe, 0xae, 0x2e, 0x22, 0x3e, 
	0x7e, 0x34, 0xa6, 0x3c, 0xcf, 0xf2, 0xb7, 0xbd, 0x5e, 0x47, 0x4f, 0x3e, 
	0xba, 0xae, 0x57, 0xbe, 0x1c, 0xe3, 0x97, 0xbd, 0x5f, 0x29, 0x80, 0x3e, 
	0x53, 0xef, 0x85, 0xbe, 0x32, 0x2c, 0x88, 0xbe, 0x63, 0x4f, 0x0b, 0xbe, 
	0xf7, 0x91, 0xad, 0xbc, 0x51, 0x9d, 0x37, 0x3e, 0xad, 0x11, 0x72, 0xbe, 
	0x0f, 0xa5, 0x47, 0x3e, 0xd0, 0x05, 0xb9, 0x3d, 0xe1, 0x9e, 0x38, 0x3d, 
	0x53, 0x6a, 0x22, 0x3e, 0x9d, 0x42, 0x8a, 0xbe, 0xee, 0x79, 0x94, 0xbe, 
	0x01, 0xd6, 0x38, 0x3d, 0x19, 0x8c, 0xc4, 0xbd, 0xcb, 0xc4, 0x55, 0xbe, 
	0x7d, 0x94, 0x68, 0x3e, 0x6f, 0x34, 0x2a, 0xbe, 0xb9, 0x87, 0x83, 0x3e, 
	0xde, 0xcd, 0xd4, 0xbc, 0x4d, 0xbe, 0x37, 0x3d, 0x91, 0x42, 0x78, 0xbe, 
	0xfa, 0x19, 0x4d, 0xbe, 0x9b, 0x58, 0x8b, 0x3e, 0x79, 0x30, 0x0a, 0xbe, 
	0x0a, 0xa8, 0xd6, 0x3c, 0x24, 0xa8, 0x14, 0x3e, 0xe7, 0xe1, 0x80, 0x3e, 
	0xd1, 0x90, 0x7a, 0x3e, 0x94, 0xeb, 0x07, 0xba, 0xd9, 0x4c, 0x00, 0xbe, 
	0x3b, 0x7c, 0x29, 0xbd, 0x34, 0xc9, 0x32, 0x3e, 0x46, 0xb3, 0x7f, 0xbe, 
	0x4f, 0x52, 0x2e, 0xbe, 0xdf, 0x63, 0xa5, 0x3d, 0xaf, 0x3c, 0x3e, 0x3e, 
	0x4f, 0xd6, 0x94, 0xbe, 0x6d, 0x46, 0xd9, 0xbd, 0xbb, 0xcd, 0x8e, 0xbe, 
	0xd7, 0x6c, 0x89, 0xbe, 0x82, 0xbe, 0x1c, 0xbe, 0x20, 0xc0, 0x28, 0x3d, 
	0x28, 0x1c, 0x85, 0xbe, 0x4f, 0x1e, 0x89, 0x3d, 0x80, 0x55, 0x80, 0x3e, 
	0xaf, 0x37, 0x76, 0x3d, 0xd7, 0x82, 0x4a, 0x3e, 0x8c, 0xe2, 0xb4, 0xbd, 
	0x08, 0xb0, 0x13, 0xbe, 0x21, 0x85, 0xca, 0x3d, 0x19, 0x82, 0xd2, 0x3c, 
	0xb9, 0x5d, 0x63, 0xbe, 0xeb, 0xb0, 0x2f, 0x3e, 0x5a, 0x5f, 0x09, 0xbe, 
	0x22, 0xd0, 0x06, 0x3e, 0x50, 0xcb, 0x56, 0xbe, 0x0f, 0xf0, 0xe1, 0x3d, 
	0x6d, 0x4e, 0x8f, 0x3e, 0xe6, 0x76, 0x5b, 0xbe, 0x96, 0x38, 0x5c, 0x3e, 
	0xf3, 0x02, 0x03, 0x3e, 0x15, 0x72, 0xae, 0x3d, 0x4f, 0xa6, 0x24, 0x3e, 
	0xba, 0x75, 0x65, 0xbe, 0x76, 0x66, 0x8d, 0xbe, 0x42, 0x5d, 0x8c, 0x3e, 
	0x52, 0x3e, 0xa9, 0x3c, 0xca, 0x96, 0xf7, 0xbd, 0x0c, 0x72, 0x87, 0x3e, 
	0x6d, 0x20, 0x11, 0x3e, 0xf0, 0x43, 0x81, 0xbe, 0xf9, 0x41, 0x59, 0xbe, 
	0xf2, 0x11, 0x84, 0xbe, 0x06, 0xe8, 0x88, 0xbe, 0xc2, 0x97, 0x40, 0xbe, 
	0x70, 0xc9, 0xd1, 0x3c, 0xf4, 0x80, 0xca, 0xbd, 0x78, 0x84, 0x96, 0xbe, 
	0xce, 0xc0, 0x5b, 0x3e, 0xa8, 0x31, 0x81, 0xbd, 0x5e, 0x44, 0x82, 0xbe, 
	0x6b, 0x52, 0xf5, 0xbd, 0x8a, 0x36, 0x70, 0xbe, 0x68, 0x0c, 0x66, 0x3e, 
	0x4e, 0x11, 0x42, 0x3d, 0x79, 0xa9, 0x2c, 0x3e, 0xfe, 0x0f, 0x2d, 0xbe, 
	0xd6, 0x95, 0xae, 0xbd, 0xfa, 0xff, 0x94, 0x3d, 0x90, 0xa0, 0x2e, 0xbe, 
	0x01, 0x32, 0x3e, 0x3e, 0x33, 0xa9, 0x86, 0x3d, 0xfb, 0xdb, 0x1a, 0x3e, 
	0xce, 0x28, 0x5b, 0x3d, 0x52, 0xda, 0xd5, 0x3d, 0x18, 0xf9, 0x6e, 0x3e, 
	0x66, 0x81, 0xf3, 0xbb, 0x0b, 0x01, 0x8c, 0x3d, 0xc9, 0x84, 0xfe, 0x3c, 
	0xe9, 0x07, 0x00, 0x3e, 0xb4, 0x93, 0x92, 0xbe, 0x15, 0xfe, 0x74, 0x3d, 
	0x94, 0x81, 0x13, 0xbe, 0x93, 0xa5, 0xa9, 0xbe, 0xc6, 0x96, 0x5d, 0xbe, 
	0x1c, 0xff, 0x80, 0xbe, 0xc7, 0xeb, 0xa4, 0x3d, 0x14, 0x08, 0x5b, 0x3e, 
	0x87, 0xbc, 0x99, 0xbe, 0xdf, 0x59, 0x8b, 0x3d, 0x52, 0x58, 0x6d, 0x3e, 
	0xf3, 0x67, 0x80, 0xbe, 0xda, 0x4b, 0x26, 0x3d, 0xa7, 0xe7, 0xa2, 0x3d, 
	0x48, 0x53, 0x7b, 0xbe, 0x36, 0x00, 0x39, 0x3e, 0xe9, 0xdb, 0x42, 0xbe, 
	0x76, 0x3d, 0x76, 0xbe, 0x42, 0xea, 0xf9, 0xbd, 0x70, 0x31, 0x41, 0xbe, 
	0x7d, 0x36, 0x98, 0xbe, 0x3b, 0x40, 0x5c, 0x3e, 0xac, 0x05, 0x5a, 0xbe, 
	0x50, 0x2d, 0x68, 0x3e, 0x75, 0xa5, 0xde, 0x3c, 0x44, 0x84, 0x7e, 0x3b, 
	0xca, 0xa8, 0x90, 0x3d, 0x9c, 0x6e, 0xa7, 0x3e, 0xa7, 0xd4, 0x34, 0x3e, 
	0x1f, 0x32, 0x6e, 0x3a, 0xc1, 0xd6, 0x32, 0x3c, 0xf8, 0x1a, 0xb7, 0x3e, 
	0x98, 0x2a, 0xa0, 0xbe, 0x55, 0x83, 0x0e, 0x3c, 0x73, 0x79, 0x17, 0x3e, 
	0x05, 0x10, 0xab, 0x3d, 0x0d, 0xf4, 0x0c, 0xbe, 0x59, 0x49, 0x0b, 0x3e, 
	0xe7, 0x74, 0x4a, 0xbe, 0x0a, 0x4a, 0x31, 0x3e, 0x43, 0xa0, 0x2f, 0xbe, 
	0xc1, 0x2f, 0xe4, 0x3e, 0xd0, 0xaf, 0x50, 0xbe, 0x8d, 0xd4, 0xd0, 0x3e, 
	0x37, 0x5b, 0x8a, 0xbe, 0x4b, 0xd5, 0xbd, 0x3e, 0xb5, 0x17, 0xe5, 0xbd, 
	0xc8, 0xd5, 0x15, 0x3e, 0x1c, 0x10, 0xb7, 0xbe, 0x26, 0x18, 0x95, 0x3e, 
	0x0c, 0x39, 0x44, 0xbe, 0x04, 0x9a, 0x21, 0x3d, 0x02, 0x90, 0x8a, 0xbe, 
	0x9a, 0xe4, 0x8d, 0x3e, 0x38, 0x3d, 0x8b, 0x3d, 0xb3, 0xda, 0x7e, 0x3e, 
	0xff, 0xc1, 0xcf, 0xbe, 0xe1, 0xe4, 0xb4, 0x3e, 0xbc, 0xc3, 0xa8, 0xbe, 
	0x17, 0x78, 0xda, 0x3e, 0x8f, 0xc1, 0x1b, 0xbe, 0x57, 0xfb, 0xd2, 0x3e, 
	0x0d, 0xd9, 0xf4, 0xbc, 0x1b, 0x20, 0x64, 0x3e, 0x3b, 0xb4, 0x28, 0x3e, 
	0x0f, 0x2f, 0x88, 0x3e, 0x8f, 0x02, 0x9e, 0xbd, 0x4a, 0xd8, 0x38, 0xbd, 
	0xc8, 0x9a, 0xf5, 0x3d, 0x5f, 0xe5, 0x9e, 0xbd, 0x60, 0xb9, 0x41, 0x3d, 
	0xd6, 0x2f, 0x15, 0xbe, 0xfd, 0xaf, 0x34, 0x3e, 0x5d, 0x0b, 0x16, 0xbe, 
	0x09, 0x23, 0x07, 0xbd, 0xf8, 0x0c, 0x8d, 0x3c, 0xd1, 0x29, 0x6a, 0xbe, 
	0xe9, 0xb4, 0x84, 0x3e, 0x30, 0xc2, 0x3a, 0x3e, 0x98, 0xc4, 0x9f, 0x3e, 
	0x15, 0x20, 0x8f, 0x3d, 0x8c, 0x66, 0xab, 0x3e, 0x62, 0xcb, 0x42, 0x3d, 
	0xe4, 0xce, 0xc1, 0x3c, 0x72, 0x95, 0x3e, 0x3d, 0xb6, 0xf4, 0x9d, 0xbc, 
	0xc4, 0x03, 0xad, 0xbd, 0x74, 0x71, 0xa4, 0x3e, 0x78, 0xd6, 0x85, 0xbe, 
	0xb7, 0xf7, 0x56, 0x3e, 0xbc, 0xb6, 0x74, 0xbe, 0x19, 0x53, 0x86, 0xbc, 
	0xba, 0x49, 0x0e, 0xbe, 0xd9, 0x08, 0x17, 0x3d, 0x62, 0xe9, 0xb7, 0xbe, 
	0xae, 0xb7, 0xdd, 0x3c, 0xc2, 0x49, 0xd0, 0xbd, 0x70, 0x2c, 0xb4, 0x3e, 
	0x2f, 0xe0, 0x8b, 0xbd, 0x3e, 0x3f, 0xd5, 0x3e, 0xc3, 0x07, 0xac, 0xbe, 
	0x21, 0x43, 0xf3, 0x3e, 0xe9, 0x84, 0x7a, 0xbe, 0xe4, 0xb9, 0x05, 0x3d, 
	0xe3, 0x5c, 0x22, 0xbe, 0x7b, 0x6f, 0x00, 0x3e, 0xfd, 0xe4, 0x8d, 0x3e, 
	0x5e, 0x2b, 0x54, 0x3e, 0x17, 0x92, 0x2d, 0xbe, 0x1e, 0x6e, 0x77, 0x3b, 
	0x00, 0x48, 0x00, 0x3e, 0xe3, 0x0e, 0x41, 0x3e, 0x54, 0x64, 0xbf, 0xbe, 
	0x03, 0xc3, 0xbb, 0xbb, 0x56, 0xa9, 0x9f, 0x3e, 0x9f, 0x37, 0xaf, 0x3e, 
	0x5a, 0x42, 0x99, 0xbe, 0x46, 0xdb, 0xe1, 0xbd, 0xb7, 0x67, 0x24, 0xbe, 
	0x73, 0x24, 0x11, 0x3e, 0xcb, 0x0c, 0x65, 0xbe, 0xe5, 0x4e, 0xa5, 0x3e, 
	0x8a, 0xb5, 0x97, 0xbe, 0x4d, 0x36, 0x09, 0x3e, 0x58, 0x5e, 0x67, 0xbe, 
	0x68, 0xa9, 0xce, 0x3e, 0x3e, 0x96, 0x9d, 0xbe, 0xf8, 0x2d, 0xdc, 0xbd, 
	0x46, 0x65, 0x9e, 0xbe, 0xd5, 0x7a, 0x7d, 0x3d, 0x1d, 0xf2, 0x89, 0xbb, 
	0x29, 0xf5, 0xec, 0x3d, 0xad, 0xc4, 0xda, 0xbe, 0x4e, 0x88, 0x7e, 0x3e, 
	0x5b, 0x57, 0x8c, 0xbc, 0xd6, 0x92, 0xff, 0x3e, 0xc3, 0x2d, 0xcd, 0xbd, 
	0xbc, 0x83, 0xeb, 0x3e, 0xcf, 0x71, 0x94, 0xbe, 0x86, 0xb3, 0x02, 0x3f, 
	0x49, 0x2c, 0x12, 0xbe, 0xd2, 0x95, 0xec, 0x3e, 0x08, 0x9c, 0xd8, 0xbe, 
	0x85, 0x02, 0xbc, 0x3d, 0x9d, 0xe2, 0x05, 0xbe, 0x1c, 0x55, 0xd0, 0xbd, 
	0x28, 0x0a, 0x7c, 0x3e, 0x5b, 0xfc, 0x91, 0x3e, 0xbe, 0xf3, 0x96, 0xbe, 
	0x0b, 0x90, 0xbe, 0x3e, 0x22, 0x2a, 0x6a, 0x3e, 0x90, 0x54, 0x65, 0xbd, 
	0x01, 0xd9, 0xa1, 0xbe, 0x86, 0xe1, 0xc6, 0xbd, 0x6d, 0x19, 0x6d, 0xbd, 
	0x6d, 0x86, 0x9b, 0x3e, 0x27, 0x43, 0x43, 0xbe, 0x83, 0x85, 0x3f, 0x3e, 
	0x29, 0x35, 0x71, 0x3e, 0x3a, 0x8c, 0xa2, 0x3e, 0x88, 0x0b, 0xcf, 0xbb, 
	0xab, 0x6a, 0xa8, 0x3e, 0x09, 0x0f, 0x1d, 0xbb, 0xf6, 0x77, 0xc1, 0xbc, 
	0xcf, 0xd9, 0x88, 0xbe, 0xa5, 0xeb, 0xb1, 0x3e, 0x00, 0x99, 0x4e, 0xbd, 
	0xf1, 0x80, 0x1d, 0x3e, 0x7e, 0x79, 0xca, 0xbe, 0xb8, 0x8f, 0x03, 0x3e, 
	0x21, 0xdf, 0xc1, 0xbe, 0xe0, 0x83, 0xb8, 0x3e, 0x4c, 0x33, 0xf7, 0xbd, 
	0x2e, 0xef, 0x6a, 0xbd, 0xba, 0x4c, 0xb3, 0x3c, 0x93, 0x74, 0xb6, 0x3e, 
	0x0a, 0x60, 0x1b, 0x3d, 0x17, 0xcd, 0x39, 0x3c, 0xa4, 0xe4, 0xef, 0xbe, 
	0xa5, 0xfe, 0xf8, 0x3e, 0x52, 0x2f, 0x03, 0xbf, 0x85, 0xda, 0x9a, 0x3e, 
	0x43, 0x3c, 0xc6, 0xbe, 0xba, 0x14, 0x42, 0x3d, 0x20, 0xac, 0xf3, 0xbd, 
	0xfe, 0x03, 0x41, 0xbe, 0x69, 0x96, 0x8d, 0x3e, 0x4d, 0xea, 0x82, 0x3e, 
	0x0d, 0xd7, 0x81, 0xbe, 0x11, 0x54, 0x6b, 0x3e, 0x7c, 0x2d, 0x24, 0x3e, 
	0x3b, 0x41, 0x00, 0x3e, 0x57, 0xce, 0x2a, 0x3d, 0xec, 0x03, 0x42, 0x3e, 
	0x16, 0x36, 0x4f, 0xbe, 0x61, 0x12, 0xe4, 0xbd, 0x0d, 0xe1, 0x2e, 0xbd, 
	0xd9, 0x3e, 0x0a, 0x3e, 0xd8, 0xf1, 0x58, 0x3d, 0x22, 0x9f, 0xb6, 0x3e, 
	0x6b, 0xee, 0xfb, 0x3d, 0x4d, 0xb2, 0xa5, 0x3e, 0xb4, 0x8c, 0x74, 0xbd, 
	0x55, 0x1b, 0x69, 0x3e, 0x49, 0xcb, 0x04, 0xbe, 0x9f, 0xfb, 0xe6, 0xbd, 
	0x47, 0x7f, 0x59, 0xbe, 0xe1, 0x1d, 0x2d, 0x3e, 0x14, 0xf6, 0xd5, 0xbd, 
	0x2a, 0xc8, 0xa7, 0x3d, 0x26, 0x28, 0x52, 0xbe, 0x28, 0xac, 0x26, 0xbd, 
	0x18, 0x3f, 0xab, 0xbe, 0xe4, 0x0d, 0x8d, 0x3d, 0x10, 0x4a, 0xb7, 0x3d, 
	0x24, 0x5e, 0x12, 0x3e, 0xe6, 0x8a, 0x7d, 0xbe, 0x34, 0x36, 0xa1, 0x3e, 
	0x64, 0xf2, 0x5e, 0xbe, 0xce, 0xd9, 0x71, 0x3d, 0xe3, 0x9c, 0x1c, 0xbe, 
	0xd2, 0x69, 0xfb, 0x3e, 0xcf, 0x58, 0x7e, 0xbe, 0xc0, 0xd2, 0x52, 0x3e, 
	0x84, 0x06, 0xb2, 0x3d, 0xb1, 0x85, 0x77, 0x3e, 0x39, 0x43, 0x94, 0x3e, 
	0x4f, 0xe3, 0x45, 0xbe, 0xe1, 0x30, 0xec, 0xbd, 0xbf, 0x89, 0xaf, 0x3d, 
	0x82, 0x08, 0x5f, 0x3e, 0xc4, 0xd1, 0x50, 0x3e, 0xdf, 0xe3, 0xa7, 0xbc, 
	0xa6, 0x05, 0xb9, 0x3d, 0xea, 0x5e, 0x9c, 0x3c, 0x6f, 0xec, 0x90, 0x3e, 
	0x5d, 0xa9, 0x48, 0xbe, 0xb2, 0x17, 0x86, 0xbd, 0x2c, 0x00, 0x06, 0x3e, 
	0xad, 0x58, 0xa0, 0xbc, 0xb3, 0xaf, 0x19, 0x3e, 0x6d, 0x11, 0x9c, 0x3e, 
	0x7f, 0xb9, 0x9f, 0x3d, 0xa7, 0xe8, 0x5b, 0x3e, 0xdf, 0xb2, 0x65, 0xbd, 
	0x0f, 0xa2, 0xe7, 0x3e, 0xfb, 0x13, 0x96, 0xbd, 0xf2, 0x0f, 0xc1, 0xbc, 
	0x67, 0x74, 0xd6, 0x3d, 0x73, 0xb2, 0x31, 0x3e, 0xe0, 0xf3, 0x88, 0x3d, 
	0x70, 0x63, 0x44, 0xbd, 0xae, 0x73, 0x28, 0xbe, 0x75, 0xcd, 0xb9, 0x3e, 
	0x91, 0xe6, 0x87, 0xbe, 0x08, 0xd1, 0xa7, 0x3e, 0xe0, 0xf7, 0xd1, 0xbe, 
	0x63, 0x7f, 0xf0, 0x3e, 0x35, 0x06, 0xb6, 0xbe, 0x17, 0xeb, 0xf1, 0x3e, 
	0x45, 0x95, 0x0d, 0xbe, 0x01, 0x78, 0x02, 0x3f, 0x87, 0xdb, 0x90, 0xbe, 
	0x23, 0xfb, 0x83, 0x3e, 0x54, 0xef, 0x2d, 0x3e, 0xc6, 0xcb, 0x81, 0xbc, 
	0x77, 0x67, 0x02, 0x3e, 0x8f, 0xc7, 0x4f, 0xbe, 0xb7, 0xd9, 0xc3, 0x3e, 
	0x88, 0xf9, 0x81, 0x3d, 0xcd, 0xa9, 0x35, 0xbe, 0x34, 0x7c, 0x07, 0xbd, 
	0x2f, 0x86, 0xe6, 0x3e, 0x98, 0x7f, 0x88, 0xbe, 0xfa, 0xd7, 0x09, 0x3e, 
	0x71, 0x81, 0x91, 0xbd, 0xea, 0xcd, 0x91, 0x3e, 0x73, 0xf6, 0xb5, 0xbe, 
	0xde, 0xbe, 0xdd, 0x3e, 0x8f, 0xd0, 0xa1, 0xbe, 0x75, 0xe3, 0x09, 0x3e, 
	0xd9, 0x5f, 0x55, 0xbe, 0xc7, 0x29, 0x84, 0x3e, 0x55, 0x53, 0xbc, 0x3c, 
	0xe0, 0x23, 0x6c, 0x3e, 0xed, 0x51, 0x8e, 0xbe, 0xd0, 0xa0, 0xb7, 0x3e, 
	0x61, 0xdf, 0xb5, 0xbe, 0x58, 0x4a, 0xf0, 0x3e, 0xa9, 0xc1, 0xbe, 0xbe, 
	0x0b, 0x95, 0xac, 0x3d, 0xcb, 0xc0, 0xf0, 0xbe, 0x36, 0x53, 0x07, 0x3f, 
	0x0e, 0xf9, 0x8e, 0xbd, 0x63, 0x58, 0x69, 0x3e, 0x99, 0x64, 0xe7, 0xbe, 
	0x02, 0xa3, 0x76, 0x3e, 0x9b, 0x24, 0x85, 0xbe, 0x09, 0xf3, 0x11, 0x3f, 
	0x08, 0x00, 0xbd, 0xbe, 0x6c, 0x97, 0xc0, 0x3e, 0x44, 0x6d, 0xd6, 0xbe, 
	0x7e, 0xab, 0xaf, 0x3e, 0x27, 0x9f, 0xc3, 0xbe, 0x01, 0xb0, 0xe0, 0x3b, 
	0xec, 0xc0, 0x35, 0xbe, 0xb1, 0xf1, 0x51, 0x3d, 0xd0, 0xb9, 0x6c, 0x3e, 
	0xbf, 0xdd, 0x86, 0xbd, 0x29, 0xc9, 0x6c, 0xbe, 0xb7, 0x87, 0x5a, 0xbe, 
	0xca, 0x8c, 0xa6, 0xbe, 0x4b, 0xd4, 0x9d, 0xbe, 0x93, 0x8e, 0xa2, 0x3d, 
	0xed, 0x76, 0x63, 0xbe, 0xb3, 0x50, 0x3a, 0x3e, 0x44, 0x52, 0x60, 0x3e, 
	0x60, 0xdc, 0x89, 0x3b, 0x08, 0xf2, 0x03, 0x3e, 0x31, 0xaf, 0x09, 0x3e, 
	0x7f, 0xa7, 0xfc, 0x3d, 0x4e, 0x52, 0x96, 0xbe, 0x5a, 0x7e, 0xac, 0xbe, 
	0x7f, 0x12, 0x55, 0x3e, 0xf8, 0x42, 0x4f, 0xbe, 0xd9, 0x3a, 0xd1, 0x3d, 
	0x28, 0x66, 0x13, 0xbe, 0x7a, 0xa9, 0x9f, 0xbe, 0xf5, 0xe9, 0x2c, 0x3d, 
	0xd1, 0x47, 0x08, 0x3e, 0x58, 0x20, 0xb9, 0xbc, 0x48, 0xdb, 0x89, 0xbd, 
	0x84, 0xff, 0xdf, 0xba, 0x3a, 0xb7, 0x11, 0xbe, 0xe0, 0xfb, 0x51, 0xbe, 
	0xf8, 0x2d, 0x65, 0xbd, 0x89, 0xdb, 0x55, 0x3d, 0xec, 0x41, 0xc9, 0xbd, 
	0x34, 0x21, 0xb8, 0x3d, 0x1c, 0x15, 0x25, 0xbe, 0x17, 0x9d, 0x03, 0x3e, 
	0x93, 0x63, 0xc3, 0x3c, 0x4d, 0x59, 0x3a, 0x3e, 0x3f, 0x6c, 0x8c, 0x3d, 
	0x98, 0x73, 0x2e, 0xbe, 0x9c, 0x76, 0x9f, 0x3e, 0x1f, 0xb4, 0xb9, 0x3e, 
	0xc0, 0x86, 0x93, 0x3e, 0x68, 0x32, 0x93, 0xbd, 0x2b, 0x7c, 0xcf, 0x3e, 
	0xb1, 0xd6, 0xd1, 0x3d, 0x72, 0x17, 0x90, 0x3e, 0x49, 0xf9, 0x3a, 0xbd, 
	0x1e, 0x5b, 0xb8, 0x3e, 0xd2, 0x77, 0x82, 0x3c, 0x4d, 0xde, 0x90, 0x3e, 
	0xc0, 0x0c, 0x20, 0xbe, 0x83, 0x46, 0x6d, 0xbd, 0xd1, 0xa2, 0xd9, 0xbd, 
	0xec, 0x22, 0x18, 0x3e, 0x61, 0x49, 0x69, 0xbb, 0xb9, 0x44, 0x89, 0x3e, 
	0xfc, 0x95, 0x23, 0xbe, 0xfa, 0x0b, 0x0c, 0x3d, 0xc0, 0x15, 0xc2, 0xbe, 
	0x60, 0x22, 0xd1, 0x3d, 0x86, 0x29, 0x40, 0x3e, 0x92, 0xd9, 0x8a, 0x3d, 
	0xeb, 0x61, 0x74, 0xbd, 0xa6, 0x32, 0x32, 0x3e, 0x0a, 0xe1, 0xc9, 0x3d, 
	0x0b, 0x2d, 0xb8, 0x3e, 0x33, 0xfe, 0x50, 0x3c, 0x12, 0x08, 0x0c, 0x3f, 
	0x21, 0x47, 0x92, 0xbe, 0x72, 0x93, 0x0a, 0x3f, 0xef, 0x4c, 0x9d, 0xbe, 
	0xbc, 0xd9, 0x51, 0x3e, 0xdb, 0x81, 0x84, 0x3c, 0x59, 0xb9, 0x31, 0x3e, 
	0x53, 0xe6, 0xa7, 0xbe, 0x27, 0x48, 0x69, 0x3e, 0x45, 0x61, 0x41, 0xbe, 
	0xe7, 0x4a, 0x84, 0x3e, 0x54, 0x5d, 0xee, 0x3d, 0x26, 0x13, 0x92, 0x3d, 
	0x98, 0x3d, 0x2e, 0xbd, 0x82, 0x8c, 0x68, 0x3e, 0xf4, 0x42, 0x38, 0xbd, 
	0xf5, 0xd6, 0xdd, 0xbd, 0xf9, 0x01, 0x86, 0x3e, 0x35, 0x92, 0x90, 0xbe, 
	0x98, 0xc3, 0xac, 0x3e, 0x5d, 0x90, 0x0f, 0x3e, 0xd5, 0xfd, 0xb0, 0xbd, 
	0x75, 0x83, 0x02, 0x3e, 0x69, 0xe3, 0x38, 0x3c, 0xe5, 0xa7, 0xa4, 0x3d, 
	0xc1, 0x1c, 0x29, 0x3c, 0xfa, 0x25, 0xaa, 0xbe, 0x05, 0xd0, 0xe6, 0x3e, 
	0x82, 0x01, 0xc7, 0xbd, 0x58, 0x7c, 0x4b, 0x3e, 0x5c, 0x51, 0xbb, 0xbe, 
	0x49, 0x7a, 0x8d, 0x3e, 0xe1, 0x6b, 0xb5, 0xbe, 0xb8, 0x46, 0x33, 0x3e, 
	0x83, 0xe9, 0xdf, 0xbe, 0x1d, 0xb8, 0xd8, 0x3e, 0x23, 0x6b, 0xa9, 0xbd, 
	0x5e, 0xf6, 0xc1, 0x3e, 0xfd, 0x68, 0xd6, 0xbe, 0xca, 0x36, 0xd6, 0x3e, 
	0x84, 0x4a, 0x99, 0xbe, 0x97, 0x41, 0xe3, 0x3e, 0x93, 0xa9, 0xa1, 0xbe, 
	0xce, 0x49, 0xe2, 0x3e, 0x5e, 0x99, 0x10, 0xbe, 0xcf, 0x1d, 0xc9, 0x3e, 
	0xd4, 0x70, 0xcc, 0xbe, 0xe7, 0x6b, 0x94, 0x3e, 0x46, 0xd1, 0x02, 0xbf, 
	0xdf, 0x4d, 0xa5, 0x3d, 0xd4, 0x1b, 0x37, 0xbe, 0x3a, 0xfd, 0xff, 0xff, 
	0x10, 0x00, 0x00, 0x00, 0x06, 0x00, 0x00, 0x00, 0x14, 0x00, 0x00, 0x00, 
	0x30, 0x00, 0x00, 0x00, 0x02, 0x00, 0x00, 0x00, 0x20, 0x00, 0x00, 0x00, 
	0x28, 0x00, 0x00, 0x00, 0x1a, 0x00, 0x00, 0x00, 0x6d, 0x6f, 0x64, 0x65, 
	0x6c, 0x5f, 0x31, 0x34, 0x35, 0x2f, 0x64, 0x65, 0x6e, 0x73, 0x65, 0x5f, 
	0x31, 0x34, 0x31, 0x2f, 0x4d, 0x61, 0x74, 0x4d, 0x75, 0x6c, 0x00, 0x00, 
	0x38, 0xfd, 0xff, 0xff, 0x66, 0xfe, 0xff, 0xff, 0x04, 0x00, 0x00, 0x00, 
	0x04, 0x00, 0x00, 0x00, 0x5a, 0x0c, 0xb2, 0x3e, 0x8e, 0xfd, 0xff, 0xff, 
	0x10, 0x00, 0x00, 0x00, 0x05, 0x00, 0x00, 0x00, 0x10, 0x00, 0x00, 0x00, 
	0x3c, 0x00, 0x00, 0x00, 0x01, 0x00, 0x00, 0x00, 0x01, 0x00, 0x00, 0x00, 
	0x2a, 0x00, 0x00, 0x00, 0x6d, 0x6f, 0x64, 0x65, 0x6c, 0x5f, 0x31, 0x34, 
	0x35, 0x2f, 0x64, 0x65, 0x6e, 0x73, 0x65, 0x5f, 0x31, 0x34, 0x34, 0x2f, 
	0x42, 0x69, 0x61, 0x73, 0x41, 0x64, 0x64, 0x2f, 0x52, 0x65, 0x61, 0x64, 
	0x56, 0x61, 0x72, 0x69, 0x61, 0x62, 0x6c, 0x65, 0x4f, 0x70, 0x00, 0x00, 
	0x98, 0xfd, 0xff, 0xff, 0xc6, 0xfe, 0xff, 0xff, 0x04, 0x00, 0x00, 0x00, 
	0x40, 0x00, 0x00, 0x00, 0x78, 0xbc, 0x98, 0xbd, 0x24, 0x35, 0x01, 0x3f, 
	0x6e, 0x25, 0x25, 0xbd, 0xfe, 0x2f, 0x1e, 0x3f, 0x6b, 0x3b, 0x8d, 0x3f, 
	0x38, 0xfb, 0xda, 0x3e, 0xf9, 0x17, 0x8a, 0xbd, 0x85, 0x02, 0x7e, 0xbd, 
	0x2d, 0xff, 0xd8, 0x3e, 0x5e, 0x53, 0xdc, 0x3e, 0xbe, 0x2e, 0x13, 0xbd, 
	0xb8, 0x86, 0xca, 0xbc, 0x6f, 0x0e, 0x94, 0xbd, 0x6e, 0xc7, 0x08, 0x3f, 
	0x0f, 0x7a, 0x02, 0x3f, 0x43, 0x67, 0xea, 0x3e, 0x2a, 0xfe, 0xff, 0xff, 
	0x10, 0x00, 0x00, 0x00, 0x04, 0x00, 0x00, 0x00, 0x10, 0x00, 0x00, 0x00, 
	0x3c, 0x00, 0x00, 0x00, 0x01, 0x00, 0x00, 0x00, 0x10, 0x00, 0x00, 0x00, 
	0x2a, 0x00, 0x00, 0x00, 0x6d, 0x6f, 0x64, 0x65, 0x6c, 0x5f, 0x31, 0x34, 
	0x35, 0x2f, 0x64, 0x65, 0x6e, 0x73, 0x65, 0x5f, 0x31, 0x34, 0x33, 0x2f, 
	0x42, 0x69, 0x61, 0x73, 0x41, 0x64, 0x64, 0x2f, 0x52, 0x65, 0x61, 0x64, 
	0x56, 0x61, 0x72, 0x69, 0x61, 0x62, 0x6c, 0x65, 0x4f, 0x70, 0x00, 0x00, 
	0x34, 0xfe, 0xff, 0xff, 0x62, 0xff, 0xff, 0xff, 0x04, 0x00, 0x00, 0x00, 
	0x40, 0x00, 0x00, 0x00, 0xb7, 0x57, 0x60, 0x3f, 0x10, 0x09, 0x8d, 0xbd, 
	0xbf, 0xe5, 0x45, 0x3f, 0xfa, 0x72, 0x2c, 0x3f, 0xcc, 0x75, 0x42, 0xbd, 
	0x4d, 0x0f, 0x3a, 0x3f, 0x20, 0xbb, 0x47, 0x3f, 0xd4, 0x83, 0x84, 0xbd, 
	0xee, 0x6e, 0x15, 0x3f, 0x2c, 0x26, 0x39, 0x3f, 0x9e, 0x63, 0x39, 0x3f, 
	0x3e, 0xee, 0x3b, 0x3f, 0x66, 0x96, 0x0f, 0xbd, 0xf9, 0x9f, 0x1e, 0x3f, 
	0x0e, 0xfa, 0xdb, 0x3d, 0x29, 0x0f, 0x7b, 0x3f, 0xc6, 0xfe, 0xff, 0xff, 
	0x10, 0x00, 0x00, 0x00, 0x03, 0x00, 0x00, 0x00, 0x10, 0x00, 0x00, 0x00, 
	0x3c, 0x00, 0x00, 0x00, 0x01, 0x00, 0x00, 0x00, 0x10, 0x00, 0x00, 0x00, 
	0x2a, 0x00, 0x00, 0x00, 0x6d, 0x6f, 0x64, 0x65, 0x6c, 0x5f, 0x31, 0x34, 
	0x35, 0x2f, 0x64, 0x65, 0x6e, 0x73, 0x65, 0x5f, 0x31, 0x34, 0x32, 0x2f, 
	0x42, 0x69, 0x61, 0x73, 0x41, 0x64, 0x64, 0x2f, 0x52, 0x65, 0x61, 0x64, 
	0x56, 0x61, 0x72, 0x69, 0x61, 0x62, 0x6c, 0x65, 0x4f, 0x70, 0x00, 0x00, 
	0x1c, 0xff, 0xff, 0xff, 0x00, 0x00, 0x06, 0x00, 0x08, 0x00, 0x04, 0x00, 
	0x06, 0x00, 0x00, 0x00, 0x04, 0x00, 0x00, 0x00, 0x80, 0x00, 0x00, 0x00, 
	0xe6, 0xa3, 0x53, 0x3e, 0x3c, 0x92, 0x67, 0x3e, 0x73, 0xb5, 0x1f, 0x3e, 
	0x03, 0x2a, 0x46, 0xbc, 0x4a, 0x92, 0xff, 0x3d, 0x01, 0xfd, 0xaa, 0xbc, 
	0x9d, 0xc2, 0x02, 0x3e, 0xcd, 0xa9, 0x23, 0x3e, 0x6a, 0xe8, 0x03, 0x3d, 
	0x00, 0x00, 0x00, 0x00, 0xb6, 0x3a, 0xb9, 0xbc, 0xe7, 0xee, 0xd5, 0xbc, 
	0xca, 0xc5, 0x20, 0x3e, 0x3a, 0x98, 0x49, 0x3e, 0xa1, 0xca, 0xfa, 0x3d, 
	0xae, 0x0f, 0x16, 0x3e, 0x00, 0x00, 0x00, 0x00, 0x00, 0x00, 0x00, 0x00, 
	0x50, 0xed, 0xe0, 0xbb, 0x6f, 0x43, 0x74, 0xbc, 0x6a, 0x32, 0xaf, 0xbb, 
	0x17, 0xb1, 0x49, 0xbd, 0xcc, 0xe1, 0x42, 0x3e, 0x29, 0xed, 0x0c, 0x3e, 
	0xe3, 0xf5, 0x1d, 0x3e, 0x8a, 0x38, 0x15, 0x3e, 0x7e, 0x90, 0x0a, 0x3e, 
	0x14, 0x5e, 0x3d, 0x3e, 0x52, 0x33, 0x13, 0x3d, 0x99, 0xe3, 0x6e, 0xbd, 
	0x35, 0xf4, 0x5a, 0x3e, 0x48, 0x3c, 0x52, 0xbd, 0xaa, 0xff, 0xff, 0xff, 
	0x10, 0x00, 0x00, 0x00, 0x02, 0x00, 0x00, 0x00, 0x10, 0x00, 0x00, 0x00, 
	0x40, 0x00, 0x00, 0x00, 0x01, 0x00, 0x00, 0x00, 0x20, 0x00, 0x00, 0x00, 
	0x2a, 0x00, 0x00, 0x00, 0x6d, 0x6f, 0x64, 0x65, 0x6c, 0x5f, 0x31, 0x34, 
	0x35, 0x2f, 0x64, 0x65, 0x6e, 0x73, 0x65, 0x5f, 0x31, 0x34, 0x31, 0x2f, 
	0x42, 0x69, 0x61, 0x73, 0x41, 0x64, 0x64, 0x2f, 0x52, 0x65, 0x61, 0x64, 
	0x56, 0x61, 0x72, 0x69, 0x61, 0x62, 0x6c, 0x65, 0x4f, 0x70, 0x00, 0x00, 
	0x04, 0x00, 0x06, 0x00, 0x04, 0x00, 0x00, 0x00, 0x00, 0x00, 0x0e, 0x00, 
	0x14, 0x00, 0x04, 0x00, 0x00, 0x00, 0x08, 0x00, 0x0c, 0x00, 0x10, 0x00, 
	0x0e, 0x00, 0x00, 0x00, 0x10, 0x00, 0x00, 0x00, 0x01, 0x00, 0x00, 0x00, 
	0x14, 0x00, 0x00, 0x00, 0x20, 0x00, 0x00, 0x00, 0x02, 0x00, 0x00, 0x00, 
	0x01, 0x00, 0x00, 0x00, 0x28, 0x00, 0x00, 0x00, 0x09, 0x00, 0x00, 0x00, 
	0x69, 0x6e, 0x70, 0x75, 0x74, 0x5f, 0x31, 0x31, 0x30, 0x00, 0x00, 0x00, 
	0xfc, 0xff, 0xff, 0xff, 0x04, 0x00, 0x04, 0x00, 0x04, 0x00, 0x00, 0x00
};
const int pred2_16_seq10_len = 10284;